<unk>	0
<s>	0
</s>	0
<0x00>	0
<0x01>	0
<0x02>	0
<0x03>	0
<0x04>	0
<0x05>	0
<0x06>	0
<0x07>	0
<0x08>	0
<0x09>	0
<0x0A>	0
<0x0B>	0
<0x0C>	0
<0x0D>	0
<0x0E>	0
<0x0F>	0
<0x10>	0
<0x11>	0
<0x12>	0
<0x13>	0
<0x14>	0
<0x15>	0
<0x16>	0
<0x17>	0
<0x18>	0
<0x19>	0
<0x1A>	0
<0x1B>	0
<0x1C>	0
<0x1D>	0
<0x1E>	0
<0x1F>	0
<0x20>	0
<0x21>	0
<0x22>	0
<0x23>	0
<0x24>	0
<0x25>	0
<0x26>	0
<0x27>	0
<0x28>	0
<0x29>	0
<0x2A>	0
<0x2B>	0
<0x2C>	0
<0x2D>	0
<0x2E>	0
<0x2F>	0
<0x30>	0
<0x31>	0
<0x32>	0
<0x33>	0
<0x34>	0
<0x35>	0
<0x36>	0
<0x37>	0
<0x38>	0
<0x39>	0
<0x3A>	0
<0x3B>	0
<0x3C>	0
<0x3D>	0
<0x3E>	0
<0x3F>	0
<0x40>	0
<0x41>	0
<0x42>	0
<0x43>	0
<0x44>	0
<0x45>	0
<0x46>	0
<0x47>	0
<0x48>	0
<0x49>	0
<0x4A>	0
<0x4B>	0
<0x4C>	0
<0x4D>	0
<0x4E>	0
<0x4F>	0
<0x50>	0
<0x51>	0
<0x52>	0
<0x53>	0
<0x54>	0
<0x55>	0
<0x56>	0
<0x57>	0
<0x58>	0
<0x59>	0
<0x5A>	0
<0x5B>	0
<0x5C>	0
<0x5D>	0
<0x5E>	0
<0x5F>	0
<0x60>	0
<0x61>	0
<0x62>	0
<0x63>	0
<0x64>	0
<0x65>	0
<0x66>	0
<0x67>	0
<0x68>	0
<0x69>	0
<0x6A>	0
<0x6B>	0
<0x6C>	0
<0x6D>	0
<0x6E>	0
<0x6F>	0
<0x70>	0
<0x71>	0
<0x72>	0
<0x73>	0
<0x74>	0
<0x75>	0
<0x76>	0
<0x77>	0
<0x78>	0
<0x79>	0
<0x7A>	0
<0x7B>	0
<0x7C>	0
<0x7D>	0
<0x7E>	0
<0x7F>	0
<0x80>	0
<0x81>	0
<0x82>	0
<0x83>	0
<0x84>	0
<0x85>	0
<0x86>	0
<0x87>	0
<0x88>	0
<0x89>	0
<0x8A>	0
<0x8B>	0
<0x8C>	0
<0x8D>	0
<0x8E>	0
<0x8F>	0
<0x90>	0
<0x91>	0
<0x92>	0
<0x93>	0
<0x94>	0
<0x95>	0
<0x96>	0
<0x97>	0
<0x98>	0
<0x99>	0
<0x9A>	0
<0x9B>	0
<0x9C>	0
<0x9D>	0
<0x9E>	0
<0x9F>	0
<0xA0>	0
<0xA1>	0
<0xA2>	0
<0xA3>	0
<0xA4>	0
<0xA5>	0
<0xA6>	0
<0xA7>	0
<0xA8>	0
<0xA9>	0
<0xAA>	0
<0xAB>	0
<0xAC>	0
<0xAD>	0
<0xAE>	0
<0xAF>	0
<0xB0>	0
<0xB1>	0
<0xB2>	0
<0xB3>	0
<0xB4>	0
<0xB5>	0
<0xB6>	0
<0xB7>	0
<0xB8>	0
<0xB9>	0
<0xBA>	0
<0xBB>	0
<0xBC>	0
<0xBD>	0
<0xBE>	0
<0xBF>	0
<0xC0>	0
<0xC1>	0
<0xC2>	0
<0xC3>	0
<0xC4>	0
<0xC5>	0
<0xC6>	0
<0xC7>	0
<0xC8>	0
<0xC9>	0
<0xCA>	0
<0xCB>	0
<0xCC>	0
<0xCD>	0
<0xCE>	0
<0xCF>	0
<0xD0>	0
<0xD1>	0
<0xD2>	0
<0xD3>	0
<0xD4>	0
<0xD5>	0
<0xD6>	0
<0xD7>	0
<0xD8>	0
<0xD9>	0
<0xDA>	0
<0xDB>	0
<0xDC>	0
<0xDD>	0
<0xDE>	0
<0xDF>	0
<0xE0>	0
<0xE1>	0
<0xE2>	0
<0xE3>	0
<0xE4>	0
<0xE5>	0
<0xE6>	0
<0xE7>	0
<0xE8>	0
<0xE9>	0
<0xEA>	0
<0xEB>	0
<0xEC>	0
<0xED>	0
<0xEE>	0
<0xEF>	0
<0xF0>	0
<0xF1>	0
<0xF2>	0
<0xF3>	0
<0xF4>	0
<0xF5>	0
<0xF6>	0
<0xF7>	0
<0xF8>	0
<0xF9>	0
<0xFA>	0
<0xFB>	0
<0xFC>	0
<0xFD>	0
<0xFE>	0
<0xFF>	0
,	-2.87187
.	-3.14538
▁	-3.57511
▁в	-4.01929
▁и	-4.07508
1	-4.42061
-	-4.72579
0	-4.77741
▁на	-4.83264
▁the	-4.83754
2	-4.97504
▁с	-5.05776
▁не	-5.06589
9	-5.10797
▁-	-5.22066
▁"	-5.23805
а	-5.34483
▁что	-5.40236
▁of	-5.47084
▁(	-5.54464
е	-5.59016
▁and	-5.59696
3	-5.60292
▁по	-5.61811
5	-5.62566
▁В	-5.64509
:	-5.64765
8	-5.66697
4	-5.6793
s	-5.72053
"	-5.72391
▁in	-5.80756
▁to	-5.81579
6	-5.8286
7	-5.86031
▁к	-5.86999
▁из	-5.91302
▁a	-5.96355
▁как	-5.99227
и	-5.99665
▁от	-6.06821
)	-6.06995
у	-6.13074
▁за	-6.15157
▁—	-6.15952
▁а	-6.15976
м	-6.16168
▁«	-6.18866
▁его	-6.20393
▁для	-6.22487
▁о	-6.2804
;	-6.32628
ы	-6.34138
▁он	-6.34403
▁это	-6.46312
'	-6.48556
ом	-6.48784
▁was	-6.50751
й	-6.51644
▁у	-6.52211
▁года	-6.55712
х	-6.56701
▁или	-6.58826
▁но	-6.59781
▁был	-6.62944
▁до	-6.63655
▁же	-6.65076
▁я	-6.65732
о	-6.65813
▁при	-6.71166
▁все	-6.72097
▁то	-6.73489
▁The	-6.75636
▁было	-6.78284
?	-6.78508
▁И	-6.82734
▁А	-6.82824
»	-6.83056
▁for	-6.85407
".	-6.86286
ов	-6.86525
▁их	-6.87186
▁С	-6.88538
▁так	-6.8968
я	-6.89891
▁году	-6.90177
).	-6.92937
▁as	-6.94746
▁on	-6.96923
▁with	-6.97044
▁that	-6.97785
",	-6.98106
ой	-6.98968
▁только	-7.00517
▁is	-7.00649
то	-7.04367
▁под	-7.09907
▁by	-7.09933
▁время	-7.10474
!	-7.12222
▁бы	-7.1378
),	-7.14554
▁мы	-7.15395
▁они	-7.15667
▁были	-7.17195
ми	-7.19494
▁Но	-7.20575
▁вы	-7.21205
▁чтобы	-7.2351
▁во	-7.24071
▁На	-7.24225
▁уже	-7.29202
...	-7.29472
▁также	-7.29767
▁когда	-7.3111
▁была	-7.31605
/	-7.32411
ю	-7.34016
▁his	-7.34509
▁г	-7.3526
▁которые	-7.35906
го	-7.35912
▁со	-7.35951
ся	-7.37323
▁at	-7.37438
▁того	-7.37535
▁from	-7.3799
▁ее	-7.38308
▁Я	-7.39656
▁По	-7.39669
ами	-7.40385
▁может	-7.40636
ные	-7.42237
▁этом	-7.43047
ный	-7.43073
▁том	-7.43595
▁более	-7.43996
▁она	-7.44439
▁еще	-7.4598
ая	-7.46055
▁если	-7.46374
ной	-7.4806
▁после	-7.4896
▁In	-7.49957
▁быть	-7.50476
ных	-7.50695
▁этого	-7.51942
▁раз	-7.52044
▁который	-7.53141
▁he	-7.53291
▁можно	-7.53361
▁есть	-7.55052
».	-7.55608
▁где	-7.57112
▁чем	-7.58567
▁Он	-7.60052
▁К	-7.60409
▁будет	-7.62394
▁were	-7.62893
ная	-7.64993
▁об	-7.65383
ного	-7.65439
ого	-7.66148
▁Это	-7.6731
▁ни	-7.67361
▁an	-7.70161
в	-7.70482
▁лет	-7.70816
▁даже	-7.70856
▁it	-7.72152
с	-7.72408
▁очень	-7.72648
▁М	-7.73634
▁меня	-7.74868
▁себя	-7.75133
ка	-7.75714
▁без	-7.75864
▁ему	-7.7641
▁У	-7.77624
▁них	-7.77973
ing	-7.78358
▁мне	-7.78878
]	-7.79444
»,	-7.79458
▁be	-7.80761
▁had	-7.81866
ed	-7.82331
▁тем	-7.8371
▁which	-7.84378
▁между	-7.87861
▁человек	-7.88538
за	-7.88916
▁I	-7.88974
▁всех	-7.89114
▁ли	-7.89285
на	-7.89464
▁are	-7.90044
▁Не	-7.90142
▁про	-7.90251
▁всего	-7.91736
▁России	-7.92621
e	-7.94041
▁жизни	-7.9416
▁При	-7.94222
ным	-7.94873
ли	-7.94991
▁Если	-7.9522
▁т	-7.95235
▁один	-7.96138
▁через	-7.96259
▁этой	-7.96444
ую	-7.97102
▁этот	-7.98707
ки	-7.9976
ей	-8.00638
▁Как	-8.00901
▁A	-8.01181
▁него	-8.0194
▁является	-8.02313
но	-8.02648
▁своей	-8.03064
▁несколько	-8.03523
ых	-8.03525
▁or	-8.03528
▁нас	-8.04133
ное	-8.05231
_	-8.06491
▁которых	-8.07456
ий	-8.07532
a	-8.07682
ые	-8.07916
ый	-8.082
%	-8.08302
ную	-8.08737
▁нет	-8.08935
л	-8.0921
ского	-8.09724
▁О	-8.09859
▁себе	-8.10107
▁кто	-8.10623
▁He	-8.11025
ет	-8.11196
▁им	-8.11251
▁not	-8.1132
▁больше	-8.12082
ах	-8.12192
ем	-8.12769
▁n	-8.13569
▁their	-8.13738
▁лишь	-8.14174
▁над	-8.14574
▁[	-8.14785
▁П	-8.15116
▁За	-8.15174
▁эти	-8.15381
ский	-8.15402
ым	-8.16216
ть	-8.16776
▁also	-8.17049
▁которая	-8.17788
▁времени	-8.18278
▁человека	-8.19416
t	-8.20486
т	-8.2119
▁but	-8.21242
▁После	-8.21523
▁свою	-8.21961
▁которой	-8.22611
▁людей	-8.2295
▁других	-8.23022
▁стал	-8.23081
▁her	-8.23106
(	-8.23294
▁области	-8.23453
▁has	-8.23717
▁have	-8.24231
▁first	-8.25219
▁своих	-8.25253
▁против	-8.25387
▁два	-8.25938
В	-8.26427
▁this	-8.27559
▁образом	-8.28049
▁Так	-8.2817
▁Однако	-8.28241
▁просто	-8.2884
▁много	-8.29399
d	-8.29808
▁могут	-8.30105
▁там	-8.31233
ое	-8.31565
ам	-8.31831
▁день	-8.3217
▁Для	-8.32309
ном	-8.33305
▁этих	-8.33627
ской	-8.34777
▁своего	-8.34976
▁who	-8.35069
▁one	-8.35243
▁год	-8.35433
▁случае	-8.35538
▁перед	-8.36062
y	-8.37087
n	-8.38282
▁ты	-8.39286
▁войны	-8.39457
▁its	-8.39822
ными	-8.40154
▁свои	-8.40623
не	-8.40983
▁Г	-8.41281
к	-8.42265
▁её	-8.42275
▁всегда	-8.42391
▁потому	-8.42999
ь	-8.43088
▁been	-8.43508
▁части	-8.43511
▁they	-8.43685
▁двух	-8.43766
▁работы	-8.44141
▁часть	-8.44272
▁Н	-8.44566
i	-8.44656
▁которого	-8.45166
▁здесь	-8.45629
▁вот	-8.46099
н	-8.46355
▁Все	-8.46607
▁No	-8.46642
▁Мы	-8.46812
▁тот	-8.47162
▁место	-8.47236
ие	-8.4726
▁–	-8.475
▁нам	-8.48897
▁тогда	-8.49133
▁собой	-8.49571
er	-8.50414
▁СССР	-8.5061
p	-8.50667
▁Когда	-8.5105
▁мира	-8.51806
▁именно	-8.52147
▁two	-8.52341
▁одной	-8.52568
▁пере	-8.52856
▁три	-8.52982
ку	-8.53341
▁хотя	-8.53436
▁Они	-8.53478
▁S	-8.53701
▁сам	-8.53878
С	-8.54051
▁США	-8.54189
▁Вы	-8.54316
му	-8.54328
—	-8.55014
▁нужно	-8.55106
▁стороны	-8.55145
▁ним	-8.55395
▁тех	-8.55424
ок	-8.55678
▁вместе	-8.55739
▁такой	-8.55931
▁жизнь	-8.56591
▁почти	-8.56692
▁сказал	-8.5789
▁люди	-8.581
▁около	-8.58752
ла	-8.5905
▁затем	-8.59335
o	-8.59418
ская	-8.59876
▁города	-8.60513
▁должен	-8.61211
▁имеет	-8.61458
▁должны	-8.61854
▁другие	-8.61879
▁would	-8.62147
▁надо	-8.62232
th	-8.62555
▁ничего	-8.62685
▁into	-8.62971
▁чего	-8.63409
▁all	-8.63674
▁other	-8.63992
ия	-8.64125
▁time	-8.64355
ly	-8.64495
▁Во	-8.64663
▁after	-8.64894
▁ней	-8.65122
▁другой	-8.65245
▁тоже	-8.65782
▁Что	-8.65999
А	-8.67173
▁she	-8.67178
▁теперь	-8.67333
S	-8.67971
по	-8.68319
▁C	-8.68363
д	-8.68421
▁Д	-8.68857
▁которое	-8.68873
▁пока	-8.6914
▁вас	-8.69473
▁Б	-8.69512
▁It	-8.69786
▁Л	-8.69789
▁одного	-8.6989
▁те	-8.70267
▁вам	-8.70485
▁свой	-8.70881
▁Да	-8.71037
им	-8.71301
▁Т	-8.71419
ют	-8.71532
▁/	-8.71544
▁связи	-8.71654
▁Она	-8.71859
▁дело	-8.72174
▁more	-8.72422
▁да	-8.7248
▁Из	-8.72515
▁качестве	-8.72923
▁однако	-8.73099
▁=	-8.73125
▁будут	-8.73288
▁истории	-8.73527
▁менее	-8.73565
▁P	-8.73632
[	-8.7381
▁часто	-8.73832
▁him	-8.74294
);	-8.74407
▁конце	-8.7516
▁over	-8.75505
▁среди	-8.75535
ке	-8.75784
▁when	-8.76047
▁всем	-8.7642
▁out	-8.76626
▁потом	-8.76688
▁м	-8.76705
▁годы	-8.77101
▁тому	-8.77718
▁например	-8.78101
ии	-8.78838
ском	-8.79323
▁мог	-8.79657
▁up	-8.797
▁км	-8.79715
ъ	-8.79949
▁века	-8.80033
▁стали	-8.80049
▁тут	-8.80821
▁эту	-8.8103
▁котором	-8.81055
▁этим	-8.8123
▁какой	-8.81559
▁Его	-8.82439
▁new	-8.82548
▁своим	-8.82599
ен	-8.83226
▁хорошо	-8.83229
▁Вот	-8.83471
сти	-8.8415
▁системы	-8.84512
▁сейчас	-8.84551
▁страны	-8.85151
▁ещё	-8.85964
es	-8.86641
▁всё	-8.86836
▁On	-8.86874
▁эта	-8.86916
▁первый	-8.87313
▁вопрос	-8.87351
▁момент	-8.87434
▁п	-8.87445
▁таких	-8.8778
▁друг	-8.87957
их	-8.88075
▁Ф	-8.88132
▁свое	-8.88219
▁оно	-8.88904
▁сделать	-8.8891
▁числе	-8.8893
▁одно	-8.88973
лись	-8.8921
▁результате	-8.89387
▁слова	-8.89539
▁can	-8.89841
▁состав	-8.89991
▁течение	-8.90008
ны	-8.90808
▁армии	-8.90856
▁власти	-8.91205
Я	-8.91497
▁д	-8.91681
р	-8.918
▁only	-8.92381
▁сразу	-8.92757
▁поэтому	-8.92799
▁ей	-8.9296
▁которую	-8.93003
al	-8.93108
▁II	-8.93886
▁период	-8.94116
▁помощью	-8.94289
п	-8.94467
▁такие	-8.94685
▁about	-8.94709
ется	-8.95151
▁следует	-8.95315
▁никогда	-8.95463
▁До	-8.95628
▁years	-8.95715
▁This	-8.96019
нибудь	-8.96136
▁особенно	-8.96161
▁сказать	-8.96445
▁мир	-8.97381
▁B	-8.97577
▁получил	-8.9761
сть	-8.97699
▁две	-8.97725
▁Р	-8.9778
in	-8.98144
▁территории	-8.98144
О	-8.98292
▁de	-8.99142
▁начале	-8.99578
▁$	-8.99717
▁От	-9.00001
▁виде	-9.00047
▁возможность	-9.00199
C	-9.00765
▁лучше	-9.00991
▁New	-9.01025
ских	-9.0107
▁начала	-9.01111
code	-9.01609
▁самом	-9.01856
▁where	-9.01858
▁второй	-9.02024
ские	-9.02132
▁there	-9.02348
▁работу	-9.02474
▁than	-9.02578
▁then	-9.02732
▁каждый	-9.02916
▁де	-9.02934
▁таким	-9.03004
▁говорит	-9.03071
▁вообще	-9.0311
ность	-9.03257
от	-9.03375
▁дома	-9.0342
▁одна	-9.03448
ию	-9.03733
▁поскольку	-9.03734
▁либо	-9.03831
▁M	-9.0384
▁районе	-9.03997
▁them	-9.04043
▁роль	-9.04325
▁группы	-9.04333
▁развития	-9.04383
или	-9.04518
▁D	-9.04524
▁достаточно	-9.04646
▁made	-9.04832
▁Поэтому	-9.04941
▁such	-9.04944
▁during	-9.04954
▁город	-9.05352
▁др	-9.05366
▁стало	-9.05659
ыми	-9.05913
▁совершенно	-9.06153
▁такое	-9.0617
▁тысяч	-9.06341
▁стала	-9.06519
▁находится	-9.06638
ит	-9.06906
▁РФ	-9.07103
▁between	-9.07526
▁пор	-9.07731
▁детей	-9.0777
].	-9.08028
▁многие	-9.0817
▁деятельности	-9.08408
▁мая	-9.0848
▁Кроме	-9.08603
▁("	-9.08645
▁компании	-9.08759
▁этому	-9.09261
▁some	-9.09391
▁no	-9.09571
x	-9.09599
▁смерти	-9.09691
▁T	-9.09969
▁снова	-9.09998
либо	-9.10117
▁многих	-9.10386
▁дня	-9.10428
▁июля	-9.10574
ло	-9.10666
▁самого	-9.10955
▁всей	-9.11002
▁most	-9.11171
▁внимание	-9.11435
▁used	-9.11443
m	-9.11456
▁наиболее	-9.11712
>	-9.11714
▁одним	-9.11996
М	-9.12279
!"	-9.12289
▁сентября	-9.12567
ское	-9.12626
▁могли	-9.12647
A	-9.1289
лась	-9.13175
▁later	-9.13187
▁организации	-9.13345
▁быстро	-9.13422
К	-9.13443
▁необходимо	-9.13446
ному	-9.13641
▁F	-9.13706
▁июня	-9.13732
▁августа	-9.1374
▁имени	-9.13814
▁количество	-9.13846
▁R	-9.14045
ин	-9.14091
▁конечно	-9.14137
▁нем	-9.14369
▁Об	-9.14439
▁делать	-9.1448
r	-9.14724
▁являются	-9.14825
▁месте	-9.14854
▁марта	-9.15037
▁нашей	-9.15092
▁дней	-9.15157
▁совсем	-9.15226
▁октября	-9.15278
▁степени	-9.15318
▁деле	-9.15417
▁января	-9.15459
▁ведь	-9.15857
▁почему	-9.15899
▁которым	-9.15926
▁Ну	-9.15927
▁three	-9.16258
▁under	-9.16278
▁составе	-9.16329
ности	-9.16362
▁действия	-9.16479
г	-9.17002
▁so	-9.17255
▁силы	-9.17507
▁E	-9.17513
▁годах	-9.17576
ться	-9.17821
b	-9.17866
▁назад	-9.17904
ить	-9.17921
▁G	-9.18165
▁должна	-9.18283
▁обычно	-9.18438
▁некоторые	-9.18603
▁декабря	-9.18955
▁being	-9.19011
▁участие	-9.19069
▁То	-9.19156
▁мире	-9.19359
▁той	-9.19442
лся	-9.19826
▁решение	-9.20126
▁мало	-9.20285
▁ко	-9.20348
▁большой	-9.2045
У	-9.20729
▁управления	-9.21171
▁well	-9.2119
▁полностью	-9.21258
▁апреля	-9.2154
И	-9.22097
▁данных	-9.2225
▁Под	-9.22272
▁слишком	-9.22359
▁всю	-9.22389
▁района	-9.22499
▁you	-9.22505
▁происходит	-9.22729
▁гг	-9.22889
?"	-9.22916
▁прежде	-9.22916
▁сил	-9.22927
▁стоит	-9.22952
▁дела	-9.22956
▁мере	-9.22988
▁through	-9.23231
▁выше	-9.23394
▁U	-9.23706
▁использовать	-9.2378
▁пути	-9.24002
▁такого	-9.2404
▁became	-9.24486
▁against	-9.24488
▁ними	-9.24541
▁первой	-9.24572
▁ноября	-9.24662
ч	-9.24778
▁N	-9.24822
▁many	-9.24918
▁воды	-9.25175
▁места	-9.25201
▁начал	-9.25553
▁while	-9.25663
▁нельзя	-9.25821
▁Е	-9.2675
▁тебя	-9.26887
▁имя	-9.27134
кой	-9.27277
ни	-9.27359
ко	-9.27518
▁удалось	-9.2784
▁тыс	-9.27887
ются	-9.27939
та	-9.28112
▁As	-9.28262
▁значение	-9.28303
▁V	-9.28444
▁руки	-9.28541
▁part	-9.28587
скую	-9.2859
▁before	-9.2861
▁должно	-9.28666
▁Э	-9.28703
c	-9.28844
▁населения	-9.2886
▁общества	-9.28881
▁действительно	-9.28895
▁H	-9.29013
б	-9.29047
▁L	-9.29355
▁типа	-9.29446
▁иногда	-9.29647
ев	-9.29681
▁права	-9.2976
▁сегодня	-9.2978
▁годов	-9.29793
▁year	-9.29838
▁различных	-9.30293
▁партии	-9.30473
▁She	-9.30721
▁название	-9.30894
▁will	-9.31084
▁мой	-9.31303
▁городе	-9.31558
▁re	-9.31624
D	-9.3168
▁if	-9.317
▁самых	-9.31825
▁новые	-9.31928
▁people	-9.32062
▁весь	-9.32343
▁своем	-9.32386
▁Александр	-9.32401
▁весьма	-9.32402
▁февраля	-9.32406
ским	-9.32512
▁вполне	-9.32692
▁какие	-9.32697
▁становится	-9.32732
▁возможно	-9.32743
▁said	-9.32756
▁work	-9.33057
▁Москве	-9.33127
▁работе	-9.33224
▁движения	-9.33275
▁право	-9.33488
он	-9.33569
▁некоторых	-9.3359
▁новых	-9.33945
▁имеют	-9.34354
▁куда	-9.34842
▁государства	-9.34901
▁довольно	-9.34904
▁реки	-9.3523
ому	-9.35271
▁возможности	-9.35523
▁разных	-9.35546
▁вновь	-9.35652
▁информации	-9.35747
▁Этот	-9.35855
▁After	-9.35873
ец	-9.35904
▁нее	-9.35912
▁кроме	-9.36089
▁'	-9.36286
▁Про	-9.36329
▁самым	-9.36708
▁дом	-9.37052
▁Российской	-9.37138
man	-9.37309
▁both	-9.37614
▁>	-9.37649
I	-9.37733
▁зрения	-9.38091
П	-9.38192
▁рода	-9.38398
▁основе	-9.38579
▁отношения	-9.38642
▁including	-9.38818
▁кого	-9.3883
▁культуры	-9.39056
▁одном	-9.39091
▁рас	-9.39293
▁стран	-9.39359
▁тебе	-9.39678
▁could	-9.39928
on	-9.39995
▁самой	-9.40081
▁р	-9.40223
▁деньги	-9.40352
▁войск	-9.40491
▁новый	-9.40556
▁книги	-9.40659
▁K	-9.40879
▁помощи	-9.40917
▁нескольких	-9.41144
▁минут	-9.41151
▁\-	-9.41188
▁точки	-9.41355
▁Теперь	-9.41742
▁н	-9.41795
▁никто	-9.4209
▁вокруг	-9.42117
▁second	-9.42157
▁Таким	-9.42239
▁найти	-9.42386
▁идет	-9.42394
ков	-9.42399
▁Здесь	-9.42498
▁Украины	-9.42536
▁конца	-9.42563
▁условиях	-9.42605
▁работать	-9.42654
▁трех	-9.42946
▁сторону	-9.42997
▁//	-9.4301
▁наши	-9.43122
▁очередь	-9.43163
▁одну	-9.43255
▁these	-9.43405
▁*	-9.43524
▁нового	-9.44009
▁часов	-9.44087
▁наших	-9.44185
▁Тем	-9.44298
▁J	-9.44379
▁ж	-9.44422
▁генерал	-9.44595
=	-9.44678
▁четыре	-9.45063
▁первого	-9.45113
ер	-9.45138
▁United	-9.45257
▁процесс	-9.45313
or	-9.45429
▁Затем	-9.45513
re	-9.45566
▁значит	-9.45817
▁легко	-9.45847
▁season	-9.45922
▁Эти	-9.45928
▁впервые	-9.45982
▁путь	-9.46214
По	-9.46411
те	-9.46414
▁Ю	-9.46437
▁меньше	-9.46459
▁самое	-9.46465
▁ходе	-9.46555
▁рядом	-9.46685
..."	-9.46918
▁число	-9.46953
▁Например	-9.47079
▁решения	-9.47204
▁средств	-9.47213
▁частности	-9.47274
▁данным	-9.47275
да	-9.47477
до	-9.47499
▁тела	-9.47539
▁Х	-9.47572
▁постоянно	-9.47628
▁уж	-9.47633
▁слово	-9.48029
▁сами	-9.48213
B	-9.48433
▁своими	-9.48467
▁земли	-9.48573
▁млн	-9.48578
▁ответ	-9.48579
ова	-9.48674
▁система	-9.4873
ния	-9.48794
▁ряд	-9.48828
ние	-9.48834
▁Также	-9.48839
▁Германии	-9.48986
▁вид	-9.49009
▁отношении	-9.49042
▁словам	-9.49252
▁друга	-9.49289
▁until	-9.49406
▁проблемы	-9.49492
▁глаза	-9.49634
▁писал	-9.49658
▁рублей	-9.49911
▁прямо	-9.50051
▁Франции	-9.50071
▁O	-9.50148
▁стать	-9.50202
▁благодаря	-9.50354
h	-9.50483
▁практически	-9.50488
▁работал	-9.50501
▁столь	-9.5059
▁same	-9.50638
▁говорить	-9.5112
▁back	-9.51138
▁сильно	-9.51163
▁примерно	-9.51216
ят	-9.51438
вы	-9.5155
▁стране	-9.51607
лось	-9.5188
▁немного	-9.52154
▁Федерации	-9.52321
▁иметь	-9.52497
▁W	-9.52617
▁составляет	-9.5302
▁Эта	-9.53035
an	-9.5305
▁известно	-9.53103
ник	-9.53235
▁use	-9.53296
▁точно	-9.53362
▁ст	-9.53592
▁called	-9.5363
▁б	-9.5373
▁э	-9.53748
ш	-9.53755
▁did	-9.53807
▁сколько	-9.53821
▁known	-9.53974
▁Ш	-9.54027
з	-9.5403
▁получить	-9.54108
▁number	-9.5419
▁p	-9.54227
▁`	-9.54395
▁нему	-9.54495
k	-9.54544
▁одновременно	-9.54557
f	-9.54574
▁положение	-9.54773
▁будто	-9.54791
▁внутри	-9.54909
Б	-9.54931
▁film	-9.55019
▁другим	-9.55087
us	-9.55328
▁пять	-9.55328
Н	-9.5543
▁кажется	-9.55844
▁говорил	-9.55963
▁противника	-9.56068
ers	-9.56153
▁Тогда	-9.56158
▁каждого	-9.56191
▁They	-9.56217
▁team	-9.5622
▁end	-9.56372
▁заявил	-9.56423
ина	-9.56465
ил	-9.56609
▁At	-9.56655
en	-9.56784
▁новой	-9.56816
▁силу	-9.56849
таки	-9.56975
▁другими	-9.56978
▁нашего	-9.57106
▁позволяет	-9.57371
из	-9.57374
▁any	-9.57403
▁само	-9.57494
▁церкви	-9.57576
За	-9.57661
▁вместо	-9.57736
▁долго	-9.57749
при	-9.58092
▁целью	-9.58121
▁Чтобы	-9.58468
▁лица	-9.58562
▁первых	-9.58576
▁American	-9.58609
ясь	-9.58699
▁Там	-9.58906
▁may	-9.5892
▁do	-9.58929
▁ранее	-9.58931
▁early	-9.58954
▁school	-9.59092
▁производства	-9.59197
▁University	-9.59205
▁began	-9.5921
▁команды	-9.59299
▁игры	-9.59644
▁дел	-9.5968
▁безопасности	-9.59699
▁Со	-9.59763
▁действий	-9.59794
▁работа	-9.59799
▁наконец	-9.59805
▁существует	-9.59906
▁знаю	-9.59976
▁данные	-9.6011
▁дальше	-9.60383
▁свет	-9.60494
Г	-9.60639
▁состоянии	-9.60695
▁Только	-9.60703
▁like	-9.60728
▁Нет	-9.60762
цы	-9.6084
▁основном	-9.60854
▁мысли	-9.61239
▁Европы	-9.6133
▁см	-9.61387
▁правило	-9.61388
▁формы	-9.61484
са	-9.61543
▁речь	-9.61823
the	-9.62025
▁Мне	-9.62081
ись	-9.62125
▁цели	-9.62154
ком	-9.62369
▁представляет	-9.62449
▁равно	-9.6262
▁#	-9.62674
▁Ты	-9.6272
▁язык	-9.6277
▁характер	-9.62906
▁name	-9.62921
▁поле	-9.6295
▁мнению	-9.6299
де	-9.63212
▁самый	-9.63318
▁народа	-9.63393
▁several	-9.63407
▁раньше	-9.6347
The	-9.63553
g	-9.63577
▁решил	-9.63776
Д	-9.64001
▁войска	-9.64352
▁Примечания	-9.64355
▁состоит	-9.64405
▁public	-9.64481
ра	-9.64482
▁ибо	-9.64526
▁Владимир	-9.64622
▁средства	-9.64622
▁вопросы	-9.64734
▁мировой	-9.64794
▁found	-9.64911
▁любой	-9.64969
▁наш	-9.6509
овой	-9.65349
▁образования	-9.65363
▁линии	-9.65392
▁имел	-9.65469
▁понять	-9.655
▁what	-9.65511
под	-9.65527
▁другом	-9.65541
to	-9.65825
▁city	-9.65833
▁пришлось	-9.65871
ic	-9.65976
▁сын	-9.65981
▁могу	-9.6628
▁area	-9.66415
▁случаях	-9.66444
ти	-9.66536
▁four	-9.66634
▁хотел	-9.66647
▁школы	-9.66861
▁развитие	-9.66868
▁because	-9.6691
▁которому	-9.66923
▁своему	-9.66924
z	-9.67263
▁проект	-9.67508
▁ту	-9.67557
▁настоящее	-9.67835
ну	-9.67854
▁May	-9.67911
▁искусства	-9.68077
P	-9.68257
▁центр	-9.68367
▁первые	-9.68499
")	-9.68521
▁деятельность	-9.68558
▁World	-9.68801
ство	-9.68993
▁власть	-9.69069
▁ситуации	-9.69098
▁улица	-9.69145
▁языка	-9.69194
▁state	-9.69582
▁Через	-9.6965
▁счет	-9.69797
▁давно	-9.69825
▁government	-9.69942
▁However	-9.69979
▁труда	-9.70118
▁York	-9.70209
▁наук	-9.70252
▁we	-9.70263
▁скорее	-9.70282
▁первую	-9.70283
▁Еще	-9.70325
Т	-9.70471
▁<	-9.7064
▁метров	-9.70688
▁соответствии	-9.70734
▁Именно	-9.70753
▁моей	-9.70826
ма	-9.7091
ре	-9.70912
▁целом	-9.7105
▁took	-9.71173
▁опять	-9.7125
▁слов	-9.71417
▁чуть	-9.71562
▁Хотя	-9.71566
▁пост	-9.71586
▁работает	-9.71756
F	-9.71829
▁непосредственно	-9.71846
▁правительства	-9.71866
▁III	-9.71956
▁невозможно	-9.72133
▁вдруг	-9.72176
▁состояние	-9.7221
▁первым	-9.72275
T	-9.72516
▁family	-9.72538
L	-9.72692
▁сайте	-9.72716
▁форме	-9.72716
▁главным	-9.72797
▁роли	-9.72814
На	-9.72837
▁рамках	-9.72908
▁двумя	-9.72922
▁жить	-9.72988
M	-9.73051
▁St	-9.73348
▁работ	-9.7338
▁та	-9.73559
▁прав	-9.73649
▁high	-9.73826
▁Совета	-9.73829
▁жителей	-9.73884
▁сделал	-9.73917
▁c	-9.73944
▁несмотря	-9.73948
▁There	-9.74021
▁now	-9.74168
▁лиц	-9.74301
u	-9.74304
▁States	-9.74309
▁His	-9.74334
▁гораздо	-9.74356
▁далеко	-9.74358
▁относительно	-9.74384
▁знал	-9.74499
▁сама	-9.74536
ца	-9.74561
▁War	-9.74564
▁game	-9.74589
▁такая	-9.74597
ва	-9.74605
G	-9.74614
▁John	-9.74756
▁создания	-9.74765
▁другого	-9.74767
▁полу	-9.74796
▁each	-9.74846
st	-9.74922
▁голову	-9.7507
▁позже	-9.7519
ик	-9.75245
▁говорят	-9.7527
▁m	-9.75321
▁group	-9.75482
▁own	-9.75514
▁знает	-9.75523
▁around	-9.75736
ье	-9.75737
▁море	-9.7576
▁Ведь	-9.7577
H	-9.75896
K	-9.76069
▁группа	-9.76212
l	-9.76272
▁помощь	-9.76289
см	-9.76377
▁уровне	-9.76427
▁Их	-9.76442
▁down	-9.76589
▁последние	-9.76977
▁since	-9.7711
▁множество	-9.77135
▁женщин	-9.77146
▁home	-9.77186
▁деревня	-9.77263
E	-9.77313
Х	-9.77316
▁series	-9.77337
▁фильм	-9.77398
▁долларов	-9.77409
▁place	-9.77504
▁Союза	-9.77536
▁каким	-9.77574
▁X	-9.77713
▁long	-9.77733
▁изменения	-9.77882
ль	-9.7789
▁движение	-9.77903
▁говоря	-9.77946
▁left	-9.77971
▁теории	-9.78062
▁исследования	-9.78081
▁дать	-9.78195
▁сначала	-9.78227
▁начали	-9.78268
▁программы	-9.78407
▁set	-9.78446
▁русской	-9.78488
`	-9.78571
ось	-9.79064
ость	-9.79174
▁Москвы	-9.79186
▁[/	-9.79274
▁главе	-9.79313
▁суд	-9.7937
▁операции	-9.79455
сь	-9.79538
▁животных	-9.79729
▁пишет	-9.79739
▁Один	-9.79807
▁самые	-9.79878
▁раза	-9.80047
▁вскоре	-9.80173
▁отец	-9.80195
▁Россия	-9.80249
▁трудно	-9.80299
▁женщины	-9.80301
▁off	-9.8032
▁day	-9.80371
▁system	-9.80372
▁For	-9.80464
▁опыт	-9.8051
▁very	-9.80515
is	-9.80581
▁месяцев	-9.80583
▁денег	-9.80596
ж	-9.80645
▁Согласно	-9.80715
▁отца	-9.80733
▁ночь	-9.80884
овые	-9.81002
▁тело	-9.81011
▁история	-9.81077
цев	-9.81326
▁released	-9.81373
скому	-9.81441
▁л	-9.81453
▁район	-9.81593
▁могла	-9.81648
▁начало	-9.8173
▁иначе	-9.81889
▁хоть	-9.81901
▁большинство	-9.82173
▁life	-9.82258
▁still	-9.82263
▁ниже	-9.82269
▁чаще	-9.82272
▁революции	-9.82286
▁означает	-9.82307
▁семьи	-9.82352
ля	-9.82363
▁сих	-9.82364
ist	-9.82372
▁русских	-9.82489
▁согласно	-9.825
▁автор	-9.82505
▁моря	-9.82608
▁языке	-9.82661
▁September	-9.82695
Не	-9.82737
▁З	-9.82954
▁дни	-9.82956
▁народ	-9.8303
Е	-9.83087
га	-9.83177
▁un	-9.83246
▁смысле	-9.83263
▁March	-9.83286
▁семье	-9.83301
▁June	-9.83328
▁видов	-9.83333
▁лицо	-9.83361
▁дивизии	-9.83465
▁зависимости	-9.8356
▁любви	-9.83583
▁Иван	-9.83614
▁Конечно	-9.83651
▁делает	-9.83744
▁берегу	-9.83768
▁образ	-9.84155
▁отличие	-9.84156
▁систему	-9.84238
ками	-9.84264
R	-9.84331
ман	-9.84685
▁туда	-9.84834
▁университета	-9.84899
▁проекта	-9.85136
▁значения	-9.85206
▁October	-9.85336
▁National	-9.85357
▁частью	-9.85379
▁those	-9.85388
▁памяти	-9.85478
▁честь	-9.85514
▁значительно	-9.85573
▁доме	-9.85603
его	-9.85712
▁кино	-9.85733
ст	-9.85835
Л	-9.85865
ости	-9.85989
▁world	-9.86091
ан	-9.86134
▁науки	-9.86454
▁уровня	-9.86502
▁проблем	-9.86532
▁каждой	-9.86734
ша	-9.86738
▁произошло	-9.86822
▁уровень	-9.86823
▁Даже	-9.86841
▁мм	-9.86876
▁видел	-9.86962
▁можем	-9.87044
▁полка	-9.87069
▁another	-9.87075
▁my	-9.87094
▁оказался	-9.87107
▁local	-9.87196
про	-9.87205
▁первом	-9.87216
▁земле	-9.87238
▁XIX	-9.87239
ф	-9.87255
▁August	-9.87456
Ф	-9.87508
ась	-9.87689
▁me	-9.87744
▁Есть	-9.87796
▁принял	-9.87799
▁какое	-9.87804
▁July	-9.87865
▁взгляд	-9.87889
▁дает	-9.87935
▁влияние	-9.88012
▁никаких	-9.88042
▁British	-9.88115
▁January	-9.88228
▁During	-9.88266
▁итоге	-9.88478
▁much	-9.8851
▁можете	-9.88719
▁вышел	-9.88734
▁службы	-9.88837
▁Кто	-9.88848
▁солдат	-9.88892
▁настолько	-9.88933
▁член	-9.89048
▁различные	-9.8908
*	-9.89087
▁following	-9.89239
▁Можно	-9.89289
▁just	-9.89359
▁April	-9.89506
▁получили	-9.89536
▁make	-9.89559
▁...	-9.89568
▁создать	-9.89646
▁функции	-9.8965
▁назначен	-9.89866
ства	-9.89883
▁Николай	-9.9004
▁When	-9.90057
▁следующий	-9.90066
▁всеми	-9.90138
▁сообщил	-9.90139
▁won	-9.90176
▁вещи	-9.90219
▁large	-9.90389
▁правительство	-9.90405
▁ребенка	-9.90523
стью	-9.90596
▁машины	-9.90602
▁войне	-9.90613
▁Среди	-9.90625
▁хочет	-9.90745
▁каких	-9.90899
▁ч	-9.90927
▁мной	-9.91071
▁событий	-9.91122
ья	-9.91218
ив	-9.91221
▁even	-9.91415
▁Ни	-9.91417
▁большое	-9.91489
ion	-9.9149
▁военных	-9.91495
ее	-9.91615
Ш	-9.91699
▁фронта	-9.91705
ющий	-9.91732
▁way	-9.9205
▁постепенно	-9.92104
ал	-9.92185
▁путем	-9.9226
э	-9.92345
▁along	-9.92445
▁пяти	-9.92466
▁написал	-9.92495
▁числа	-9.92534
▁село	-9.92659
▁разные	-9.92699
ТАСС	-9.92779
▁книге	-9.92807
▁нами	-9.9281
▁членов	-9.92852
▁company	-9.92857
▁ради	-9.92887
▁Сергей	-9.92906
рис	-9.9311
▁историю	-9.93141
▁использования	-9.93206
▁людьми	-9.93216
▁которыми	-9.93281
▁поводу	-9.93442
▁due	-9.93552
▁человеком	-9.93562
ц	-9.93568
▁смысл	-9.93571
▁again	-9.93579
▁статьи	-9.93695
▁суда	-9.93734
▁show	-9.938
▁имели	-9.93893
ющие	-9.9399
▁вовсе	-9.94008
▁мои	-9.94034
▁условия	-9.94038
▁факт	-9.94097
▁борьбы	-9.94104
▁спустя	-9.94188
▁план	-9.9427
▁способ	-9.94272
▁November	-9.94328
▁отношений	-9.9433
▁начинает	-9.94361
▁виду	-9.94383
▁русского	-9.94429
▁центра	-9.94438
▁позиции	-9.9448
▁South	-9.94519
▁процессе	-9.94565
▁вся	-9.94566
▁принять	-9.94633
овых	-9.94654
▁другое	-9.94691
йте	-9.94701
▁президента	-9.94775
▁дети	-9.94812
able	-9.94876
▁людям	-9.94933
v	-9.94951
▁системе	-9.94997
▁last	-9.95083
▁мать	-9.9514
▁пред	-9.95223
▁систем	-9.95227
▁century	-9.9527
▁кому	-9.9528
▁клуб	-9.95343
▁знать	-9.95351
▁album	-9.95359
▁обороны	-9.95396
▁всему	-9.95438
id	-9.95503
▁December	-9.95537
▁моя	-9.95575
▁School	-9.9563
▁столько	-9.95901
▁северо	-9.95909
▁станции	-9.95992
▁временем	-9.96042
▁Почему	-9.96143
▁последний	-9.96171
▁Республики	-9.96204
▁причем	-9.96363
▁общем	-9.96384
▁million	-9.96387
ешь	-9.9641
▁задачи	-9.96479
▁остается	-9.96482
▁Потом	-9.96498
▁класса	-9.96719
▁Великой	-9.96875
▁связь	-9.96918
▁held	-9.97027
▁большую	-9.97261
▁вроде	-9.97287
▁матери	-9.97514
N	-9.97647
▁энергии	-9.97649
ис	-9.97692
▁информацию	-9.97935
▁пресс	-9.97965
ation	-9.98003
▁сына	-9.9803
▁дал	-9.9839
▁будем	-9.98392
ле	-9.98465
▁станет	-9.9848
▁received	-9.98516
▁срок	-9.98573
▁return	-9.98604
▁вернулся	-9.98723
▁месяца	-9.98811
▁age	-9.98835
▁men	-9.98869
▁Пере	-9.99001
ющих	-9.99034
си	-9.99053
▁важно	-9.99107
▁ясно	-9.99119
▁империи	-9.99145
▁необходимости	-9.99264
▁played	-9.99268
▁общей	-9.99269
▁line	-9.99417
▁поверхности	-9.99451
W	-9.99472
▁Второй	-9.99492
▁мысль	-9.99618
▁Первый	-9.99773
▁цель	-10.0001
▁компания	-10.0004
▁City	-10.0013
▁Некоторые	-10.0015
▁отношение	-10.0017
▁органов	-10.002
▁came	-10.0023
▁сети	-10.0032
▁таком	-10.0044
▁music	-10.005
▁руку	-10.0052
▁времена	-10.0058
▁используется	-10.0062
▁Отечественной	-10.0071
▁природы	-10.0077
▁крови	-10.0086
▁направлении	-10.0087
▁события	-10.0101
▁small	-10.0102
▁сборной	-10.0104
▁руках	-10.0113
▁включая	-10.0127
▁домой	-10.0131
▁members	-10.0138
▁внимания	-10.0157
▁относится	-10.016
▁личности	-10.0163
▁Александра	-10.0164
▁Европе	-10.0164
▁XX	-10.017
▁идеи	-10.0171
▁within	-10.0176
▁To	-10.0189
вер	-10.0193
▁хочу	-10.0206
▁любовь	-10.0209
▁находятся	-10.021
▁странах	-10.0214
▁пример	-10.0215
▁касается	-10.0217
▁словами	-10.0218
▁письмо	-10.022
▁результат	-10.0233
▁землю	-10.0237
▁приходится	-10.0239
ировать	-10.0242
▁сообщает	-10.0243
▁вперед	-10.0248
▁children	-10.025
▁цвета	-10.025
▁большим	-10.0252
▁случай	-10.0258
▁An	-10.0266
▁named	-10.0267
▁Сейчас	-10.0283
▁Несмотря	-10.0284
▁закон	-10.0284
▁war	-10.0284
▁Санкт	-10.0284
▁округа	-10.0295
▁дороги	-10.0304
▁Сам	-10.0309
▁русский	-10.0312
▁женщина	-10.0314
как	-10.0316
ты	-10.0328
▁фильма	-10.0342
▁действие	-10.0347
ско	-10.035
▁порядке	-10.0351
▁Бог	-10.0364
▁середине	-10.0364
▁час	-10.0365
▁Англии	-10.0373
▁юго	-10.0379
▁often	-10.038
▁названием	-10.0393
▁вероятно	-10.0393
▁Или	-10.04
▁протяжении	-10.0405
ism	-10.0407
▁Может	-10.0423
▁души	-10.0433
▁water	-10.0446
▁стороне	-10.0452
▁led	-10.0461
▁далее	-10.0475
▁бывает	-10.0478
▁находился	-10.0482
▁main	-10.0482
ников	-10.0484
▁буду	-10.0484
▁умер	-10.0487
▁видеть	-10.0487
▁процесса	-10.0489
ши	-10.0492
▁вести	-10.0494
▁зависит	-10.0497
ек	-10.0499
▁речи	-10.0511
▁новое	-10.0513
▁built	-10.0517
as	-10.0519
▁корпуса	-10.0524
▁анти	-10.053
▁death	-10.0543
com	-10.0547
▁жил	-10.0558
ton	-10.0565
▁went	-10.0569
▁правда	-10.0575
ями	-10.0575
▁рабочих	-10.0579
▁included	-10.0579
▁five	-10.0585
би	-10.0585
▁Раз	-10.0586
▁take	-10.0592
\.	-10.0596
Р	-10.0599
▁миллионов	-10.0602
▁центре	-10.0602
▁воду	-10.0614
▁Многие	-10.0614
▁per	-10.0616
▁получила	-10.0622
):	-10.0628
▁цвет	-10.0634
▁модели	-10.0635
▁версии	-10.0646
тер	-10.0651
▁оказалось	-10.0657
▁должность	-10.0665
▁родился	-10.0668
▁глаз	-10.0674
▁радио	-10.0678
▁отдельных	-10.0678
▁Ж	-10.0678
▁приводит	-10.0681
▁возрасте	-10.0694
▁литературы	-10.0699
во	-10.0711
ос	-10.0715
▁different	-10.0725
▁считает	-10.0726
▁моего	-10.0739
▁Михаил	-10.0741
▁концов	-10.0745
▁война	-10.0745
ич	-10.0749
▁света	-10.0753
▁улице	-10.0755
▁February	-10.0755
▁Нью	-10.0758
▁считать	-10.076
▁большие	-10.0769
▁next	-10.0778
▁впоследствии	-10.0779
▁взять	-10.0781
▁основных	-10.0786
J	-10.0787
▁%	-10.0787
▁веке	-10.0792
el	-10.0796
▁building	-10.0814
▁защиты	-10.0828
▁single	-10.0835
▁общего	-10.0845
▁former	-10.0863
▁часа	-10.0869
▁man	-10.0882
▁support	-10.0882
▁месяц	-10.0886
▁One	-10.0888
▁пользу	-10.0892
ическая	-10.0897
▁удар	-10.0898
V	-10.0899
ди	-10.0901
▁тысячи	-10.0904
ia	-10.091
":	-10.091
▁брат	-10.0914
ью	-10.0921
▁политики	-10.0926
▁могло	-10.0927
ика	-10.0931
▁частей	-10.0935
▁список	-10.0944
▁результаты	-10.0957
со	-10.0961
ри	-10.0963
овая	-10.0967
▁казалось	-10.0977
кин	-10.0984
▁сердце	-10.0987
▁область	-10.0987
▁называется	-10.0987
▁советский	-10.0993
▁get	-10.0996
▁major	-10.0999
").	-10.1013
▁главное	-10.1028
государственного	-10.103
▁Более	-10.1044
▁состояния	-10.1047
▁Re	-10.1052
X	-10.1053
▁ответил	-10.1054
▁скоро	-10.1064
▁словно	-10.1072
▁народов	-10.1076
▁пол	-10.1085
▁местах	-10.1099
▁Итак	-10.1099
▁обязательно	-10.1108
▁late	-10.1127
▁президент	-10.1137
▁военной	-10.1138
ar	-10.1138
нее	-10.1139
▁кг	-10.1141
▁Уже	-10.1144
▁оружия	-10.1145
▁сторон	-10.1146
мы	-10.1147
▁North	-10.1155
енко	-10.1165
▁By	-10.1178
▁второго	-10.1179
▁order	-10.1191
▁совета	-10.1195
▁церковь	-10.1204
▁видно	-10.1212
▁Советского	-10.1219
▁father	-10.1223
le	-10.1226
▁book	-10.1228
▁широко	-10.1228
▁новую	-10.1231
▁band	-10.124
▁вне	-10.124
▁форму	-10.1243
▁скорость	-10.1245
O	-10.1245
▁side	-10.1246
▁жена	-10.1247
▁борьбе	-10.1252
▁form	-10.1257
нии	-10.1261
▁вида	-10.1271
▁писатель	-10.1279
son	-10.1282
▁большая	-10.1287
▁такую	-10.129
▁больших	-10.1307
▁мест	-10.1321
▁мин	-10.1332
▁крайне	-10.1339
▁метод	-10.1341
▁service	-10.135
ющего	-10.135
ите	-10.1355
▁based	-10.1357
▁короля	-10.1357
▁power	-10.1358
▁смог	-10.1364
▁London	-10.1367
▁большей	-10.1371
w	-10.1377
▁Москву	-10.138
▁плохо	-10.1381
▁техники	-10.1382
▁final	-10.1385
▁школе	-10.139
изм	-10.1393
▁резко	-10.1407
▁руководством	-10.1409
▁положения	-10.141
ня	-10.1411
▁шесть	-10.1413
ity	-10.1417
▁become	-10.1428
▁women	-10.143
З	-10.1434
▁поля	-10.1436
▁войну	-10.1437
▁чувство	-10.1447
▁оказались	-10.1448
об	-10.1449
▁называют	-10.1452
▁Перед	-10.1454
▁готов	-10.1467
ический	-10.1475
▁ноги	-10.1476
▁села	-10.1479
ск	-10.1482
▁порядка	-10.1486
ru	-10.1488
▁основной	-10.1488
▁требует	-10.1489
▁смерть	-10.1492
▁образование	-10.1504
▁Тут	-10.1504
▁государственной	-10.151
▁боевых	-10.1528
раз	-10.1537
▁текст	-10.1541
▁мнение	-10.1545
▁сезона	-10.1551
▁отношению	-10.1563
▁French	-10.1568
▁дочь	-10.157
▁книгу	-10.1579
▁человеку	-10.1581
▁серии	-10.1583
▁огонь	-10.1585
▁игр	-10.1586
▁площади	-10.1588
▁первое	-10.1589
▁co	-10.1592
▁исключительно	-10.1599
▁without	-10.1599
▁Впрочем	-10.1606
▁крайней	-10.161
▁думаю	-10.161
▁third	-10.1611
▁few	-10.1614
▁общество	-10.1621
▁трёх	-10.1622
▁вариант	-10.163
ою	-10.1631
▁граждан	-10.164
▁Был	-10.1642
▁moved	-10.1651
▁play	-10.1661
▁State	-10.1662
мер	-10.1667
▁театра	-10.1676
▁идти	-10.1684
▁клуба	-10.1687
▁говорится	-10.1687
▁отметил	-10.1689
▁представитель	-10.1713
▁оказывается	-10.1714
▁военного	-10.1714
▁Италии	-10.1715
▁проходит	-10.172
ус	-10.1723
▁увидел	-10.1724
▁помочь	-10.1729
▁non	-10.1731
"[	-10.1735
ение	-10.1735
▁главный	-10.1736
um	-10.1742
ими	-10.1745
▁using	-10.1748
▁промышленности	-10.1757
▁Ленина	-10.1767
▁десять	-10.1767
▁All	-10.1768
://	-10.1772
▁едва	-10.1774
▁чемпионата	-10.1775
тон	-10.178
су	-10.1781
▁создание	-10.1782
▁книг	-10.1782
▁края	-10.1785
▁класс	-10.1787
▁увидеть	-10.1792
▁говорили	-10.1794
▁завод	-10.1795
▁however	-10.1803
что	-10.1804
▁объектов	-10.1808
▁original	-10.181
▁своё	-10.1823
ические	-10.1824
ат	-10.1824
▁острова	-10.1825
▁наше	-10.183
▁следующие	-10.1838
▁полк	-10.184
▁among	-10.1848
▁ЦК	-10.1852
▁town	-10.1861
▁понял	-10.1869
▁никакого	-10.1871
▁right	-10.1872
▁b	-10.189
▁машин	-10.1891
it	-10.1895
▁include	-10.1898
▁go	-10.1902
▁пришел	-10.1911
▁данном	-10.192
▁начальник	-10.1921
ель	-10.1936
▁De	-10.1938
▁голос	-10.1941
▁how	-10.1944
ющей	-10.1945
▁участников	-10.1946
ать	-10.1953
▁крупных	-10.1953
▁особенности	-10.1959
▁тип	-10.1971
ович	-10.1975
▁son	-10.1978
▁писать	-10.1981
▁первая	-10.1986
▁произведения	-10.1988
▁элементов	-10.1989
▁published	-10.1989
▁некоторое	-10.1998
▁Z	-10.2002
▁population	-10.2002
▁какого	-10.2005
▁Сан	-10.2011
▁состава	-10.2019
▁US	-10.2026
▁возникает	-10.203
"),	-10.2032
ней	-10.2033
она	-10.2036
▁Между	-10.2039
▁млрд	-10.2049
▁какая	-10.205
▁селе	-10.205
ян	-10.2054
▁позднее	-10.2058
()	-10.2058
▁чемпионате	-10.2058
▁свободы	-10.2063
▁форм	-10.2065
▁команда	-10.2065
▁код	-10.2067
▁сельского	-10.2072
▁West	-10.208
▁having	-10.2083
ях	-10.2088
▁болезни	-10.2089
▁интерес	-10.2092
▁окончания	-10.2096
▁четырех	-10.2107
ба	-10.2108
▁качества	-10.2109
▁фон	-10.2112
▁Сегодня	-10.2116
▁явно	-10.2119
ры	-10.2122
▁какую	-10.2125
▁память	-10.2125
▁Ли	-10.2125
же	-10.213
▁near	-10.213
▁поведения	-10.2141
▁конец	-10.2146
▁These	-10.2147
▁откуда	-10.2159
▁La	-10.2159
▁исследований	-10.2163
▁country	-10.2164
▁ряда	-10.2165
▁рождения	-10.2166
▁d	-10.2167
▁момента	-10.2174
▁period	-10.2179
▁производство	-10.2181
/.	-10.2182
▁службу	-10.2185
▁полной	-10.2195
▁письма	-10.2196
ту	-10.2198
▁role	-10.2199
▁водой	-10.2205
▁принято	-10.2205
ry	-10.2211
▁house	-10.2227
▁должности	-10.2228
▁нечто	-10.223
▁пусть	-10.2234
▁German	-10.2235
<	-10.2238
▁никак	-10.2254
▁сказала	-10.2254
▁should	-10.2257
▁книга	-10.2264
ница	-10.2264
▁видео	-10.2267
па	-10.2271
▁Ко	-10.228
▁спросил	-10.2285
▁Возможно	-10.229
▁head	-10.2299
▁Бога	-10.2306
▁периода	-10.2314
▁армия	-10.2319
";	-10.2325
▁Правда	-10.2325
ится	-10.2335
▁started	-10.2338
▁died	-10.2339
▁команду	-10.2347
▁land	-10.2365
▁IV	-10.2365
▁деятель	-10.237
▁Ч	-10.2372
▁глава	-10.2377
▁чувства	-10.2381
▁представителей	-10.2382
Э	-10.2383
ra	-10.2385
▁задач	-10.2387
▁предложил	-10.2389
▁оба	-10.239
▁случаев	-10.2393
▁выбор	-10.2393
de	-10.2394
юсь	-10.2399
▁чему	-10.2403
▁Ц	-10.2404
\	-10.2405
▁государство	-10.2406
▁Ла	-10.2406
▁окончил	-10.2412
▁порядок	-10.2415
ies	-10.2416
▁решили	-10.2429
▁флота	-10.243
нов	-10.2433
j	-10.2436
ника	-10.2441
▁начинается	-10.2444
▁лично	-10.2451
ист	-10.2454
че	-10.2483
▁каждом	-10.2484
▁Андрей	-10.2489
▁Земли	-10.2492
▁штаба	-10.2497
ения	-10.25
ющая	-10.2507
▁характера	-10.2509
▁иностранных	-10.2513
▁данной	-10.2518
▁одному	-10.2521
▁института	-10.2521
ian	-10.2526
ve	-10.2531
▁ТАСС	-10.2532
▁проблема	-10.2532
▁Поскольку	-10.2534
▁представить	-10.2536
▁появились	-10.2544
ley	-10.2544
▁рост	-10.2549
ники	-10.2553
▁history	-10.2553
▁Без	-10.2555
▁военно	-10.2557
▁насколько	-10.256
▁политической	-10.2561
▁фото	-10.2567
▁взял	-10.2573
and	-10.2581
ут	-10.2588
▁Каждый	-10.2591
▁матче	-10.2594
▁announced	-10.2599
▁days	-10.2601
▁активно	-10.2606
▁Иногда	-10.2615
te	-10.2617
▁member	-10.2619
▁современной	-10.2624
▁continued	-10.2625
ической	-10.263
▁небольшой	-10.2634
],	-10.2637
▁гор	-10.264
▁данный	-10.2641
▁Al	-10.2641
́	-10.2652
Й	-10.2655
▁дальнейшем	-10.2662
▁given	-10.2666
▁входит	-10.2666
▁never	-10.2681
▁old	-10.2683
▁труд	-10.2687
▁song	-10.2696
вшихся	-10.2698
▁профессор	-10.2701
▁himself	-10.2714
▁получения	-10.2717
▁командир	-10.2735
▁недели	-10.2736
▁считал	-10.2742
▁основании	-10.2753
▁групп	-10.2756
▁членом	-10.2757
▁успешно	-10.2759
▁меры	-10.2761
▁проведения	-10.2766
▁комитета	-10.2768
▁использование	-10.2778
▁городов	-10.2785
▁club	-10.2785
▁собственной	-10.2787
▁наша	-10.2791
▁считают	-10.2792
Мы	-10.2792
▁руб	-10.2796
▁returned	-10.2801
▁wrote	-10.2802
▁школу	-10.2804
▁границы	-10.2825
▁советских	-10.2826
▁роман	-10.2826
▁San	-10.2828
▁заключается	-10.283
▁мое	-10.283
▁бес	-10.2838
na	-10.2845
#	-10.2849
▁Азии	-10.2852
▁наоборот	-10.2856
▁модель	-10.2859
нет	-10.2862
▁сознания	-10.2869
ор	-10.2873
▁Москва	-10.2875
▁автора	-10.2878
▁served	-10.2883
▁вдоль	-10.2885
▁six	-10.2887
▁редко	-10.2888
ie	-10.2896
▁v	-10.2898
▁придется	-10.2909
▁главного	-10.2916
▁моих	-10.2921
▁неё	-10.2929
▁соответственно	-10.2941
▁относятся	-10.2946
▁губернии	-10.2946
▁Сталин	-10.2956
▁English	-10.2959
▁здания	-10.2969
▁Очень	-10.2977
чи	-10.298
▁правильно	-10.298
▁задача	-10.2981
ски	-10.2984
▁советской	-10.2984
▁отсутствие	-10.2987
▁students	-10.2989
▁директор	-10.301
ne	-10.3018
ве	-10.302
▁деревни	-10.3023
▁царя	-10.3026
▁Вскоре	-10.3027
ch	-10.3029
ча	-10.3029
▁дороге	-10.3029
▁сравнению	-10.3031
▁ф	-10.3043
▁русские	-10.3048
▁поселения	-10.3056
▁best	-10.3061
▁высокой	-10.3066
▁считается	-10.3069
▁неделю	-10.307
▁Иванович	-10.3076
▁другую	-10.3077
▁case	-10.3077
▁поэт	-10.3078
▁высоко	-10.3086
▁предприятия	-10.3087
▁f	-10.3088
▁участвовал	-10.3092
▁ну	-10.3093
ового	-10.31
ики	-10.3105
▁оружие	-10.3105
▁базе	-10.3109
▁пр	-10.3111
▁Наконец	-10.3117
▁national	-10.3121
▁Пока	-10.3128
▁обратно	-10.3128
▁управление	-10.3132
▁форма	-10.3135
▁top	-10.3135
▁идея	-10.3137
▁площадь	-10.3139
▁хозяйства	-10.3152
Y	-10.3155
▁недавно	-10.3166
вший	-10.3169
ги	-10.3175
▁Глава	-10.3188
▁статье	-10.3201
▁ночью	-10.3204
▁немедленно	-10.3205
▁station	-10.3205
▁ре	-10.3205
▁Алексей	-10.3212
▁население	-10.3213
▁научно	-10.3224
▁знания	-10.3224
▁Красной	-10.3226
up	-10.3228
▁development	-10.3236
▁бой	-10.3241
ta	-10.3241
▁обучения	-10.3244
▁начать	-10.3248
▁поведение	-10.3252
три	-10.3258
▁record	-10.3259
▁Рис	-10.3267
ией	-10.327
▁строительства	-10.327
▁песни	-10.327
Z	-10.3277
▁political	-10.3278
▁class	-10.328
▁начальника	-10.3283
▁вышла	-10.3284
действительности	-10.3286
▁Россию	-10.3288
▁закона	-10.3295
▁институт	-10.3307
▁остальные	-10.3308
▁t	-10.3309
▁рук	-10.3315
иться	-10.3318
▁принимать	-10.3318
▁мужчин	-10.3319
▁воздуха	-10.3329
це	-10.3337
▁result	-10.3339
▁Верховного	-10.334
▁мае	-10.3347
▁существования	-10.3348
▁самолет	-10.3349
▁другу	-10.3362
▁последних	-10.3363
▁But	-10.3363
▁##	-10.3376
▁прошлого	-10.3382
первых	-10.3389
▁сайт	-10.339
▁various	-10.3392
▁good	-10.3402
ар	-10.3404
▁оказалась	-10.3408
▁большого	-10.3409
▁###	-10.3415
▁определить	-10.342
али	-10.3426
▁Су	-10.343
os	-10.3432
▁основные	-10.344
▁Оно	-10.3445
▁сожалению	-10.3445
▁Дело	-10.3446
land	-10.3451
▁military	-10.3459
▁ныне	-10.3459
▁Японии	-10.346
▁law	-10.3462
▁заниматься	-10.3464
Ю	-10.3465
▁условий	-10.3466
▁газеты	-10.3468
▁фактически	-10.3479
▁силой	-10.3484
▁вниз	-10.3485
▁position	-10.349
▁реализации	-10.3496
▁внутренних	-10.3498
▁point	-10.3509
▁мозга	-10.3509
овым	-10.3514
▁Ему	-10.3518
▁имеется	-10.3523
▁номер	-10.3523
▁вопросов	-10.353
▁further	-10.3532
▁прошлом	-10.3535
▁сведения	-10.3539
▁run	-10.3543
▁желание	-10.3546
▁связано	-10.3551
▁обеспечения	-10.3558
▁количества	-10.3562
▁пару	-10.3566
▁control	-10.3568
▁причин	-10.3575
▁i	-10.3576
▁away	-10.3579
▁применения	-10.3581
▁играть	-10.3582
▁очевидно	-10.3583
вин	-10.3583
▁сфере	-10.3586
▁искать	-10.3588
▁курс	-10.359
▁short	-10.359
▁сила	-10.3591
▁российский	-10.3591
▁приходилось	-10.3598
▁ими	-10.361
▁established	-10.3611
▁Ее	-10.3614
▁появился	-10.3614
▁экономики	-10.3614
▁эпохи	-10.3614
▁содержание	-10.3617
▁ваш	-10.3618
вшиеся	-10.3619
пере	-10.3627
▁правила	-10.3634
▁ситуация	-10.3639
▁Y	-10.3641
▁отдела	-10.3648
▁остался	-10.3648
▁улицы	-10.3651
▁ордена	-10.3653
ive	-10.3653
▁делу	-10.3657
лин	-10.3668
▁абсолютно	-10.3669
▁главы	-10.367
ила	-10.3676
▁скорости	-10.3679
▁рассказал	-10.3683
▁нашем	-10.3687
например	-10.3692
▁провести	-10.3704
▁important	-10.3707
▁Вместе	-10.3715
▁full	-10.3716
▁знак	-10.3722
ился	-10.3722
▁делают	-10.3722
at	-10.3737
▁Надо	-10.3747
▁встречи	-10.3753
▁роста	-10.3756
овый	-10.3767
Как	-10.3772
▁сезоне	-10.3775
▁целей	-10.3783
▁total	-10.3784
▁Автор	-10.3794
▁устройства	-10.3799
прежнему	-10.3802
▁must	-10.3803
ера	-10.3804
▁друзей	-10.3807
▁games	-10.3809
▁подготовки	-10.381
ического	-10.381
▁медленно	-10.3822
▁впечатление	-10.3822
▁King	-10.3831
▁случайно	-10.3836
▁нём	-10.3839
▁вверх	-10.3842
▁деревне	-10.3846
▁километров	-10.3846
▁марте	-10.3851
▁полиции	-10.3852
▁together	-10.3853
▁production	-10.3859
▁представители	-10.3862
▁национальной	-10.3864
▁молодой	-10.3864
▁появляется	-10.3865
no	-10.3866
▁km	-10.3868
▁последнее	-10.3871
▁lost	-10.3872
сон	-10.3874
▁будучи	-10.388
ическое	-10.388
▁элементы	-10.3881
▁объекта	-10.3884
▁контроль	-10.3888
▁вызывает	-10.389
▁Родился	-10.3898
▁головы	-10.3901
▁хотелось	-10.3902
▁бизнес	-10.3904
▁школа	-10.3905
▁Вам	-10.3908
▁узнать	-10.3908
▁премьер	-10.3913
▁every	-10.3925
▁данного	-10.3925
▁естественно	-10.3942
▁XVIII	-10.3947
▁здание	-10.3952
▁боя	-10.3953
▁дверь	-10.3956
▁строительство	-10.3962
▁привести	-10.3964
▁чтоб	-10.3978
▁концу	-10.3986
▁We	-10.3987
▁январе	-10.3987
▁general	-10.3995
▁организаций	-10.3997
▁League	-10.3998
▁объект	-10.3998
▁Джон	-10.4003
▁договор	-10.4009
▁вода	-10.4014
▁Те	-10.4017
▁совет	-10.4022
▁последнего	-10.4023
▁great	-10.4026
▁Дмитрий	-10.4036
▁осталось	-10.4039
▁times	-10.4045
▁будущем	-10.4046
▁сентябре	-10.4047
▁career	-10.4048
▁Чем	-10.405
▁кем	-10.405
▁возраста	-10.4054
▁мол	-10.4054
▁самолета	-10.4055
▁академии	-10.4059
▁Кон	-10.4062
▁достижения	-10.4066
▁декабре	-10.4071
▁августе	-10.4073
▁пришли	-10.4077
▁игра	-10.4078
▁сюда	-10.4078
▁положении	-10.408
▁General	-10.4084
="	-10.4089
▁example	-10.4093
▁российских	-10.41
▁пре	-10.41
▁теле	-10.4104
род	-10.4105
▁half	-10.4106
▁новым	-10.4106
тель	-10.4107
▁обществе	-10.4107
ate	-10.4118
▁именем	-10.4131
▁комиссии	-10.4133
▁показывает	-10.4135
▁материалов	-10.4155
ева	-10.4155
вшись	-10.4156
▁корпус	-10.4156
▁видели	-10.4165
▁though	-10.4172
▁среды	-10.4172
ment	-10.4175
▁комплекс	-10.4175
▁информация	-10.4182
ness	-10.4183
▁группе	-10.4183
▁тему	-10.4186
▁created	-10.4188
▁House	-10.4189
▁сможет	-10.419
▁втором	-10.4193
тор	-10.4194
▁установить	-10.4198
▁РСФСР	-10.4199
▁половине	-10.4205
▁находились	-10.4206
▁воде	-10.4206
▁born	-10.421
▁Co	-10.4213
▁While	-10.4218
▁этими	-10.4223
ках	-10.4226
▁Петр	-10.4229
▁победу	-10.4234
▁растений	-10.4249
▁социальной	-10.4254
▁глазами	-10.4255
▁сотрудников	-10.4258
▁заметил	-10.4264
▁знали	-10.4266
▁утром	-10.4269
▁program	-10.427
нию	-10.427
▁думать	-10.4271
▁генерала	-10.4273
▁нередко	-10.4273
▁лежит	-10.4275
▁преимущественно	-10.4278
▁глазах	-10.4284
▁help	-10.429
▁способность	-10.4294
▁located	-10.4294
▁сути	-10.4296
▁самому	-10.4297
▁College	-10.4304
▁сделали	-10.4308
▁философии	-10.4311
▁появилась	-10.432
▁такими	-10.4322
▁категории	-10.4324
▁вещей	-10.4326
▁университет	-10.4327
▁картины	-10.4337
жа	-10.4341
▁title	-10.4343
▁International	-10.4348
▁разговор	-10.4348
▁Le	-10.4352
▁поддержку	-10.4353
▁шести	-10.4354
▁новая	-10.4357
▁двадцать	-10.4358
ний	-10.4359
▁специально	-10.4373
▁записи	-10.4383
▁выполнения	-10.4384
▁известный	-10.4385
▁win	-10.4385
▁самостоятельно	-10.4386
ющее	-10.4387
▁театр	-10.4387
▁лучших	-10.4388
▁веществ	-10.4393
▁see	-10.4393
▁выхода	-10.4395
▁князя	-10.4396
▁группу	-10.44
▁республики	-10.4401
▁community	-10.4404
▁подобных	-10.4404
▁используют	-10.442
▁Наиболее	-10.4421
▁Великобритании	-10.4426
шей	-10.4431
▁силами	-10.444
▁north	-10.4451
▁Северной	-10.4452
▁семь	-10.4453
▁Дж	-10.4458
▁present	-10.446
▁однажды	-10.446
▁шаг	-10.4465
▁получает	-10.447
▁pre	-10.4474
вшийся	-10.4475
▁Street	-10.4475
▁правил	-10.4477
▁традиции	-10.4479
▁организма	-10.448
▁Всего	-10.448
▁завода	-10.4489
▁современных	-10.4489
▁опыта	-10.4492
▁основания	-10.4494
▁According	-10.4502
▁миру	-10.4504
ды	-10.4512
▁технологии	-10.4513
▁сердца	-10.4517
▁авиации	-10.4519
▁представление	-10.4522
▁представления	-10.4523
▁Америки	-10.4524
▁Далее	-10.4529
▁considered	-10.4533
▁выступал	-10.4534
▁ребенок	-10.454
▁match	-10.4543
▁документов	-10.4544
▁государств	-10.4546
▁River	-10.4546
▁содержит	-10.4548
скими	-10.4552
▁род	-10.4553
вших	-10.4558
▁министр	-10.4562
▁самолетов	-10.4563
▁октябре	-10.4567
▁England	-10.4576
▁Some	-10.4577
▁Де	-10.4582
▁Три	-10.4588
▁making	-10.4588
▁никакой	-10.4589
▁документы	-10.4592
ру	-10.4594
▁вследствие	-10.4601
▁ВВС	-10.4601
▁самая	-10.4603
ше	-10.4607
▁вечером	-10.4611
▁участия	-10.4612
▁подход	-10.4614
▁e	-10.4615
▁горы	-10.4618
one	-10.4623
▁научных	-10.4625
▁вернуться	-10.4627
▁вещества	-10.4629
▁чрезвычайно	-10.4631
▁адрес	-10.4631
▁Петра	-10.4637
ились	-10.464
▁литературе	-10.4644
▁продукции	-10.4647
▁ход	-10.4651
▁car	-10.4651
▁природе	-10.466
▁началась	-10.4661
▁With	-10.4663
▁worked	-10.4663
co	-10.4663
▁working	-10.4664
ющим	-10.4665
▁site	-10.4667
▁члены	-10.4667
се	-10.467
▁пункт	-10.4672
ум	-10.4672
ак	-10.4677
▁From	-10.468
▁продуктов	-10.4682
▁романа	-10.4685
▁видим	-10.4689
▁Мак	-10.4689
$	-10.4693
▁причине	-10.4705
лю	-10.4707
▁спокойно	-10.4716
▁Army	-10.4716
▁принадлежит	-10.4717
▁будущего	-10.4719
▁якобы	-10.4721
▁методы	-10.4726
▁рукой	-10.4727
▁идей	-10.4731
▁виды	-10.4734
При	-10.4737
▁East	-10.4737
▁Было	-10.4741
▁требуется	-10.4747
▁joined	-10.4749
тся	-10.4752
ха	-10.4756
гу	-10.4757
▁too	-10.4765
▁существование	-10.4768
▁мужчины	-10.4769
▁знаем	-10.4773
▁gave	-10.4779
▁структуры	-10.4779
▁others	-10.4784
ием	-10.4784
▁выход	-10.4786
▁назвать	-10.4788
ling	-10.4802
▁имела	-10.4803
▁предложение	-10.4806
▁играл	-10.4808
▁стол	-10.4811
▁open	-10.4814
▁передачи	-10.4819
▁доступ	-10.4819
▁утра	-10.4823
▁каком	-10.4831
▁body	-10.4832
▁третий	-10.4835
▁спорта	-10.4835
▁руками	-10.4841
▁ситуацию	-10.4842
▁провинции	-10.4847
▁отметить	-10.4856
▁апреле	-10.4858
▁once	-10.4863
▁назвал	-10.4864
▁местных	-10.4867
▁стоял	-10.4868
▁ночи	-10.4872
▁чисто	-10.4877
▁air	-10.4881
▁занимает	-10.4894
▁любого	-10.4895
кон	-10.4897
емся	-10.4906
▁эффект	-10.4911
▁руководство	-10.4916
мо	-10.4921
▁our	-10.4923
вшие	-10.4924
▁требования	-10.4929
▁лицом	-10.4931
▁вплоть	-10.4932
▁контракт	-10.4933
▁social	-10.4935
▁июне	-10.4937
▁видит	-10.4938
▁version	-10.494
▁la	-10.4949
▁Вас	-10.4952
▁добавить	-10.4954
▁собственно	-10.4956
▁your	-10.4958
▁фильме	-10.4959
▁попытки	-10.4961
▁названия	-10.4965
▁контроля	-10.4965
▁главных	-10.4966
et	-10.4968
▁князь	-10.4975
▁заместитель	-10.4975
дер	-10.4985
▁звание	-10.4985
▁включает	-10.4991
▁Париже	-10.4992
▁примеру	-10.4993
▁Украине	-10.4996
▁июле	-10.5
▁Орден	-10.5009
▁государственный	-10.5013
▁предмет	-10.5015
▁окончательно	-10.5017
▁служил	-10.5023
▁County	-10.5031
▁родителей	-10.5035
ден	-10.5035
▁политических	-10.5037
▁буквально	-10.5037
▁And	-10.5042
▁корабля	-10.5043
▁остров	-10.5044
ine	-10.5044
▁нашу	-10.5044
▁победы	-10.5047
▁business	-10.5047
Ц	-10.5053
▁less	-10.5053
▁организация	-10.5056
▁President	-10.5057
▁капитан	-10.5061
▁Ре	-10.5062
ду	-10.5063
▁текста	-10.5064
изма	-10.5065
▁стены	-10.5069
▁успех	-10.5071
▁король	-10.5076
▁происхождения	-10.5077
▁пытался	-10.5078
▁способности	-10.5079
▁addition	-10.5081
ена	-10.509
▁наличие	-10.509
▁становятся	-10.5091
▁пространства	-10.5092
▁вынужден	-10.5095
▁объяснить	-10.5097
▁материал	-10.5099
▁described	-10.51
▁taken	-10.5106
▁http	-10.5106
▁необходимость	-10.511
▁председатель	-10.5113
▁сотни	-10.5115
▁Тот	-10.5118
▁используются	-10.5121
▁стихи	-10.5121
▁produced	-10.5124
▁human	-10.5125
лен	-10.5126
▁История	-10.5127
▁десяти	-10.513
▁Потому	-10.5132
▁работают	-10.5136
▁story	-10.5142
▁Park	-10.5144
▁сознание	-10.5145
▁So	-10.5146
▁wife	-10.5146
▁бывший	-10.5147
▁does	-10.5148
▁пространство	-10.5152
гор	-10.5155
▁приходит	-10.5156
▁веков	-10.5157
time	-10.5158
▁France	-10.5158
▁рынка	-10.5162
▁выйти	-10.5163
овое	-10.5164
▁интервью	-10.5165
▁although	-10.5165
▁тщательно	-10.5167
▁времен	-10.5171
▁воздух	-10.5173
▁вопросам	-10.5174
▁показать	-10.5176
▁Особенно	-10.518
▁рынке	-10.5181
▁отдельные	-10.5182
▁кораблей	-10.5184
▁шла	-10.5192
▁sent	-10.5192
▁Где	-10.5194
▁project	-10.5194
▁отличается	-10.5195
▁ума	-10.5196
▁шли	-10.5197
Об	-10.5197
year	-10.5199
▁Лит	-10.5199
▁mother	-10.52
▁евреев	-10.5205
▁корабль	-10.5207
▁летом	-10.521
▁hand	-10.5219
ll	-10.5224
▁анализа	-10.5229
▁команд	-10.5229
▁Человек	-10.5231
▁вывод	-10.524
▁процессов	-10.5246
▁домов	-10.5246
▁put	-10.525
da	-10.525
▁свете	-10.5252
▁ноябре	-10.5255
▁избран	-10.5256
▁Ту	-10.5257
▁обладает	-10.5258
▁Индии	-10.5259
ce	-10.5261
▁военные	-10.5261
▁дают	-10.5263
Да	-10.5263
ent	-10.5263
U	-10.5264
▁заранее	-10.5265
▁понятие	-10.5266
▁Air	-10.5267
▁ССР	-10.5267
▁товаров	-10.5269
▁этапе	-10.5271
▁игре	-10.5274
▁months	-10.5278
▁разработки	-10.5286
▁другая	-10.5287
▁статус	-10.5294
▁little	-10.5297
▁боевой	-10.5298
▁married	-10.53
▁брата	-10.5306
▁городского	-10.5308
▁seen	-10.5309
▁государственных	-10.5313
▁молодых	-10.5315
вторых	-10.5321
▁героя	-10.5322
▁особо	-10.5323
мен	-10.5323
▁создании	-10.5325
▁глубоко	-10.5326
men	-10.5331
▁органы	-10.5335
▁пар	-10.534
▁анализ	-10.5341
▁искусство	-10.5344
▁level	-10.5345
▁young	-10.5349
видимому	-10.535
▁across	-10.5352
▁игру	-10.5353
▁продолжал	-10.5355
▁феврале	-10.5359
▁opened	-10.536
▁жены	-10.5365
▁Сталина	-10.5366
▁south	-10.5366
▁Московской	-10.5371
▁доктор	-10.538
▁журнала	-10.5381
▁массы	-10.5384
▁будущее	-10.5384
▁головой	-10.5384
▁process	-10.5385
ностью	-10.5388
▁research	-10.5389
▁free	-10.5391
▁хочется	-10.5392
▁America	-10.5393
▁прекрасно	-10.5401
▁Помимо	-10.5404
▁компаний	-10.5405
▁главной	-10.5406
▁обеспечить	-10.5409
un	-10.5413
▁similar	-10.5417
▁сообщения	-10.542
▁Испании	-10.5421
▁сообщили	-10.5423
▁обоих	-10.5424
▁договора	-10.5426
▁началось	-10.5427
▁императора	-10.5429
▁потери	-10.5429
▁голове	-10.543
ant	-10.5436
▁George	-10.5437
▁связаны	-10.5438
▁исключением	-10.5439
▁видимо	-10.5444
▁приказ	-10.5447
▁saw	-10.5449
▁попал	-10.5452
▁плане	-10.5453
▁party	-10.5454
▁вашей	-10.5458
▁любом	-10.5459
▁Her	-10.5465
▁музей	-10.5466
▁министра	-10.5468
▁художник	-10.5468
▁нашли	-10.5468
▁армию	-10.5469
▁режим	-10.5469
▁ведет	-10.5474
▁существуют	-10.5474
▁Люди	-10.5475
▁войсками	-10.5481
▁Ар	-10.5489
▁направления	-10.5491
▁areas	-10.5492
▁думал	-10.5506
бер	-10.5512
▁практике	-10.5512
▁приняли	-10.5515
▁показал	-10.5516
▁воз	-10.5519
▁начинают	-10.5521
▁правления	-10.5521
▁church	-10.5522
▁возле	-10.5525
▁немало	-10.5529
▁дали	-10.5538
▁плен	-10.554
▁хуже	-10.5541
▁последней	-10.5542
▁зачем	-10.5543
▁знают	-10.5543
▁СМИ	-10.5555
▁добиться	-10.5558
▁питания	-10.5558
ям	-10.5559
▁Windows	-10.5561
▁нужны	-10.5561
▁разве	-10.5562
▁дух	-10.5574
рас	-10.5581
▁Первая	-10.5583
▁поставить	-10.5587
▁пер	-10.5589
▁William	-10.559
▁смотреть	-10.5594
▁works	-10.5594
▁выходит	-10.5594
▁Василий	-10.5597
▁выглядит	-10.5599
▁штаб	-10.56
▁простой	-10.5603
▁forces	-10.5606
▁пошел	-10.5606
▁представляют	-10.5609
▁причиной	-10.5609
нер	-10.5612
▁able	-10.5613
▁поддержки	-10.5614
▁отправился	-10.5614
▁герой	-10.5615
▁design	-10.5617
▁front	-10.5618
▁жители	-10.5623
▁дочери	-10.5625
▁премии	-10.5625
ических	-10.5628
▁занял	-10.5628
▁ответственность	-10.5629
age	-10.5631
▁Армии	-10.5632
овать	-10.5633
▁Владимира	-10.5634
▁live	-10.5642
▁come	-10.5647
▁начиная	-10.5651
▁смогли	-10.5655
▁Виктор	-10.5661
▁Та	-10.5663
▁фронт	-10.5663
ации	-10.5667
▁страну	-10.5668
▁установки	-10.567
▁James	-10.5671
▁быстрее	-10.5671
▁успеха	-10.5671
▁Гор	-10.5679
▁изображения	-10.5682
▁пара	-10.5686
▁занимался	-10.5695
▁служит	-10.5697
ma	-10.5698
▁живет	-10.5699
▁поступил	-10.5702
▁большинстве	-10.5705
▁источник	-10.5711
▁партия	-10.5719
▁common	-10.5721
▁хотели	-10.5722
▁машину	-10.5725
мм	-10.5728
▁объем	-10.5728
▁field	-10.5732
▁понятно	-10.5733
▁Южной	-10.574
▁иной	-10.5742
▁Мария	-10.5743
▁подобные	-10.5748
▁читать	-10.575
▁####	-10.5758
▁услуг	-10.5758
▁совместно	-10.5771
▁большинства	-10.5772
▁следующем	-10.5774
▁материалы	-10.5776
▁чел	-10.5779
▁Man	-10.5781
Ж	-10.5783
▁нашел	-10.5786
▁американский	-10.5787
▁вес	-10.5787
▁сезон	-10.5795
ятся	-10.5796
▁жизнью	-10.5797
▁крестьян	-10.5799
▁расстоянии	-10.5804
▁lead	-10.5806
▁developed	-10.5823
▁хотят	-10.5824
▁ближе	-10.5828
▁reported	-10.5833
▁напротив	-10.5834
▁Павел	-10.5835
▁уезда	-10.5838
▁Бар	-10.5839
▁понятия	-10.5843
▁ваши	-10.5844
▁пределах	-10.5847
▁целях	-10.5847
▁fire	-10.5855
!..	-10.5858
▁мужа	-10.5861
▁мою	-10.5864
▁appeared	-10.5866
▁остались	-10.5869
▁Church	-10.587
▁x	-10.5873
▁офицеров	-10.5878
▁изменений	-10.588
▁character	-10.588
▁followed	-10.5882
▁предложения	-10.5884
▁играет	-10.5889
ро	-10.5893
▁вице	-10.5896
▁душе	-10.5905
▁private	-10.5905
▁развитии	-10.5907
▁человеческого	-10.5909
▁Борис	-10.591
▁известных	-10.5913
▁посмотреть	-10.5913
ел	-10.5913
▁Нам	-10.5913
ирование	-10.5914
Это	-10.5915
пер	-10.5919
▁Мир	-10.592
▁земля	-10.5926
▁Сначала	-10.5927
▁социальных	-10.5932
▁Такие	-10.5941
альная	-10.5941
▁случилось	-10.5942
▁Рас	-10.5944
▁Благодаря	-10.5946
▁уверен	-10.5951
▁принцип	-10.5954
▁процентов	-10.596
▁авто	-10.5963
▁средней	-10.5963
▁жили	-10.5966
▁лес	-10.5967
ста	-10.5968
▁переход	-10.5969
Ч	-10.5969
▁современного	-10.5972
▁самим	-10.5972
▁причины	-10.5975
▁произведений	-10.5976
▁готовы	-10.5976
▁living	-10.5978
ur	-10.5978
▁Ле	-10.5983
▁семи	-10.5983
▁решений	-10.5985
▁крупные	-10.5986
▁определения	-10.5988
▁река	-10.599
▁программа	-10.5992
▁университете	-10.5993
▁фоне	-10.5996
щ	-10.6
▁European	-10.6001
▁способом	-10.6005
▁степень	-10.6006
▁одни	-10.6018
▁popular	-10.602
▁результатов	-10.6021
▁пытается	-10.6021
так	-10.6029
▁преступления	-10.6029
▁отделения	-10.6034
▁действовать	-10.6035
▁писателя	-10.6036
▁кон	-10.6036
▁кровь	-10.6041
▁modern	-10.6045
ала	-10.6051
▁art	-10.6052
ary	-10.6058
▁region	-10.6058
▁вашего	-10.6058
лу	-10.6061
▁соответствует	-10.6063
▁связанные	-10.6065
ация	-10.6067
овский	-10.6074
▁реке	-10.6074
▁Кубка	-10.6076
la	-10.6078
▁создал	-10.6082
▁озера	-10.6082
?!	-10.6086
▁царь	-10.6089
▁высоте	-10.6091
▁неоднократно	-10.6095
▁муж	-10.6099
▁хотите	-10.6101
▁расположен	-10.6102
ска	-10.6106
▁изменить	-10.6106
▁ум	-10.6107
▁свыше	-10.6111
▁командира	-10.6114
ro	-10.612
▁Google	-10.6121
▁Карл	-10.6124
▁электро	-10.6132
▁неожиданно	-10.6137
▁принимает	-10.6141
▁человечества	-10.6142
▁Им	-10.6143
▁Ан	-10.6149
▁Николая	-10.615
▁мимо	-10.6154
▁огня	-10.6156
▁data	-10.6157
▁направление	-10.6162
▁цен	-10.6162
▁свойства	-10.6171
am	-10.6172
▁остальных	-10.6172
▁Although	-10.6173
ющиеся	-10.6173
цу	-10.6176
▁стоимость	-10.6177
▁целый	-10.6179
ишь	-10.6181
▁close	-10.6182
▁боль	-10.6185
▁операций	-10.6187
▁High	-10.6187
▁remained	-10.6188
▁создан	-10.6189
▁прием	-10.6198
▁ПО	-10.6202
бо	-10.621
▁семья	-10.6213
▁сыграл	-10.6215
▁храм	-10.6226
▁реальности	-10.6226
line	-10.6237
▁сохранить	-10.6245
▁посредством	-10.6245
ван	-10.6249
▁night	-10.6254
▁Ка	-10.6258
▁тонн	-10.6259
▁обязанности	-10.6261
▁страх	-10.6261
▁вклад	-10.6263
▁upon	-10.6279
▁ошибки	-10.6282
▁лице	-10.6284
▁лечения	-10.6287
▁местного	-10.6288
▁thought	-10.6292
▁рис	-10.6298
▁Company	-10.6298
▁мужчина	-10.6298
io	-10.63
▁живут	-10.63
nd	-10.6302
▁ответственности	-10.6305
▁attack	-10.6306
▁нашим	-10.6307
▁двое	-10.6311
▁задачу	-10.6312
▁влияния	-10.6318
▁союз	-10.6319
▁круг	-10.632
▁помогает	-10.6324
▁мер	-10.6327
▁говорю	-10.6329
▁release	-10.633
▁сообщение	-10.6331
▁следующее	-10.6331
▁сверх	-10.6337
▁специалистов	-10.6337
▁машина	-10.6337
▁интернет	-10.6338
▁понимать	-10.6342
ge	-10.6345
лет	-10.6348
▁поэта	-10.6348
▁предприятий	-10.6348
▁программ	-10.6358
▁избежать	-10.6361
▁центром	-10.6367
den	-10.6371
▁Олимпийских	-10.6372
▁наверное	-10.6381
▁оценки	-10.6381
▁написать	-10.6385
▁определяется	-10.6386
▁своём	-10.6388
▁служить	-10.6392
▁дорогу	-10.6392
▁программу	-10.6392
▁хлеб	-10.6397
лы	-10.6401
ана	-10.6403
▁внутренней	-10.6403
▁команде	-10.6406
▁study	-10.6408
▁играх	-10.641
▁карьеру	-10.6411
▁судов	-10.6414
▁помимо	-10.6417
▁обо	-10.6417
▁formed	-10.6417
истов	-10.6421
▁интересно	-10.6425
▁вопроса	-10.6425
енный	-10.6428
▁связанных	-10.6431
▁нужен	-10.6432
ющихся	-10.6433
▁Council	-10.6437
▁суть	-10.6439
▁восемь	-10.6439
▁административно	-10.6447
▁Позже	-10.6447
▁осуществляется	-10.645
▁вышли	-10.6457
▁office	-10.6468
▁Обычно	-10.6471
▁приложения	-10.6473
▁провёл	-10.6479
▁узнал	-10.6481
▁post	-10.6483
▁недостаточно	-10.6485
▁find	-10.6485
альный	-10.6488
▁Юрий	-10.6489
▁Red	-10.6491
▁идут	-10.6492
ir	-10.6492
▁Большинство	-10.6502
ющийся	-10.6503
▁отношениях	-10.6512
пол	-10.6516
▁словом	-10.6516
▁ею	-10.6517
▁сумму	-10.6521
▁городской	-10.6521
▁устройство	-10.6529
▁двери	-10.6533
ви	-10.6534
▁player	-10.6542
▁рынок	-10.6549
▁вечер	-10.6558
▁российской	-10.6559
▁сто	-10.6559
▁подобно	-10.6561
▁кладбище	-10.6564
▁получается	-10.6567
▁change	-10.6568
▁сеть	-10.6568
▁available	-10.6569
▁event	-10.6577
▁отряд	-10.658
илась	-10.6581
▁следовательно	-10.6583
▁внешней	-10.6584
▁здоровья	-10.6588
▁start	-10.6588
▁бывшего	-10.6593
▁официально	-10.6594
▁information	-10.6596
▁нужна	-10.6596
▁продолжает	-10.6597
▁average	-10.6597
▁written	-10.6599
▁stated	-10.6612
▁окна	-10.6612
▁вами	-10.6616
▁качество	-10.6618
▁боли	-10.6618
▁следующим	-10.6629
▁Однажды	-10.663
▁black	-10.6635
▁работников	-10.664
▁статей	-10.6646
▁военный	-10.665
▁администрации	-10.665
▁white	-10.6652
▁собственности	-10.6653
▁вошли	-10.6655
▁музыки	-10.666
▁рассказ	-10.6662
▁материала	-10.6664
▁Московского	-10.6666
▁городах	-10.6667
▁друзья	-10.6669
▁леса	-10.6669
▁человеческой	-10.667
▁Америке	-10.667
▁пользователей	-10.6671
▁врага	-10.6673
▁единственный	-10.668
▁старший	-10.668
▁поколения	-10.6681
ид	-10.6693
летний	-10.6694
▁реакции	-10.6694
▁sold	-10.6699
▁Me	-10.6703
▁отказался	-10.6703
▁killed	-10.6707
▁Одна	-10.6707
▁размер	-10.6708
▁ученые	-10.6713
▁девушка	-10.6719
ён	-10.6719
ирует	-10.672
▁законы	-10.6722
▁know	-10.6727
▁крест	-10.673
▁теория	-10.6731
▁приказал	-10.6733
▁советского	-10.6734
▁выступает	-10.6736
▁трудом	-10.6736
ner	-10.6742
▁self	-10.6746
▁американских	-10.6751
▁черты	-10.6752
▁собственного	-10.6753
▁территорию	-10.6753
▁сквозь	-10.6759
▁открытия	-10.6761
▁подробно	-10.6763
▁If	-10.6763
▁рассказывает	-10.6764
▁прибыли	-10.6765
▁Cup	-10.6766
▁Court	-10.6767
▁Кстати	-10.6767
▁меж	-10.6768
▁Меня	-10.6772
▁дважды	-10.6774
вар	-10.6774
▁частично	-10.6776
▁Руси	-10.6777
▁принимал	-10.6777
▁Union	-10.6779
▁points	-10.6783
▁социально	-10.6785
▁far	-10.6786
▁special	-10.6788
▁eventually	-10.679
▁минуту	-10.6792
▁погиб	-10.6793
▁всякого	-10.6793
▁XVII	-10.6795
▁эпоху	-10.6795
▁усилия	-10.6795
▁signed	-10.6797
▁местности	-10.68
▁El	-10.6803
▁угодно	-10.6804
▁international	-10.6804
▁источников	-10.6804
▁объявил	-10.6807
▁участок	-10.6812
▁воздухе	-10.6813
▁construction	-10.6816
▁международных	-10.6816
▁собственных	-10.6825
▁российского	-10.683
ter	-10.6832
▁языков	-10.6834
▁l	-10.6835
▁содержания	-10.6839
▁бою	-10.684
il	-10.6841
▁началом	-10.6841
▁проводить	-10.6844
▁каждая	-10.6845
▁аппарат	-10.6848
▁назначения	-10.6853
▁великого	-10.6855
▁общественного	-10.6859
вшего	-10.686
▁благо	-10.6864
▁Герой	-10.6865
кова	-10.687
▁знаний	-10.687
▁Group	-10.6875
▁танков	-10.6876
▁штат	-10.6885
▁going	-10.6885
▁language	-10.6889
▁either	-10.689
▁существенно	-10.6892
▁education	-10.6896
▁стадии	-10.6899
▁описание	-10.6902
▁любит	-10.6903
▁low	-10.6907
ized	-10.6907
▁оставить	-10.6907
енные	-10.6909
▁brought	-10.6911
▁КПСС	-10.6912
▁знаете	-10.6914
▁ООН	-10.6918
▁строго	-10.6922
▁India	-10.6929
▁минуты	-10.6935
▁выборах	-10.6937
ka	-10.694
ун	-10.6941
▁половины	-10.6942
▁орган	-10.6945
▁добавил	-10.6945
▁ресурсов	-10.6947
▁дивизия	-10.6951
▁журнал	-10.6955
пре	-10.6956
▁свободу	-10.6956
▁применение	-10.696
▁использованием	-10.6961
Вы	-10.6962
▁прошли	-10.6964
фа	-10.6968
▁развитию	-10.697
▁сомнения	-10.6971
▁сцене	-10.6973
▁California	-10.6977
▁общее	-10.6977
▁медаль	-10.6978
▁немецких	-10.6978
▁карты	-10.6981
▁среднем	-10.6988
▁decided	-10.6988
▁пришла	-10.6991
less	-10.6992
▁пройти	-10.6996
▁Несколько	-10.6997
▁наступление	-10.6999
▁отвечает	-10.7002
▁Николаевич	-10.7003
▁Pro	-10.7005
▁шел	-10.7007
▁бригады	-10.701
▁training	-10.701
▁национального	-10.7011
▁типов	-10.7011
▁Act	-10.7013
▁throughout	-10.7018
▁race	-10.7018
стер	-10.7021
▁кое	-10.7022
▁Пол	-10.7025
▁"...	-10.7025
▁behind	-10.7025
▁light	-10.7032
ланд	-10.7033
▁легче	-10.7034
▁rather	-10.7034
▁Первой	-10.7034
▁режима	-10.7036
▁творчества	-10.7041
▁минимум	-10.7047
▁недель	-10.705
me	-10.705
▁Первые	-10.7051
▁называли	-10.7051
▁провел	-10.7052
▁police	-10.7053
▁round	-10.7055
▁вижу	-10.7056
▁решить	-10.7058
▁родители	-10.7058
▁Europe	-10.7063
▁Пусть	-10.7066
%.	-10.7071
▁газа	-10.7081
▁процессы	-10.7082
▁явления	-10.7083
▁проблему	-10.7083
▁выполнять	-10.7088
▁Кар	-10.7089
▁Ново	-10.7093
чик	-10.7093
li	-10.7094
▁св	-10.7096
▁court	-10.7099
▁основу	-10.7099
▁сильнее	-10.7105
▁species	-10.7105
▁училище	-10.7112
by	-10.7112
▁Division	-10.7114
▁Dr	-10.7117
▁директора	-10.7118
ницы	-10.7121
лом	-10.7124
▁тяжело	-10.7126
▁душу	-10.7129
▁титул	-10.7133
▁Ми	-10.7134
▁possible	-10.7135
▁страна	-10.7135
▁художника	-10.7139
▁привело	-10.7143
▁Go	-10.7144
▁полный	-10.7146
▁Такое	-10.7149
▁смысла	-10.7149
▁almost	-10.7151
▁многое	-10.7153
▁термин	-10.7158
▁позицию	-10.7159
жи	-10.7165
▁прямой	-10.717
▁встречается	-10.7171
▁функций	-10.7171
▁среде	-10.7172
▁Royal	-10.7174
▁картина	-10.7175
▁помню	-10.7177
▁базы	-10.7178
▁least	-10.7179
▁сказано	-10.7179
▁являлся	-10.7181
▁поверхность	-10.7181
▁изучения	-10.7182
▁services	-10.7183
▁руководитель	-10.7184
out	-10.7185
▁встречаются	-10.7188
▁Мар	-10.7189
▁involved	-10.7195
▁Hall	-10.72
▁soon	-10.7201
овую	-10.7204
▁Лев	-10.7209
▁имена	-10.7218
▁Святого	-10.7219
ec	-10.7221
▁пространстве	-10.7222
▁provided	-10.7222
▁Party	-10.7222
▁влиянием	-10.7225
ous	-10.7225
be	-10.7227
▁действует	-10.7229
инг	-10.7232
енных	-10.7233
▁al	-10.7238
▁обе	-10.7241
▁Ку	-10.7244
▁events	-10.7246
▁железной	-10.725
▁среднего	-10.725
▁интересов	-10.7258
▁force	-10.7261
Если	-10.7261
▁набор	-10.7275
▁Такой	-10.7275
▁секунд	-10.7276
вшегося	-10.7278
▁recorded	-10.7279
▁чувств	-10.7281
net	-10.7284
▁поражения	-10.7286
▁рано	-10.7287
изации	-10.7289
▁темы	-10.7291
▁type	-10.7291
▁video	-10.7294
▁делам	-10.7297
▁сельскохозяйств	-10.7308
▁народного	-10.7308
q	-10.7309
▁порт	-10.731
▁правом	-10.7313
кам	-10.7313
▁цены	-10.7318
▁рот	-10.7322
▁переговоры	-10.7323
▁конструкции	-10.7328
▁фирмы	-10.7328
▁древних	-10.7329
▁Кур	-10.7336
▁торговли	-10.7339
▁делал	-10.7341
▁"«	-10.7348
▁борьбу	-10.7348
▁судьба	-10.735
лов	-10.7351
▁успел	-10.7359
▁острове	-10.7362
▁солнце	-10.7362
▁рабочего	-10.7365
▁village	-10.7371
▁выражение	-10.7373
▁You	-10.7382
ший	-10.7383
▁высшей	-10.7384
▁борьба	-10.7384
▁size	-10.7388
▁региона	-10.7388
▁четырёх	-10.739
▁ученых	-10.7394
▁вторая	-10.7395
▁performance	-10.7397
▁писателей	-10.7398
▁берега	-10.7402
оз	-10.7406
▁нравится	-10.741
емых	-10.741
▁способен	-10.7415
▁дворе	-10.7416
▁председателя	-10.7416
▁печати	-10.7421
▁независимо	-10.7422
ге	-10.7422
▁масла	-10.7433
▁Сен	-10.744
▁слегка	-10.7442
▁составляют	-10.7443
▁Black	-10.7445
▁Член	-10.7451
▁Много	-10.7454
▁выступил	-10.7456
▁соединения	-10.7458
▁конфликт	-10.746
▁русском	-10.7461
▁часы	-10.7463
▁Китая	-10.7464
▁полное	-10.7465
ган	-10.7466
▁воздействия	-10.7468
▁режиме	-10.7469
▁ощущение	-10.747
▁need	-10.7471
▁полном	-10.7473
▁делом	-10.7476
вен	-10.7483
▁вкус	-10.7484
▁методов	-10.7484
ирования	-10.7486
▁Роман	-10.7489
ty	-10.7489
▁опасности	-10.7489
▁собственные	-10.7489
▁оборудования	-10.7491
▁многом	-10.7491
▁намного	-10.7498
▁проектов	-10.7499
▁mid	-10.75
go	-10.75
ём	-10.7502
▁масса	-10.7504
▁участник	-10.7504
▁планеты	-10.7505
это	-10.7505
▁сложно	-10.7506
▁самих	-10.7507
▁МОСКВА	-10.7508
▁немцев	-10.7511
▁итогам	-10.7514
вшейся	-10.7514
▁дорога	-10.7516
▁изображение	-10.7516
▁got	-10.7516
▁внезапно	-10.7517
▁переписи	-10.7518
▁Australia	-10.7518
▁groups	-10.7519
▁каждому	-10.7521
▁работой	-10.7523
▁интересы	-10.7524
▁шум	-10.7526
ё	-10.7532
▁Paul	-10.7532
▁David	-10.7533
▁сказали	-10.7535
▁сверху	-10.7537
▁Христа	-10.7538
▁возможностей	-10.7543
▁episode	-10.755
▁China	-10.755
▁входят	-10.7558
▁храма	-10.7563
▁районах	-10.7563
ad	-10.7566
пар	-10.757
▁Прежде	-10.7571
▁формирования	-10.7573
▁руководства	-10.7573
▁картину	-10.7575
▁might	-10.7576
▁Академии	-10.7576
▁Germany	-10.7585
▁морской	-10.7586
▁обмен	-10.7603
▁программе	-10.7604
▁Анна	-10.7605
альные	-10.7613
ген	-10.7614
▁известен	-10.762
▁dis	-10.7622
▁оставил	-10.7627
▁французский	-10.7632
▁небо	-10.7635
▁имеются	-10.7638
▁appointed	-10.7644
▁духа	-10.7648
▁депутатов	-10.7649
▁звезды	-10.7651
▁всякий	-10.7651
▁создавать	-10.7653
est	-10.7654
rs	-10.7657
▁встреча	-10.766
▁Западной	-10.7663
▁performed	-10.7663
▁элемент	-10.7663
▁никого	-10.7664
▁любил	-10.7668
▁anti	-10.7668
▁сущности	-10.767
▁ever	-10.7677
▁leading	-10.7679
▁передать	-10.7687
▁температура	-10.7689
▁политика	-10.7691
▁идею	-10.7698
▁открыл	-10.7707
▁фронте	-10.7708
исты	-10.7708
нуть	-10.771
▁оттуда	-10.7712
▁Два	-10.7713
▁бур	-10.7715
▁считали	-10.7718
▁et	-10.772
▁g	-10.772
▁ground	-10.7723
▁заболевания	-10.7725
мин	-10.7726
▁разумеется	-10.7728
▁пошли	-10.7728
▁комплекса	-10.7741
▁completed	-10.7746
▁campaign	-10.7749
▁английский	-10.7752
▁поражение	-10.7752
бе	-10.7758
▁Дом	-10.7762
▁ждать	-10.7766
of	-10.7768
▁соль	-10.7769
.[	-10.7769
ul	-10.777
▁money	-10.7771
▁person	-10.7774
▁явление	-10.7774
▁полного	-10.7779
▁конференции	-10.7781
▁семейства	-10.7785
▁стиле	-10.7787
▁никому	-10.7791
бу	-10.7791
ины	-10.7795
▁очередной	-10.78
▁совершил	-10.7802
▁другому	-10.7802
▁состоянию	-10.7807
▁комнате	-10.7808
▁научной	-10.7808
▁используя	-10.7812
▁гибели	-10.7812
▁нарушения	-10.7815
▁понимаю	-10.782
▁Бо	-10.7822
▁длиной	-10.7823
▁боях	-10.7824
▁вряд	-10.7826
▁находилась	-10.7833
▁provide	-10.7834
▁стр	-10.7834
▁sub	-10.784
▁технологий	-10.7841
▁XVI	-10.7841
▁орденом	-10.7842
вид	-10.7842
▁многочисленные	-10.7846
▁election	-10.7846
▁взаимодействия	-10.7849
▁конечном	-10.7849
▁Просто	-10.7851
▁версия	-10.7851
▁Новый	-10.7852
▁героев	-10.7855
▁перешёл	-10.7855
▁Причем	-10.7861
▁днем	-10.7865
▁rest	-10.7868
▁instead	-10.7869
▁television	-10.7871
▁врач	-10.7877
▁религии	-10.7879
▁собаки	-10.7879
ическую	-10.7881
▁зоны	-10.7881
▁кода	-10.7888
▁Ал	-10.7889
зи	-10.7889
▁Center	-10.7891
▁VI	-10.7894
▁способны	-10.7896
▁current	-10.7896
▁action	-10.7898
▁будете	-10.7903
ант	-10.7903
аль	-10.7905
вшей	-10.7911
▁перевод	-10.7912
▁законов	-10.7913
▁женой	-10.7919
▁Вместо	-10.7921
енной	-10.7922
▁ваше	-10.7925
▁изменение	-10.7927
▁средство	-10.7929
▁получать	-10.793
▁полковник	-10.7935
▁met	-10.7937
▁поздно	-10.7939
▁берег	-10.7942
im	-10.7943
▁общий	-10.7948
▁объекты	-10.7948
ир	-10.7952
мир	-10.7953
▁finished	-10.7963
▁плана	-10.7963
▁пользоваться	-10.7965
▁душа	-10.7967
▁указывает	-10.797
▁кожи	-10.7971
▁пунктов	-10.7974
se	-10.7975
▁brother	-10.7977
▁памятник	-10.798
▁ш	-10.7982
▁added	-10.7985
▁волны	-10.7985
▁прибыл	-10.7985
▁близ	-10.7985
▁порой	-10.7992
▁навсегда	-10.7993
▁Отец	-10.7996
▁механизм	-10.7997
▁Часть	-10.8002
▁искусств	-10.8004
▁Ивана	-10.8005
▁success	-10.8012
▁земель	-10.8015
▁states	-10.8016
▁воли	-10.8018
▁already	-10.8019
▁тепло	-10.802
▁бог	-10.8022
▁немцы	-10.8026
▁театре	-10.8027
▁Земле	-10.8031
ино	-10.8032
▁корабли	-10.8036
▁теми	-10.8039
▁АН	-10.8039
▁строй	-10.8044
▁работали	-10.8046
емые	-10.8046
▁знаком	-10.8046
▁Париж	-10.8055
▁использует	-10.8058
ts	-10.806
▁style	-10.8063
иков	-10.8064
мор	-10.8078
▁высоты	-10.808
▁аль	-10.8085
▁asked	-10.8089
▁забил	-10.8092
▁всяком	-10.8094
▁имея	-10.8102
▁продукты	-10.8103
▁прошел	-10.8104
Что	-10.8106
▁купить	-10.8116
▁space	-10.8116
▁контакт	-10.8117
▁медали	-10.8118
город	-10.8121
▁птиц	-10.8126
▁появления	-10.8129
Про	-10.8129
▁Washington	-10.813
ово	-10.8131
▁поэзии	-10.8132
▁told	-10.8133
▁авторов	-10.8134
▁сад	-10.8136
▁term	-10.8137
▁инженер	-10.8137
▁общественных	-10.8144
▁Association	-10.8144
▁rights	-10.8145
▁второе	-10.8147
▁уровнем	-10.815
▁вопросу	-10.8151
▁общения	-10.8156
▁признать	-10.816
▁издания	-10.8161
▁внимательно	-10.8162
▁fact	-10.8162
▁американской	-10.8166
▁Canada	-10.8166
▁предлагает	-10.8167
▁клетки	-10.8167
▁вступил	-10.8169
▁новом	-10.8171
▁allowed	-10.8172
▁range	-10.8173
▁Japanese	-10.8174
▁мастер	-10.818
▁itself	-10.8182
▁союза	-10.8191
▁White	-10.8192
▁строя	-10.8192
▁флот	-10.8193
▁суток	-10.8196
▁экономической	-10.8201
ющую	-10.8201
▁состоялась	-10.8203
▁outside	-10.8204
ham	-10.8206
▁ракет	-10.8214
▁необходимые	-10.8216
▁Пер	-10.822
▁матч	-10.8221
фер	-10.8223
▁playing	-10.8224
▁ног	-10.8225
em	-10.8231
▁классов	-10.8237
▁ship	-10.8237
▁появляются	-10.8237
▁планы	-10.8244
▁сумел	-10.8245
овского	-10.8247
▁Союз	-10.8249
хи	-10.8249
▁нежели	-10.8253
▁daughter	-10.8255
▁моим	-10.8256
▁студентов	-10.8264
▁designed	-10.8266
▁Chinese	-10.827
▁That	-10.8277
▁граф	-10.8278
▁мнения	-10.8281
▁позволяют	-10.8288
▁бизнеса	-10.8291
▁газета	-10.8294
▁Ван	-10.8294
▁масло	-10.8303
▁First	-10.831
▁посёлок	-10.8317
чер	-10.832
▁выборов	-10.8325
▁отказаться	-10.8327
▁счёт	-10.8328
▁живых	-10.8329
▁законом	-10.833
▁средствами	-10.8331
▁высокого	-10.8333
▁сложности	-10.8335
▁точку	-10.8336
▁связана	-10.8337
▁Всё	-10.8337
▁ответа	-10.8337
кина	-10.8342
▁разведки	-10.8343
▁мед	-10.8345
▁seven	-10.8345
▁станция	-10.8347
▁Пушкина	-10.835
▁Ленин	-10.8355
▁атаки	-10.8357
▁miles	-10.8361
▁символ	-10.8367
▁командованием	-10.8367
▁reached	-10.8367
▁бумаги	-10.8368
▁юге	-10.8369
▁предметы	-10.8371
ri	-10.8374
▁хватает	-10.8375
▁завтра	-10.8376
▁usually	-10.8376
без	-10.8377
▁орудий	-10.8382
▁письме	-10.8384
▁МВД	-10.8386
▁известны	-10.8389
▁стиль	-10.839
▁гражданской	-10.8393
▁тренер	-10.8393
▁этап	-10.8393
old	-10.8402
▁расположены	-10.8402
▁основным	-10.8404
▁countries	-10.8408
▁ветер	-10.8421
ели	-10.8422
▁поток	-10.8423
▁проверки	-10.8426
▁official	-10.8427
▁PS	-10.8427
▁ярко	-10.8429
▁room	-10.8431
▁Впервые	-10.8435
▁несомненно	-10.8438
»;	-10.844
▁изначально	-10.8442
▁better	-10.8444
▁отдел	-10.8444
▁голоса	-10.8445
▁media	-10.8447
▁микро	-10.8455
▁музея	-10.8457
▁give	-10.8459
▁СС	-10.8459
▁звук	-10.8459
▁немецкий	-10.846
▁показали	-10.8463
▁ten	-10.8464
▁Александрович	-10.8468
▁child	-10.8469
▁давать	-10.8471
▁системой	-10.8479
▁желания	-10.848
▁My	-10.8485
▁проще	-10.8486
▁Charles	-10.849
▁east	-10.849
▁Ранее	-10.8491
▁model	-10.8492
▁груди	-10.8492
▁недо	-10.8494
▁Одним	-10.8495
▁God	-10.8501
"?	-10.8506
▁west	-10.8506
▁связан	-10.8507
▁president	-10.8508
изация	-10.851
▁сопротивление	-10.8512
▁road	-10.8512
▁файл	-10.852
стр	-10.852
▁мама	-10.8521
▁наблюдения	-10.8524
▁di	-10.8525
▁группой	-10.8532
▁собрания	-10.8535
▁утверждает	-10.8543
do	-10.8544
▁Road	-10.8545
▁банка	-10.8546
▁обнаружил	-10.8547
▁регулярно	-10.8552
▁погибли	-10.8552
▁сутки	-10.8554
▁международного	-10.8554
▁огромное	-10.8554
▁пытались	-10.8561
▁Мин	-10.8561
▁function	-10.8565
▁заключения	-10.8569
▁общественной	-10.8569
▁сборную	-10.8571
▁век	-10.8573
▁aircraft	-10.8573
▁сей	-10.8574
▁schools	-10.8576
▁детали	-10.8584
сен	-10.8585
▁услуги	-10.8586
▁растения	-10.8587
▁here	-10.8587
get	-10.8592
▁army	-10.8593
▁настоящий	-10.8597
хан	-10.8597
▁великий	-10.8599
▁предметов	-10.86
ания	-10.8602
▁Robert	-10.8603
ca	-10.8604
ур	-10.8605
▁испытания	-10.8607
▁встрече	-10.8609
▁обязан	-10.8613
▁пожалуй	-10.8615
▁Эр	-10.8615
▁move	-10.8616
▁состоялся	-10.8617
▁создает	-10.8621
▁stage	-10.8621
▁давление	-10.8623
▁sea	-10.8624
▁Ha	-10.8627
ении	-10.8631
▁always	-10.8632
▁имущества	-10.8633
▁radio	-10.8635
▁прошла	-10.8641
▁previous	-10.8642
▁зоне	-10.8644
▁автомобиль	-10.8647
▁Кор	-10.8648
тели	-10.8649
▁director	-10.865
▁Thomas	-10.865
ization	-10.8655
тен	-10.8656
▁обучение	-10.8656
▁единственным	-10.8661
▁Пушкин	-10.8662
▁Сын	-10.8663
▁разрешения	-10.8664
▁рассказать	-10.8665
▁позволит	-10.8665
▁поход	-10.8675
▁секретарь	-10.8676
▁впрочем	-10.8676
▁распространение	-10.8677
▁скоростью	-10.868
▁Основные	-10.8681
▁required	-10.8684
▁попросил	-10.8687
field	-10.8691
▁принципе	-10.8692
▁поможет	-10.8694
▁replaced	-10.8697
▁Times	-10.8701
▁пищи	-10.8701
▁транспорта	-10.8701
▁штата	-10.8702
▁Be	-10.8704
▁защиту	-10.8706
▁статья	-10.8706
▁приехал	-10.8708
▁future	-10.8709
▁документ	-10.8712
оп	-10.8716
▁Большой	-10.8716
▁зато	-10.8716
▁Paris	-10.8722
▁делали	-10.8724
▁См	-10.8726
▁гол	-10.8728
▁Мой	-10.873
▁обработки	-10.8732
▁последовательно	-10.8734
▁телефон	-10.8738
▁выбрать	-10.874
▁Con	-10.8741
▁track	-10.8743
вшая	-10.8744
ическом	-10.8747
очка	-10.8752
▁температуры	-10.8752
▁Mo	-10.8754
▁Игорь	-10.8754
▁евро	-10.8755
▁личность	-10.8755
ству	-10.8759
▁Пред	-10.8761
▁возраст	-10.8763
воз	-10.8763
▁старых	-10.8765
▁real	-10.8767
▁конфликта	-10.8767
▁полета	-10.8768
▁оставался	-10.8768
ата	-10.877
way	-10.8774
▁цивилизации	-10.8776
▁прошло	-10.8779
▁скажем	-10.878
▁количестве	-10.8781
▁определение	-10.8787
▁founded	-10.879
▁ракеты	-10.8792
▁Indian	-10.8796
▁above	-10.8798
▁рассматривать	-10.8801
▁дорог	-10.8801
ора	-10.8802
▁экспедиции	-10.8803
дон	-10.8803
гер	-10.8805
бы	-10.8807
▁Северо	-10.8809
оциалистического	-10.8811
нием	-10.8811
▁ценности	-10.8812
▁получают	-10.8813
▁face	-10.8814
▁featured	-10.8816
▁цикл	-10.8816
▁замуж	-10.8817
▁стояли	-10.8821
▁столетия	-10.8821
▁крепости	-10.8821
▁цветов	-10.8826
шая	-10.8828
▁границу	-10.8828
▁r	-10.8834
▁окно	-10.8842
▁опасность	-10.8842
▁определяет	-10.8843
▁мышления	-10.8844
▁детьми	-10.8847
▁охраны	-10.8847
▁Ха	-10.8848
для	-10.8852
▁Бур	-10.8853
▁taking	-10.8853
все	-10.8854
▁расстояние	-10.8857
▁course	-10.8858
▁сидел	-10.8858
▁океана	-10.8861
▁pro	-10.8863
▁UK	-10.8866
▁севере	-10.8866
▁среду	-10.8866
▁правой	-10.8868
▁мост	-10.8869
▁возникают	-10.8873
▁центральной	-10.8874
▁американского	-10.8876
▁размере	-10.8876
цов	-10.8878
▁организм	-10.8878
▁голова	-10.8878
▁Совет	-10.8881
▁us	-10.8882
▁Над	-10.8882
▁подобного	-10.8883
▁interest	-10.8885
▁movement	-10.8886
▁заявление	-10.8886
In	-10.8888
▁округ	-10.8889
▁подписал	-10.8889
▁whose	-10.8889
▁читал	-10.8893
нос	-10.8894
▁сигнал	-10.8895
лей	-10.8895
▁продукт	-10.8903
▁TV	-10.8905
▁Греции	-10.8905
▁eight	-10.8908
▁introduced	-10.8908
▁обратился	-10.8909
▁матча	-10.891
▁орден	-10.8911
▁отделение	-10.8914
▁стоят	-10.8914
кер	-10.8917
▁раздел	-10.8923
▁Михайлович	-10.8924
▁верно	-10.8925
▁третьего	-10.8927
▁Васильевич	-10.8936
▁Советской	-10.8937
▁отряда	-10.894
▁hit	-10.8943
▁стоимости	-10.8946
▁ходу	-10.8947
▁судьбы	-10.8948
▁Since	-10.8948
▁Китае	-10.8956
ас	-10.8958
▁Первое	-10.8959
▁мозг	-10.8961
ana	-10.8962
▁построен	-10.8962
▁Mar	-10.8963
▁уйти	-10.8965
▁исследование	-10.8968
▁стремление	-10.8969
▁наличии	-10.8974
▁языком	-10.8977
("	-10.898
▁понимает	-10.898
енная	-10.8982
▁миром	-10.8982
▁комнату	-10.8984
▁Вопрос	-10.8985
▁фотографии	-10.8985
ina	-10.8988
▁evidence	-10.8988
▁хороший	-10.899
▁вызвать	-10.8992
▁здоровье	-10.8994
▁вещь	-10.8994
▁столицы	-10.8995
▁beginning	-10.8998
▁Вер	-10.8998
▁Department	-10.9001
▁Car	-10.9001
▁towards	-10.9007
▁goal	-10.9007
day	-10.9009
▁Президент	-10.9011
▁подходит	-10.9016
▁выполнить	-10.9022
▁га	-10.9022
▁сторона	-10.9023
▁похоже	-10.9025
▁largest	-10.9031
▁Лондоне	-10.9032
▁especially	-10.9035
ally	-10.9037
▁каждым	-10.9041
▁социального	-10.9042
▁каждое	-10.9043
▁настоящего	-10.9043
▁Марк	-10.9043
шего	-10.9043
▁статью	-10.9043
ha	-10.9046
▁выпуска	-10.9046
▁камень	-10.9046
телей	-10.9047
пред	-10.9049
▁наряду	-10.9055
▁strong	-10.9057
▁вели	-10.9058
теля	-10.9067
▁successful	-10.907
▁enough	-10.907
▁k	-10.9072
▁Иванов	-10.9077
▁health	-10.9079
▁понимал	-10.9081
▁случаи	-10.9081
▁напоминает	-10.9083
▁следующих	-10.9084
▁миллиона	-10.9086
▁shows	-10.9087
▁службе	-10.9087
мана	-10.9089
сом	-10.909
▁past	-10.9091
▁сцены	-10.9094
▁веб	-10.9095
▁выбора	-10.9099
▁writing	-10.9102
▁обеих	-10.9106
▁акций	-10.9107
▁песен	-10.9114
▁взрыва	-10.9115
▁значительной	-10.9115
▁players	-10.9119
▁Такая	-10.912
▁via	-10.9121
▁кампании	-10.9123
▁love	-10.9123
▁placed	-10.9123
ard	-10.9125
тов	-10.9125
▁поставил	-10.913
▁аппарата	-10.9132
▁сельсовета	-10.9132
▁Art	-10.9136
▁максимально	-10.9137
▁Ор	-10.9146
▁week	-10.915
▁оказаться	-10.9151
▁специальных	-10.9151
▁инструмент	-10.9153
▁зале	-10.9156
▁дерева	-10.9159
▁понимание	-10.9161
▁Дон	-10.9162
▁свободно	-10.9163
если	-10.9164
▁Константин	-10.9166
▁Нужно	-10.9168
▁открыто	-10.9168
▁кстати	-10.917
▁ди	-10.918
▁African	-10.918
▁высоких	-10.9184
▁прочих	-10.9184
▁Польши	-10.9188
▁собак	-10.9189
▁слышал	-10.9189
▁установлен	-10.9191
▁пола	-10.9194
▁Michael	-10.9195
▁Город	-10.9195
▁профессионально	-10.9197
▁использовали	-10.9198
▁император	-10.9199
▁кур	-10.9199
▁заметить	-10.92
▁done	-10.9201
▁отмечает	-10.9204
▁base	-10.9205
▁зал	-10.9206
зы	-10.9206
▁Гитлер	-10.921
ание	-10.9211
▁двигателя	-10.9211
▁тобой	-10.9212
▁contract	-10.9214
чу	-10.9215
rd	-10.9215
▁близко	-10.9216
▁ста	-10.9224
▁Марии	-10.9226
▁Другие	-10.9232
▁вечера	-10.9232
том	-10.9233
▁понимания	-10.9234
ав	-10.9234
▁впереди	-10.9234
▁двор	-10.9235
рон	-10.9236
▁square	-10.9238
стве	-10.924
▁газ	-10.9243
евич	-10.9246
▁высокий	-10.9249
▁каждую	-10.9254
▁любое	-10.9258
▁Roman	-10.9259
▁отнюдь	-10.9261
▁орудия	-10.9266
▁причина	-10.9266
▁монастыря	-10.9278
▁акции	-10.9279
▁звезд	-10.928
▁создана	-10.9282
▁исторических	-10.9282
▁счастье	-10.9283
▁Great	-10.9292
▁командование	-10.9293
▁последствия	-10.9297
▁объединения	-10.9298
▁убийства	-10.9298
▁давления	-10.9299
▁Award	-10.9301
▁важных	-10.9301
▁выпуск	-10.9302
▁образа	-10.9303
▁Одновременно	-10.9304
▁издание	-10.9307
▁мною	-10.9307
▁учился	-10.9311
▁Бор	-10.9312
▁оставаться	-10.9313
▁занимал	-10.9314
▁Russian	-10.9314
▁бывают	-10.9317
▁Ответ	-10.9321
ете	-10.9323
▁woman	-10.9327
▁структур	-10.9327
▁различными	-10.9335
▁оставалось	-10.9335
Он	-10.9339
▁районов	-10.9342
he	-10.9343
▁брать	-10.9347
ted	-10.9347
емый	-10.9349
▁начались	-10.9351
▁Белоруссии	-10.9353
▁Japan	-10.9354
▁Ещё	-10.9354
▁футболист	-10.9356
▁turn	-10.9357
▁горе	-10.9358
▁восьми	-10.936
▁рыб	-10.9365
▁лейтенант	-10.9365
йтесь	-10.9369
ni	-10.9369
▁сюжет	-10.937
▁тихо	-10.937
▁причинам	-10.937
ler	-10.9371
▁Население	-10.9372
рен	-10.9374
▁фильмов	-10.9376
дан	-10.9376
ци	-10.9376
▁выполнение	-10.9381
▁вел	-10.9381
▁важным	-10.9382
ща	-10.9387
▁соглашения	-10.9388
хо	-10.9391
▁девушки	-10.9392
ило	-10.9396
рос	-10.9402
▁лучший	-10.9404
ция	-10.9405
▁перехода	-10.9405
▁Club	-10.9408
▁вернуть	-10.9409
▁остаются	-10.941
▁Михаила	-10.9411
▁wanted	-10.9412
▁свидетельствует	-10.9414
▁themselves	-10.9417
▁Bay	-10.9417
▁сравнительно	-10.9417
▁Western	-10.9418
▁Время	-10.9418
▁Хорошо	-10.9419
▁district	-10.9419
▁Лишь	-10.9423
▁нос	-10.9424
▁female	-10.9428
▁клиентов	-10.9428
▁факты	-10.943
▁учетом	-10.9431
▁Одно	-10.9432
▁пределы	-10.9433
▁Министерства	-10.9436
▁нарушение	-10.9437
▁Бу	-10.9438
▁plan	-10.9439
▁автоматически	-10.9445
▁окончании	-10.9445
▁create	-10.9447
▁зло	-10.945
▁музыку	-10.945
▁больных	-10.9453
▁debut	-10.9454
▁старый	-10.9454
▁левой	-10.9461
▁продолжать	-10.9461
▁Other	-10.9462
▁видом	-10.9464
▁матчей	-10.9465
▁автомобиля	-10.9466
▁регионе	-10.9468
▁сотрудники	-10.947
лер	-10.9471
▁четко	-10.9472
int	-10.9475
▁батальона	-10.9475
▁Евгений	-10.9475
▁культуре	-10.9477
▁market	-10.9477
▁Henry	-10.948
▁зачастую	-10.9482
▁детям	-10.9483
▁функция	-10.9486
ление	-10.9488
▁появление	-10.949
▁связей	-10.9491
▁Президиума	-10.9491
▁whom	-10.9492
Все	-10.9493
▁Australian	-10.9494
▁дебютировал	-10.9499
▁политике	-10.95
▁собор	-10.95
▁спор	-10.9503
▁взяли	-10.9511
▁результатом	-10.9514
▁болезнь	-10.9516
▁Значит	-10.9516
▁lower	-10.9521
▁окружающей	-10.9521
▁обращения	-10.9521
name	-10.9522
▁increased	-10.9523
▁физики	-10.9524
▁любые	-10.9524
▁голосов	-10.9526
▁европейских	-10.953
▁changed	-10.9531
ура	-10.9536
гар	-10.9536
▁целиком	-10.9537
▁детства	-10.9543
ial	-10.9545
▁держать	-10.9545
▁личного	-10.9545
▁использовал	-10.9546
эн	-10.9551
▁Па	-10.9552
▁веры	-10.9553
▁ушел	-10.9553
▁Жан	-10.9559
▁Крым	-10.9561
▁сделано	-10.9561
▁особого	-10.9564
▁significant	-10.9564
летнего	-10.9568
off	-10.9569
▁Society	-10.9569
▁эксплуатации	-10.957
ируют	-10.9574
▁Many	-10.9577
▁собака	-10.9577
▁занимается	-10.9579
▁принятия	-10.9581
▁features	-10.9583
▁попасть	-10.9584
▁десятки	-10.9589
они	-10.9591
▁чай	-10.9592
▁Род	-10.9593
▁проверить	-10.9595
▁живой	-10.9599
▁Длина	-10.96
▁культура	-10.9603
▁политику	-10.9604
мон	-10.9608
▁месту	-10.961
▁физической	-10.961
▁турнира	-10.9611
▁борту	-10.9611
▁тема	-10.9613
▁заводе	-10.9613
▁самую	-10.9617
▁Олег	-10.9619
▁факторов	-10.9621
▁люблю	-10.9623
▁Петербурге	-10.9624
▁Two	-10.9625
▁линия	-10.9626
Йорк	-10.9626
▁внутреннего	-10.9626
▁нормы	-10.9627
▁президентом	-10.9631
▁feet	-10.9631
▁созданию	-10.9631
▁пойти	-10.9635
▁въ	-10.9636
▁дерево	-10.9637
▁профессора	-10.9637
▁наука	-10.9641
ish	-10.9643
▁работала	-10.9643
▁страха	-10.9648
мет	-10.9651
вшаяся	-10.9652
▁написано	-10.9655
▁ком	-10.9657
▁возглавил	-10.9661
▁народу	-10.9662
овка	-10.9663
▁ответить	-10.9664
▁call	-10.9665
жен	-10.9666
▁ткани	-10.9666
▁summer	-10.9672
▁Peter	-10.9673
▁использовании	-10.9675
▁en	-10.9675
▁отличаются	-10.9675
▁запись	-10.9676
ран	-10.9676
сы	-10.9678
▁предполагает	-10.9679
▁Само	-10.968
▁открыть	-10.968
▁смогут	-10.9684
▁островов	-10.9685
▁turned	-10.9686
▁parts	-10.969
▁Красного	-10.9693
con	-10.9696
▁ряде	-10.9698
▁Mary	-10.97
▁утро	-10.9703
кор	-10.9706
▁think	-10.9706
▁описания	-10.9707
▁перейти	-10.971
▁комитет	-10.971
▁собою	-10.971
▁строки	-10.9711
▁выступления	-10.9712
▁battle	-10.9712
▁thus	-10.9713
▁волости	-10.9714
▁французского	-10.9715
▁ворота	-10.972
▁бар	-10.9721
▁Россией	-10.9723
▁масс	-10.9725
▁Minister	-10.9728
▁Вообще	-10.9731
▁исполнения	-10.9734
▁ошибок	-10.9734
▁з	-10.9734
От	-10.9737
▁арестован	-10.974
▁command	-10.974
вал	-10.9745
▁Были	-10.9746
▁приблизительно	-10.9746
▁Богу	-10.9746
▁songs	-10.9748
▁Or	-10.9748
▁Пре	-10.9749
▁Рим	-10.9751
▁различия	-10.9752
▁выиграл	-10.9752
▁рек	-10.9754
▁наказания	-10.9756
▁товар	-10.9759
▁пределами	-10.9759
▁отдельно	-10.9759
▁Путин	-10.9759
▁армией	-10.9762
▁food	-10.9763
▁заметно	-10.9766
▁поддерживать	-10.9768
▁ваших	-10.9769
▁уходит	-10.9773
▁недалеко	-10.9776
бит	-10.9779
▁меньшей	-10.978
▁наступления	-10.978
▁Никто	-10.978
▁Китай	-10.978
▁переговоров	-10.9781
▁верхней	-10.9785
▁согласился	-10.9789
▁Institute	-10.9791
▁access	-10.9792
▁боевые	-10.9793
▁графа	-10.9794
▁носит	-10.9796
кар	-10.9798
▁higher	-10.9801
▁потерял	-10.9802
▁Сибири	-10.9802
▁местные	-10.9807
▁происходило	-10.9809
▁осталась	-10.9812
▁линию	-10.9813
▁Список	-10.9813
▁английского	-10.9816
▁доступа	-10.9819
▁means	-10.9819
▁получилось	-10.9823
▁находит	-10.9825
per	-10.9828
▁принципы	-10.9829
▁поиска	-10.983
end	-10.983
вшим	-10.9831
▁бытия	-10.9833
▁общих	-10.9834
ившись	-10.9835
▁Восточной	-10.9835
▁гости	-10.9836
▁начальником	-10.9838
▁психологии	-10.9847
▁сыном	-10.9849
▁don	-10.985
▁trade	-10.9852
ya	-10.9852
▁сон	-10.9853
фи	-10.9856
▁следовало	-10.9857
▁отдыха	-10.9857
▁подготовке	-10.9857
▁Ма	-10.9858
ешься	-10.986
▁value	-10.9861
ида	-10.9862
▁true	-10.9863
▁немецкой	-10.9865
ke	-10.9866
▁экономического	-10.9866
▁Турции	-10.9875
▁открыт	-10.9877
▁ended	-10.9881
▁курса	-10.9881
▁стен	-10.9881
▁разработке	-10.9888
▁участники	-10.9888
ющими	-10.9889
▁elected	-10.9892
▁Following	-10.9895
▁метода	-10.9898
▁удара	-10.9898
▁Джо	-10.9903
▁известного	-10.9904
▁середины	-10.9904
▁журнале	-10.9905
▁ул	-10.9905
▁канал	-10.9908
▁врагов	-10.9909
▁маленький	-10.9909
▁некоторым	-10.9909
▁отказ	-10.991
sh	-10.991
▁эволюции	-10.9911
▁Петрович	-10.9914
ol	-10.9917
▁pay	-10.9918
▁Кол	-10.9919
▁decision	-10.992
▁безусловно	-10.9921
▁units	-10.9921
▁earlier	-10.9921
set	-10.9922
▁обеспечивает	-10.9923
▁факультет	-10.9924
▁ходить	-10.9925
альной	-10.9925
▁central	-10.9926
▁везде	-10.9928
рат	-10.993
▁Часто	-10.9931
▁точка	-10.9933
▁западной	-10.9933
▁лучшим	-10.9936
▁движении	-10.9938
▁Вселенной	-10.9941
ющейся	-10.9943
▁достичь	-10.9943
ица	-10.9945
▁реку	-10.9945
▁вина	-10.9946
();	-10.9947
▁кофе	-10.9947
▁подобное	-10.9947
▁Кара	-10.9949
▁властей	-10.9949
->	-10.9951
▁passed	-10.9951
▁черт	-10.9953
▁став	-10.9953
▁результатам	-10.9955
▁одежды	-10.9956
▁событие	-10.9956
шим	-10.9956
▁Би	-10.9959
▁советские	-10.9961
▁Больше	-10.9964
▁высшего	-10.9964
ул	-10.9967
▁Тур	-10.9968
▁солдаты	-10.997
▁industry	-10.9971
▁обнаружили	-10.998
▁серьезно	-10.998
▁многочисленных	-10.9986
▁составил	-10.9987
▁Ян	-10.999
▁машине	-10.9991
▁systems	-10.9991
▁Позднее	-10.9993
▁правительственн	-10.9995
▁расположена	-10.9996
▁характеристики	-10.9998
▁forced	-11.0002
▁край	-11.0002
▁художников	-11.0002
▁Али	-11.0007
ическим	-11.0012
▁портрет	-11.0013
▁мясо	-11.0014
▁газете	-11.0015
▁бога	-11.0018
▁пункта	-11.0018
▁волос	-11.0027
▁Сирии	-11.0028
▁Los	-11.0028
▁мероприятия	-11.0032
▁кости	-11.0034
▁представляется	-11.0036
▁Впоследствии	-11.0036
▁лесу	-11.0038
▁волосы	-11.0039
▁восстания	-11.0042
▁report	-11.0043
иль	-11.0045
ров	-11.0053
бор	-11.0054
▁сестра	-11.0057
▁Код	-11.0057
ёт	-11.0059
▁Music	-11.006
▁говорилось	-11.0061
▁источники	-11.0061
▁блок	-11.0061
▁специальные	-11.0061
▁па	-11.0062
▁вред	-11.0063
▁рад	-11.0063
▁глубине	-11.0064
▁ведут	-11.0066
▁массу	-11.0066
дом	-11.0067
▁границе	-11.0069
▁нефти	-11.0078
▁моем	-11.0078
lin	-11.0079
▁Ин	-11.0081
▁звания	-11.0082
▁брак	-11.0086
▁общим	-11.0087
▁признаки	-11.0089
▁тремя	-11.0092
▁молодого	-11.0094
итель	-11.0095
▁важное	-11.0097
▁метро	-11.0099
▁test	-11.0099
▁Роберт	-11.0101
▁офицер	-11.0104
▁батальон	-11.0105
▁troops	-11.0114
▁яйца	-11.0118
▁иных	-11.0121
▁старые	-11.0121
▁клеток	-11.0124
▁Пар	-11.0129
▁хлеба	-11.0134
▁освобождения	-11.0135
▁Ди	-11.0136
▁награждён	-11.0137
▁политические	-11.0137
лив	-11.0149
ировал	-11.0149
ford	-11.0151
▁Существует	-11.0152
▁достиг	-11.0154
▁Ра	-11.0155
▁пользователя	-11.0158
▁требований	-11.0159
▁высокие	-11.016
▁Си	-11.0161
▁ЕС	-11.0163
▁запас	-11.0166
▁занятия	-11.017
▁деятельностью	-11.0173
▁ограничения	-11.0176
▁начался	-11.0176
▁весной	-11.0176
▁originally	-11.0176
▁Летом	-11.0179
▁something	-11.0182
▁делается	-11.0183
▁Mac	-11.0183
▁магазин	-11.0185
▁построить	-11.0185
▁музыка	-11.0187
▁существу	-11.0188
▁активности	-11.0191
▁Bo	-11.0193
▁hours	-11.0193
▁поддержке	-11.0194
▁размеров	-11.0195
шь	-11.0197
▁кризис	-11.0197
▁произведение	-11.0198
▁center	-11.0204
ite	-11.0209
▁Разве	-11.0209
▁отсюда	-11.021
▁red	-11.021
▁осенью	-11.0211
▁русским	-11.0213
▁участием	-11.0217
▁Разумеется	-11.0221
▁считаю	-11.0221
▁say	-11.0222
▁успехом	-11.0223
▁оси	-11.0223
▁подряд	-11.0225
▁странно	-11.0227
▁caused	-11.023
▁расходы	-11.0233
ченко	-11.024
▁технических	-11.0241
▁артиллерии	-11.0241
ину	-11.0243
▁ничем	-11.0245
▁подразделения	-11.0245
вой	-11.0247
▁economic	-11.0251
ting	-11.0252
джи	-11.0254
▁заслуги	-11.0255
▁французской	-11.0256
▁убит	-11.0258
▁размера	-11.026
▁individual	-11.0261
▁Smith	-11.0262
▁политический	-11.0265
▁сел	-11.0267
▁остаться	-11.027
▁канала	-11.0271
▁солнца	-11.0272
▁Киев	-11.0272
▁соглашение	-11.0274
▁Central	-11.0276
▁natural	-11.0279
Но	-11.0283
▁network	-11.0287
кс	-11.0289
▁старого	-11.0289
▁разными	-11.0292
▁Церкви	-11.0293
▁Green	-11.0296
▁покинул	-11.0299
ga	-11.0302
дель	-11.0302
▁обстоятельства	-11.0305
▁устройств	-11.0305
▁квартире	-11.0306
▁имело	-11.0307
▁третьей	-11.0309
▁доход	-11.031
▁Most	-11.0312
▁ежегодно	-11.0315
ющегося	-11.0325
▁board	-11.0325
▁следующего	-11.0326
▁обстоятельств	-11.0327
▁карте	-11.0327
▁передает	-11.0329
▁концепции	-11.0332
▁Отсюда	-11.0334
▁football	-11.0337
▁District	-11.0338
▁хранения	-11.034
▁напряжения	-11.034
▁источником	-11.034
▁экипажа	-11.0342
▁участке	-11.0343
▁certain	-11.0344
чин	-11.0344
▁ваша	-11.0347
▁Christian	-11.035
▁страницы	-11.0351
сов	-11.0354
▁мн	-11.0355
цем	-11.0355
▁Солнца	-11.0356
▁свойств	-11.0357
▁opening	-11.0359
▁учреждения	-11.0361
▁traditional	-11.0362
▁приготовления	-11.0363
▁вынуждены	-11.0364
▁подумал	-11.0365
▁путём	-11.0365
▁scored	-11.0366
▁тридцать	-11.0367
▁operations	-11.037
▁проходил	-11.0371
▁оружием	-11.0372
▁league	-11.0372
▁section	-11.0373
▁старой	-11.0375
▁вспомнить	-11.0376
▁обще	-11.0377
▁list	-11.0378
▁Хар	-11.0379
▁снять	-11.0381
▁нападения	-11.0381
▁novel	-11.0385
ушка	-11.0386
▁зная	-11.0392
▁режиссёр	-11.0394
▁взрыв	-11.0394
инский	-11.0395
▁effect	-11.0395
▁Soviet	-11.0396
▁рассказывал	-11.0396
▁тесно	-11.0397
▁спать	-11.0398
▁монастырь	-11.0401
▁Бен	-11.0401
▁ущерб	-11.0401
▁попытка	-11.0401
ает	-11.0403
▁несколькими	-11.0404
▁привели	-11.0412
▁представлены	-11.0414
▁функцию	-11.0415
▁выводу	-11.0415
▁какими	-11.0417
▁рыбы	-11.0417
▁позиций	-11.0418
▁архитектуры	-11.042
▁побережье	-11.0424
▁пары	-11.0427
▁останется	-11.0428
▁Island	-11.0428
based	-11.043
телем	-11.0431
▁веру	-11.0432
▁основы	-11.0432
▁обладают	-11.0432
ают	-11.0433
▁пород	-11.044
▁сорок	-11.0442
▁дополнительные	-11.0443
▁небольшие	-11.0444
етесь	-11.0446
▁рабочие	-11.0448
▁специалисты	-11.045
▁немецкого	-11.0452
бек	-11.0458
▁Ки	-11.0461
кан	-11.0463
▁определенные	-11.0463
▁знание	-11.0466
▁воздействие	-11.0467
▁явлений	-11.0468
▁word	-11.0469
▁поиск	-11.0471
▁сумма	-11.0472
▁компанией	-11.0474
▁лучшие	-11.0476
▁управлять	-11.0476
▁командой	-11.0478
▁народных	-11.0479
▁Австралии	-11.0481
▁Востока	-11.0482
▁семью	-11.0482
чен	-11.0483
▁неизбежно	-11.0487
▁называет	-11.0489
▁структуру	-11.0493
▁пребывания	-11.0493
▁increase	-11.0493
▁Apple	-11.0496
▁tour	-11.0497
▁энергию	-11.0498
▁рекорд	-11.0499
▁получив	-11.05
▁con	-11.0502
▁want	-11.0502
▁spent	-11.0504
▁отдал	-11.0506
▁вблизи	-11.0506
▁заключение	-11.0508
▁мелких	-11.0511
▁науке	-11.0515
▁cost	-11.0516
▁собрать	-11.0519
▁claimed	-11.052
▁огромный	-11.0522
▁принят	-11.0522
министр	-11.053
lib	-11.0531
▁игроков	-11.0532
▁Государственной	-11.0534
▁собрание	-11.0535
▁политического	-11.0535
стан	-11.0535
▁появилось	-11.0537
▁представлен	-11.0539
▁Microsoft	-11.0542
▁моему	-11.0542
▁журналист	-11.0544
▁includes	-11.0545
▁двадцати	-11.0545
прав	-11.0547
▁longer	-11.0549
▁Первым	-11.055
▁началу	-11.0555
▁губ	-11.0556
▁loss	-11.0557
▁зимой	-11.056
▁вз	-11.0564
▁material	-11.0564
▁помещения	-11.0566
▁пришло	-11.0566
▁известные	-11.0567
▁братьев	-11.0568
▁приложение	-11.0576
▁епископ	-11.0576
▁ежедневно	-11.0576
▁leave	-11.0576
▁Великого	-11.0576
▁определенной	-11.0577
▁авторы	-11.0577
▁meeting	-11.0578
▁чемпион	-11.058
▁состоял	-11.0585
▁папа	-11.0585
▁долг	-11.0586
▁w	-11.0586
▁историк	-11.0586
▁возможных	-11.0587
▁particular	-11.0589
▁according	-11.0589
▁Li	-11.059
▁законодательств	-11.0592
▁Эй	-11.0593
▁сахар	-11.0594
очки	-11.0598
▁путей	-11.0598
▁idea	-11.06
▁долю	-11.0601
▁believed	-11.0601
▁buildings	-11.0602
▁открытие	-11.0603
▁властью	-11.0604
▁вчера	-11.0607
пи	-11.0608
▁след	-11.061
▁следующей	-11.0612
▁решением	-11.0616
if	-11.0619
▁озеро	-11.0621
▁способы	-11.0622
▁Ma	-11.0626
▁норм	-11.0628
▁Почти	-11.0628
▁Церковь	-11.0636
▁relationship	-11.0636
▁legal	-11.0638
▁задачей	-11.064
▁<...>	-11.0641
вод	-11.0641
▁школ	-11.0642
▁повести	-11.0646
енного	-11.0647
▁призёр	-11.0648
▁fight	-11.0648
▁идёт	-11.0649
▁реальность	-11.0649
▁разум	-11.065
▁кризиса	-11.0654
▁учения	-11.0655
▁плюс	-11.0657
▁городом	-11.0659
▁key	-11.066
дет	-11.0661
▁двигатель	-11.0662
▁душ	-11.0662
▁ред	-11.0662
▁артист	-11.0663
▁достигает	-11.0663
▁учителя	-11.0664
▁деревьев	-11.0665
▁срока	-11.0666
▁Sir	-11.0667
▁выяснилось	-11.0668
▁active	-11.0671
▁персонажей	-11.0675
▁поселение	-11.0676
▁Press	-11.0677
▁существа	-11.0678
▁определенных	-11.0682
ang	-11.0683
ще	-11.0684
▁Св	-11.0686
▁очереди	-11.0686
▁страшно	-11.0687
▁issue	-11.0687
▁Ба	-11.0689
▁фонда	-11.0689
▁собственный	-11.0692
ance	-11.0694
▁верить	-11.0697
▁property	-11.07
▁Героя	-11.0702
нова	-11.0702
▁выражения	-11.0703
▁saying	-11.0704
▁неизвестно	-11.0706
ню	-11.0708
?..	-11.0714
▁defeated	-11.0714
▁автором	-11.0715
▁полную	-11.0715
▁усилий	-11.0715
▁прибыль	-11.0717
▁river	-11.0721
▁читатель	-11.0722
▁сложных	-11.0723
▁view	-11.0728
ists	-11.0728
▁friend	-11.0728
▁морских	-11.0729
blockquote	-11.0733
▁Spanish	-11.0733
▁многим	-11.0734
од	-11.0735
▁множества	-11.0736
▁столице	-11.0736
▁энергия	-11.0737
▁заставить	-11.0738
▁оборудование	-11.0738
ek	-11.074
▁Bar	-11.0742
▁отцом	-11.0743
▁повышения	-11.0745
▁personal	-11.0745
▁истины	-11.0751
▁source	-11.0752
▁детстве	-11.0752
▁возвращается	-11.0753
▁практики	-11.0754
▁Ай	-11.0759
▁проходят	-11.0761
▁Un	-11.0761
▁гос	-11.0763
▁сильный	-11.0763
▁испытаний	-11.0764
▁называть	-11.0765
▁доктора	-11.0766
▁квартиру	-11.0768
Корр	-11.077
▁whole	-11.077
▁богов	-11.0771
▁generally	-11.0773
▁practice	-11.0777
▁com	-11.0777
▁Оба	-11.0778
▁books	-11.0779
▁ремонт	-11.0782
▁семей	-11.0783
▁дворов	-11.0783
▁стиля	-11.0786
лит	-11.0789
▁Сколько	-11.0789
▁structure	-11.0789
▁областях	-11.079
▁просит	-11.0792
▁молодые	-11.0792
▁мастера	-11.0795
▁Мо	-11.0797
▁sometimes	-11.0798
шу	-11.08
▁companies	-11.0802
нин	-11.0803
ву	-11.0807
▁армий	-11.0807
▁Do	-11.0811
▁staff	-11.0813
▁самолеты	-11.0818
▁Её	-11.0819
▁Africa	-11.082
▁entire	-11.082
▁лагеря	-11.082
пы	-11.0821
▁Ру	-11.0822
▁количеством	-11.0822
▁народной	-11.0823
▁мальчик	-11.0825
▁северной	-11.0825
▁институте	-11.0827
led	-11.0828
▁лиги	-11.0829
▁issues	-11.0834
▁воспользоваться	-11.084
▁будь	-11.0841
▁угол	-11.0841
▁выборы	-11.0842
еров	-11.0845
▁одних	-11.0846
▁эксперимент	-11.0846
▁Ман	-11.0847
▁hard	-11.0851
▁улицу	-11.0852
▁Ум	-11.0852
▁capital	-11.0855
▁religious	-11.0855
▁библиотеки	-11.0859
▁юг	-11.0862
▁находиться	-11.0862
▁возможным	-11.0863
▁жертв	-11.0866
▁живописи	-11.0868
▁север	-11.0869
▁личной	-11.087
▁спасти	-11.0871
▁комнаты	-11.0871
▁Ничего	-11.0872
▁experience	-11.0872
▁потребности	-11.0874
▁участвовать	-11.0875
▁риск	-11.0875
▁attended	-11.0876
▁Мало	-11.0876
▁известной	-11.088
▁национальных	-11.088
ступ	-11.0882
▁убить	-11.0882
ению	-11.0883
аз	-11.0886
▁шт	-11.0887
тан	-11.0888
▁радость	-11.0888
▁нашему	-11.0889
▁отлично	-11.0889
▁точек	-11.0891
▁шоссе	-11.0892
▁VII	-11.0895
▁расходов	-11.0898
▁провели	-11.0898
▁Grand	-11.0899
▁Окончил	-11.0899
▁зданий	-11.0899
▁руке	-11.0899
▁things	-11.09
▁литература	-11.09
▁response	-11.0902
рин	-11.0902
▁руководителей	-11.0903
▁кадров	-11.0908
▁рабочий	-11.0909
▁Зато	-11.0911
▁накануне	-11.0912
ол	-11.0912
▁собственную	-11.0914
▁трудности	-11.0917
▁основан	-11.0918
▁особой	-11.0921
▁крупнейших	-11.0922
▁цена	-11.0923
▁Гар	-11.0924
▁care	-11.0927
▁complete	-11.0927
▁чувствовал	-11.0928
▁возникновения	-11.0929
▁Open	-11.0931
▁ру	-11.0931
▁сообщила	-11.0932
нный	-11.0934
▁девять	-11.0935
▁Официальный	-11.0938
▁птицы	-11.0941
нес	-11.0941
▁двора	-11.0944
▁Ах	-11.0946
▁высших	-11.0946
▁arrived	-11.0947
▁отчасти	-11.0949
▁супер	-11.0949
▁возникла	-11.0952
▁топлива	-11.0953
▁victory	-11.0957
▁запах	-11.0957
ey	-11.0958
▁трое	-11.096
▁золото	-11.0965
▁следствие	-11.0966
▁слой	-11.0968
▁соответствующие	-11.0969
▁всяких	-11.0971
▁следы	-11.0971
▁отставку	-11.0971
▁строить	-11.0973
▁турнире	-11.0975
▁производстве	-11.0976
▁заседании	-11.0976
▁частиц	-11.0984
ov	-11.0985
еры	-11.0986
▁утверждал	-11.0989
▁Тер	-11.0992
▁вооружение	-11.0992
шин	-11.0993
▁бюджета	-11.0993
▁исторической	-11.0994
▁j	-11.0994
▁номера	-11.0996
▁слабо	-11.0998
▁надежды	-11.0999
▁суммы	-11.1
▁student	-11.1
▁языках	-11.1005
▁Зачем	-11.1007
▁кр	-11.1008
▁Star	-11.1009
▁particularly	-11.1011
▁председателем	-11.1016
сер	-11.1016
gen	-11.1019
all	-11.1022
▁премия	-11.1022
▁автомобилей	-11.1025
▁Museum	-11.1026
▁лодки	-11.103
▁fourth	-11.1031
▁finally	-11.1033
▁Hill	-11.1034
▁Force	-11.1037
▁обвинения	-11.1038
▁changes	-11.1038
▁ran	-11.1038
▁смертью	-11.1038
овыми	-11.1039
▁regular	-11.104
▁хотим	-11.1042
▁последним	-11.1044
бар	-11.1044
▁whether	-11.1045
▁route	-11.1046
▁положить	-11.1047
▁отсутствия	-11.1047
▁капитала	-11.1056
▁обеспечение	-11.1057
▁organization	-11.1059
▁deal	-11.106
▁running	-11.1061
цами	-11.1061
▁изучение	-11.1061
▁XV	-11.1063
▁Ху	-11.1063
▁показывают	-11.1063
▁weeks	-11.1064
▁операция	-11.1064
▁позволило	-11.1069
▁degree	-11.1069
!!!	-11.107
▁leader	-11.1071
▁вслед	-11.1073
▁банк	-11.1075
▁Na	-11.1076
))	-11.1077
▁Лондон	-11.1077
▁Mr	-11.1078
wood	-11.1079
▁Действительно	-11.1079
▁primary	-11.108
▁Бер	-11.1083
▁структура	-11.1087
▁keep	-11.1087
▁авторитет	-11.1092
▁составляла	-11.1093
▁подчеркнул	-11.1095
▁передал	-11.1096
▁noted	-11.1096
▁Ru	-11.1096
▁Later	-11.1098
▁продажи	-11.1102
▁Около	-11.1104
уз	-11.1108
▁цикла	-11.1109
▁studies	-11.1109
▁Следует	-11.111
▁ужас	-11.1114
ции	-11.1115
▁terms	-11.1116
▁Battle	-11.112
▁Земля	-11.1122
▁older	-11.1122
dy	-11.1123
▁тел	-11.1124
▁редактор	-11.1124
▁шар	-11.1128
▁date	-11.1128
▁длина	-11.113
ut	-11.1132
▁любят	-11.1132
▁du	-11.1133
▁вторым	-11.1136
▁применяется	-11.1137
▁Какие	-11.1138
▁духовной	-11.1138
▁престол	-11.1141
▁Германия	-11.1141
▁lived	-11.1141
▁Вторая	-11.1142
▁наверняка	-11.1142
▁сайта	-11.1145
▁policy	-11.1146
▁шоу	-11.1149
▁волн	-11.1155
▁руководителя	-11.1158
▁вариантов	-11.1161
ены	-11.1167
▁решила	-11.1168
▁долгое	-11.117
▁квартиры	-11.117
▁экспериментальн	-11.117
▁особое	-11.1171
▁огромные	-11.1173
▁важные	-11.1174
▁нечего	-11.1174
▁белых	-11.1183
▁бороться	-11.1183
▁независимости	-11.1184
▁восстановить	-11.1185
▁offered	-11.119
▁Африки	-11.1194
▁нижней	-11.1194
▁carried	-11.1197
▁действиях	-11.1199
▁обмена	-11.1202
▁чемпионат	-11.1206
▁упоминается	-11.1206
шие	-11.1207
▁экономических	-11.1207
▁реально	-11.1209
▁десятков	-11.1211
▁решать	-11.1211
▁решительно	-11.1211
▁библиотека	-11.1211
va	-11.1212
▁берет	-11.1213
нул	-11.1215
▁рок	-11.1224
▁Гитлера	-11.1224
▁пункты	-11.1225
▁направлен	-11.1226
▁числу	-11.1228
▁Super	-11.123
ung	-11.123
▁вторую	-11.123
бур	-11.1233
▁международной	-11.1234
▁городу	-11.1234
▁участка	-11.1235
▁южной	-11.1239
▁романе	-11.1239
▁гвардии	-11.1239
▁ранен	-11.1239
▁большими	-11.1241
▁поста	-11.1243
▁лист	-11.1246
▁сне	-11.1247
▁failed	-11.1248
дж	-11.1248
▁проявляется	-11.125
▁производитель	-11.125
▁supported	-11.1253
▁сотрудник	-11.1255
▁Всем	-11.1256
▁местом	-11.1257
▁Суд	-11.1259
▁хозяйство	-11.126
▁Ne	-11.1262
▁пассажиров	-11.1263
▁XIV	-11.1264
дов	-11.1264
▁сопротивления	-11.1265
▁Название	-11.1267
▁Martin	-11.1274
▁сферы	-11.1277
ху	-11.1278
▁природа	-11.1281
▁праздник	-11.1281
▁духе	-11.1282
▁дорогой	-11.1282
▁cause	-11.1283
▁доказать	-11.1286
▁Востоке	-11.1287
▁location	-11.1287
▁ассоциации	-11.1291
▁Аль	-11.1292
▁скончался	-11.1293
!)	-11.1294
▁act	-11.1295
▁сообщества	-11.1297
▁culture	-11.1299
▁хорошие	-11.1302
ших	-11.1303
ес	-11.1304
нь	-11.1311
▁Сергея	-11.1312
▁округе	-11.1312
▁attempt	-11.1313
▁золотой	-11.1314
▁поисках	-11.1316
▁ворот	-11.1316
▁удовольствие	-11.1318
▁Главное	-11.132
▁измерения	-11.1323
▁кол	-11.1323
Со	-11.1323
▁Риме	-11.1328
▁additional	-11.1329
▁возглавлял	-11.1333
▁teams	-11.1335
▁экран	-11.1335
эр	-11.1336
▁спец	-11.1341
▁возвращения	-11.1343
▁пьесы	-11.1343
▁Ben	-11.1344
▁запрет	-11.1344
▁Di	-11.1346
▁предположить	-11.1346
▁небольших	-11.1349
▁Киеве	-11.1349
▁Тар	-11.135
▁дым	-11.135
▁вошел	-11.1351
▁News	-11.1355
▁Карла	-11.1355
▁Грузии	-11.1355
▁компьютер	-11.1355
▁characters	-11.1355
▁стремится	-11.1356
▁остатки	-11.1357
ует	-11.1361
тур	-11.1361
mo	-11.1363
ated	-11.1364
▁Richard	-11.1364
▁критики	-11.1364
▁сроки	-11.1365
▁Антон	-11.1365
люб	-11.1366
▁awarded	-11.1368
▁build	-11.1369
▁реформы	-11.137
уса	-11.1371
▁произошла	-11.1371
▁Sea	-11.1375
▁ад	-11.1378
▁вв	-11.1378
▁побед	-11.1378
▁границ	-11.138
▁физических	-11.138
пе	-11.138
▁имеем	-11.1383
▁leaving	-11.1384
▁families	-11.1385
▁parents	-11.1396
▁партий	-11.1396
▁публикации	-11.1398
▁клиент	-11.14
▁смотрел	-11.1401
▁решению	-11.1401
ating	-11.1403
▁заболеваний	-11.1404
▁Championship	-11.1407
▁Mark	-11.1407
▁радости	-11.1408
куп	-11.1408
▁shot	-11.1408
▁оценить	-11.1411
▁look	-11.1413
▁проекты	-11.1417
▁today	-11.1417
▁судить	-11.1422
образ	-11.1422
Ну	-11.1425
▁инструментов	-11.1425
▁Большая	-11.1426
▁Despite	-11.1426
▁Day	-11.1428
▁песня	-11.1428
ful	-11.1429
▁обращение	-11.1432
▁ex	-11.1432
▁союзников	-11.1433
▁commercial	-11.1433
▁дабы	-11.1436
ten	-11.1437
▁твой	-11.1437
▁Вся	-11.1438
▁subject	-11.1439
▁падения	-11.1442
No	-11.1443
▁Мон	-11.1444
▁парк	-11.1446
▁проводится	-11.1447
▁доля	-11.1447
"...	-11.1447
▁Chicago	-11.1448
▁entered	-11.1449
▁felt	-11.145
▁прошлое	-11.145
▁Умер	-11.1452
▁лагерь	-11.1452
▁примере	-11.1452
▁учитель	-11.1452
эт	-11.1456
▁основного	-11.1456
▁Крыма	-11.1457
▁Медаль	-11.1458
▁Committee	-11.1459
ень	-11.1462
▁гидро	-11.1462
▁океан	-11.1463
▁заменить	-11.1465
▁установлены	-11.1466
▁жену	-11.1467
▁standard	-11.1469
▁большом	-11.1471
▁учиться	-11.1472
альных	-11.1473
▁стола	-11.1474
майор	-11.1474
▁обратиться	-11.1475
▁гостей	-11.148
ёр	-11.148
▁Юго	-11.1481
▁созданы	-11.1481
▁существовать	-11.1483
▁husband	-11.1485
▁пищу	-11.1485
▁регистрации	-11.1487
▁любых	-11.1488
rus	-11.1489
▁Спустя	-11.149
▁mi	-11.1491
▁теорию	-11.1491
▁En	-11.1493
▁вопросом	-11.1495
▁closed	-11.1496
▁influence	-11.15
▁варианты	-11.1501
▁партию	-11.1504
▁применять	-11.1506
▁наблюдать	-11.151
za	-11.1512
lo	-11.1512
▁восприятия	-11.1516
▁Мор	-11.1517
▁хочешь	-11.152
▁пора	-11.152
▁счастью	-11.1522
▁lines	-11.1524
▁мл	-11.1524
▁познания	-11.1525
▁назван	-11.1525
▁знаешь	-11.1526
▁rate	-11.1528
▁капитана	-11.1528
▁просил	-11.1528
▁точнее	-11.1529
пор	-11.1529
ville	-11.1532
▁Га	-11.1537
▁внутрь	-11.1537
ющаяся	-11.1539
▁helped	-11.1542
▁увидели	-11.1542
▁professional	-11.1543
▁предприниматель	-11.1543
▁отвечал	-11.1545
▁Главный	-11.1545
▁сервис	-11.1545
▁смотрит	-11.1546
▁previously	-11.1548
▁военную	-11.1549
ход	-11.1549
▁развивается	-11.155
▁Центр	-11.1551
▁пить	-11.1551
▁соответствующих	-11.1552
берг	-11.1552
▁распространения	-11.1552
▁Максим	-11.1553
▁западных	-11.1553
▁замок	-11.1555
▁cases	-11.1556
▁Другой	-11.1557
▁сидит	-11.1557
▁династии	-11.1558
▁командовал	-11.1559
▁сотрудничества	-11.156
▁рабочей	-11.1561
▁всякой	-11.1565
▁метра	-11.1567
▁разу	-11.1567
▁cast	-11.1568
▁снег	-11.1568
for	-11.1572
▁требуют	-11.1572
▁учреждений	-11.1573
▁чём	-11.1574
▁рус	-11.1574
▁территория	-11.1575
▁дворец	-11.1575
▁искусстве	-11.1579
▁проведение	-11.1579
▁половину	-11.1579
▁игрок	-11.158
очный	-11.1581
▁независимость	-11.1581
▁парень	-11.1581
▁реальной	-11.1581
▁эпизод	-11.1583
▁limited	-11.1584
▁побережья	-11.1585
▁island	-11.159
▁годом	-11.159
▁окажется	-11.1591
▁защите	-11.1592
кая	-11.1593
tic	-11.1596
▁убийство	-11.1596
▁списке	-11.1597
▁ключ	-11.1598
▁ровно	-11.1599
▁внешних	-11.16
▁проходили	-11.1601
▁Ro	-11.1602
▁yet	-11.1602
▁случая	-11.1602
▁Шар	-11.1604
▁allow	-11.1606
лок	-11.1607
▁маршрут	-11.1607
▁des	-11.1607
▁любую	-11.161
шки	-11.161
▁годами	-11.1612
▁наблюдается	-11.1614
▁didn	-11.1614
▁источника	-11.1616
▁организацию	-11.162
▁friends	-11.1623
▁college	-11.1623
▁полным	-11.1623
▁unit	-11.1629
▁размеры	-11.1629
▁революция	-11.1629
▁пытаются	-11.163
▁мероприятий	-11.1632
▁ждет	-11.1633
ex	-11.1633
▁рука	-11.1633
▁увеличение	-11.1643
▁дар	-11.1652
▁способов	-11.1652
▁решает	-11.1657
▁кабинет	-11.1662
▁problems	-11.1664
▁minutes	-11.1665
▁уничтожить	-11.1667
▁послал	-11.1668
▁Italian	-11.167
di	-11.1671
▁попытался	-11.1674
▁повышение	-11.1674
▁золота	-11.1675
КА	-11.1678
▁стояла	-11.1679
нем	-11.168
▁read	-11.1681
▁мелкие	-11.1685
▁дворца	-11.1691
▁energy	-11.1693
▁Израиля	-11.1694
▁разрешение	-11.1695
▁activities	-11.1699
▁news	-11.1699
▁брака	-11.17
▁launched	-11.1701
▁XII	-11.1703
▁увеличить	-11.1705
▁ценностей	-11.1705
▁единого	-11.1709
▁общие	-11.1709
▁фонд	-11.1712
▁лидер	-11.1712
▁Se	-11.1712
▁удастся	-11.1716
▁товара	-11.1717
▁majority	-11.1718
▁НА	-11.1719
▁ср	-11.172
нский	-11.1721
▁вошла	-11.1723
▁представлял	-11.1724
▁играют	-11.1727
▁парламента	-11.173
▁Ho	-11.1732
▁признаков	-11.1734
син	-11.1735
▁words	-11.1736
дин	-11.1736
▁отдать	-11.1736
жу	-11.174
▁прийти	-11.1742
евой	-11.1743
▁первоначально	-11.1744
▁человеческих	-11.1744
▁очков	-11.1745
▁Бел	-11.1748
▁зла	-11.1749
▁агентства	-11.175
▁бюро	-11.1754
▁существо	-11.1755
▁вооружения	-11.1756
▁непременно	-11.1757
▁заставляет	-11.1758
▁Хан	-11.1758
▁руководил	-11.1758
▁Военно	-11.1759
▁акт	-11.1761
▁некогда	-11.1761
▁удается	-11.1762
▁реакция	-11.1767
▁вероятность	-11.1769
▁доказательства	-11.177
sen	-11.1773
▁зрителей	-11.1773
▁высоту	-11.1774
▁присвоено	-11.1777
▁Government	-11.1777
▁лук	-11.1781
▁силах	-11.1782
▁продолжали	-11.1783
▁federal	-11.1786
▁let	-11.1787
%)	-11.1788
▁помог	-11.179
▁month	-11.179
▁взгляды	-11.1791
ah	-11.1794
▁создали	-11.1794
▁Работа	-11.1794
▁имущество	-11.1795
▁волю	-11.1797
▁войн	-11.1801
▁временно	-11.1802
▁отчет	-11.1802
Re	-11.1803
дар	-11.1805
▁cut	-11.1805
▁individuals	-11.181
▁полтора	-11.1813
▁собора	-11.1814
▁атаку	-11.1815
ier	-11.1816
▁служба	-11.1819
▁larger	-11.1819
▁современные	-11.182
▁Петербург	-11.1826
▁ценность	-11.1826
▁высота	-11.1828
▁жив	-11.1829
Петербурге	-11.1829
▁Андрея	-11.1832
▁белый	-11.1832
▁некий	-11.1833
▁участков	-11.1836
▁ученый	-11.1836
▁appearance	-11.1836
▁областей	-11.1837
▁Сер	-11.1837
▁суде	-11.1839
▁уезд	-11.1841
▁научного	-11.1841
пут	-11.1841
остью	-11.1841
▁карт	-11.1842
▁Another	-11.1842
▁капитал	-11.1844
▁Жизнь	-11.1844
▁святого	-11.1848
▁новыми	-11.1849
▁ногу	-11.1852
</	-11.1853
▁лаборатории	-11.1854
▁производится	-11.1854
▁учеников	-11.1855
▁лошадей	-11.1858
▁remains	-11.1862
▁shown	-11.1862
▁заместителем	-11.1863
▁встретил	-11.1864
▁товары	-11.1864
▁родилась	-11.1865
▁quickly	-11.1866
▁ногами	-11.1867
▁Сил	-11.187
▁сведений	-11.187
▁associated	-11.1873
▁winning	-11.1879
▁likely	-11.1879
▁Швеции	-11.1879
▁der	-11.1879
▁День	-11.1881
инского	-11.1882
▁составляло	-11.1883
атор	-11.1883
▁взрослых	-11.1883
▁сохранения	-11.1885
▁Lake	-11.1885
▁продаж	-11.1885
▁счастья	-11.1887
▁численность	-11.1887
▁добро	-11.1887
▁клиента	-11.1888
▁родной	-11.1889
▁нормально	-11.189
▁Мер	-11.1893
▁командиром	-11.1894
▁Kingdom	-11.1894
▁wide	-11.1896
▁продукта	-11.1897
▁ft	-11.1899
▁экс	-11.19
▁справа	-11.1902
▁society	-11.1903
▁произошел	-11.1904
▁отрасли	-11.1906
▁половина	-11.1907
▁альбом	-11.1909
▁Бе	-11.191
▁родов	-11.191
▁чтения	-11.1911
▁мирового	-11.1918
▁задания	-11.1921
▁Этим	-11.1924
▁raised	-11.1925
▁Генерал	-11.1926
▁промышленность	-11.1927
port	-11.1927
▁runs	-11.1928
▁востоке	-11.1931
▁Джона	-11.1933
▁ветра	-11.1933
▁НАТО	-11.1934
▁директором	-11.1935
▁collection	-11.1937
▁платить	-11.1939
sa	-11.194
▁coach	-11.1944
▁пожар	-11.1946
▁близких	-11.1951
▁завершения	-11.1957
▁Франция	-11.1958
▁командования	-11.1961
▁предстоит	-11.1961
▁Academy	-11.1963
вест	-11.1964
▁Давайте	-11.1964
▁пройдет	-11.1964
▁Последний	-11.1965
▁кар	-11.1966
▁хотела	-11.1968
яв	-11.197
▁исполнение	-11.1971
▁independent	-11.1971
▁y	-11.1973
▁мощности	-11.1974
▁Го	-11.1974
▁старше	-11.1976
тра	-11.1977
▁высоким	-11.198
▁бюджет	-11.1987
tor	-11.1987
▁status	-11.1988
▁Catholic	-11.1988
▁актёр	-11.199
▁numerous	-11.1992
▁организовать	-11.1994
▁выделить	-11.1996
енную	-11.1997
там	-11.1998
▁Джордж	-11.1999
ium	-11.2
▁Service	-11.2
ence	-11.2003
▁becoming	-11.2005
▁Центральной	-11.2005
▁УК	-11.2006
▁Ar	-11.2007
▁Фильм	-11.2007
▁nature	-11.201
▁занять	-11.2011
▁врача	-11.2011
▁Следовательно	-11.2017
▁продолжил	-11.2019
▁возник	-11.2019
итесь	-11.202
▁учение	-11.2021
▁деталей	-11.2021
▁Canadian	-11.2021
сан	-11.2022
▁soldiers	-11.2023
▁простых	-11.2027
▁установлено	-11.2028
▁northern	-11.2028
▁воинов	-11.2029
▁initially	-11.2031
▁Don	-11.2033
▁животные	-11.2034
▁входили	-11.2035
▁огнем	-11.2035
▁здании	-11.2035
▁sound	-11.2038
йся	-11.2041
▁битвы	-11.2042
▁разобраться	-11.2043
Из	-11.2044
▁противник	-11.2044
▁необходимых	-11.2045
▁пойдет	-11.2045
▁одинаково	-11.2045
▁соли	-11.2045
▁моменты	-11.2046
▁военным	-11.2046
▁большее	-11.2046
▁битве	-11.2047
▁ресурсы	-11.205
▁практика	-11.205
▁составляли	-11.205
▁силе	-11.205
▁фигуры	-11.2052
▁Du	-11.2054
▁активность	-11.2054
▁собирается	-11.2055
▁rock	-11.2056
▁financial	-11.2058
▁происхождение	-11.2058
▁карьеры	-11.206
▁друзьями	-11.2062
▁Речь	-11.2064
▁частных	-11.2066
овской	-11.2066
▁делах	-11.2071
лейтенант	-11.2072
ak	-11.2075
▁Texas	-11.2075
▁Естественно	-11.2079
еля	-11.2083
▁Кан	-11.2084
▁heart	-11.2084
рез	-11.2085
▁southern	-11.2089
кий	-11.209
▁готовности	-11.2091
▁fall	-11.2091
▁громко	-11.2094
▁Павла	-11.2098
▁отсутствует	-11.2099
▁старшего	-11.2101
▁Русской	-11.2103
▁Порт	-11.2103
▁Ло	-11.211
стра	-11.211
▁отсутствии	-11.2111
▁текстов	-11.2111
▁смогла	-11.2115
▁показатель	-11.2116
▁выступать	-11.2121
▁станут	-11.2123
▁происходят	-11.2123
▁пошла	-11.2124
▁cover	-11.2127
▁напряжение	-11.2129
▁приняла	-11.2132
▁многими	-11.2132
▁Новой	-11.2133
▁планов	-11.2136
▁разным	-11.2137
▁крепость	-11.2141
▁Май	-11.2142
▁подготовку	-11.2142
▁крупный	-11.2143
▁Angeles	-11.2144
▁вечно	-11.2144
▁описывает	-11.2144
▁ведущих	-11.2144
▁takes	-11.2144
лат	-11.2147
▁Статья	-11.215
▁танка	-11.2152
ини	-11.2154
▁Господь	-11.2155
▁образы	-11.2156
До	-11.2156
▁переходит	-11.2157
ure	-11.2159
фу	-11.2161
▁am	-11.2168
▁построена	-11.2168
▁природу	-11.2171
side	-11.2174
▁Ka	-11.2176
шка	-11.2178
▁заняла	-11.2179
au	-11.2181
▁Lu	-11.2184
▁nearly	-11.2184
▁мышцы	-11.2186
ship	-11.2189
инга	-11.219
▁языки	-11.219
▁programs	-11.2191
▁percent	-11.2192
▁прочие	-11.2192
▁восстановления	-11.2192
▁needed	-11.2192
▁тени	-11.2193
▁inter	-11.2195
▁despite	-11.2195
яр	-11.2196
▁судно	-11.2197
▁войско	-11.2198
▁Lord	-11.2202
▁базу	-11.2203
▁правду	-11.2205
▁белые	-11.2205
▁судьбу	-11.2208
▁общая	-11.2208
▁круга	-11.2209
▁компанию	-11.221
▁мыслей	-11.221
▁вышло	-11.2211
▁lack	-11.2212
▁формирование	-11.2213
▁Елена	-11.2214
▁manager	-11.2216
▁реже	-11.2218
▁контр	-11.2226
▁ложки	-11.2229
▁планет	-11.2236
▁слева	-11.2237
▁животного	-11.2238
▁принимают	-11.2238
▁карту	-11.2239
▁фигур	-11.224
▁победа	-11.2241
ors	-11.2242
▁Мать	-11.2242
▁бывших	-11.2247
▁покинуть	-11.2247
▁читателя	-11.225
▁job	-11.2252
▁предприятие	-11.2254
▁комиссия	-11.2256
▁сознании	-11.2258
▁подхода	-11.2259
▁человеке	-11.2259
▁ведения	-11.2259
▁break	-11.226
▁proposed	-11.226
▁иное	-11.2261
▁потребность	-11.2263
▁Old	-11.2264
▁неба	-11.2265
▁theory	-11.2265
▁частях	-11.2266
▁Берлин	-11.2267
щей	-11.2268
▁дала	-11.2268
▁способствует	-11.227
▁больного	-11.2271
▁меняется	-11.2273
▁общины	-11.2275
▁воспоминания	-11.2275
▁Том	-11.2276
щи	-11.2277
▁Леонид	-11.2282
зе	-11.2283
▁скажу	-11.2284
▁единиц	-11.2286
▁давал	-11.2287
▁май	-11.2289
▁получится	-11.2289
▁foreign	-11.2292
▁related	-11.2293
▁сан	-11.2297
▁дата	-11.2298
▁главная	-11.2299
▁competition	-11.2301
▁Известно	-11.2302
▁medical	-11.2302
▁схема	-11.2303
▁лидеров	-11.2305
▁тотчас	-11.2306
▁правительством	-11.2307
мар	-11.2308
▁Ko	-11.2308
▁знала	-11.2311
▁surface	-11.2313
▁обнаружить	-11.2314
▁посту	-11.2314
▁топ	-11.2314
бин	-11.2318
▁Новая	-11.232
▁Запада	-11.2321
▁ехать	-11.2324
лег	-11.2325
▁сильным	-11.2326
▁кредит	-11.2328
▁органа	-11.233
▁сбор	-11.233
▁меню	-11.233
▁прочим	-11.2332
▁Ольга	-11.2333
▁газет	-11.2337
bo	-11.2337
▁массовой	-11.234
▁ввести	-11.234
▁Первоначально	-11.2343
▁поняли	-11.2344
вит	-11.2345
▁владения	-11.2349
▁встреч	-11.2351
▁голосом	-11.2351
▁Австрии	-11.2353
▁проводит	-11.2354
лог	-11.2354
▁king	-11.2355
▁изд	-11.2355
ino	-11.2356
▁государством	-11.2356
▁переводе	-11.2356
▁дополнительных	-11.2357
▁полет	-11.2359
▁исторического	-11.236
▁общую	-11.2361
▁бригада	-11.2362
▁даст	-11.2363
▁двигаться	-11.2366
тин	-11.2366
ueen	-11.2368
стей	-11.2368
▁движений	-11.2371
▁обстоятельствах	-11.2373
▁судна	-11.2378
▁поддерживает	-11.238
▁получал	-11.2381
▁clear	-11.2381
▁признание	-11.2382
▁plans	-11.2383
▁Brown	-11.2383
▁Входит	-11.2385
log	-11.2385
ba	-11.2387
гре	-11.2387
▁братья	-11.2388
▁ordered	-11.2388
▁просьбой	-11.239
▁лечение	-11.239
▁нес	-11.2393
▁ядра	-11.2394
▁онлайн	-11.24
▁ничто	-11.2401
▁звуки	-11.2402
▁Te	-11.2402
▁Post	-11.2404
рам	-11.2405
ze	-11.2405
▁особый	-11.2406
–	-11.2407
▁continue	-11.2409
▁небе	-11.2411
▁Britain	-11.2412
▁Вид	-11.2414
▁сущность	-11.2416
▁внешнего	-11.2417
pe	-11.2418
▁Board	-11.2419
▁культур	-11.242
▁исследователи	-11.2421
▁male	-11.2424
офф	-11.2429
ковский	-11.243
▁дому	-11.2434
ong	-11.2435
▁Russia	-11.2436
▁engine	-11.2436
▁страниц	-11.2438
▁известным	-11.2441
▁даёт	-11.2442
▁хорошего	-11.2442
('	-11.2442
▁Анатолий	-11.2444
▁работах	-11.2444
▁Гер	-11.2445
▁считая	-11.245
▁получение	-11.2451
▁попали	-11.2452
org	-11.2455
▁Jewish	-11.2455
▁Рос	-11.2459
▁реформ	-11.2461
▁division	-11.2463
▁прогресс	-11.2463
▁членами	-11.2464
▁эффективности	-11.2465
▁XIII	-11.2465
▁Очевидно	-11.2465
▁важную	-11.2466
▁ships	-11.2466
вшееся	-11.2468
▁Была	-11.2468
▁русская	-11.2469
▁содержат	-11.2469
▁принимали	-11.2469
▁понимают	-11.247
▁действием	-11.2472
слав	-11.2473
▁составила	-11.2473
▁транспорт	-11.2475
▁else	-11.2477
▁conditions	-11.2478
▁films	-11.2479
▁Нельзя	-11.248
твор	-11.248
пу	-11.2485
▁упал	-11.2486
▁схемы	-11.2487
▁депутат	-11.2488
▁министерства	-11.2489
▁американские	-11.2489
▁marriage	-11.2492
▁Кот	-11.2494
▁воспитания	-11.2498
▁Under	-11.25
▁диск	-11.25
уль	-11.2502
▁income	-11.2502
▁Института	-11.2504
▁сборник	-11.2506
▁одежду	-11.2506
▁below	-11.2507
ki	-11.2509
▁женщину	-11.2509
ti	-11.2511
▁градусов	-11.2512
▁восточной	-11.2512
▁социальные	-11.2512
▁h	-11.2513
▁scene	-11.2514
▁немецкие	-11.2516
▁закону	-11.2517
▁says	-11.2519
▁великих	-11.252
▁моста	-11.2522
▁gold	-11.2523
чка	-11.2523
▁поднять	-11.2527
▁теме	-11.2531
зо	-11.2531
▁Вероятно	-11.2533
очек	-11.2535
ушки	-11.2535
▁женился	-11.2536
▁сахара	-11.2537
▁ожидать	-11.2538
▁био	-11.2539
▁использовались	-11.2541
▁основой	-11.2543
ik	-11.2543
▁ставит	-11.2547
▁члена	-11.2547
▁параллельно	-11.2547
рок	-11.2547
▁сделала	-11.2547
▁предметом	-11.2555
▁separate	-11.2557
well	-11.2557
▁officers	-11.2557
Ре	-11.2557
▁heavy	-11.2558
▁Берлине	-11.2558
▁пушки	-11.2559
▁middle	-11.2559
▁навстречу	-11.2562
▁direct	-11.2562
▁линий	-11.2562
▁management	-11.2563
▁земной	-11.2564
▁makes	-11.2564
▁давали	-11.2565
▁VIII	-11.2566
▁разума	-11.2567
▁учебных	-11.2567
so	-11.257
▁highest	-11.257
▁Лучше	-11.2571
▁feature	-11.2574
▁моделей	-11.2575
▁берегов	-11.2577
▁дву	-11.2578
▁развитием	-11.2579
▁Bank	-11.258
▁Георгий	-11.258
▁творчество	-11.258
▁звучит	-11.2581
▁писем	-11.2581
▁районы	-11.2581
▁файлов	-11.2581
".[	-11.2583
▁Великий	-11.2584
▁Труда	-11.2588
▁уехал	-11.259
▁сильное	-11.2593
▁башни	-11.2593
sch	-11.2596
▁МИД	-11.2599
▁Мал	-11.26
▁presented	-11.2601
▁оставались	-11.2603
▁Джеймс	-11.2603
▁Пример	-11.2607
▁Rock	-11.2609
▁процент	-11.2609
▁краю	-11.2609
▁необходимым	-11.261
▁горах	-11.2611
▁приятно	-11.2614
сто	-11.2618
▁версию	-11.2619
▁экипаж	-11.262
▁Африке	-11.2621
▁двум	-11.2622
▁пытаясь	-11.2629
▁знач	-11.2631
▁бежать	-11.2632
▁пожалуйста	-11.2633
▁погибших	-11.2633
▁знаков	-11.2633
оса	-11.2634
▁опубликовал	-11.2636
▁новому	-11.2637
▁Of	-11.2637
▁Republic	-11.2639
▁проекту	-11.264
▁stop	-11.264
▁выводы	-11.264
▁сложные	-11.2641
▁запуска	-11.2642
▁вино	-11.2642
хотя	-11.2643
▁доказательств	-11.2643
▁училища	-11.2644
▁poor	-11.2644
▁Мари	-11.2646
▁attention	-11.2648
▁Финляндии	-11.2649
▁приложений	-11.265
▁занятий	-11.2652
бр	-11.2652
▁мяса	-11.2653
▁Рима	-11.2653
нут	-11.2656
▁точке	-11.2659
▁обстановке	-11.2659
▁magazine	-11.266
▁ощущения	-11.266
▁последнем	-11.266
▁роты	-11.2664
▁сыновей	-11.2664
▁НКВД	-11.2665
▁опытом	-11.2666
mer	-11.2667
▁Иоанна	-11.2674
▁Pre	-11.2675
▁Польше	-11.2675
▁актриса	-11.2676
Ла	-11.2676
ита	-11.2679
▁настроение	-11.2679
ster	-11.2682
▁запад	-11.2683
▁этапа	-11.2685
▁agreed	-11.2687
▁Анны	-11.2689
▁техника	-11.2691
▁изделия	-11.2695
▁Ireland	-11.2695
▁inside	-11.2696
▁Festival	-11.2698
▁Генри	-11.2699
▁фамилии	-11.27
▁Григорий	-11.2701
▁малых	-11.2702
▁оценку	-11.2702
▁думает	-11.2702
▁остановить	-11.2708
▁стихов	-11.271
▁звезда	-11.2713
▁Закон	-11.2714
вес	-11.2716
▁Law	-11.2717
▁коллектив	-11.272
▁воле	-11.2721
▁Тор	-11.2722
▁углу	-11.2722
▁results	-11.2724
Петербург	-11.2724
▁финал	-11.2727
▁белого	-11.2727
ук	-11.2729
▁обычных	-11.2729
▁основная	-11.2735
▁состоялось	-11.2737
▁наказание	-11.2747
▁собственным	-11.2748
▁любовью	-11.2749
▁учитывать	-11.2752
▁пехоты	-11.2754
Ка	-11.2754
▁парламент	-11.2755
стар	-11.2755
▁complex	-11.276
▁ребята	-11.2762
▁запрос	-11.2762
▁участки	-11.2763
▁Святой	-11.2764
▁принес	-11.2766
▁фактов	-11.2769
lan	-11.277
▁star	-11.2771
▁самыми	-11.2771
илось	-11.2773
▁столом	-11.2777
емого	-11.2777
ny	-11.2778
вшимся	-11.2778
мат	-11.2779
▁внутренние	-11.2779
▁действуют	-11.2781
▁Знамени	-11.2781
▁важный	-11.2782
▁prior	-11.2783
▁ранних	-11.2786
▁Their	-11.2787
▁министров	-11.2791
▁Saint	-11.2792
▁Sun	-11.2796
▁философ	-11.2797
▁особенностей	-11.28
▁груз	-11.28
▁премию	-11.2803
▁понедельник	-11.2807
емой	-11.2824
ировали	-11.2825
▁Западе	-11.2825
Ты	-11.2828
▁Science	-11.2829
▁специалист	-11.2832
▁Бес	-11.2832
▁Свет	-11.2832
▁letter	-11.2835
▁инициативе	-11.2836
▁мгновенно	-11.2836
ад	-11.2836
▁улиц	-11.2837
▁Congress	-11.2837
▁говорила	-11.2839
▁километрах	-11.284
▁Весь	-11.284
▁Mexico	-11.2842
▁последующие	-11.2842
▁Per	-11.2843
▁вход	-11.2845
▁концерт	-11.2846
▁ведомства	-11.2846
▁особых	-11.285
знач	-11.2852
Йорке	-11.2853
▁сервер	-11.2853
▁причём	-11.2855
▁подошел	-11.2856
pa	-11.2856
▁примеры	-11.2857
▁растет	-11.2858
ac	-11.2859
Name	-11.2861
▁immediately	-11.2861
▁отправил	-11.2863
▁исходя	-11.2864
▁борт	-11.2865
▁Наши	-11.2865
▁честно	-11.2865
▁мелко	-11.2866
▁обсуждения	-11.2866
▁песню	-11.2867
лан	-11.2868
▁студии	-11.2871
▁картин	-11.2872
▁Ибо	-11.2874
▁содержится	-11.2875
▁Лю	-11.2878
▁операцию	-11.2878
▁стене	-11.2879
▁служат	-11.2881
гин	-11.2882
▁Гу	-11.2884
▁вызвал	-11.2884
les	-11.2888
▁меч	-11.2888
▁высотой	-11.2891
▁путешествие	-11.2892
▁Bill	-11.2893
ять	-11.2894
▁полно	-11.2895
▁проблемой	-11.2895
▁сельское	-11.2898
▁Эль	-11.2899
овом	-11.2899
▁problem	-11.29
енное	-11.2901
▁местной	-11.2901
▁пользователь	-11.2902
▁читателей	-11.2903
ион	-11.2904
▁матчах	-11.2906
▁объяснения	-11.2908
▁вначале	-11.2909
▁совершить	-11.2909
▁directly	-11.2911
▁доходов	-11.2912
▁Екатерина	-11.2913
▁утверждение	-11.2914
▁НЕ	-11.2916
It	-11.2919
▁камеры	-11.2921
▁Проект	-11.2921
▁Лен	-11.2924
▁осуществления	-11.2926
еб	-11.2927
▁известна	-11.2927
ума	-11.2927
▁subsequently	-11.2928
▁бассейна	-11.2932
ань	-11.2932
▁восток	-11.2932
▁следствия	-11.2933
▁решено	-11.2934
▁remaining	-11.2934
▁можешь	-11.2934
▁Указом	-11.2934
▁установлена	-11.2936
▁пакет	-11.2938
▁отдельный	-11.2938
▁расход	-11.2939
▁кафе	-11.2941
▁latter	-11.2941
▁приема	-11.2942
▁помнить	-11.2942
▁Спасибо	-11.2942
▁главные	-11.2946
▁ru	-11.2947
▁dead	-11.295
▁еды	-11.2951
▁вызов	-11.2952
▁заявления	-11.2953
ним	-11.2956
▁использоваться	-11.2959
▁хватало	-11.2961
▁Italy	-11.2961
▁попадает	-11.2963
ID	-11.2963
▁государственные	-11.2963
▁банки	-11.2964
▁соединений	-11.2965
▁сможете	-11.2965
▁участвовали	-11.2966
▁призван	-11.2968
▁миф	-11.297
▁ООО	-11.2974
house	-11.2974
▁конкретных	-11.2974
▁musical	-11.2975
▁несет	-11.2976
▁o	-11.2977
▁видите	-11.298
▁kind	-11.2981
▁утверждают	-11.2981
▁длины	-11.2984
▁игрока	-11.2985
▁требованиям	-11.2985
ps	-11.2986
▁чудо	-11.2987
der	-11.2987
▁Second	-11.2988
▁построения	-11.2988
▁Лу	-11.2991
▁монет	-11.2994
▁присутствует	-11.2994
▁целое	-11.2997
▁Тай	-11.2998
▁Сразу	-11.3
▁поездки	-11.3002
▁разница	-11.3004
▁operation	-11.3005
▁cultural	-11.3005
▁Tom	-11.3006
▁шанс	-11.3008
▁recent	-11.301
▁mostly	-11.3011
▁ранга	-11.3011
▁«"	-11.3013
br	-11.3013
▁казни	-11.3017
▁имеющих	-11.3019
▁кор	-11.3021
▁голод	-11.3022
▁залива	-11.3023
▁прошу	-11.3023
▁лошади	-11.3023
▁состояла	-11.3023
▁Необходимо	-11.3024
▁присутствии	-11.3026
▁затрат	-11.3027
сад	-11.3028
▁мяч	-11.3028
▁удивительно	-11.3029
▁Нас	-11.303
▁строительстве	-11.3031
службе	-11.3035
▁высокую	-11.3036
▁Men	-11.3036
▁подумать	-11.3038
дор	-11.3041
▁officer	-11.3041
▁Европу	-11.3041
▁Участник	-11.3042
нные	-11.3043
▁Over	-11.3044
▁видят	-11.3046
▁личных	-11.3047
▁artists	-11.3047
▁последняя	-11.3047
▁goals	-11.3048
▁Наш	-11.3049
▁plant	-11.305
▁Both	-11.3052
▁менять	-11.3054
▁Система	-11.3054
▁вернулись	-11.3055
▁переехал	-11.3056
▁предварительно	-11.3058
ms	-11.3059
▁API	-11.306
▁отправлен	-11.3061
▁обязаны	-11.3062
▁studio	-11.3066
▁правилам	-11.3067
▁Площадь	-11.3068
▁tried	-11.3068
min	-11.3068
ске	-11.3069
▁стратегии	-11.307
▁переулок	-11.3071
▁камни	-11.3071
▁муниципального	-11.3075
▁странице	-11.3076
ow	-11.3076
▁Интересно	-11.3078
▁сцену	-11.3078
▁данными	-11.308
▁высокая	-11.308
▁девочка	-11.3081
▁восстание	-11.3084
mann	-11.3085
▁великой	-11.3086
▁условии	-11.3086
▁centre	-11.3088
▁воскресенье	-11.3088
▁Северного	-11.3089
fer	-11.3089
▁нож	-11.3093
▁списка	-11.3095
▁продолжение	-11.3095
ja	-11.3096
▁находилось	-11.3096
▁поли	-11.3096
▁занимались	-11.3097
▁городских	-11.3101
▁объясняется	-11.3101
год	-11.3103
▁specific	-11.3104
▁герои	-11.3105
▁врачей	-11.3106
▁annual	-11.3106
ger	-11.3107
▁расчет	-11.311
▁достоинства	-11.3112
▁workers	-11.3112
▁будешь	-11.3112
▁авиа	-11.3113
▁срочно	-11.3116
▁Мартин	-11.3117
▁жертвы	-11.3122
▁тюрьмы	-11.3122
▁последнюю	-11.3125
▁Empire	-11.3126
▁принципов	-11.3128
▁лоб	-11.3128
▁чувствует	-11.3129
▁проводил	-11.313
▁параметров	-11.313
▁uses	-11.3131
▁oil	-11.3132
▁признал	-11.3134
jo	-11.3135
▁famous	-11.3138
▁сестры	-11.3138
key	-11.314
▁вод	-11.314
▁directed	-11.314
▁секунду	-11.3141
▁Какой	-11.3141
▁объектом	-11.3142
▁российские	-11.3145
▁собственное	-11.3147
ber	-11.3148
▁Ver	-11.3148
▁сообщении	-11.3149
▁такому	-11.3149
вел	-11.3151
▁Эл	-11.3154
▁жила	-11.3155
▁Год	-11.3156
▁заказ	-11.3158
▁скот	-11.3159
▁твердо	-11.3159
▁голов	-11.316
альное	-11.3161
▁train	-11.3163
▁int	-11.3165
▁КГБ	-11.3166
▁XI	-11.3167
▁ставить	-11.3168
▁sister	-11.3169
▁превращается	-11.3172
▁родину	-11.3172
▁лицу	-11.3181
▁имеющие	-11.3181
▁science	-11.3188
▁животное	-11.3188
▁really	-11.3188
ального	-11.319
▁звёзд	-11.3193
▁избавиться	-11.3193
ck	-11.3193
res	-11.3194
▁вправе	-11.3195
▁снижение	-11.3195
▁amount	-11.3197
▁nine	-11.3199
▁artist	-11.3202
▁Best	-11.3202
▁тюрьме	-11.3203
▁эффективность	-11.3204
▁встал	-11.3207
▁массив	-11.3207
bar	-11.3207
▁эффективно	-11.3208
▁падает	-11.3211
▁величины	-11.3213
▁revealed	-11.3216
▁органами	-11.3217
▁матерью	-11.3217
Динамо	-11.322
▁Sam	-11.322
▁Ст	-11.3221
▁художественной	-11.3225
▁поезд	-11.3225
▁оперы	-11.3225
▁писали	-11.3227
▁превышает	-11.3227
▁потока	-11.3228
▁напрямую	-11.3235
▁устав	-11.3236
ируется	-11.3238
▁хозяин	-11.3239
ci	-11.324
▁согласия	-11.3241
▁Казалось	-11.3243
▁Чи	-11.3244
▁мальчика	-11.3245
▁Казахстана	-11.3246
▁Мил	-11.325
▁Гран	-11.325
▁решении	-11.3251
▁параметры	-11.3251
▁изделий	-11.3251
▁установка	-11.3254
▁рассказы	-11.3255
▁technology	-11.3256
▁полку	-11.3257
▁civil	-11.3259
▁Ша	-11.3261
▁признан	-11.3262
▁разработка	-11.3263
▁ИТАР	-11.3264
▁листья	-11.3264
мед	-11.3265
▁выяснить	-11.3267
▁специализирован	-11.3268
▁Мед	-11.327
▁свободного	-11.3271
▁агентство	-11.3271
ему	-11.3273
▁холодной	-11.3274
▁levels	-11.3275
▁старался	-11.3276
▁камня	-11.3276
▁разговора	-11.3277
▁сна	-11.3277
▁Fort	-11.3279
▁Navy	-11.3279
▁товарищ	-11.328
▁представителями	-11.328
▁обязанностей	-11.3281
▁четверг	-11.3281
▁blood	-11.3281
▁хвост	-11.3281
▁майор	-11.3282
▁ряду	-11.3282
▁фактор	-11.3282
▁Думаю	-11.3283
▁огромной	-11.3283
▁субъекта	-11.3286
▁Иоанн	-11.3286
▁хорошее	-11.3287
tra	-11.329
▁играли	-11.3291
▁финале	-11.3291
▁referred	-11.3293
▁придет	-11.3293
▁преступлений	-11.3295
▁звука	-11.3295
▁Лос	-11.3296
▁System	-11.3302
ела	-11.3303
▁периодически	-11.3303
▁постройки	-11.3306
▁специальной	-11.3307
▁BBC	-11.3311
sk	-11.3316
▁initial	-11.3322
▁оценке	-11.3323
▁голода	-11.3324
▁буквы	-11.3324
▁appears	-11.3326
▁клубе	-11.3327
нье	-11.3328
▁сильные	-11.3332
▁экране	-11.3332
▁длину	-11.3333
ney	-11.3335
▁давайте	-11.3336
▁структуре	-11.3336
▁платье	-11.3337
▁стремительно	-11.3339
▁увеличения	-11.3339
▁double	-11.3342
сек	-11.3342
▁бои	-11.3342
▁славян	-11.3342
▁научные	-11.3347
▁сотен	-11.3348
▁Life	-11.3348
▁Records	-11.3349
▁древние	-11.3352
▁парка	-11.3353
▁постоянной	-11.3354
▁Иисуса	-11.3356
▁удобно	-11.3356
очных	-11.3356
▁оценка	-11.3357
▁выполняет	-11.3358
▁входа	-11.336
▁Стоит	-11.3361
▁целого	-11.3362
▁Богом	-11.3362
▁sense	-11.3362
▁древности	-11.3364
▁редакции	-11.3366
▁основана	-11.3368
ig	-11.3371
▁оставив	-11.3372
▁issued	-11.3373
▁multiple	-11.3373
▁cross	-11.3373
▁meet	-11.3376
▁Пу	-11.3381
▁умеет	-11.3383
▁марки	-11.3383
иста	-11.3383
▁owned	-11.3384
руч	-11.3384
▁примеров	-11.3384
▁образов	-11.3386
▁цепи	-11.3387
▁Алексея	-11.3392
▁стрелковой	-11.3393
▁camp	-11.3393
▁колонии	-11.3397
▁approximately	-11.3397
▁сержант	-11.3398
▁курсы	-11.3399
▁путешествия	-11.34
▁последствий	-11.3403
▁факультета	-11.3405
▁difficult	-11.3409
▁мышц	-11.341
▁Port	-11.3412
▁РАН	-11.3415
▁тур	-11.3416
▁Ак	-11.3417
▁Точно	-11.3418
▁CD	-11.342
▁явился	-11.3422
red	-11.3422
▁Film	-11.3423
ko	-11.3423
▁автобус	-11.3424
▁бросил	-11.3425
▁park	-11.3425
▁пятницу	-11.3428
Так	-11.343
▁проявления	-11.3432
▁заместителя	-11.3433
▁чьи	-11.3434
кат	-11.3435
▁евреи	-11.3437
▁красный	-11.3437
▁маленькие	-11.3437
▁поезда	-11.3441
▁дне	-11.3443
▁Ген	-11.3443
▁Эту	-11.3444
тро	-11.3445
▁третьем	-11.3446
▁западе	-11.3447
▁услышал	-11.3449
▁kept	-11.345
▁привел	-11.345
▁отмечается	-11.3451
▁перешли	-11.3452
▁инструменты	-11.3454
▁Солнце	-11.3454
▁Ис	-11.3456
▁осторожно	-11.3456
▁телом	-11.3457
len	-11.3457
▁встречу	-11.3458
▁Facebook	-11.3458
▁rule	-11.3461
▁крыла	-11.3463
очные	-11.3465
▁продолжается	-11.3465
▁композитор	-11.3467
▁Big	-11.3471
▁окружающих	-11.3474
▁блока	-11.3474
▁обычной	-11.3477
▁produce	-11.3477
▁расстояния	-11.3478
▁probably	-11.3479
▁кандидатов	-11.348
▁author	-11.3481
▁Earth	-11.3483
▁Пан	-11.3485
▁соединение	-11.3486
▁senior	-11.3489
▁настроения	-11.3489
▁народы	-11.3489
▁благополучно	-11.349
▁платы	-11.349
▁voice	-11.349
▁ДНК	-11.3492
▁судьбе	-11.3492
po	-11.3494
▁словах	-11.3495
▁здравоохранения	-11.3495
▁добра	-11.3495
▁губернатора	-11.3496
▁элемента	-11.35
▁называемые	-11.3503
▁big	-11.3506
ология	-11.3507
▁течения	-11.3507
▁length	-11.3508
▁назвали	-11.3514
щик	-11.3514
▁насилия	-11.3515
▁специального	-11.3516
▁объясняет	-11.3517
лес	-11.3517
▁security	-11.3517
▁дыхание	-11.3518
▁упражнения	-11.3519
▁французских	-11.3519
▁оборот	-11.3521
рей	-11.3521
▁племени	-11.3521
▁вызывают	-11.3523
▁fell	-11.3524
▁мета	-11.3526
Под	-11.3527
▁appear	-11.3528
▁movie	-11.3529
ником	-11.3529
▁помощник	-11.3536
▁славы	-11.3536
▁вооруженных	-11.3538
▁протекает	-11.3538
овал	-11.354
▁свобода	-11.3544
▁серия	-11.3544
шем	-11.3544
▁Гос	-11.3544
ji	-11.3544
▁болезней	-11.3545
▁нации	-11.3545
▁university	-11.3548
don	-11.3548
▁ability	-11.3548
▁слушать	-11.3549
▁ликвидации	-11.355
▁оборону	-11.3551
▁hands	-11.3551
▁поворот	-11.3551
▁населённых	-11.3552
▁границей	-11.3553
рус	-11.3553
▁Research	-11.3553
▁движением	-11.3554
▁молока	-11.3555
▁милиции	-11.3555
▁посёлка	-11.3556
▁hold	-11.3558
▁efforts	-11.356
настоящему	-11.356
▁account	-11.3561
▁входил	-11.3562
▁ПВО	-11.3562
▁pass	-11.3562
▁вспоминал	-11.3563
▁Louis	-11.3565
▁забыл	-11.3566
▁speed	-11.3566
▁selected	-11.3569
▁Самое	-11.3569
▁оппозиции	-11.3573
▁floor	-11.3573
▁недолго	-11.3575
▁wall	-11.3575
▁специальный	-11.3575
▁настоящей	-11.3575
▁узлов	-11.3577
▁Har	-11.3578
▁Can	-11.3578
▁чемпионом	-11.3582
▁рыба	-11.3583
▁IX	-11.3584
▁actually	-11.3584
евский	-11.3584
▁кандидат	-11.3584
▁получали	-11.3585
▁method	-11.3586
▁первыми	-11.3589
▁score	-11.3589
инов	-11.3589
▁discovered	-11.359
▁жертву	-11.3592
▁успели	-11.3593
▁Уильям	-11.3595
▁Web	-11.3595
▁английском	-11.3595
mar	-11.3597
▁забыть	-11.3597
ran	-11.3597
ip	-11.3598
▁Советский	-11.3599
▁простым	-11.36
▁образуют	-11.3602
▁Long	-11.3602
ize	-11.3602
▁отказа	-11.3602
▁var	-11.3605
▁продолжают	-11.3605
▁effects	-11.3606
ide	-11.3607
▁актер	-11.3607
▁черный	-11.3611
▁starting	-11.3611
▁породы	-11.3612
▁Президента	-11.3614
▁сценарий	-11.3615
▁представителя	-11.3615
▁странами	-11.3617
▁вошёл	-11.3618
▁paper	-11.3619
Ко	-11.3624
▁рамки	-11.3624
▁мощность	-11.3626
▁Irish	-11.3626
▁пилот	-11.3627
тек	-11.3627
▁сбора	-11.3628
овская	-11.3628
▁сообщений	-11.3629
▁формой	-11.3629
▁принадлежат	-11.3629
▁методом	-11.363
▁обратить	-11.3632
▁полосы	-11.3632
▁существовало	-11.3633
▁режиссер	-11.3634
ологии	-11.3636
ьте	-11.3636
si	-11.3639
▁лето	-11.3644
▁позволить	-11.3647
▁western	-11.3648
цам	-11.3648
▁обстоятельство	-11.3648
ток	-11.3649
▁уголовного	-11.3649
▁удостоен	-11.365
▁предмета	-11.365
▁европейской	-11.3652
ари	-11.3653
▁назначение	-11.3655
▁финансовых	-11.3657
▁elements	-11.366
▁государственном	-11.3661
▁привлечь	-11.3661
▁документа	-11.3661
▁тексте	-11.3663
▁железа	-11.3664
▁кислоты	-11.3666
дра	-11.3668
▁cannot	-11.3668
▁serve	-11.3669
▁указать	-11.367
▁Толстого	-11.367
▁проведении	-11.3672
▁crew	-11.3674
▁Greek	-11.3675
▁губернатор	-11.3675
»:	-11.3676
пан	-11.3678
▁чувствовать	-11.3678
ator	-11.3681
▁responsible	-11.3683
став	-11.3683
▁значительное	-11.3684
▁residents	-11.3685
ud	-11.3685
▁currently	-11.3691
▁угрозы	-11.3692
▁грудь	-11.3692
▁задание	-11.3694
▁сражения	-11.3696
▁собрал	-11.3696
вшее	-11.3698
▁Commission	-11.3701
▁интересах	-11.3703
▁левом	-11.3703
▁православной	-11.3706
▁houses	-11.3706
▁средних	-11.3712
▁removed	-11.3713
ством	-11.3713
TV	-11.3716
▁облик	-11.3716
▁potential	-11.3719
▁ряды	-11.3719
▁managed	-11.3719
▁Mc	-11.3723
▁forward	-11.3726
▁современном	-11.3727
▁образцов	-11.3728
▁variety	-11.3728
▁Египта	-11.3728
▁тест	-11.3729
▁называемый	-11.373
▁группировки	-11.373
▁сооружения	-11.3731
кос	-11.3731
▁личный	-11.3731
▁вторник	-11.3732
han	-11.3732
▁image	-11.3734
▁growth	-11.3736
Когда	-11.3737
▁Ге	-11.3737
▁миссии	-11.3739
ee	-11.3739
ез	-11.3743
▁morning	-11.3744
▁легких	-11.3748
▁ищет	-11.3748
▁кровью	-11.3749
▁весом	-11.375
▁информацией	-11.375
▁вашу	-11.375
ical	-11.3755
▁финансов	-11.3756
▁Книга	-11.3756
▁Lee	-11.3757
▁forms	-11.3757
▁тока	-11.3757
емая	-11.3758
▁справедливости	-11.3759
▁персонаж	-11.376
▁третье	-11.3762
class	-11.3767
▁ОАО	-11.377
ver	-11.3771
▁Стар	-11.3772
▁безопасность	-11.3772
▁дано	-11.3775
▁жидкости	-11.3783
центр	-11.3784
▁преодолеть	-11.3784
▁Arts	-11.3786
▁try	-11.3786
▁танки	-11.3786
▁стакан	-11.3787
зна	-11.3791
▁Вар	-11.3791
▁имею	-11.3797
зер	-11.3798
ея	-11.3798
▁ВКП	-11.3799
▁Virginia	-11.3801
▁расширения	-11.3801
▁Team	-11.3802
▁pressure	-11.3803
▁красоты	-11.3806
▁транс	-11.3806
бес	-11.3806
▁готова	-11.3807
▁файла	-11.3807
▁highly	-11.3808
▁coming	-11.3808
сел	-11.3808
▁численности	-11.3808
▁Профиль	-11.3809
▁заново	-11.3809
▁почувствовал	-11.3814
зин	-11.3815
▁молодежи	-11.3816
бой	-11.3817
▁Хо	-11.382
▁средством	-11.3821
▁классе	-11.3821
бан	-11.3821
▁заняли	-11.3822
▁центров	-11.3824
▁офицеры	-11.3827
▁закончил	-11.3831
▁крепко	-11.3831
▁войти	-11.3832
▁cities	-11.3832
ацию	-11.3834
▁отцу	-11.3835
▁называл	-11.3836
▁потенциал	-11.3836
▁und	-11.3836
иса	-11.3841
▁bridge	-11.3842
▁конкурса	-11.3843
▁дальнейшего	-11.3844
ическими	-11.3845
▁регионов	-11.3846
▁Ил	-11.3846
▁vote	-11.3847
Петербурга	-11.3848
тона	-11.385
▁трагедии	-11.385
▁activity	-11.3851
▁участии	-11.3852
▁постоянного	-11.3852
▁Федор	-11.3852
▁темно	-11.3856
▁собственность	-11.3856
▁physical	-11.3858
град	-11.3859
▁РИА	-11.3859
▁позиция	-11.3859
▁Общая	-11.386
▁принципу	-11.3861
▁port	-11.3862
▁ссылкой	-11.3865
▁демократии	-11.3868
use	-11.3869
▁дистанции	-11.387
▁лекции	-11.3871
▁вызвало	-11.3874
▁медицины	-11.3874
ниц	-11.3875
▁отвечать	-11.3875
▁mind	-11.3875
▁Pacific	-11.3878
▁приходят	-11.3881
que	-11.3882
▁медицинской	-11.3883
▁проекте	-11.3883
▁Большого	-11.3886
▁пишут	-11.3886
▁академик	-11.3887
▁последующих	-11.3888
▁Запад	-11.3888
▁Са	-11.3888
▁Луны	-11.3888
▁Also	-11.389
we	-11.389
▁строк	-11.3891
▁произнес	-11.3892
▁примет	-11.3893
▁исследователей	-11.3894
▁определенного	-11.3895
▁intended	-11.3896
▁крупного	-11.3899
ике	-11.39
▁ссылки	-11.39
▁заявила	-11.39
▁военное	-11.3901
▁установил	-11.3904
▁reason	-11.3906
▁производить	-11.391
уют	-11.391
▁treatment	-11.3913
▁простые	-11.3915
▁физического	-11.3916
альным	-11.3918
▁телефону	-11.3921
▁приговор	-11.3923
шек	-11.3925
▁контексте	-11.3932
▁Game	-11.3935
▁религиозных	-11.3936
ола	-11.3937
▁пору	-11.3939
▁нервной	-11.3941
▁captured	-11.3942
▁join	-11.3947
▁судом	-11.3948
▁tax	-11.3948
▁моменту	-11.3948
▁десятилетия	-11.3948
▁расположение	-11.3949
ap	-11.395
▁святых	-11.3952
▁доклад	-11.3953
▁Самый	-11.3953
▁стрелкового	-11.3953
▁налогов	-11.3954
▁Da	-11.3955
To	-11.3955
▁умерла	-11.3956
▁Love	-11.3956
▁Joseph	-11.3956
▁Van	-11.3957
▁ошибка	-11.3957
▁Украина	-11.3957
▁принципиально	-11.396
▁неправильно	-11.3961
▁трав	-11.3967
▁шло	-11.3967
лист	-11.3967
ьный	-11.3967
▁знаменитый	-11.3968
▁схеме	-11.3969
▁Time	-11.3972
▁свойство	-11.3972
▁нигде	-11.3972
▁деревья	-11.3972
коп	-11.3974
▁югу	-11.3977
ряд	-11.3977
let	-11.3977
▁приход	-11.3977
▁организме	-11.3978
▁танк	-11.3979
▁Доктор	-11.3979
▁помещение	-11.3981
▁экспорт	-11.3981
ище	-11.3983
▁возникли	-11.3983
мент	-11.3983
▁рассказа	-11.3987
пад	-11.3987
дел	-11.3987
my	-11.3989
▁кандидата	-11.3989
▁братом	-11.3989
▁знаки	-11.3991
▁gun	-11.3993
▁оказываются	-11.3993
▁mission	-11.3993
Россия	-11.3994
▁компонентов	-11.3994
▁Израиль	-11.3995
еть	-11.3996
цин	-11.3997
▁Radio	-11.3998
▁соревнованиях	-11.3998
▁значений	-11.4006
▁жене	-11.4006
▁сельсовет	-11.4008
▁следовать	-11.4008
▁серию	-11.4009
▁лат	-11.401
▁склад	-11.4011
▁столе	-11.4014
▁взят	-11.4015
▁Ду	-11.4015
▁Ши	-11.4016
▁откровенно	-11.4016
▁раствор	-11.4017
▁Сар	-11.4018
ически	-11.402
▁рубежом	-11.4022
▁спасения	-11.4022
▁людях	-11.4024
▁meaning	-11.4024
▁точности	-11.4029
▁предположение	-11.403
▁расположено	-11.403
▁представлена	-11.4031
КИ	-11.4031
▁неизменно	-11.4036
▁Моя	-11.4036
▁поднялся	-11.4036
▁размером	-11.4039
ini	-11.4041
нув	-11.4042
▁=>	-11.4043
▁гл	-11.4043
▁убил	-11.4043
▁небольшое	-11.4044
▁стар	-11.4044
▁Петербурга	-11.4044
▁charge	-11.4045
▁поднял	-11.4046
▁approach	-11.4046
▁bar	-11.4047
▁творчестве	-11.4048
▁туман	-11.4049
▁водитель	-11.4052
разному	-11.4052
▁coast	-11.4053
▁поиски	-11.4053
▁справедливо	-11.4054
▁являлись	-11.4055
▁кн	-11.4056
▁Син	-11.4057
▁text	-11.4057
▁сочинения	-11.4062
▁showed	-11.4063
▁открытым	-11.4064
▁остро	-11.4065
▁распоряжение	-11.4068
▁Иосиф	-11.4069
очная	-11.4069
анти	-11.4069
▁кругу	-11.4069
▁спас	-11.407
▁acquired	-11.4071
ray	-11.4071
▁укрепления	-11.4072
▁Се	-11.4075
▁классической	-11.4075
▁присутствие	-11.4079
▁Питер	-11.4079
▁provides	-11.4079
▁Армении	-11.408
▁Будучи	-11.4082
▁композиции	-11.4082
▁railway	-11.4084
▁внутренний	-11.4085
head	-11.4085
▁destroyed	-11.4085
▁гибель	-11.4089
очной	-11.4089
▁бесконечно	-11.4092
▁остальное	-11.4096
▁gas	-11.4098
▁попытку	-11.4098
▁вовремя	-11.4102
▁defeat	-11.4102
▁Чемпионат	-11.4102
▁дивизий	-11.4104
▁вопреки	-11.4105
▁chief	-11.4105
▁руководителем	-11.4108
We	-11.4108
▁сыну	-11.4109
летия	-11.4112
▁результата	-11.4112
▁Office	-11.4113
▁главную	-11.4116
▁захватить	-11.4118
▁спиной	-11.4119
▁батареи	-11.4122
▁interview	-11.4124
▁Василия	-11.4129
▁известность	-11.413
▁Public	-11.413
▁Foundation	-11.4133
▁Фото	-11.4133
сты	-11.4134
▁женат	-11.4136
▁древней	-11.4137
▁свидетельствуют	-11.4137
▁организацией	-11.4138
▁Толстой	-11.4138
▁knowledge	-11.414
▁nothing	-11.414
▁желая	-11.414
▁пояс	-11.4141
▁numbers	-11.4142
▁ударов	-11.4142
▁защищать	-11.4143
▁ввиду	-11.4143
▁представлений	-11.4144
▁гражданского	-11.4145
▁частицы	-11.4146
вот	-11.4147
▁секретаря	-11.4147
ise	-11.4151
лить	-11.4151
▁ответы	-11.4154
▁Село	-11.4155
▁предков	-11.4156
▁лег	-11.4158
▁сознательно	-11.4158
▁Илья	-11.4159
▁купил	-11.4159
▁знакомых	-11.4161
ron	-11.4162
▁узнали	-11.4162
ред	-11.4163
▁review	-11.4163
▁matter	-11.4166
▁управлении	-11.4166
▁begin	-11.4167
▁допустить	-11.4167
▁долга	-11.4167
▁Mi	-11.4168
!»	-11.4168
▁осуществить	-11.4169
▁вырос	-11.4169
▁понятий	-11.417
▁химии	-11.4173
▁приток	-11.4173
▁ожидания	-11.4173
▁planned	-11.4176
ицы	-11.4178
kin	-11.4179
▁хорошим	-11.4179
▁Источник	-11.418
▁коллеги	-11.4182
▁архив	-11.4182
▁общение	-11.4183
▁заявили	-11.4183
▁полиция	-11.4183
▁огне	-11.4187
▁судя	-11.4187
▁определенный	-11.419
▁Is	-11.4192
альную	-11.4192
чек	-11.4193
▁leaders	-11.4194
лев	-11.4195
▁музее	-11.4197
чки	-11.4199
▁мотор	-11.42
▁грани	-11.42
▁Android	-11.42
▁платформы	-11.4202
▁хозяина	-11.4202
шему	-11.4202
▁победил	-11.4206
▁разделе	-11.4206
▁Its	-11.4208
▁серьезные	-11.4208
▁флаг	-11.421
▁Петров	-11.4211
▁alone	-11.4212
▁стрельбы	-11.4212
▁ha	-11.4212
▁Слово	-11.4213
ющимся	-11.4213
ющееся	-11.4215
▁прекратить	-11.4215
▁ушли	-11.4215
fe	-11.4216
ват	-11.4218
▁Бразилии	-11.4219
кур	-11.422
вол	-11.4221
▁труды	-11.4221
▁объяснение	-11.4222
▁материи	-11.4222
▁созыва	-11.4222
▁хорошей	-11.4226
▁растение	-11.4229
▁убедить	-11.4229
▁sp	-11.4229
▁представлять	-11.4229
▁представил	-11.4229
▁color	-11.4229
▁департамента	-11.423
▁нашими	-11.4231
рак	-11.4231
▁похож	-11.4232
▁сохранились	-11.4232
▁Новости	-11.4233
▁расследования	-11.4235
▁удовольствием	-11.4236
▁border	-11.4237
имся	-11.4238
▁цифры	-11.4238
▁разработку	-11.4239
▁lot	-11.4239
▁федерального	-11.4243
▁выбирать	-11.4243
▁Кер	-11.4244
▁выразил	-11.4247
▁Bi	-11.4247
зор	-11.4248
зов	-11.4248
▁Пётр	-11.4249
▁единственной	-11.4249
▁веса	-11.425
ions	-11.4251
▁Германию	-11.4251
▁отряды	-11.4254
ало	-11.4255
▁лед	-11.4256
▁Швейцарии	-11.4256
▁утверждения	-11.4257
▁Pe	-11.4258
▁установления	-11.4258
▁Valley	-11.4258
▁духовного	-11.4258
▁paid	-11.426
▁Education	-11.4261
▁влияет	-11.4262
▁giving	-11.4263
▁плат	-11.4263
▁окон	-11.4264
▁therefore	-11.4264
▁Фар	-11.4265
▁мужем	-11.4266
▁привела	-11.4267
▁сторонников	-11.4267
▁показалось	-11.4268
▁hospital	-11.4268
▁полковника	-11.427
▁назначил	-11.4271
▁выходить	-11.4272
▁средняя	-11.4273
▁коллег	-11.4273
▁конкурс	-11.4274
▁recording	-11.4275
▁режиссёра	-11.4277
▁взаимодействие	-11.4278
▁подготовка	-11.4279
▁применяют	-11.428
▁СПб	-11.428
▁эмоции	-11.428
▁баланс	-11.428
▁situation	-11.4281
tin	-11.4283
▁беседы	-11.4285
▁</	-11.4286
джа	-11.4287
▁Prince	-11.4287
▁Дома	-11.4287
▁северу	-11.4293
▁extended	-11.4296
▁металла	-11.4297
ств	-11.4297
▁лидера	-11.4298
▁позади	-11.4299
▁прошёл	-11.43
▁doing	-11.43
▁expected	-11.4301
▁значительные	-11.4301
▁установили	-11.4302
▁Сергеевич	-11.4303
цион	-11.4304
▁изучать	-11.4304
▁охотно	-11.4305
▁фильмы	-11.4306
▁небольшая	-11.4308
▁зарегистрирован	-11.4309
▁Ей	-11.4309
▁Gar	-11.4315
];	-11.4316
▁рос	-11.4316
▁дождь	-11.4317
▁правах	-11.4318
▁бойцов	-11.432
La	-11.432
▁широкой	-11.4321
▁сложной	-11.4322
▁замка	-11.4323
▁Томас	-11.4323
▁удавалось	-11.4323
▁появится	-11.4326
▁маленьких	-11.4327
▁пик	-11.4328
▁comes	-11.4329
▁данное	-11.4329
▁suggested	-11.433
▁prevent	-11.433
▁человечество	-11.4333
цен	-11.4333
▁чиновников	-11.4334
▁тяжелые	-11.4335
▁const	-11.4335
▁Zealand	-11.4335
▁Кал	-11.4336
▁Ad	-11.4337
▁обслуживания	-11.4337
▁повреждения	-11.4337
▁ПРО	-11.434
▁глубины	-11.434
▁единство	-11.434
▁sex	-11.4341
▁Northern	-11.4343
▁располагается	-11.4343
▁цену	-11.4344
▁grew	-11.4345
like	-11.4346
now	-11.4346
▁поддержка	-11.4347
▁предыдущих	-11.4348
▁host	-11.4349
▁удары	-11.4349
▁средний	-11.4349
▁оснований	-11.4351
▁единой	-11.4353
▁press	-11.4356
▁stations	-11.4356
▁некоторыми	-11.4357
▁шагом	-11.436
▁социал	-11.436
езд	-11.4362
▁живот	-11.4364
▁съезд	-11.4364
▁подразделений	-11.4365
▁accepted	-11.4365
▁разработчиков	-11.4366
▁names	-11.4367
▁Рядом	-11.4369
▁носить	-11.4371
▁перешел	-11.4371
▁глав	-11.4372
▁suffered	-11.4373
лия	-11.4374
▁Шер	-11.4375
▁Year	-11.4375
▁тяжелых	-11.4378
ns	-11.4379
▁указал	-11.4379
▁void	-11.438
▁тренера	-11.4382
▁составили	-11.4382
▁медицинских	-11.4384
ируя	-11.4385
▁лета	-11.4388
▁занимают	-11.4389
▁съезда	-11.4389
▁изготовления	-11.439
▁проводят	-11.4392
тар	-11.4393
▁контролировать	-11.4394
▁половиной	-11.4394
▁двигателей	-11.4395
▁святой	-11.4395
▁образован	-11.4397
▁подарок	-11.4397
▁пользуются	-11.4398
▁Мои	-11.4398
▁основание	-11.4399
▁Компания	-11.44
▁Journal	-11.4403
▁People	-11.4404
▁различным	-11.4404
▁турнир	-11.4405
▁счете	-11.4405
▁родственников	-11.4406
▁расти	-11.4408
▁moving	-11.4409
▁Иисус	-11.4412
iz	-11.4412
▁nearby	-11.4413
▁спрашивает	-11.4414
▁любить	-11.4416
▁подписан	-11.4416
▁усовершенствова	-11.4416
▁бомбы	-11.4418
др	-11.4419
▁conducted	-11.442
▁возврат	-11.442
▁миллиардов	-11.4422
▁стоять	-11.4425
▁Павлович	-11.4425
востоке	-11.4425
▁примера	-11.4429
▁недостатки	-11.443
▁излучения	-11.4431
▁горных	-11.4431
▁тексты	-11.4432
▁требование	-11.4432
▁АССР	-11.4432
ково	-11.4433
▁Am	-11.4433
▁Then	-11.4435
▁полная	-11.4435
▁стакана	-11.4435
юр	-11.4435
▁посмотрел	-11.4438
▁цене	-11.4439
▁иные	-11.4439
▁кусок	-11.4441
▁sports	-11.4442
▁Florida	-11.4442
▁Болгарии	-11.4442
▁мешает	-11.4444
▁субботу	-11.4444
▁плотно	-11.4447
▁мечта	-11.4448
▁зубы	-11.4449
▁Каждая	-11.4449
▁reach	-11.4451
ised	-11.4451
▁ошибку	-11.4451
▁выставки	-11.4455
▁отказались	-11.4459
ара	-11.4459
▁исключения	-11.4459
▁описал	-11.446
pur	-11.446
▁суб	-11.446
▁вывести	-11.446
▁smaller	-11.4461
low	-11.4461
▁import	-11.4465
▁зависимость	-11.4465
▁Венгрии	-11.4466
▁Пи	-11.4466
▁сл	-11.4468
▁Home	-11.447
мут	-11.4472
▁открыли	-11.4477
▁женщиной	-11.4478
▁ухода	-11.4479
▁успехи	-11.4481
▁педагог	-11.4481
▁настоящим	-11.4482
▁фигура	-11.4482
▁сего	-11.4485
▁agreement	-11.4486
▁английской	-11.4486
ницей	-11.4487
▁воздушных	-11.449
▁Er	-11.449
▁проб	-11.4491
▁Southern	-11.4491
▁имен	-11.4492
▁указания	-11.4495
▁молоко	-11.4496
▁правоохранитель	-11.45
▁remain	-11.45
▁условиям	-11.4505
▁территорий	-11.451
▁ток	-11.451
▁ходил	-11.451
▁constructed	-11.4511
▁обнаружены	-11.4513
шен	-11.4513
▁собирался	-11.4515
▁следить	-11.4515
▁приобретает	-11.4515
▁личные	-11.4516
▁тон	-11.4517
▁Видимо	-11.4517
▁остаётся	-11.4518
▁интереса	-11.4518
▁бор	-11.4519
▁делами	-11.452
▁внешний	-11.452
▁больнице	-11.452
▁похода	-11.4522
▁неплохо	-11.4522
▁случаю	-11.4522
▁маслом	-11.4522
лина	-11.4525
▁гнев	-11.4525
▁сидеть	-11.4525
▁народом	-11.4527
▁пра	-11.4528
▁смесь	-11.4528
▁Кап	-11.4529
▁Нового	-11.453
▁ритм	-11.4531
▁обед	-11.4533
▁приносит	-11.4535
▁поставили	-11.4535
▁covered	-11.4535
▁basis	-11.4535
иш	-11.4535
▁Основной	-11.4536
▁учета	-11.4541
▁effort	-11.4542
▁помогают	-11.4543
▁законам	-11.4543
▁сегодняшний	-11.4543
▁секунды	-11.4544
▁records	-11.4544
▁столицу	-11.4546
▁деревню	-11.4547
вали	-11.4547
▁летних	-11.4547
▁Жена	-11.455
▁недостаток	-11.4552
ica	-11.4554
▁предоставить	-11.4555
▁диалог	-11.4556
▁Po	-11.4556
▁чести	-11.4557
▁lives	-11.4557
▁широкий	-11.4557
▁товарищей	-11.4559
▁показано	-11.456
▁камней	-11.456
▁Иначе	-11.4561
▁Ku	-11.4561
▁оставили	-11.4562
▁возвращении	-11.4563
▁теряет	-11.4563
▁база	-11.4564
▁офис	-11.4565
▁уверены	-11.4566
тельные	-11.4569
▁местами	-11.4569
▁процедуры	-11.4571
▁врачи	-11.4573
ves	-11.4573
▁сотрудничество	-11.4573
▁Chi	-11.4573
▁типы	-11.4574
▁уверенность	-11.4574
▁реализовать	-11.4575
▁отправить	-11.4576
type	-11.4577
▁Edward	-11.4579
▁враг	-11.4581
▁оставалась	-11.4581
▁фамилия	-11.4582
▁объяснил	-11.4584
▁научный	-11.4584
ющимися	-11.4585
инской	-11.4586
▁длинные	-11.4587
▁концепция	-11.4589
летняя	-11.4595
▁products	-11.4596
www	-11.4596
▁overall	-11.4599
▁индекс	-11.4603
▁скажет	-11.4604
▁multi	-11.4604
▁IT	-11.4605
▁What	-11.4606
▁Московский	-11.4609
Мир	-11.461
▁IP	-11.4611
▁Jack	-11.4611
▁памятника	-11.4613
рем	-11.4614
▁МиГ	-11.4614
▁Интернет	-11.4615
▁mass	-11.4615
▁перец	-11.4616
▁главой	-11.4617
▁секрет	-11.462
▁сериала	-11.462
▁Дэвид	-11.462
зрел	-11.4622
▁составить	-11.4622
▁перевода	-11.4622
▁муки	-11.4624
▁Давид	-11.4625
▁greater	-11.4626
▁рекомендуется	-11.463
зон	-11.4631
▁Примерно	-11.4632
тельный	-11.4632
▁богатства	-11.4632
▁господин	-11.4633
▁молодым	-11.4637
▁лицами	-11.4637
чат	-11.4639
▁слухи	-11.4639
▁earned	-11.4644
▁плоскости	-11.4644
▁повод	-11.4645
рет	-11.4646
▁гипер	-11.4646
гран	-11.4647
▁персонажа	-11.4648
▁бомб	-11.465
▁presence	-11.465
▁исход	-11.4652
▁счета	-11.4656
▁бесплатно	-11.4659
▁tells	-11.4659
▁бежал	-11.4659
▁сзади	-11.466
▁объема	-11.4661
▁остановился	-11.4662
▁утверждать	-11.4662
▁memory	-11.4662
▁научиться	-11.4664
▁prison	-11.4665
▁гражданин	-11.4666
▁переименован	-11.4667
▁Вал	-11.4667
Ма	-11.4669
▁преимущество	-11.467
есть	-11.4671
▁получаем	-11.4671
▁улучшения	-11.4671
▁широкое	-11.4671
мал	-11.4672
▁велел	-11.4675
▁температуре	-11.4676
класс	-11.4676
▁реального	-11.4677
▁примером	-11.4679
Аль	-11.4679
▁Ni	-11.4679
▁контраст	-11.468
▁планируется	-11.468
граф	-11.4681
▁bring	-11.4682
▁спасибо	-11.4682
▁приказу	-11.4683
▁кожа	-11.4685
▁Par	-11.4685
▁offer	-11.4686
▁деталь	-11.4686
ola	-11.4687
▁альбома	-11.4688
▁цветы	-11.4689
▁Frank	-11.4689
▁knew	-11.469
▁завоевал	-11.469
▁деятелей	-11.4691
▁focus	-11.4692
▁Ти	-11.4692
▁потеряли	-11.4692
дал	-11.4694
▁лиге	-11.4695
Государственного	-11.4695
▁продолжить	-11.4696
▁попробовать	-11.4696
▁математики	-11.4697
▁экономике	-11.4699
oc	-11.4699
▁тюрьму	-11.47
▁cell	-11.4701
▁оказывает	-11.4702
▁торговых	-11.4704
▁Куда	-11.4705
уш	-11.4706
▁зала	-11.4707
▁распоряжении	-11.4709
▁Linux	-11.471
▁благотворитель	-11.471
нных	-11.4711
▁чисел	-11.4713
▁couple	-11.4715
▁нужды	-11.4716
▁полей	-11.4717
▁механизма	-11.4717
иды	-11.4718
▁хода	-11.4719
лик	-11.4719
▁historical	-11.4719
▁award	-11.4722
▁largely	-11.4723
▁природных	-11.4723
▁нагрузки	-11.4728
▁travel	-11.4728
▁исполнении	-11.4728
▁Sa	-11.4729
▁damage	-11.4729
▁Lo	-11.473
▁отражение	-11.4731
▁кольцо	-11.4731
▁катастрофы	-11.4733
▁официальный	-11.4734
▁Египет	-11.4734
▁внизу	-11.4737
ative	-11.4737
▁действ	-11.4738
▁occurred	-11.4741
▁способа	-11.4742
▁declared	-11.4743
▁открывает	-11.4743
леп	-11.4743
▁частями	-11.4744
▁полгода	-11.4744
▁белой	-11.4745
▁предложить	-11.4746
▁Любовь	-11.4746
▁труб	-11.4751
▁покоя	-11.4754
▁племен	-11.4754
▁какому	-11.4754
▁Францию	-11.4755
▁stand	-11.4756
▁обещал	-11.4757
▁кафедры	-11.4757
▁практику	-11.4759
гл	-11.476
рек	-11.4761
▁американцы	-11.4761
▁художественного	-11.4761
▁христиан	-11.4762
▁наступает	-11.4762
▁передан	-11.4765
▁алгоритм	-11.4766
▁contains	-11.4766
▁находясь	-11.4767
▁Му	-11.4768
▁искренне	-11.4769
▁ребенком	-11.4771
Во	-11.4773
▁варианта	-11.4773
▁умел	-11.4776
▁вспомнил	-11.4777
▁изучению	-11.478
▁заряд	-11.478
▁Governor	-11.4784
▁принципа	-11.4786
нная	-11.4787
▁question	-11.4788
back	-11.4791
Нет	-11.4791
▁Мама	-11.4791
▁характеризуется	-11.4792
▁признания	-11.4792
рад	-11.4793
▁квадрат	-11.4793
ард	-11.4793
▁Johnson	-11.4794
▁противо	-11.4795
▁фунтов	-11.4796
▁эмиграции	-11.4797
▁Работал	-11.48
▁столкновения	-11.4801
теле	-11.4802
▁самоуправления	-11.4803
иц	-11.4804
▁believe	-11.4804
▁:)	-11.4807
ацией	-11.4807
▁климат	-11.4807
har	-11.4807
▁Ta	-11.4808
▁Free	-11.4809
▁глубокой	-11.4811
car	-11.4811
▁аэропорт	-11.4812
▁повсюду	-11.4816
▁trial	-11.4817
▁quality	-11.4819
▁Землю	-11.4819
▁американцев	-11.482
▁пациента	-11.4821
▁Theatre	-11.4822
▁встретить	-11.4828
ета	-11.4831
nt	-11.4831
▁сидели	-11.4832
▁Управление	-11.4832
▁палаты	-11.4832
▁событиях	-11.4833
▁чин	-11.4833
▁тренером	-11.4834
▁поколение	-11.4834
▁познакомился	-11.4834
▁предложили	-11.4834
ьи	-11.4835
▁Israel	-11.4835
ером	-11.4837
▁применяются	-11.4839
▁Дмитрия	-11.484
▁культ	-11.4841
стро	-11.4844
▁преимущества	-11.4844
▁heard	-11.4844
крас	-11.4846
▁Новгород	-11.4847
▁главнокомандующ	-11.4847
▁stone	-11.485
▁убежден	-11.485
▁equipment	-11.485
лем	-11.4851
▁ancient	-11.4853
▁рекомендации	-11.4856
▁листьев	-11.4856
▁Pi	-11.4857
▁visit	-11.4858
▁миль	-11.4858
▁получит	-11.4862
▁новости	-11.4864
▁объединение	-11.4865
▁spread	-11.4866
▁управлением	-11.4866
▁слову	-11.4868
▁Че	-11.4868
▁лежат	-11.4868
▁журналистов	-11.4871
▁пал	-11.4871
▁Последние	-11.4872
▁Герман	-11.4872
▁Генрих	-11.4872
▁direction	-11.4872
▁исполнитель	-11.4873
▁девяти	-11.4873
▁ла	-11.4873
▁Чер	-11.4876
▁космических	-11.4876
▁Middle	-11.4879
▁Ричард	-11.488
▁заканчивается	-11.4883
▁transferred	-11.4884
шее	-11.4886
▁administration	-11.4887
▁пальцев	-11.4888
▁Ленинград	-11.4888
▁Pennsylvania	-11.4889
▁областного	-11.4889
▁Основная	-11.4892
▁весело	-11.4893
▁замечает	-11.4895
сона	-11.4895
▁Наверное	-11.49
▁смену	-11.4901
▁рассмотреть	-11.4901
▁Скорее	-11.4903
▁фокус	-11.4903
▁создают	-11.4903
▁входила	-11.4904
▁любая	-11.4905
▁Центрального	-11.4905
▁refused	-11.4907
▁More	-11.4909
▁store	-11.4909
bin	-11.4912
▁risk	-11.4913
▁Собственно	-11.4913
▁сигнала	-11.4913
ram	-11.4914
▁оказать	-11.4915
ez	-11.4916
▁write	-11.4917
▁дворян	-11.4917
▁субъектов	-11.4918
▁secret	-11.4919
где	-11.4922
▁короткий	-11.4926
▁Мол	-11.4928
▁женщине	-11.4929
▁домашних	-11.4929
▁молча	-11.4929
▁Jones	-11.493
▁представляли	-11.493
▁вернулась	-11.4935
▁попала	-11.4935
сп	-11.4937
▁реальных	-11.4937
▁трудов	-11.4941
▁Национальной	-11.4942
▁Сент	-11.4943
▁возникло	-11.4943
▁studied	-11.4944
▁визит	-11.4945
▁профессии	-11.4946
тай	-11.4949
▁operated	-11.4949
▁вкусу	-11.495
▁обращаться	-11.4951
▁единицы	-11.4952
▁article	-11.4954
▁Spain	-11.4954
▁сочинений	-11.4955
▁угрозу	-11.4957
▁слава	-11.4957
▁Тан	-11.4959
▁Национального	-11.496
▁Заслуженный	-11.4961
енным	-11.4963
▁broadcast	-11.4964
▁занимаются	-11.4965
▁глядя	-11.4965
▁writer	-11.4968
▁освобождение	-11.4968
▁лежал	-11.4968
цвет	-11.497
▁stories	-11.4971
▁картине	-11.4972
▁рекламы	-11.4972
фе	-11.4974
▁факторы	-11.4976
▁Sha	-11.4977
mi	-11.4978
▁небольшим	-11.4979
▁лучшего	-11.4979
ленд	-11.4981
▁иного	-11.4982
▁вера	-11.4982
▁necessary	-11.4982
▁чистой	-11.4982
▁архитектор	-11.4984
▁землей	-11.4985
▁простого	-11.4985
▁why	-11.4985
▁прихода	-11.4989
▁способна	-11.499
▁Corps	-11.4995
▁числом	-11.4995
▁процента	-11.4998
▁полученные	-11.4998
ua	-11.4999
▁eyes	-11.5
оны	-11.5002
▁сход	-11.5003
▁Способ	-11.5003
▁concept	-11.5003
▁непрерывно	-11.5003
говор	-11.5004
▁Майкл	-11.5007
▁чувством	-11.5007
кал	-11.5007
▁эры	-11.5008
нев	-11.5008
▁банков	-11.5011
▁показатели	-11.5011
▁показания	-11.5012
▁означало	-11.5016
▁DVD	-11.5016
▁Соединенных	-11.5017
▁Blue	-11.5017
▁генерального	-11.5019
▁смело	-11.5022
▁вспоминает	-11.5025
▁content	-11.5026
▁ц	-11.5027
▁существ	-11.5028
▁московского	-11.5029
▁fellow	-11.5031
▁относиться	-11.5031
▁стекло	-11.5031
▁великим	-11.5034
рю	-11.5034
▁resulted	-11.5036
▁способами	-11.5037
▁оплаты	-11.5037
▁магазина	-11.5038
▁мастеров	-11.5038
▁master	-11.5039
▁исторический	-11.5041
▁Boston	-11.5042
▁Канады	-11.5043
▁девушек	-11.5043
▁посетил	-11.5044
▁Начиная	-11.5044
▁бумаг	-11.5045
▁больницы	-11.5046
форд	-11.5048
▁своя	-11.5048
▁находят	-11.5048
ьная	-11.5049
▁Ke	-11.505
▁Парижа	-11.5051
▁Show	-11.5055
▁billion	-11.5057
▁книгах	-11.5059
▁приобрести	-11.5059
▁церемонии	-11.506
▁обл	-11.5061
▁прибор	-11.5062
▁Игра	-11.5062
▁всякое	-11.5064
▁работник	-11.5067
эль	-11.5067
▁Сама	-11.5068
▁миллион	-11.5069
▁высказал	-11.5069
▁Кос	-11.5072
▁являлась	-11.5072
▁types	-11.5073
▁углом	-11.5075
▁постели	-11.5077
щего	-11.5077
US	-11.5077
летней	-11.508
▁Напомним	-11.508
▁полезно	-11.5083
▁протест	-11.5085
еле	-11.5086
▁командиров	-11.5087
▁плоды	-11.5087
▁сообщалось	-11.5087
▁залив	-11.5088
over	-11.5089
▁Музей	-11.5091
▁purpose	-11.5091
▁районного	-11.5091
▁сделки	-11.5092
▁sexual	-11.5092
▁глубину	-11.5094
▁выразить	-11.5094
▁мини	-11.5095
▁зовут	-11.5095
▁существовании	-11.5095
▁подъем	-11.5097
▁преступление	-11.5097
▁взглядом	-11.5097
▁окружения	-11.5098
▁Алексеевич	-11.5099
▁корни	-11.5099
▁Francisco	-11.5102
▁культурного	-11.5103
▁выступление	-11.5103
▁Утром	-11.5103
uk	-11.5103
▁взглядов	-11.5104
▁дольше	-11.5104
▁Победы	-11.5105
tro	-11.5105
▁игроком	-11.5106
▁счётом	-11.5106
▁увеличивается	-11.5107
▁крестьяне	-11.5108
ед	-11.5109
▁культуру	-11.5109
ьев	-11.511
ok	-11.511
поль	-11.5111
▁герцога	-11.5111
ено	-11.5112
▁лучшее	-11.5112
▁специальности	-11.5113
▁аудитории	-11.5115
▁Две	-11.5115
▁шагов	-11.5116
▁условно	-11.5119
▁потребовал	-11.512
▁впечатления	-11.5121
▁ан	-11.5121
▁хватит	-11.5121
▁РККА	-11.5123
▁enemy	-11.5125
лож	-11.5126
▁birth	-11.5131
berg	-11.5132
пов	-11.5133
▁ситуациях	-11.5134
▁поэтов	-11.5135
▁mainly	-11.5135
▁критика	-11.5137
▁противоположно	-11.5139
▁обратил	-11.5139
▁выглядеть	-11.5139
оль	-11.5141
▁разделить	-11.5142
ery	-11.5142
щем	-11.5142
▁умение	-11.5143
▁Валерий	-11.5143
сам	-11.5143
▁стекла	-11.5143
▁камер	-11.5144
▁сложнее	-11.5144
▁Дальше	-11.5145
аться	-11.5145
▁tell	-11.5146
▁del	-11.5146
▁computer	-11.5147
▁обращается	-11.5149
▁Цель	-11.5151
▁Германией	-11.5153
▁тяжести	-11.5154
▁Women	-11.5155
▁Филипп	-11.5155
▁действиями	-11.5157
▁морского	-11.5157
▁называются	-11.5159
▁projects	-11.5159
▁различие	-11.5162
▁страдания	-11.5162
You	-11.5162
▁высшее	-11.5163
▁помогать	-11.5165
▁Gu	-11.5167
▁финансовой	-11.5167
▁целые	-11.5167
▁тридцати	-11.5168
▁официальном	-11.517
▁Брат	-11.5171
▁тайны	-11.5171
▁выходе	-11.5173
▁thing	-11.5174
▁больной	-11.5174
▁покой	-11.5175
▁занят	-11.5175
▁счету	-11.5176
▁officials	-11.5176
▁расширение	-11.5177
жал	-11.5177
▁Путина	-11.5179
war	-11.5179
▁fighting	-11.518
кто	-11.5181
▁страницах	-11.5181
▁заняться	-11.5182
▁преобразования	-11.5182
▁исследователь	-11.5183
▁Ju	-11.5183
▁share	-11.5183
рик	-11.5184
▁Ким	-11.5185
чев	-11.5186
▁таблицы	-11.5187
▁царство	-11.5187
▁военнослужащих	-11.5187
▁compared	-11.5187
следовательность	-11.5187
▁Татьяна	-11.519
data	-11.5191
▁формально	-11.5194
▁обычный	-11.5194
Ли	-11.5195
▁households	-11.5195
▁дам	-11.5196
▁осуществлять	-11.5196
▁правительству	-11.5198
▁Похоронен	-11.52
ward	-11.5202
▁represented	-11.5203
▁младший	-11.5205
▁узел	-11.5206
▁кнопку	-11.5207
▁Народ	-11.5208
▁отправились	-11.5209
▁Fox	-11.5209
ковского	-11.5211
▁Dutch	-11.5211
▁раннего	-11.5212
▁Ур	-11.5212
▁достигли	-11.5215
реш	-11.5216
▁производит	-11.5216
очного	-11.5217
нят	-11.5217
▁командующего	-11.5217
▁распада	-11.5218
▁разрушения	-11.5219
▁someone	-11.522
▁==	-11.522
▁Because	-11.5221
▁Ge	-11.5221
▁большевиков	-11.5222
▁футболу	-11.5224
▁Дар	-11.5226
▁супруга	-11.5226
▁компьютера	-11.5226
▁орденами	-11.5227
зу	-11.5229
▁страной	-11.5232
▁Ch	-11.5232
▁отдельной	-11.5233
▁обычного	-11.5235
вшую	-11.5237
He	-11.5237
▁пятьдесят	-11.524
▁составлял	-11.524
▁почве	-11.524
▁аэродром	-11.5241
▁миллионы	-11.5242
оне	-11.5242
▁Решение	-11.5242
▁выполнении	-11.5243
▁сюжета	-11.5243
линг	-11.5244
▁детских	-11.5244
▁маленькой	-11.5247
▁Лиги	-11.5248
▁Scott	-11.5249
▁newspaper	-11.5249
▁развиваться	-11.5251
▁street	-11.5251
▁популярность	-11.5252
▁бывшей	-11.5254
▁убедиться	-11.5255
Ар	-11.5256
▁слез	-11.5257
▁Баб	-11.5258
▁claims	-11.5258
лён	-11.5258
▁историей	-11.5259
▁видимости	-11.526
▁исторические	-11.526
▁крупным	-11.526
▁Наполеон	-11.5261
▁promoted	-11.5261
▁Ме	-11.5262
with	-11.5262
нец	-11.5263
гур	-11.5264
▁вещество	-11.5265
▁выходят	-11.5265
▁эфир	-11.5266
▁говорим	-11.5266
кол	-11.5267
▁помещении	-11.5268
▁технике	-11.5269
");	-11.5271
▁зуб	-11.5274
▁рай	-11.5276
▁Town	-11.5277
ring	-11.5278
▁Процесс	-11.5278
▁полков	-11.5279
▁единства	-11.5279
▁mis	-11.528
▁еду	-11.5282
▁боевого	-11.5285
▁граждане	-11.5287
тр	-11.5288
▁технического	-11.529
министра	-11.5291
вшуюся	-11.5291
▁посты	-11.5292
▁Джек	-11.5292
▁построил	-11.5296
▁Ca	-11.5296
▁видела	-11.5299
▁Ос	-11.5299
▁attacks	-11.5299
▁награды	-11.53
▁сомнений	-11.53
▁Институт	-11.5301
▁надпись	-11.5303
▁пользовался	-11.5303
ром	-11.5303
▁спектр	-11.5304
ался	-11.5305
▁некоторой	-11.5306
▁диссертацию	-11.5307
▁Wales	-11.5308
▁ждал	-11.5312
▁уничтожения	-11.5313
▁Шу	-11.5313
▁истребителей	-11.5314
▁Ник	-11.5314
▁умолчанию	-11.5315
▁советская	-11.5315
два	-11.5315
▁наследия	-11.5316
▁разного	-11.5318
▁иск	-11.5318
▁больницу	-11.5318
▁подводных	-11.5319
▁Главного	-11.532
▁потерь	-11.532
▁Комитета	-11.5321
▁пальцы	-11.5321
▁Фа	-11.5322
▁выбрал	-11.5323
▁county	-11.5323
▁толпы	-11.5323
▁мятеж	-11.5324
▁кольца	-11.5324
▁следствием	-11.5324
той	-11.5324
▁государстве	-11.5326
▁ценных	-11.5327
▁волна	-11.5327
▁потребления	-11.5328
▁частной	-11.5328
▁совести	-11.5329
бал	-11.5331
▁пациентов	-11.5333
var	-11.5334
▁наград	-11.5336
ани	-11.5337
▁machine	-11.5339
▁Бал	-11.5339
op	-11.534
▁потребуется	-11.534
цеп	-11.534
▁надеюсь	-11.5341
▁бу	-11.5341
чиков	-11.5342
▁door	-11.5344
рид	-11.5346
нс	-11.535
▁настройки	-11.535
▁отражает	-11.5351
важ	-11.5351
▁указ	-11.5352
▁подал	-11.5353
ющему	-11.5354
▁мощностью	-11.5355
▁Dan	-11.5356
само	-11.5357
▁товарищи	-11.5359
▁completely	-11.536
▁Ред	-11.5362
▁телефона	-11.5362
▁офицера	-11.5363
законодательства	-11.5363
▁Ab	-11.5364
▁красного	-11.5367
▁объявлен	-11.5368
▁подробности	-11.537
▁simply	-11.5371
▁активное	-11.5371
▁собаку	-11.5371
суд	-11.5372
▁твои	-11.5374
▁производству	-11.5376
▁попыток	-11.5378
иной	-11.5379
ьные	-11.538
гон	-11.538
ющем	-11.5381
бл	-11.5383
▁mm	-11.5386
▁защитить	-11.5386
ris	-11.5388
▁желает	-11.5389
▁обозначения	-11.5389
▁reduced	-11.5392
▁равна	-11.5393
▁кожу	-11.5395
▁Баку	-11.5396
▁продать	-11.54
кра	-11.54
▁Крыму	-11.5402
▁грузов	-11.5402
▁adopted	-11.5403
▁Land	-11.5405
▁перенос	-11.5407
следовательности	-11.5408
▁housing	-11.5411
ёв	-11.5412
лон	-11.5412
щий	-11.5413
пон	-11.5414
▁дополнительно	-11.5414
▁нашла	-11.5416
▁понимали	-11.5416
▁Проблема	-11.5418
▁bank	-11.5418
▁поколений	-11.5418
Ал	-11.5421
▁черной	-11.5421
▁количеству	-11.5421
▁собирать	-11.5422
▁карьере	-11.5422
▁реакцию	-11.5423
▁стороной	-11.5423
▁разрыв	-11.5424
▁нуждается	-11.5425
▁ближайшие	-11.5427
▁places	-11.5428
▁toward	-11.543
▁Вера	-11.5431
▁резерв	-11.5431
▁упор	-11.5434
ается	-11.5435
▁уверенно	-11.5437
▁стремился	-11.5439
▁судья	-11.544
▁вела	-11.5441
▁дивизион	-11.5443
▁deep	-11.5444
▁заседания	-11.5445
▁проводились	-11.5446
▁памятников	-11.5447
▁предстояло	-11.5448
▁blue	-11.5448
▁считалось	-11.5448
▁единственная	-11.5449
▁направлений	-11.5453
гр	-11.5453
▁угля	-11.5454
▁свободной	-11.5455
▁максимум	-11.5457
▁upper	-11.5458
ент	-11.5458
which	-11.5459
▁Люб	-11.546
▁финала	-11.546
▁ствола	-11.5461
част	-11.5463
▁показан	-11.5463
▁создано	-11.5464
▁capacity	-11.5464
▁справиться	-11.5465
▁электронной	-11.5465
▁похожи	-11.5465
▁площадью	-11.5466
▁подтвердил	-11.5466
▁фирма	-11.5467
▁Начало	-11.5467
▁sales	-11.547
▁партизан	-11.5472
▁добился	-11.5472
▁получило	-11.5473
▁металлов	-11.5476
▁национальный	-11.5477
▁Азербайджана	-11.5477
▁eastern	-11.5479
▁направлены	-11.5479
▁лагере	-11.5479
▁Дети	-11.548
▁пожара	-11.548
▁прекрасный	-11.548
▁Chief	-11.5481
▁царства	-11.5482
эм	-11.5482
▁Является	-11.5483
▁Ча	-11.5484
щая	-11.5484
▁Чемпион	-11.5484
▁se	-11.5484
▁позволили	-11.5487
▁Сто	-11.5487
▁Latin	-11.5489
труд	-11.5489
▁почвы	-11.549
▁проезд	-11.5491
▁войной	-11.5491
айте	-11.5491
инская	-11.5491
▁ближайшее	-11.5492
▁ребенку	-11.5492
▁отмечал	-11.5493
▁годам	-11.5494
уха	-11.5494
▁шаги	-11.5494
служба	-11.5495
▁защита	-11.5496
▁открыта	-11.5498
▁ростом	-11.55
▁Rome	-11.5501
чики	-11.5504
бир	-11.5504
▁ЗА	-11.5504
▁edition	-11.5505
▁Хор	-11.5506
▁общин	-11.5507
▁Бориса	-11.5508
▁будущих	-11.5509
▁снял	-11.551
▁голосования	-11.5514
▁объём	-11.5515
▁trans	-11.5515
▁вашем	-11.5515
▁Оказалось	-11.5515
▁целую	-11.5517
ления	-11.5517
▁самолёт	-11.5518
▁страсти	-11.5518
▁клубом	-11.5518
vi	-11.5518
▁СО	-11.5518
▁дохода	-11.552
▁взяла	-11.5522
▁организовал	-11.5523
▁Храм	-11.5523
▁важнейших	-11.5524
▁происшествия	-11.5525
▁провод	-11.5525
▁Владимирович	-11.5527
▁пользовались	-11.5527
▁основал	-11.5527
▁регионах	-11.5528
▁князей	-11.5529
▁purchased	-11.5529
▁Мур	-11.5531
▁танковой	-11.5531
ology	-11.5531
▁журналистам	-11.5533
тем	-11.5534
▁Октябрьской	-11.5534
▁super	-11.5536
▁Power	-11.5536
▁сборная	-11.5538
▁Анти	-11.5538
▁сок	-11.5538
▁букв	-11.5539
▁подать	-11.5539
▁каждые	-11.5539
▁удовольствия	-11.5543
▁trying	-11.5545
▁сделан	-11.5545
▁поговорить	-11.5546
сет	-11.5547
Вот	-11.5547
▁призыв	-11.5547
▁месяцы	-11.5548
ius	-11.5548
▁проживало	-11.555
аны	-11.5552
▁изо	-11.5553
▁Христос	-11.5555
ений	-11.5557
▁Группа	-11.5558
yn	-11.5561
чет	-11.5562
▁Eastern	-11.5562
▁приводят	-11.5562
▁талант	-11.5564
▁становились	-11.5565
▁русскими	-11.5565
▁вдвое	-11.5566
▁Williams	-11.5573
▁зону	-11.5575
▁особенность	-11.5575
▁согласие	-11.5577
лад	-11.5577
▁английских	-11.5578
▁twenty	-11.5579
▁образу	-11.558
▁Жил	-11.558
▁произвести	-11.558
▁слоя	-11.5582
▁транспортных	-11.5582
▁пригласил	-11.5582
оцен	-11.5583
▁епископа	-11.5583
▁Югославии	-11.5584
▁номером	-11.5584
инском	-11.5584
▁социализма	-11.5586
▁develop	-11.5587
▁генеральный	-11.5587
аф	-11.5588
▁крупной	-11.5588
▁ген	-11.559
▁корм	-11.559
енс	-11.5593
▁противником	-11.5593
▁сетей	-11.5593
▁министром	-11.5594
▁выйдет	-11.5595
▁символов	-11.5596
▁лодок	-11.5596
▁адресу	-11.5597
форм	-11.5597
▁Улица	-11.5597
▁alongside	-11.5601
mon	-11.5601
▁Министерство	-11.5602
▁заметили	-11.5602
▁рейтинг	-11.5602
еж	-11.5602
▁денежных	-11.5602
▁мужество	-11.5603
▁полученных	-11.5604
▁отдельного	-11.5604
vin	-11.5605
▁изучал	-11.5605
▁требовалось	-11.5606
▁соревнований	-11.5607
▁показаться	-11.5608
▁Mor	-11.5609
▁актов	-11.5614
▁Вит	-11.5614
▁сообщить	-11.5616
план	-11.5617
▁интерфейс	-11.5619
▁рассказывать	-11.562
▁значении	-11.562
▁подобной	-11.5621
▁Господа	-11.5621
▁доли	-11.5621
▁опер	-11.5624
бед	-11.5624
▁сооружений	-11.5624
▁отнести	-11.5625
▁recently	-11.5626
▁конкретного	-11.5626
▁Civil	-11.5627
▁снизу	-11.5627
▁Латвии	-11.5628
▁conflict	-11.5628
западе	-11.5629
▁positive	-11.5631
▁преподаватель	-11.5634
фон	-11.5635
▁Воз	-11.5636
▁firm	-11.5636
▁патриот	-11.5637
ff	-11.5639
▁герцог	-11.564
tion	-11.564
▁чине	-11.5642
▁достижение	-11.5644
▁официальной	-11.5647
▁учитывая	-11.5647
▁le	-11.5647
▁восприятие	-11.5648
ёл	-11.5649
▁комедии	-11.565
мель	-11.5651
▁Prime	-11.5651
De	-11.5651
▁flight	-11.5653
анта	-11.5653
▁Vol	-11.5656
▁отправиться	-11.5657
▁потребителей	-11.5657
▁размещения	-11.5659
▁follow	-11.5659
▁goes	-11.5659
фор	-11.5661
▁seat	-11.5662
▁пан	-11.5662
пас	-11.5663
du	-11.5665
▁привык	-11.5665
як	-11.5665
▁receive	-11.5666
▁critical	-11.5667
▁sign	-11.5667
▁Top	-11.5668
▁meant	-11.5669
ированные	-11.5671
▁ОС	-11.5672
▁девушку	-11.5672
ине	-11.5672
▁стихотворения	-11.5673
▁смех	-11.5673
▁сравнения	-11.5677
▁сильных	-11.5678
Кор	-11.5679
▁называемых	-11.5681
▁growing	-11.5684
▁перешла	-11.5684
▁сервера	-11.5685
бол	-11.5685
▁свидетельства	-11.5685
шую	-11.5686
mp	-11.5688
актив	-11.569
▁тканей	-11.5691
▁стихотворение	-11.5693
ику	-11.5693
▁подвиг	-11.5693
▁печени	-11.5695
fa	-11.5696
▁cars	-11.5696
▁передаче	-11.5697
▁Young	-11.5697
▁включить	-11.5697
▁образец	-11.5698
крат	-11.5699
▁Георгия	-11.5699
▁контролем	-11.5699
эй	-11.5701
▁спину	-11.5701
▁прочего	-11.5701
▁Three	-11.5702
▁Киева	-11.5702
▁военном	-11.5704
▁Su	-11.5705
▁русско	-11.5706
▁leadership	-11.5706
▁Наша	-11.5707
▁похоронен	-11.5707
▁sources	-11.5709
▁claim	-11.5709
▁статуса	-11.5709
▁attacked	-11.5711
▁Mal	-11.5712
ata	-11.5713
щиков	-11.5715
▁нанести	-11.5715
▁думали	-11.5715
▁колхоз	-11.5718
▁cells	-11.5721
▁смеси	-11.5721
▁командующий	-11.5721
▁History	-11.5722
▁указанных	-11.5723
▁Дан	-11.5723
свет	-11.5723
▁травмы	-11.5724
▁выступают	-11.5725
▁основное	-11.5725
▁peace	-11.5725
py	-11.5726
аю	-11.573
▁совокупность	-11.5731
▁коллекции	-11.5731
ича	-11.5731
глав	-11.5732
▁необходимое	-11.5733
▁estimated	-11.5734
▁Java	-11.5734
▁единственное	-11.5734
▁дно	-11.5735
▁вызвали	-11.5735
▁добровольно	-11.5736
▁диплом	-11.5737
▁крейсер	-11.5737
▁дыхания	-11.5742
▁необходимы	-11.5742
▁assigned	-11.5744
▁этаже	-11.5745
▁вызывать	-11.5745
▁доходы	-11.5747
▁славу	-11.5748
▁капиталистическ	-11.5748
▁эксплуатацию	-11.5748
▁диска	-11.5749
▁мгновение	-11.5751
▁всякие	-11.5751
▁Дю	-11.5752
▁гражданских	-11.5753
▁Маркс	-11.5754
▁Результаты	-11.5755
air	-11.5755
сель	-11.5757
▁сделает	-11.5757
▁малой	-11.5758
▁планете	-11.576
▁формат	-11.5762
▁крае	-11.5763
more	-11.5764
▁образуется	-11.5766
▁травы	-11.5766
▁произойдет	-11.5769
эл	-11.5773
родолжительность	-11.5773
нис	-11.5774
▁девочки	-11.5774
▁рассказов	-11.5776
▁полномочий	-11.5778
▁matches	-11.5778
▁основатель	-11.5779
▁Государственный	-11.5779
▁никуда	-11.5779
ans	-11.578
▁находящихся	-11.578
▁эксперимента	-11.5781
▁Ги	-11.5782
▁widely	-11.5782
wa	-11.5784
▁Горького	-11.5785
▁becomes	-11.5788
ову	-11.5788
▁обзор	-11.579
▁светло	-11.5792
▁трубы	-11.5793
▁потребностей	-11.5793
▁массой	-11.5793
▁разработан	-11.5794
фин	-11.5794
▁officially	-11.5794
▁primarily	-11.5794
▁Not	-11.5795
▁Командир	-11.5796
▁уголовное	-11.5796
▁описать	-11.5797
▁ходили	-11.5798
▁захвата	-11.5798
▁распределения	-11.5798
▁носят	-11.5798
▁creation	-11.5799
▁serving	-11.5799
▁Юр	-11.5799
▁Зем	-11.5801
▁эффекта	-11.5801
▁facilities	-11.5801
▁Фридрих	-11.5802
▁вреда	-11.5803
▁штате	-11.5803
тянут	-11.5803
▁давлением	-11.5804
▁элементами	-11.5806
▁советы	-11.5807
▁моно	-11.5808
▁действовали	-11.5809
▁официальных	-11.5809
▁населением	-11.5811
▁Tu	-11.5812
▁суп	-11.5813
▁surrounding	-11.5817
▁зря	-11.5818
SA	-11.5819
▁Ро	-11.5825
▁Ам	-11.5826
▁религия	-11.5828
om	-11.5828
test	-11.5828
раж	-11.5829
▁технику	-11.5829
ae	-11.583
▁кот	-11.583
▁публицист	-11.583
▁ограничений	-11.5831
▁умереть	-11.5832
ries	-11.5832
▁группами	-11.5833
▁лишения	-11.5833
▁Цвет	-11.5833
▁Fe	-11.5835
▁tournament	-11.5837
▁грех	-11.5837
анг	-11.5839
▁Ba	-11.5839
▁Неужели	-11.5839
▁восстановление	-11.584
▁низкой	-11.5841
era	-11.5842
▁minor	-11.5842
▁воля	-11.5844
▁считаться	-11.5845
▁von	-11.5845
▁больно	-11.5846
ER	-11.5847
▁становился	-11.585
▁полномочия	-11.585
▁Норвегии	-11.585
▁современный	-11.5852
▁покупать	-11.5852
▁арт	-11.5852
▁хорошая	-11.5853
▁коня	-11.5856
▁label	-11.5856
▁figure	-11.586
▁Ев	-11.5865
▁типу	-11.5867
▁вашим	-11.5867
шан	-11.5868
ou	-11.5869
▁даты	-11.587
▁distance	-11.5871
▁bill	-11.5871
▁аромат	-11.5872
▁Адам	-11.5872
ГУ	-11.5872
▁твоей	-11.5872
▁небольшую	-11.5874
▁акта	-11.5874
▁духом	-11.5876
ab	-11.5876
▁обязательств	-11.5878
▁паспорт	-11.5883
▁Line	-11.5883
▁Абу	-11.5886
▁аварии	-11.5887
▁Кубок	-11.5887
▁herself	-11.5887
▁Mon	-11.5888
▁балет	-11.5888
▁looked	-11.5888
▁общественный	-11.5889
▁Asia	-11.5892
▁Captain	-11.5893
▁file	-11.5893
▁Конституции	-11.5895
▁льда	-11.5895
▁неделе	-11.5896
▁соревнования	-11.5896
▁quite	-11.59
▁weight	-11.59
▁лицам	-11.5901
▁образца	-11.5902
▁resulting	-11.5903
тип	-11.5903
▁murder	-11.5903
▁ждали	-11.5905
жив	-11.5905
▁построены	-11.5906
▁англичан	-11.5906
▁ждут	-11.5908
чем	-11.5909
▁проход	-11.5911
пал	-11.5911
▁guns	-11.5912
▁принести	-11.5914
▁website	-11.5915
▁Berlin	-11.5916
ena	-11.5918
▁огромную	-11.5919
▁снят	-11.592
▁дед	-11.592
тельная	-11.5921
▁academic	-11.5923
▁низ	-11.5923
▁двенадцать	-11.5924
▁деньгами	-11.5924
▁перспективы	-11.5926
▁unable	-11.5926
▁Parliament	-11.5926
▁заключил	-11.5926
▁ушла	-11.5927
▁exchange	-11.5929
ach	-11.593
▁draw	-11.5931
ьных	-11.5933
▁саду	-11.5933
▁промышленных	-11.5935
▁протеста	-11.5935
▁расположенных	-11.5936
▁Гарри	-11.5936
▁послан	-11.5937
ren	-11.5937
▁Смит	-11.5939
▁сражение	-11.594
▁native	-11.5941
dis	-11.5941
▁Количество	-11.5942
▁попытке	-11.5943
▁unique	-11.5946
▁непо	-11.5946
▁prominent	-11.595
▁пыль	-11.5951
▁политическую	-11.5952
▁окрестностях	-11.5952
▁сильной	-11.5953
нья	-11.5954
▁Восток	-11.5955
▁видны	-11.5958
▁broke	-11.5959
ble	-11.596
▁качеств	-11.596
мина	-11.596
▁содержанием	-11.596
▁dance	-11.5961
▁начинать	-11.5961
▁захватили	-11.5961
box	-11.5962
▁тяжелой	-11.5963
▁условие	-11.5964
▁существовали	-11.5964
▁слышать	-11.5964
▁Si	-11.5964
▁communities	-11.5965
▁сильного	-11.5966
▁скота	-11.5967
▁переворот	-11.5969
▁факту	-11.5969
стен	-11.5974
▁Кир	-11.5975
▁ступени	-11.5976
▁Фу	-11.5976
▁operating	-11.5978
▁dark	-11.5979
Те	-11.598
▁youth	-11.5982
▁скандал	-11.5983
▁конструктор	-11.5985
▁Англию	-11.5985
▁холод	-11.5986
▁расположенный	-11.5986
▁Важно	-11.5987
▁поступать	-11.5987
▁труп	-11.5989
кры	-11.5989
▁татар	-11.5991
▁успехов	-11.5991
▁stay	-11.5992
▁newly	-11.5995
▁era	-11.5995
▁Bridge	-11.5996
II	-11.5997
▁наружу	-11.5997
▁противоречия	-11.5997
▁чувствую	-11.5998
▁spring	-11.5998
▁файлы	-11.5999
▁перемен	-11.5999
▁характерно	-11.6
Кон	-11.6001
▁испытывает	-11.6001
▁оставляет	-11.6002
▁зарубежных	-11.6003
▁authorities	-11.6003
▁granted	-11.6004
▁советское	-11.6005
▁развивать	-11.6007
▁писала	-11.6008
▁Railway	-11.6011
▁полки	-11.6012
▁христианства	-11.6012
▁отчетливо	-11.6012
▁проблемами	-11.6013
профессиональных	-11.6013
▁gained	-11.6013
▁значительную	-11.6014
▁поступает	-11.6016
▁reports	-11.6018
▁Артур	-11.6018
▁Никогда	-11.6019
▁фраза	-11.602
▁аэропорта	-11.602
▁combined	-11.6021
▁главу	-11.6022
▁counter	-11.6024
▁Тро	-11.6025
▁Bur	-11.6025
▁Наполеона	-11.6025
▁незаметно	-11.6025
▁собирались	-11.6026
▁газов	-11.6026
▁Гур	-11.6027
▁allowing	-11.6032
▁мотив	-11.6033
▁применением	-11.6034
лез	-11.6035
ons	-11.6036
▁Бан	-11.6037
vis	-11.6038
▁Международного	-11.6039
▁древнего	-11.6039
▁американская	-11.604
▁молодости	-11.6041
▁плечи	-11.6042
▁приз	-11.6042
▁определяют	-11.6044
вшими	-11.6045
▁конкретно	-11.6045
▁музыке	-11.6046
▁Ленинграде	-11.6046
Le	-11.6047
▁Национальный	-11.6048
▁Дер	-11.6048
gi	-11.6048
▁Соч	-11.6049
▁semi	-11.605
▁рассмотрения	-11.6051
хар	-11.6051
▁механизмы	-11.6052
▁Опять	-11.6054
▁насекомых	-11.6055
▁отпуск	-11.6057
▁Bell	-11.6058
▁упорно	-11.6061
нице	-11.6061
▁Чаще	-11.6063
▁Ra	-11.6063
▁приемы	-11.6063
▁маленькая	-11.6065
▁противников	-11.6066
вай	-11.6067
▁уши	-11.6073
▁компоненты	-11.6073
▁небольшого	-11.6073
▁отбор	-11.6075
▁основа	-11.6075
▁metal	-11.6077
▁сказки	-11.6078
▁будущей	-11.6079
шев	-11.6079
▁Казахстан	-11.6081
▁преподавал	-11.6084
▁сценария	-11.6089
ляр	-11.6091
▁забывать	-11.6093
▁женского	-11.6094
готов	-11.6094
▁старшим	-11.6094
▁environment	-11.6096
атель	-11.6096
▁opposition	-11.6098
▁organized	-11.6099
▁позволил	-11.6099
ческая	-11.6099
▁audience	-11.6099
▁написана	-11.61
▁проводятся	-11.61
▁костей	-11.6101
▁контекст	-11.6102
ice	-11.6103
▁сочетании	-11.6103
▁territory	-11.6105
▁полуострова	-11.6105
AL	-11.6106
▁user	-11.6107
▁философия	-11.6108
▁образует	-11.6109
▁всячески	-11.6111
▁наименование	-11.6111
▁Inc	-11.6111
▁показ	-11.6111
▁сходство	-11.6114
American	-11.6114
▁секс	-11.6114
▁Pan	-11.6116
▁споры	-11.6116
▁символом	-11.6116
▁образцы	-11.6117
▁КП	-11.6119
▁формах	-11.6119
▁звуков	-11.6119
▁называемой	-11.612
▁спине	-11.612
▁строения	-11.6121
▁выпущен	-11.6121
▁Awards	-11.6122
▁традиционно	-11.6123
not	-11.6123
ities	-11.6123
▁третья	-11.6124
▁чужой	-11.6126
▁object	-11.6126
▁models	-11.6127
▁казаков	-11.6127
▁пользуется	-11.6127
our	-11.6127
▁литературу	-11.6128
▁навыки	-11.6128
▁тенденции	-11.6133
Ан	-11.6135
▁Мэри	-11.6135
▁parties	-11.6136
▁ценой	-11.6137
az	-11.6137
▁островах	-11.6137
js	-11.6139
пин	-11.614
▁listed	-11.6142
▁коп	-11.6142
▁Ирландии	-11.6142
▁курсе	-11.6142
▁механизмов	-11.6143
▁свободе	-11.6143
▁Alexander	-11.6144
олог	-11.6147
list	-11.6148
▁actions	-11.6149
▁typically	-11.6151
▁BC	-11.6151
▁search	-11.6151
▁выступлений	-11.6152
▁просить	-11.6152
▁верх	-11.6154
▁советник	-11.6155
▁Вечером	-11.6155
▁отличия	-11.6156
▁видя	-11.6156
▁composed	-11.6157
▁Corporation	-11.6157
▁Before	-11.6158
▁минус	-11.6159
▁политическая	-11.616
▁женской	-11.616
▁выставке	-11.616
▁монастыре	-11.6163
▁governor	-11.6163
▁Live	-11.6164
▁anything	-11.6165
read	-11.6165
▁План	-11.6165
вис	-11.6167
▁кругов	-11.6167
▁общаться	-11.6168
▁fifth	-11.6169
▁Наталья	-11.6171
▁вопросе	-11.6171
ens	-11.6172
Ра	-11.6172
нка	-11.6175
▁council	-11.6175
▁продолжа	-11.6175
▁disease	-11.6176
▁attempted	-11.6177
чан	-11.6177
▁Белого	-11.6178
▁рыбу	-11.6178
▁фразы	-11.6178
tel	-11.618
▁Осенью	-11.618
▁yards	-11.618
▁судьи	-11.6181
▁юности	-11.6183
евых	-11.6186
▁Вашингтон	-11.6186
▁встретиться	-11.6186
▁технические	-11.6187
▁обязательства	-11.6187
▁начнет	-11.6187
▁начинал	-11.6188
▁печать	-11.6188
▁Вес	-11.6188
▁мужик	-11.6189
▁стоило	-11.6189
▁думают	-11.6189
▁переживания	-11.619
▁атмосферу	-11.619
жит	-11.619
▁колебания	-11.619
▁Project	-11.619
▁обладал	-11.619
▁наблюдений	-11.6191
▁Тип	-11.6192
▁Major	-11.6192
▁transfer	-11.6193
ani	-11.6193
евского	-11.6195
▁введения	-11.6203
ецкий	-11.6203
▁combat	-11.6204
hu	-11.6205
▁состоят	-11.6206
▁атмосферы	-11.6208
▁бывало	-11.6209
yl	-11.6211
ическому	-11.6212
▁Кам	-11.6212
▁праве	-11.6213
бить	-11.6213
▁металл	-11.6213
▁высот	-11.6214
▁продаже	-11.6214
▁директоров	-11.6214
▁ходит	-11.6214
▁branch	-11.6216
▁использовался	-11.6216
▁политическим	-11.6218
▁раздела	-11.6218
▁Понятно	-11.6218
▁возможные	-11.6219
ево	-11.622
▁содержать	-11.6222
▁внешне	-11.6224
mm	-11.6224
▁обычные	-11.6224
▁дворце	-11.6225
ителей	-11.6226
▁экспертов	-11.6227
▁клад	-11.6228
▁диаметром	-11.6228
▁Рейн	-11.6228
pre	-11.6229
▁Советов	-11.6229
▁channel	-11.6229
OS	-11.623
▁импульс	-11.623
▁направлению	-11.6231
▁Secretary	-11.6231
▁старик	-11.6232
▁первому	-11.6234
нной	-11.6237
▁чтение	-11.6237
▁спросить	-11.6238
▁Яр	-11.6239
▁повезло	-11.624
▁target	-11.6243
▁расследование	-11.6245
▁table	-11.6245
Al	-11.6245
▁существующих	-11.6245
▁падение	-11.6246
ade	-11.6246
BA	-11.6247
▁запасы	-11.6248
нат	-11.6249
▁Вене	-11.6249
▁Media	-11.6249
▁проблеме	-11.6254
▁Идея	-11.6255
▁улицах	-11.6256
▁посол	-11.6259
▁Макс	-11.6259
▁transport	-11.6259
▁боев	-11.6262
▁применить	-11.6262
▁identified	-11.6266
▁поехал	-11.6266
▁включают	-11.6266
▁детской	-11.6267
▁Лес	-11.627
▁сорока	-11.627
фф	-11.627
▁сервиса	-11.627
▁поп	-11.627
▁устья	-11.6271
▁product	-11.6272
▁mentioned	-11.6272
ано	-11.6273
▁Сал	-11.6274
▁твоя	-11.6274
▁dedicated	-11.6276
пят	-11.6278
▁хор	-11.6278
▁открытой	-11.628
▁arms	-11.628
▁Бек	-11.6281
▁добраться	-11.6281
▁доверие	-11.6282
▁черно	-11.6282
▁показала	-11.6283
▁Sch	-11.6285
вед	-11.6286
▁стоя	-11.6286
▁ареста	-11.6287
▁сообщается	-11.6287
cha	-11.6289
▁целых	-11.629
▁мотивы	-11.629
ano	-11.6291
▁синтез	-11.6291
▁Валентин	-11.6291
▁знаменитого	-11.6295
▁ГК	-11.6295
емое	-11.6296
▁химических	-11.6297
▁карта	-11.6298
пур	-11.6298
SI	-11.6299
одно	-11.6299
TA	-11.6299
ограф	-11.63
▁Ti	-11.6301
ella	-11.6303
▁разговоры	-11.6303
▁лестнице	-11.6304
▁races	-11.6304
▁контакты	-11.6304
▁Бай	-11.6305
▁уме	-11.6306
Id	-11.6307
▁кос	-11.6307
▁роз	-11.6308
▁вину	-11.6308
▁слух	-11.6308
▁вертолет	-11.6309
мест	-11.6311
ТУ	-11.6312
ною	-11.6312
▁block	-11.6313
sky	-11.6315
сил	-11.6315
▁Достаточно	-11.6316
ix	-11.6316
▁аккуратно	-11.6316
▁перечень	-11.6318
▁looking	-11.6318
▁создается	-11.6319
▁причину	-11.6319
▁сражении	-11.6319
▁идеологии	-11.6321
оре	-11.6321
совет	-11.6324
▁живого	-11.6324
▁квалификации	-11.6325
▁угрозой	-11.6325
istic	-11.6326
▁требовал	-11.6326
▁космос	-11.6329
▁кара	-11.6329
▁Имя	-11.6331
▁commander	-11.6333
▁спутников	-11.6333
ируем	-11.6334
▁нефть	-11.6336
▁animals	-11.6336
▁Румынии	-11.6337
профессиональной	-11.6337
▁положил	-11.6339
▁ТВ	-11.6339
▁stock	-11.6342
▁мужской	-11.6343
▁Фер	-11.6345
▁повесть	-11.6345
▁штраф	-11.6346
▁открытый	-11.6346
▁спрос	-11.6346
Административный	-11.6347
see	-11.6349
код	-11.635
▁наряд	-11.635
ада	-11.6352
▁fully	-11.6353
ks	-11.6353
▁ма	-11.6354
ведение	-11.6354
▁supply	-11.6354
▁Вдруг	-11.6354
▁изображений	-11.6355
▁Правительство	-11.6355
▁drive	-11.6356
▁считался	-11.6356
▁пришёл	-11.6357
▁хозяйстве	-11.6357
▁свободное	-11.6359
▁важной	-11.6359
▁невольно	-11.636
▁piece	-11.6361
▁желательно	-11.6362
▁Император	-11.6364
▁ново	-11.6365
Раз	-11.6366
▁эпи	-11.6367
▁Чего	-11.6367
▁черные	-11.6367
▁глубже	-11.6368
▁мифологии	-11.6368
▁малого	-11.6368
нт	-11.6368
▁Боб	-11.6369
▁шасси	-11.637
▁миг	-11.637
▁добычи	-11.6372
ich	-11.6374
▁соответствующей	-11.6374
▁die	-11.6375
▁лошадь	-11.638
▁украинский	-11.638
СЯ	-11.638
▁достигла	-11.6382
▁Правительства	-11.6382
топ	-11.6383
▁green	-11.6384
▁трон	-11.6385
ot	-11.6386
▁Health	-11.6386
▁держав	-11.6388
▁драматург	-11.6388
▁string	-11.6389
▁Justice	-11.6389
мас	-11.639
▁кругом	-11.639
▁Дай	-11.639
▁hair	-11.6391
▁храме	-11.6391
▁оператор	-11.6392
▁Conference	-11.6392
▁simple	-11.6393
▁большего	-11.6395
▁отправили	-11.6395
▁выборе	-11.6397
▁фильмах	-11.6398
▁Весной	-11.6398
▁сотрудника	-11.6398
▁Соответственно	-11.6399
нского	-11.6399
▁узнав	-11.64
зен	-11.6401
▁Остальные	-11.6402
▁confirmed	-11.6402
▁дивизиона	-11.6402
og	-11.6403
▁идее	-11.6404
▁персонала	-11.6405
▁Ирана	-11.6407
дай	-11.6407
▁особые	-11.6409
▁коммуникации	-11.6409
▁искал	-11.6409
▁rise	-11.641
▁Поли	-11.641
▁слезы	-11.6411
рев	-11.6412
▁крас	-11.6412
▁championship	-11.6414
▁Ri	-11.6415
▁воскрес	-11.6415
▁ядро	-11.6417
▁передней	-11.6417
▁закрыть	-11.6418
val	-11.6418
▁долине	-11.6419
▁костюм	-11.6419
point	-11.642
▁севера	-11.6422
▁приведет	-11.6422
▁ученого	-11.6423
▁таблице	-11.6424
▁коллектива	-11.6424
бил	-11.6425
▁Зе	-11.6426
шир	-11.6426
▁losing	-11.6426
▁сделаны	-11.6426
▁Матери	-11.6426
▁Маг	-11.6427
▁модуль	-11.6428
очку	-11.643
▁освободить	-11.643
▁contact	-11.6432
▁массового	-11.6434
▁корабле	-11.6434
▁рассматривается	-11.6439
▁станций	-11.644
▁неверно	-11.644
▁protection	-11.6443
▁услышать	-11.6443
▁подполковник	-11.6443
▁Юрия	-11.6443
▁Each	-11.6444
▁Little	-11.6444
▁ветви	-11.6445
▁Бак	-11.6445
▁providing	-11.6446
▁куб	-11.6446
цкий	-11.6448
▁движется	-11.6448
▁Ол	-11.6448
▁regional	-11.6449
▁требовать	-11.6449
▁убийстве	-11.645
▁художественный	-11.6452
▁проверка	-11.6453
▁инфраструктуры	-11.6454
▁traffic	-11.6454
▁слоев	-11.6455
лас	-11.6455
▁Новые	-11.6456
▁экономические	-11.6457
▁племена	-11.6457
▁Human	-11.6459
▁карман	-11.646
▁Emperor	-11.646
▁студент	-11.6461
▁Эн	-11.6461
▁пояснил	-11.6463
born	-11.6464
никами	-11.6465
▁смотрели	-11.6466
▁Участвовал	-11.6466
▁руководители	-11.6466
▁поверить	-11.6466
ивший	-11.6468
ест	-11.647
един	-11.6472
▁российская	-11.6473
▁Председатель	-11.6475
▁соответствуют	-11.6475
▁Ад	-11.6476
▁impact	-11.6478
▁onto	-11.648
▁жанра	-11.648
▁колеса	-11.648
▁kill	-11.6482
ог	-11.6483
▁Екатерины	-11.6483
▁воздушного	-11.6483
ho	-11.6484
▁свойствами	-11.6485
town	-11.6486
▁laws	-11.6487
▁positions	-11.6487
▁школах	-11.6488
▁отмечают	-11.6488
▁жестоко	-11.6489
▁Series	-11.6489
▁собрались	-11.649
▁Сочи	-11.6491
▁бассейн	-11.6491
?)	-11.6496
▁вершины	-11.6496
▁needs	-11.6496
▁ле	-11.6497
▁левый	-11.6498
▁Эстонии	-11.6498
▁аренду	-11.6501
▁объявили	-11.6501
▁except	-11.6502
тик	-11.6503
▁Gold	-11.6503
▁космического	-11.6505
▁мусульман	-11.6505
▁Night	-11.6506
нд	-11.6506
▁обстановки	-11.6507
▁бросить	-11.6508
пет	-11.6509
▁Wi	-11.6511
▁вирус	-11.6511
▁поначалу	-11.6511
▁Tour	-11.6512
▁powerful	-11.6515
енными	-11.6516
RE	-11.6518
▁природой	-11.6518
▁перевести	-11.6519
▁dropped	-11.6519
▁expanded	-11.6519
▁времён	-11.6521
▁украинских	-11.6521
▁планирует	-11.6522
▁заседание	-11.6523
▁вероятности	-11.6525
▁МГУ	-11.6526
▁online	-11.6528
▁думаете	-11.6528
▁tracks	-11.653
▁Avenue	-11.653
кров	-11.653
▁зерна	-11.6532
ker	-11.6534
▁Египте	-11.6535
▁берут	-11.6535
бери	-11.6537
МА	-11.6538
▁коров	-11.654
▁поддержать	-11.6541
▁учёный	-11.6542
▁низко	-11.6542
▁коры	-11.6543
▁трубку	-11.6543
▁уволен	-11.6544
▁Ford	-11.6545
▁false	-11.6545
▁лесов	-11.6545
вели	-11.6545
▁сцен	-11.6547
▁вины	-11.6549
▁box	-11.6549
▁пятнадцать	-11.6549
▁nation	-11.655
▁кабинете	-11.6551
▁Америку	-11.6552
овича	-11.6552
▁пьян	-11.6553
▁продолжала	-11.6554
▁тепла	-11.6554
▁нарушений	-11.6555
▁эмоций	-11.6556
▁Постепенно	-11.6556
▁captain	-11.6557
▁коем	-11.6557
дав	-11.6557
▁готовность	-11.6557
▁мышление	-11.6557
▁органах	-11.6558
▁варианте	-11.6558
▁прямого	-11.6558
▁Лет	-11.6562
▁titled	-11.6563
▁снижения	-11.6564
▁медицинского	-11.6564
▁Ex	-11.6565
▁намерен	-11.6566
▁arrested	-11.6568
▁Scotland	-11.6569
▁girl	-11.657
▁перестал	-11.6571
▁вопросами	-11.6571
▁методами	-11.6572
▁plays	-11.6572
▁Пе	-11.6572
▁Гражданской	-11.6573
▁молекул	-11.6574
▁комментарии	-11.6574
▁Жуков	-11.6574
ada	-11.6574
▁единица	-11.6575
▁authority	-11.6575
▁visited	-11.6577
▁Гай	-11.6578
▁китайской	-11.6578
▁continues	-11.6579
▁рисунок	-11.658
▁марок	-11.6581
▁сделав	-11.6582
▁системах	-11.6583
▁дорого	-11.6584
ita	-11.6585
▁духов	-11.6586
▁корпорации	-11.6589
▁королю	-11.659
▁beyond	-11.659
▁известная	-11.6591
▁Ирина	-11.6593
▁Centre	-11.6593
▁компонент	-11.6594
▁Чу	-11.6596
▁шириной	-11.6597
▁определенное	-11.6598
овна	-11.6598
▁стену	-11.6599
▁политик	-11.6599
▁Кат	-11.6599
президент	-11.66
▁птица	-11.6601
маш	-11.6602
▁обыкновенно	-11.6603
▁allows	-11.6604
▁ресурс	-11.6606
tes	-11.6608
▁moment	-11.6611
порт	-11.6614
запад	-11.6615
яна	-11.6617
▁естественным	-11.6618
▁СК	-11.6618
около	-11.6618
▁порта	-11.6619
▁feel	-11.6621
▁вселенной	-11.6623
▁предлагают	-11.6624
▁Development	-11.6624
▁ball	-11.6625
бен	-11.6627
▁пистолет	-11.6628
▁Бат	-11.6629
ct	-11.6629
▁обнаружен	-11.6629
bit	-11.6631
▁задержан	-11.6631
▁имеющий	-11.6633
▁словарь	-11.6633
hi	-11.6633
app	-11.6634
▁хватило	-11.6634
▁Капитан	-11.6635
▁надежда	-11.6636
▁россиян	-11.6637
▁existing	-11.6637
▁посла	-11.6638
мой	-11.6638
▁служили	-11.6638
▁МЧС	-11.6639
▁признак	-11.664
▁мировых	-11.6645
▁retired	-11.6646
▁периоды	-11.6646
▁winter	-11.6646
▁свидетельство	-11.6647
▁avoid	-11.6648
▁направлениях	-11.6648
▁сектора	-11.6649
Па	-11.6651
▁Book	-11.6652
▁колебаний	-11.6652
▁величина	-11.6652
▁обороне	-11.6654
яд	-11.6654
▁миллиарда	-11.6654
▁участвует	-11.6654
▁народный	-11.6657
▁разно	-11.6659
▁etc	-11.6659
▁Третий	-11.666
▁соч	-11.666
▁Одни	-11.6662
▁внешние	-11.6663
▁публики	-11.6663
▁тестов	-11.6664
▁Генерального	-11.6664
соответствующего	-11.6666
▁общественно	-11.6666
онос	-11.6666
▁ребят	-11.6668
▁акцент	-11.6669
▁носили	-11.6669
▁морали	-11.667
▁технической	-11.667
▁открытых	-11.667
▁близости	-11.667
▁возникнуть	-11.6672
▁открытом	-11.6673
▁важнее	-11.6673
▁owner	-11.6673
▁стенах	-11.6674
▁escape	-11.6675
▁Wood	-11.6675
▁парке	-11.6677
нера	-11.6677
▁Говорят	-11.668
▁энергией	-11.6682
То	-11.6683
▁квартир	-11.6684
▁постановление	-11.6685
▁attempts	-11.6686
▁рассчитывать	-11.6686
▁department	-11.6686
▁туристов	-11.6686
▁Intel	-11.6687
size	-11.6689
▁французов	-11.669
▁физические	-11.6691
▁характеристик	-11.6691
▁угроза	-11.6692
▁вторжения	-11.6693
▁offers	-11.6693
▁Order	-11.6694
шер	-11.6694
лиз	-11.6695
▁отсутствуют	-11.67
еру	-11.67
▁конкретной	-11.6703
PA	-11.6704
▁ислам	-11.6704
▁гражданина	-11.6704
▁ways	-11.6705
▁остановиться	-11.6706
▁колонны	-11.6706
▁парад	-11.6706
▁fish	-11.6709
▁injury	-11.6709
▁необходима	-11.6709
▁females	-11.6709
▁хозяйств	-11.6711
▁воспитание	-11.6711
▁Луи	-11.6711
▁считаются	-11.6711
▁Премьер	-11.6712
▁попытаться	-11.6715
▁помещений	-11.6716
программирования	-11.6716
▁самолёта	-11.6716
PS	-11.6719
уна	-11.6721
голов	-11.6721
▁вступить	-11.6723
▁гром	-11.6723
▁прогресса	-11.6724
▁частоты	-11.6726
▁Андреевич	-11.6728
▁открывается	-11.6728
▁рассмотрим	-11.6729
▁передача	-11.6729
шку	-11.673
nes	-11.6732
▁Кирилл	-11.6732
▁захват	-11.6733
▁войскам	-11.6734
▁чемпионов	-11.6735
▁затраты	-11.6735
▁понимании	-11.6735
▁estate	-11.6735
востоку	-11.6737
▁приём	-11.6737
▁resources	-11.6737
▁Out	-11.6738
▁исчез	-11.6739
▁следов	-11.6741
▁площадке	-11.6742
▁железы	-11.6743
дол	-11.6743
▁Штатов	-11.6743
▁родине	-11.6744
stone	-11.6744
▁шага	-11.6745
▁способностей	-11.6748
ara	-11.6749
▁снарядов	-11.6749
▁головного	-11.675
▁хранить	-11.6751
▁собираются	-11.6751
▁увидев	-11.6751
▁экземпляров	-11.6752
▁классификации	-11.6753
lu	-11.6754
Ни	-11.6755
▁materials	-11.6756
▁Jan	-11.6758
▁iron	-11.6758
▁гимназии	-11.6758
моему	-11.6759
lock	-11.6759
▁тенденция	-11.6759
▁Як	-11.6763
ерс	-11.6764
▁республик	-11.6764
▁произошли	-11.6765
▁подростков	-11.6766
▁экрана	-11.6768
▁короткие	-11.6769
▁предусматривает	-11.6769
▁культурных	-11.677
▁блюда	-11.677
▁Among	-11.6772
ped	-11.6773
▁оказывать	-11.6773
▁критике	-11.6774
▁rules	-11.6774
▁беда	-11.6777
▁кислорода	-11.6778
▁публично	-11.6779
▁партнер	-11.6779
▁риска	-11.6782
дели	-11.6784
меш	-11.6787
▁внешним	-11.6788
▁защитил	-11.6788
▁коротко	-11.6789
▁Ваш	-11.6789
▁заводов	-11.679
▁барон	-11.6791
луч	-11.6793
▁найдены	-11.6793
ible	-11.6794
▁улучшить	-11.6794
▁обер	-11.6794
закон	-11.6795
ющуюся	-11.6797
▁gives	-11.6799
▁Federal	-11.6799
▁effective	-11.68
▁осени	-11.68
▁foot	-11.6801
▁XXI	-11.6802
▁normal	-11.6803
▁конфликтов	-11.6803
MA	-11.6807
▁съ	-11.6807
▁analysis	-11.6808
▁Тра	-11.6809
▁высоком	-11.681
▁getting	-11.681
▁Медведев	-11.681
▁царю	-11.681
▁би	-11.6811
быт	-11.6811
▁поняла	-11.6813
аешь	-11.6813
▁облака	-11.6815
▁государству	-11.6816
▁детский	-11.6817
▁opposed	-11.6817
▁велика	-11.6818
▁посольства	-11.6819
▁speech	-11.682
▁ранения	-11.682
eg	-11.6822
ku	-11.6824
▁Tri	-11.6824
▁увидела	-11.6825
▁ремонта	-11.6826
▁обнаружения	-11.6829
▁указывают	-11.6832
анс	-11.6833
▁сохранение	-11.6835
▁ран	-11.6838
▁сохранять	-11.6838
▁драмы	-11.684
▁предоставляет	-11.684
▁отцов	-11.6842
▁Up	-11.6843
▁code	-11.6843
▁правый	-11.6844
Са	-11.6845
▁tradition	-11.6846
▁bought	-11.6847
▁действующих	-11.6848
law	-11.6849
▁старались	-11.6849
light	-11.685
▁удержать	-11.6851
кус	-11.6851
▁Сайт	-11.6852
▁принесли	-11.6853
▁губы	-11.6853
▁Ten	-11.6854
▁спектакль	-11.6855
гал	-11.6856
▁Director	-11.6856
▁юридических	-11.6859
▁Международной	-11.686
▁Эд	-11.6862
▁следующую	-11.6865
сар	-11.6866
▁applied	-11.6867
▁приехали	-11.6867
▁web	-11.6868
▁мг	-11.6869
▁отметили	-11.687
▁вопросах	-11.687
gar	-11.687
An	-11.6871
▁perform	-11.6871
▁Васильев	-11.6873
▁leaves	-11.6873
▁просьбе	-11.6874
▁военная	-11.6876
▁creating	-11.6876
▁mile	-11.6877
рой	-11.6879
юк	-11.688
▁жен	-11.688
▁держит	-11.6881
▁Americans	-11.6882
▁категорически	-11.6884
deg	-11.6885
▁образованием	-11.6885
▁тысячу	-11.6885
▁родителями	-11.6886
▁богатство	-11.6889
▁епархии	-11.6889
▁Трудно	-11.689
▁рассказала	-11.689
DA	-11.6891
▁ситуаций	-11.6891
▁привет	-11.6891
▁основную	-11.6894
▁economy	-11.6895
▁держал	-11.6897
пис	-11.6897
▁тень	-11.6899
▁Америка	-11.6901
идов	-11.6902
▁физически	-11.6902
▁направил	-11.6903
▁Jackson	-11.6903
▁невероятно	-11.6903
▁фестиваля	-11.6904
тка	-11.6905
▁лодка	-11.6905
▁коммунистов	-11.6905
▁сидя	-11.6907
▁проходила	-11.6907
кие	-11.6907
▁мощный	-11.6908
▁удовлетворения	-11.6908
▁Русский	-11.6908
ski	-11.691
ins	-11.6911
▁Pa	-11.6911
▁популярных	-11.6912
▁split	-11.6913
▁потеря	-11.6914
dev	-11.6915
▁реконструкции	-11.6916
▁ответила	-11.6916
▁concert	-11.6916
▁учителей	-11.6916
▁Sp	-11.6918
▁organizations	-11.6919
▁студенты	-11.6919
▁обычным	-11.692
▁течении	-11.6921
▁творческой	-11.6922
▁домом	-11.6923
▁спортсменов	-11.6925
▁устанавливается	-11.6926
«	-11.6928
▁protect	-11.693
▁Wall	-11.693
▁глубин	-11.6931
▁совершать	-11.6931
▁fine	-11.6931
▁Data	-11.6932
▁глаг	-11.6933
▁греческого	-11.6934
▁Какая	-11.6935
▁Напротив	-11.6936
▁захватил	-11.6937
▁begins	-11.6937
▁особым	-11.6938
▁действовал	-11.6938
▁международный	-11.6938
▁наличия	-11.6938
▁Fire	-11.694
▁library	-11.694
▁писатели	-11.694
▁мыши	-11.6941
▁левого	-11.6942
▁Пал	-11.6942
истый	-11.6943
▁критик	-11.6943
сте	-11.6943
▁Яков	-11.6944
▁sought	-11.6945
▁оккупации	-11.6946
▁Vo	-11.6947
роп	-11.6947
ИТ	-11.6948
▁взгляда	-11.6948
▁Судя	-11.6949
▁Shi	-11.695
▁предложений	-11.695
▁serious	-11.6951
▁дало	-11.6952
▁собрании	-11.6955
▁государственным	-11.6956
▁прост	-11.6957
▁weapons	-11.6957
▁собственном	-11.696
▁доверия	-11.6961
▁противном	-11.6961
▁ребёнка	-11.6962
▁депутатом	-11.6963
▁Duke	-11.6965
восток	-11.6968
▁красиво	-11.6969
▁опасно	-11.697
▁листа	-11.6971
▁Cross	-11.6972
▁виноват	-11.6973
▁Библии	-11.6974
▁divided	-11.6975
▁исследовании	-11.6975
онов	-11.6975
▁длинный	-11.6977
ивать	-11.6979
▁небольшом	-11.6979
▁мечты	-11.6981
▁перелом	-11.6983
▁феномен	-11.6987
гов	-11.6988
ning	-11.6988
▁Евгения	-11.6989
▁пошло	-11.6989
▁Украину	-11.699
▁сигналы	-11.6992
▁выступали	-11.6992
▁существовала	-11.6993
▁активных	-11.6994
тера	-11.6994
▁fans	-11.6994
▁интеллигенции	-11.6994
▁согласиться	-11.6994
▁колес	-11.6996
▁насчет	-11.6996
▁Оказывается	-11.6996
▁правды	-11.6998
▁соотношение	-11.6998
▁верил	-11.6999
▁включен	-11.7
▁Север	-11.7
▁Sydney	-11.7001
▁плохой	-11.7001
iv	-11.7002
ально	-11.7003
▁провела	-11.7003
▁инвестиций	-11.7003
▁властями	-11.7006
▁соблюдать	-11.7006
▁поддержкой	-11.7007
▁естественных	-11.7007
▁rear	-11.7008
▁Достоевского	-11.7009
Пол	-11.7012
▁питание	-11.7013
▁повторить	-11.7013
tz	-11.7014
▁Library	-11.7014
▁request	-11.7017
▁Пара	-11.7018
▁path	-11.7018
▁балета	-11.7018
▁богатых	-11.7019
мысл	-11.7019
▁ФРГ	-11.7019
▁Эдуард	-11.702
▁повысить	-11.7021
▁executive	-11.7022
▁спросила	-11.7022
▁Гоголя	-11.7023
▁relatively	-11.7024
▁попросту	-11.7024
▁торпед	-11.7025
▁Слова	-11.7025
▁пролив	-11.7025
▁committee	-11.7025
▁регионального	-11.7025
▁священник	-11.7027
▁Федерального	-11.7027
▁address	-11.7028
▁Орлов	-11.7028
▁притом	-11.7028
ura	-11.7029
есь	-11.7029
нен	-11.703
чит	-11.7031
енье	-11.7031
▁Место	-11.7033
▁бред	-11.7033
▁образе	-11.7033
▁заведения	-11.7033
ell	-11.7034
▁пас	-11.7037
рыв	-11.7037
▁плодов	-11.7038
▁высказывания	-11.7038
▁Существуют	-11.7039
▁learning	-11.704
▁Internet	-11.7043
▁показателей	-11.7043
▁блюдо	-11.7043
▁funding	-11.7044
▁Граф	-11.7045
▁плотность	-11.7048
▁обман	-11.7048
тив	-11.7049
▁дав	-11.7049
▁собственными	-11.705
fi	-11.7051
down	-11.7052
▁участках	-11.7052
▁технология	-11.7052
▁argued	-11.7052
▁фразу	-11.7053
АЛ	-11.7057
▁Папа	-11.7058
▁предлагал	-11.7058
▁Комитет	-11.7059
▁литературного	-11.7059
▁беременности	-11.706
▁Король	-11.706
▁returning	-11.7061
▁Славы	-11.7061
hr	-11.7061
▁железных	-11.7061
▁Jean	-11.7062
▁распределение	-11.7063
строй	-11.7064
▁дальнейшее	-11.7066
▁Football	-11.7067
▁комнат	-11.7068
▁образованию	-11.7068
▁инструкции	-11.7068
▁магазине	-11.707
▁убили	-11.7072
цией	-11.7073
▁ящик	-11.7075
▁ЦРУ	-11.7075
▁Кажется	-11.7075
селен	-11.7076
▁соответствующий	-11.7076
▁участника	-11.7076
▁classes	-11.708
▁тормоз	-11.708
▁рассмотрение	-11.708
▁судей	-11.7081
▁step	-11.7081
▁ad	-11.7081
▁праву	-11.7082
▁однозначно	-11.7082
пит	-11.7082
▁Ki	-11.7083
▁бал	-11.7083
▁долгие	-11.7084
▁literature	-11.7084
▁дочерью	-11.7084
.#	-11.7084
▁ожидал	-11.7085
▁Блок	-11.7086
▁marked	-11.7086
▁Хай	-11.7086
▁изображением	-11.7086
illa	-11.7086
▁z	-11.7089
▁assistant	-11.7089
▁простор	-11.7091
▁билет	-11.7091
ьян	-11.7091
западу	-11.7092
▁трижды	-11.7092
▁respectively	-11.7092
▁Network	-11.7093
▁телеграф	-11.7096
▁сочетание	-11.7098
▁многократно	-11.71
▁Русь	-11.71
▁Чехов	-11.7103
оза	-11.7104
▁бабушка	-11.7105
▁покупки	-11.7105
▁согласен	-11.7105
▁increasing	-11.7105
брос	-11.7106
▁fleet	-11.7106
▁появлением	-11.7106
▁воспоминаний	-11.7106
▁Виктора	-11.7106
▁Senate	-11.7107
иком	-11.7107
▁огромным	-11.7108
▁присоединился	-11.711
▁Степан	-11.711
▁ведущий	-11.711
▁сколь	-11.7111
▁Большое	-11.7112
▁удачно	-11.7112
▁killing	-11.7113
▁собеседник	-11.7113
▁увидим	-11.7114
▁награду	-11.7114
▁Вильгельм	-11.7114
▁построено	-11.7114
▁осадков	-11.7114
▁рубля	-11.7117
▁единый	-11.7117
▁эксперт	-11.7118
▁сохраняется	-11.7118
▁созданный	-11.7121
▁красно	-11.7121
▁roof	-11.7122
▁расположения	-11.7122
▁СП	-11.7123
▁обществом	-11.7126
▁обсуждение	-11.7126
▁туалет	-11.7126
▁сравнении	-11.7126
▁ненависть	-11.7127
▁вернее	-11.7127
known	-11.7127
▁height	-11.7128
▁КНР	-11.713
▁younger	-11.713
▁eye	-11.7131
▁посетителей	-11.7131
▁Hospital	-11.7131
▁домах	-11.7132
▁проводили	-11.7132
▁ВС	-11.7132
▁носил	-11.7135
▁схему	-11.7135
▁Mu	-11.7136
аты	-11.7136
▁horse	-11.7136
▁точностью	-11.7137
ned	-11.7137
▁тайно	-11.7137
▁отдых	-11.7138
▁возможностью	-11.7139
▁campus	-11.7139
▁Jo	-11.7139
▁sell	-11.7139
▁несут	-11.714
▁логики	-11.7141
▁одержал	-11.7141
▁медиа	-11.7142
прост	-11.7143
▁Казани	-11.7143
сим	-11.7143
▁лучи	-11.7144
▁масштаб	-11.7144
▁конкретные	-11.7145
▁колени	-11.7145
▁намерения	-11.7145
ju	-11.7146
▁Андреев	-11.7147
▁Christ	-11.7148
▁кухне	-11.7148
▁соседей	-11.7149
ании	-11.715
▁помощником	-11.7151
▁поставлен	-11.7152
▁эквивалент	-11.7152
▁Asian	-11.7152
дур	-11.7153
▁Jews	-11.7154
▁проходить	-11.7154
are	-11.7155
у́	-11.7157
ii	-11.7158
сия	-11.7158
▁восточных	-11.7162
▁ногах	-11.7164
стями	-11.7164
станов	-11.7164
▁необходим	-11.7166
▁Ed	-11.7169
form	-11.717
▁жилья	-11.717
▁featuring	-11.717
▁safety	-11.7171
▁Ком	-11.7172
ице	-11.7172
▁ПРИ	-11.7173
▁methods	-11.7173
▁личным	-11.7174
▁бед	-11.7175
▁разработал	-11.7176
▁industrial	-11.7176
▁площадки	-11.7176
▁Лук	-11.7178
нина	-11.7178
▁Англия	-11.7178
сал	-11.7179
▁принадлежал	-11.7181
▁Supreme	-11.7182
▁источниках	-11.7183
▁приборов	-11.7183
▁conference	-11.7183
▁condition	-11.7184
▁боится	-11.7184
▁предотвратить	-11.7184
▁душой	-11.7186
▁способностью	-11.7186
▁application	-11.7187
▁пулемет	-11.7188
▁figures	-11.7188
▁совместной	-11.7188
▁неподалеку	-11.719
▁fuel	-11.719
▁Carolina	-11.719
----------------	-11.719
▁хороших	-11.7191
▁проблемам	-11.7192
▁религиозной	-11.7193
▁дипломат	-11.7193
▁global	-11.7195
▁finish	-11.7196
▁устроен	-11.7196
▁итальянский	-11.7196
чика	-11.7197
кр	-11.7198
▁гвардейской	-11.7198
▁extra	-11.7199
рит	-11.72
▁охране	-11.7201
▁Алексеев	-11.7201
▁уровней	-11.7202
▁producer	-11.7202
▁отказывается	-11.7204
▁теста	-11.7204
▁полях	-11.7206
uck	-11.7206
▁Sunday	-11.7206
this	-11.7206
ТИ	-11.7207
▁литературных	-11.7207
▁терапии	-11.7207
▁Elizabeth	-11.7209
uri	-11.7209
▁tree	-11.7211
▁регулирования	-11.7211
▁Sub	-11.7211
▁красной	-11.7211
▁taught	-11.7213
▁Social	-11.7213
▁Бельгии	-11.7214
▁христианской	-11.7216
акт	-11.7216
▁всюду	-11.7217
▁формате	-11.7217
▁walls	-11.7218
▁price	-11.722
▁сложный	-11.722
▁Maria	-11.722
евым	-11.7221
пр	-11.7221
▁протокол	-11.7222
▁defense	-11.7222
▁легкой	-11.7224
▁цепь	-11.7224
ane	-11.7224
кро	-11.7226
▁wing	-11.7227
▁федерации	-11.7227
уя	-11.723
▁frequently	-11.723
▁shared	-11.723
ett	-11.723
▁лидером	-11.7231
Москва	-11.7231
▁bit	-11.7232
▁уважение	-11.7234
▁принадлежности	-11.7235
▁Columbia	-11.7235
▁крик	-11.7236
▁произойти	-11.7238
ование	-11.7239
▁bus	-11.724
Бо	-11.724
▁рабочим	-11.7241
▁Начальник	-11.7242
▁Кавказа	-11.7242
▁смены	-11.7242
▁обстановка	-11.7243
▁устроить	-11.7244
▁Far	-11.7244
▁защитник	-11.7244
▁пил	-11.7244
▁сериал	-11.7244
▁scientific	-11.7245
▁четверо	-11.7246
▁историко	-11.7249
▁выбран	-11.725
арь	-11.7252
▁относились	-11.7253
▁общественные	-11.7254
▁Twitter	-11.7255
жим	-11.7256
ula	-11.7257
жил	-11.7258
king	-11.7258
▁папы	-11.7258
▁толпа	-11.7259
ируются	-11.7259
▁превратился	-11.726
ven	-11.7262
▁храмов	-11.7262
▁плав	-11.7263
▁Средней	-11.7264
▁settled	-11.7264
▁тыл	-11.7269
▁Вячеслав	-11.7269
▁документах	-11.727
▁украинского	-11.727
▁произведениях	-11.7271
table	-11.7272
▁исчезает	-11.7273
▁обеда	-11.7275
▁комиссар	-11.7276
▁App	-11.7276
zi	-11.7276
▁железнодорожной	-11.7276
▁факта	-11.7278
▁Сара	-11.7278
▁паре	-11.728
▁пыли	-11.7282
▁Ниже	-11.7282
История	-11.7282
▁предельно	-11.7282
▁страница	-11.7283
▁МО	-11.7284
ari	-11.7284
▁citizens	-11.7284
▁жилых	-11.7284
▁fast	-11.7285
▁Joe	-11.7286
▁требовали	-11.7286
▁разнообразных	-11.7286
▁display	-11.7288
▁straight	-11.7288
▁consists	-11.7289
ош	-11.7289
▁черта	-11.729
▁прочитать	-11.7291
▁domestic	-11.7291
▁конверт	-11.7292
▁pair	-11.7294
html	-11.7296
▁Good	-11.7297
▁reading	-11.7297
▁ideas	-11.7299
▁бит	-11.7299
▁carry	-11.7303
Мне	-11.7304
▁наглядно	-11.7304
▁возвращение	-11.7304
кен	-11.7305
▁наблюдение	-11.7305
▁англичане	-11.7305
▁активной	-11.7305
▁слышали	-11.7306
▁appearances	-11.7306
▁expansion	-11.7306
▁человеческий	-11.7307
▁задней	-11.7307
▁продавать	-11.7308
Data	-11.7311
▁sides	-11.7311
Си	-11.7312
▁раненых	-11.7312
▁собственному	-11.7312
▁принц	-11.7313
▁Марс	-11.7313
▁равных	-11.7314
▁плод	-11.7315
НА	-11.7316
ьную	-11.7317
▁направить	-11.7317
▁суше	-11.7317
▁любым	-11.7318
▁Vi	-11.7318
▁bad	-11.7319
▁выходил	-11.7319
верт	-11.7321
▁заняты	-11.7322
двор	-11.7323
▁notable	-11.7323
▁Jersey	-11.7324
▁полагал	-11.7325
▁применении	-11.7327
иб	-11.7328
▁набора	-11.7328
▁предполагалось	-11.7329
▁указано	-11.7331
▁заданий	-11.7331
▁встретился	-11.7334
▁опубликован	-11.7334
▁settlement	-11.7334
работ	-11.7334
▁надолго	-11.7335
енского	-11.7335
▁пятна	-11.7336
▁digital	-11.7336
▁концентрации	-11.7336
▁работника	-11.7336
Type	-11.7336
▁Чан	-11.7337
▁короткое	-11.7338
сс	-11.7338
▁заслуженный	-11.7339
▁сухой	-11.734
▁относился	-11.7341
▁семьей	-11.7342
ота	-11.7342
▁Che	-11.7343
плат	-11.7344
▁камеру	-11.7344
▁Special	-11.7345
▁курорт	-11.7345
▁Й	-11.7346
▁Одной	-11.7346
▁лучшую	-11.7349
аг	-11.7349
▁трудящихся	-11.735
▁агентов	-11.735
ese	-11.735
▁recognized	-11.7351
▁архиепископ	-11.7351
мета	-11.7353
▁интер	-11.7353
▁подачи	-11.7353
▁зона	-11.7355
вич	-11.7356
▁подобный	-11.7357
ette	-11.7357
▁поистине	-11.7357
▁участниками	-11.7358
▁авиационной	-11.7358
▁человеческие	-11.7358
ря	-11.7358
овали	-11.7359
▁plants	-11.7362
▁Ростов	-11.7363
▁Фактически	-11.7363
▁осуществляет	-11.7364
▁изменилось	-11.7364
▁Dis	-11.7364
▁renamed	-11.7365
▁сыграла	-11.7365
▁совершения	-11.7366
che	-11.7366
защит	-11.7367
▁Звезды	-11.7367
▁учесть	-11.7369
▁желез	-11.7369
▁сперва	-11.7369
▁работники	-11.7369
▁приняты	-11.737
▁Раньше	-11.737
▁продолжительн	-11.7371
▁ширина	-11.7373
▁seems	-11.7373
▁литературной	-11.7374
▁Jim	-11.7375
▁Оп	-11.7376
▁connected	-11.7377
▁Bob	-11.738
▁Polish	-11.7381
▁Ас	-11.7382
her	-11.7382
▁Бело	-11.7383
▁конструкция	-11.7383
▁реальные	-11.7383
▁урок	-11.7385
ory	-11.7385
▁надежду	-11.7386
▁выполнил	-11.7386
▁ранней	-11.7387
тяж	-11.7389
▁сцена	-11.7389
▁эскадрильи	-11.739
▁USA	-11.7391
уд	-11.7391
▁вашему	-11.7391
▁лесах	-11.7392
▁историки	-11.7394
LE	-11.7394
▁написаны	-11.7394
▁отрядов	-11.7395
▁художественных	-11.7396
▁владельца	-11.7398
▁заключить	-11.7399
▁Август	-11.7403
▁белков	-11.7403
▁Расположен	-11.7404
▁высокое	-11.7404
▁Democratic	-11.7405
▁недовольство	-11.7407
▁руд	-11.7408
▁Альберт	-11.7409
▁очистить	-11.741
крыл	-11.7411
▁разряд	-11.7412
▁trees	-11.7412
▁прорыв	-11.7413
▁Republican	-11.7414
▁спектакля	-11.7414
▁налога	-11.7414
▁объявлено	-11.7416
▁Благо	-11.7417
▁поставки	-11.7418
▁золотые	-11.7418
▁Hu	-11.7419
▁смотрят	-11.7419
▁этаж	-11.7419
ящий	-11.742
▁запрещено	-11.7421
▁положено	-11.7422
▁participated	-11.7423
▁священника	-11.7423
распространяется	-11.7424
▁ошибочно	-11.7425
▁уроки	-11.7426
▁boy	-11.7426
▁прочно	-11.7426
▁nor	-11.7426
▁фрагмент	-11.7427
▁инженера	-11.7427
▁куски	-11.7429
▁четверти	-11.743
▁золотом	-11.743
нской	-11.7431
зим	-11.7431
▁отсутствием	-11.7431
▁рта	-11.7431
▁названа	-11.7432
▁съезде	-11.7432
▁всерьез	-11.7433
▁сторонам	-11.7434
▁Ше	-11.7435
▁полоса	-11.7436
▁brothers	-11.7436
▁внести	-11.7437
▁центрального	-11.7437
▁сомнение	-11.7438
▁Several	-11.7438
▁сыграть	-11.7438
▁представителем	-11.744
▁Внутри	-11.7441
▁средние	-11.7442
▁вершине	-11.7442
▁общественности	-11.7443
▁acting	-11.7443
хов	-11.7443
▁занятие	-11.7444
▁традиций	-11.7444
▁glass	-11.7444
▁пишу	-11.7444
▁Police	-11.7445
▁санкции	-11.7445
▁позвонил	-11.7446
▁станцию	-11.7448
CC	-11.7449
▁violence	-11.745
▁каналов	-11.745
▁поры	-11.7452
▁обвинение	-11.7453
тическая	-11.7454
ций	-11.7454
▁согласован	-11.7455
▁кабинета	-11.7455
один	-11.7455
▁Creek	-11.7457
▁радостью	-11.7459
▁исправить	-11.7459
▁contrast	-11.746
▁полагают	-11.7462
▁subsequent	-11.7463
▁потерять	-11.7463
гра	-11.7463
▁самолётов	-11.7464
▁современным	-11.7464
▁стремятся	-11.7465
оры	-11.7465
▁brain	-11.7465
▁formation	-11.7466
▁Деревня	-11.7467
▁Gi	-11.7468
▁роду	-11.7469
▁светом	-11.747
▁End	-11.7473
▁меди	-11.7474
▁Рам	-11.7475
▁рабов	-11.7475
wing	-11.7475
▁мусор	-11.7475
▁фирм	-11.7476
▁продажу	-11.7476
▁Цар	-11.7477
лежа	-11.7477
▁proved	-11.7478
▁правого	-11.7479
▁фотограф	-11.748
▁мужского	-11.7481
▁лучшей	-11.7482
▁полагает	-11.7483
▁записей	-11.7483
▁occupied	-11.7483
ВО	-11.7484
▁сырья	-11.7486
▁принятие	-11.7489
▁склонны	-11.749
ess	-11.749
▁привыкли	-11.7491
▁advanced	-11.7492
▁seasons	-11.7492
▁мар	-11.7494
▁крупными	-11.7494
▁составит	-11.7494
нич	-11.7494
ори	-11.7494
▁поднимается	-11.7495
▁Использование	-11.7495
▁Средняя	-11.7495
▁Думы	-11.7495
▁спин	-11.7497
▁Гол	-11.7498
view	-11.7499
▁Like	-11.7501
▁изнутри	-11.7501
▁aid	-11.7501
▁определенным	-11.7503
▁Хи	-11.7503
▁Com	-11.7504
▁умирает	-11.7504
▁Государственная	-11.7504
▁картофель	-11.7504
▁НИИ	-11.7506
▁состояний	-11.7507
▁владелец	-11.7507
▁Games	-11.7508
▁Jr	-11.7508
разум	-11.751
▁editor	-11.7511
▁московских	-11.7512
▁format	-11.7513
▁пальцами	-11.7514
`.	-11.7514
▁востоку	-11.7515
▁сигналов	-11.7515
chi	-11.7516
▁академию	-11.7518
дела	-11.7518
ification	-11.7518
▁Управления	-11.7519
▁знакомый	-11.752
▁предыдущего	-11.7522
▁финансовые	-11.7523
▁желудка	-11.7525
▁использованы	-11.7526
▁экспериментов	-11.7526
▁Женщина	-11.7526
ницу	-11.7526
▁вектор	-11.7527
▁партнера	-11.7527
▁Хер	-11.7529
овском	-11.7529
▁монеты	-11.7529
▁Изначально	-11.7529
▁принца	-11.753
▁заводы	-11.753
▁urban	-11.753
▁черного	-11.753
▁выступили	-11.7531
▁биографии	-11.7531
▁inspired	-11.7532
▁print	-11.7533
ители	-11.7534
▁предположения	-11.7534
▁сумели	-11.7534
дам	-11.7536
▁четырьмя	-11.7538
EN	-11.7538
▁говорите	-11.7539
▁быстрого	-11.7541
▁симптомы	-11.7541
▁ВМФ	-11.7541
вор	-11.7542
▁усиления	-11.7542
▁sites	-11.7542
▁свод	-11.7543
логи	-11.7544
▁физико	-11.7544
▁равен	-11.7545
▁итог	-11.7547
▁адвокат	-11.7547
тельных	-11.7547
▁Even	-11.7547
▁финансирования	-11.7548
фар	-11.7549
▁любому	-11.7549
▁Мастер	-11.7551
▁профессором	-11.7554
▁непонятно	-11.7554
▁капитализма	-11.7555
▁соседних	-11.7555
▁допустим	-11.7556
инка	-11.7556
▁Задача	-11.7557
вать	-11.7557
▁рукописи	-11.7558
▁Рад	-11.7558
▁заключении	-11.7559
▁делаем	-11.7559
▁hundred	-11.7559
▁отечественной	-11.7559
▁особую	-11.756
▁distribution	-11.756
als	-11.7566
▁внутреннее	-11.7567
▁массовых	-11.7567
летию	-11.7567
▁бок	-11.7567
▁праздника	-11.7568
ьер	-11.7568
лиги	-11.7569
▁издал	-11.757
▁выступить	-11.7571
печат	-11.7571
▁metres	-11.7572
мол	-11.7572
▁браке	-11.7574
рина	-11.7574
▁японских	-11.7574
▁выпустил	-11.7574
▁дизайн	-11.7575
▁разнообразные	-11.7575
▁заведующий	-11.7575
sy	-11.7578
▁шаблон	-11.7579
▁происходили	-11.7579
▁van	-11.758
▁Бир	-11.758
▁employed	-11.7582
▁ученик	-11.7583
▁Международный	-11.7583
▁chosen	-11.7583
▁произведён	-11.7586
▁Ри	-11.7587
▁вступления	-11.7587
▁представляла	-11.7588
▁Шотландии	-11.7589
▁довести	-11.7589
▁обойтись	-11.759
▁блюд	-11.7591
▁сыр	-11.7592
[...]
