<unk>	0
<s>	0
</s>	0
<0x00>	0
<0x01>	0
<0x02>	0
<0x03>	0
<0x04>	0
<0x05>	0
<0x06>	0
<0x07>	0
<0x08>	0
<0x09>	0
<0x0A>	0
<0x0B>	0
<0x0C>	0
<0x0D>	0
<0x0E>	0
<0x0F>	0
<0x10>	0
<0x11>	0
<0x12>	0
<0x13>	0
<0x14>	0
<0x15>	0
<0x16>	0
<0x17>	0
<0x18>	0
<0x19>	0
<0x1A>	0
<0x1B>	0
<0x1C>	0
<0x1D>	0
<0x1E>	0
<0x1F>	0
<0x20>	0
<0x21>	0
<0x22>	0
<0x23>	0
<0x24>	0
<0x25>	0
<0x26>	0
<0x27>	0
<0x28>	0
<0x29>	0
<0x2A>	0
<0x2B>	0
<0x2C>	0
<0x2D>	0
<0x2E>	0
<0x2F>	0
<0x30>	0
<0x31>	0
<0x32>	0
<0x33>	0
<0x34>	0
<0x35>	0
<0x36>	0
<0x37>	0
<0x38>	0
<0x39>	0
<0x3A>	0
<0x3B>	0
<0x3C>	0
<0x3D>	0
<0x3E>	0
<0x3F>	0
<0x40>	0
<0x41>	0
<0x42>	0
<0x43>	0
<0x44>	0
<0x45>	0
<0x46>	0
<0x47>	0
<0x48>	0
<0x49>	0
<0x4A>	0
<0x4B>	0
<0x4C>	0
<0x4D>	0
<0x4E>	0
<0x4F>	0
<0x50>	0
<0x51>	0
<0x52>	0
<0x53>	0
<0x54>	0
<0x55>	0
<0x56>	0
<0x57>	0
<0x58>	0
<0x59>	0
<0x5A>	0
<0x5B>	0
<0x5C>	0
<0x5D>	0
<0x5E>	0
<0x5F>	0
<0x60>	0
<0x61>	0
<0x62>	0
<0x63>	0
<0x64>	0
<0x65>	0
<0x66>	0
<0x67>	0
<0x68>	0
<0x69>	0
<0x6A>	0
<0x6B>	0
<0x6C>	0
<0x6D>	0
<0x6E>	0
<0x6F>	0
<0x70>	0
<0x71>	0
<0x72>	0
<0x73>	0
<0x74>	0
<0x75>	0
<0x76>	0
<0x77>	0
<0x78>	0
<0x79>	0
<0x7A>	0
<0x7B>	0
<0x7C>	0
<0x7D>	0
<0x7E>	0
<0x7F>	0
<0x80>	0
<0x81>	0
<0x82>	0
<0x83>	0
<0x84>	0
<0x85>	0
<0x86>	0
<0x87>	0
<0x88>	0
<0x89>	0
<0x8A>	0
<0x8B>	0
<0x8C>	0
<0x8D>	0
<0x8E>	0
<0x8F>	0
<0x90>	0
<0x91>	0
<0x92>	0
<0x93>	0
<0x94>	0
<0x95>	0
<0x96>	0
<0x97>	0
<0x98>	0
<0x99>	0
<0x9A>	0
<0x9B>	0
<0x9C>	0
<0x9D>	0
<0x9E>	0
<0x9F>	0
<0xA0>	0
<0xA1>	0
<0xA2>	0
<0xA3>	0
<0xA4>	0
<0xA5>	0
<0xA6>	0
<0xA7>	0
<0xA8>	0
<0xA9>	0
<0xAA>	0
<0xAB>	0
<0xAC>	0
<0xAD>	0
<0xAE>	0
<0xAF>	0
<0xB0>	0
<0xB1>	0
<0xB2>	0
<0xB3>	0
<0xB4>	0
<0xB5>	0
<0xB6>	0
<0xB7>	0
<0xB8>	0
<0xB9>	0
<0xBA>	0
<0xBB>	0
<0xBC>	0
<0xBD>	0
<0xBE>	0
<0xBF>	0
<0xC0>	0
<0xC1>	0
<0xC2>	0
<0xC3>	0
<0xC4>	0
<0xC5>	0
<0xC6>	0
<0xC7>	0
<0xC8>	0
<0xC9>	0
<0xCA>	0
<0xCB>	0
<0xCC>	0
<0xCD>	0
<0xCE>	0
<0xCF>	0
<0xD0>	0
<0xD1>	0
<0xD2>	0
<0xD3>	0
<0xD4>	0
<0xD5>	0
<0xD6>	0
<0xD7>	0
<0xD8>	0
<0xD9>	0
<0xDA>	0
<0xDB>	0
<0xDC>	0
<0xDD>	0
<0xDE>	0
<0xDF>	0
<0xE0>	0
<0xE1>	0
<0xE2>	0
<0xE3>	0
<0xE4>	0
<0xE5>	0
<0xE6>	0
<0xE7>	0
<0xE8>	0
<0xE9>	0
<0xEA>	0
<0xEB>	0
<0xEC>	0
<0xED>	0
<0xEE>	0
<0xEF>	0
<0xF0>	0
<0xF1>	0
<0xF2>	0
<0xF3>	0
<0xF4>	0
<0xF5>	0
<0xF6>	0
<0xF7>	0
<0xF8>	0
<0xF9>	0
<0xFA>	0
<0xFB>	0
<0xFC>	0
<0xFD>	0
<0xFE>	0
<0xFF>	0
,	-2.97398
.	-3.24766
▁	-3.44018
▁в	-4.08786
▁и	-4.16938
1	-4.52244
а	-4.73255
-	-4.82261
▁на	-4.86944
0	-4.87924
▁the	-4.93697
▁с	-5.04235
2	-5.07687
▁не	-5.10373
9	-5.2098
е	-5.22188
s	-5.27048
▁-	-5.32905
▁"	-5.34163
и	-5.4054
▁что	-5.50411
▁по	-5.54084
▁of	-5.57278
▁(	-5.64573
▁В	-5.692
▁and	-5.69818
3	-5.70475
у	-5.7084
ы	-5.71273
5	-5.72749
:	-5.74736
м	-5.75914
8	-5.7688
4	-5.78113
"	-5.82515
▁in	-5.87914
▁to	-5.90936
▁к	-5.91024
6	-5.93043
▁из	-5.95653
7	-5.96214
ом	-6.01264
▁за	-6.03624
▁от	-6.04111
▁a	-6.04186
о	-6.06909
▁как	-6.08661
ов	-6.15321
)	-6.16829
▁о	-6.23875
▁—	-6.26172
▁«	-6.28676
▁а	-6.30096
▁его	-6.30622
▁для	-6.32675
й	-6.32676
х	-6.35077
▁у	-6.40578
;	-6.42608
▁он	-6.43824
я	-6.531
▁при	-6.55205
'	-6.56154
▁это	-6.56304
▁до	-6.58792
▁was	-6.60459
ой	-6.64552
▁года	-6.65234
▁но	-6.67457
▁или	-6.69758
▁был	-6.72482
▁же	-6.7355
▁С	-6.73592
▁я	-6.74295
ных	-6.77506
ся	-6.79932
▁все	-6.8026
▁то	-6.80465
ми	-6.81463
ные	-6.81671
ный	-6.81673
▁А	-6.84041
▁The	-6.85464
▁И	-6.86183
ной	-6.86573
?	-6.86583
ами	-6.87461
▁было	-6.88595
▁под	-6.91404
»	-6.91728
▁for	-6.92319
го	-6.94173
".	-6.95022
▁так	-6.95502
ю	-6.95904
▁вы	-6.96844
▁их	-6.98269
▁году	-7.0039
то	-7.01004
).	-7.01214
▁as	-7.04352
",	-7.06008
▁on	-7.06868
ного	-7.07185
▁with	-7.07225
▁that	-7.0797
▁is	-7.10443
▁только	-7.10712
ка	-7.1162
ed	-7.12001
ная	-7.1722
ки	-7.17225
ing	-7.17808
▁На	-7.18502
с	-7.19261
▁by	-7.1968
!	-7.19812
но	-7.2062
▁время	-7.2062
▁бы	-7.21701
),	-7.22616
▁мы	-7.2312
▁со	-7.23956
▁По	-7.24361
ет	-7.26068
▁они	-7.2639
▁Но	-7.27621
▁были	-7.27778
ли	-7.28696
▁во	-7.30033
ным	-7.31046
▁раз	-7.31075
▁чтобы	-7.33718
ого	-7.33985
ах	-7.34493
▁г	-7.34526
...	-7.34565
▁про	-7.36065
в	-7.37388
ая	-7.37926
▁уже	-7.39324
▁также	-7.39946
▁когда	-7.41315
на	-7.41358
/	-7.41585
▁была	-7.42603
л	-7.44133
▁his	-7.44658
▁Я	-7.45259
▁которые	-7.46107
▁at	-7.46765
▁К	-7.46792
▁того	-7.47836
▁from	-7.48177
ия	-7.48274
▁об	-7.4852
▁ее	-7.48723
ть	-7.48789
▁может	-7.50658
ий	-7.5243
ых	-7.52735
▁том	-7.52755
ное	-7.52834
т	-7.5331
▁этом	-7.53388
d	-7.53522
▁более	-7.54191
ную	-7.55726
▁она	-7.56024
▁In	-7.56165
▁еще	-7.56185
▁если	-7.56573
▁после	-7.57347
▁he	-7.60211
ые	-7.60445
▁У	-7.60649
▁быть	-7.60761
▁этого	-7.62221
».	-7.62253
ского	-7.62517
▁который	-7.63327
▁можно	-7.63554
ие	-7.63755
за	-7.63854
▁есть	-7.65304
ый	-7.65652
e	-7.66965
▁М	-7.67184
▁где	-7.67334
ей	-7.67373
ем	-7.67668
ской	-7.67807
▁Он	-7.68261
ам	-7.68347
ский	-7.68547
▁чем	-7.68766
ии	-7.69764
ку	-7.69821
▁ни	-7.71152
▁без	-7.71793
▁будет	-7.7244
▁were	-7.72786
t	-7.73268
ь	-7.7366
▁лет	-7.75103
▁Это	-7.76697
er	-7.76798
▁an	-7.77926
▁пере	-7.79154
▁даже	-7.81045
▁Не	-7.81266
▁При	-7.81518
▁ли	-7.81916
▁it	-7.82403
▁меня	-7.82518
▁очень	-7.82838
▁тем	-7.82899
▁себя	-7.8531
]	-7.85556
ном	-7.86546
▁ему	-7.86701
▁be	-7.86789
»,	-7.86936
ым	-7.87191
▁О	-7.87287
▁мне	-7.88234
▁них	-7.88284
ly	-7.89213
▁т	-7.89559
▁A	-7.89738
ла	-7.89863
н	-7.89962
a	-7.90366
ными	-7.90522
ок	-7.9067
n	-7.91008
▁За	-7.91249
▁I	-7.91275
▁had	-7.91531
ую	-7.9198
не	-7.92864
к	-7.93728
▁which	-7.94571
ию	-7.94632
ют	-7.95992
y	-7.96765
▁между	-7.97216
▁человек	-7.97607
В	-7.99012
▁всех	-7.9941
▁are	-7.99742
ется	-8.00497
ке	-8.01197
▁всего	-8.02054
▁России	-8.02796
▁один	-8.03273
д	-8.03732
▁жизни	-8.04335
▁Если	-8.05428
▁П	-8.06044
▁через	-8.06445
▁этой	-8.06766
ить	-8.07082
▁Как	-8.08477
▁этот	-8.08984
им	-8.09608
▁нас	-8.10681
▁Г	-8.10787
▁является	-8.12486
▁него	-8.12733
i	-8.12999
▁or	-8.13117
▁своей	-8.13259
▁несколько	-8.137
му	-8.13882
ое	-8.14494
▁He	-8.15885
_	-8.16082
▁S	-8.1654
%	-8.17261
▁которых	-8.17648
лись	-8.1829
▁n	-8.18692
▁нет	-8.18709
▁not	-8.1919
ит	-8.19458
al	-8.19532
▁над	-8.19722
▁им	-8.1975
p	-8.19769
сти	-8.19956
▁себе	-8.20284
▁больше	-8.20932
▁кто	-8.20967
▁эти	-8.21527
es	-8.22965
▁много	-8.2313
▁[	-8.23729
▁their	-8.24013
ская	-8.24156
th	-8.2424
▁лишь	-8.24343
их	-8.27211
▁also	-8.27239
▁которая	-8.28015
▁просто	-8.28198
(	-8.28419
▁времени	-8.28468
▁стал	-8.29184
по	-8.29968
▁После	-8.30082
▁человека	-8.30134
С	-8.30166
▁but	-8.30348
ло	-8.30813
o	-8.30964
ен	-8.31179
▁her	-8.31892
▁свою	-8.32149
▁которой	-8.32789
▁Так	-8.32865
▁людей	-8.33113
▁других	-8.33212
▁против	-8.33574
▁области	-8.33638
▁has	-8.33703
▁have	-8.33773
▁перед	-8.33855
ском	-8.34357
▁first	-8.35408
▁своих	-8.35449
ны	-8.35747
ться	-8.35908
▁два	-8.36244
п	-8.37307
▁this	-8.37756
▁там	-8.38104
▁образом	-8.38264
▁Однако	-8.38429
та	-8.38564
р	-8.38753
▁Б	-8.38955
лся	-8.39429
от	-8.39593
ских	-8.39876
▁могут	-8.4029
▁Д	-8.40383
▁Н	-8.40616
in	-8.40666
ность	-8.4088
б	-8.41246
ются	-8.41377
▁день	-8.41654
▁год	-8.42387
ни	-8.42496
▁Для	-8.42516
▁one	-8.43827
А	-8.43846
▁этих	-8.43855
▁случае	-8.4417
или	-8.44242
▁Вы	-8.44539
▁who	-8.44702
▁своего	-8.45168
ские	-8.46971
▁Т	-8.47365
ин	-8.48015
▁No	-8.49055
▁войны	-8.49653
ъ	-8.49885
▁ты	-8.50016
▁Ф	-8.50422
▁its	-8.50473
▁свои	-8.50703
▁двух	-8.51125
сть	-8.51275
▁части	-8.51651
ности	-8.51657
▁рас	-8.51731
▁Все	-8.52063
кой	-8.52224
S	-8.52377
▁её	-8.52461
▁всегда	-8.52593
лась	-8.53002
▁сам	-8.53242
▁потому	-8.53256
▁been	-8.53703
▁they	-8.54271
▁работы	-8.54358
▁часть	-8.54485
▁место	-8.54582
г	-8.55118
▁которого	-8.5534
▁тот	-8.55713
▁здесь	-8.55818
▁тогда	-8.55859
▁Мы	-8.56193
r	-8.56376
▁вот	-8.57001
▁P	-8.57432
▁–	-8.57708
▁три	-8.57773
▁C	-8.58163
▁нужно	-8.58315
ков	-8.58342
▁Л	-8.58696
ш	-8.58852
ят	-8.5969
▁собой	-8.59755
ния	-8.60201
ко	-8.60287
ил	-8.60396
ись	-8.60617
▁СССР	-8.60799
▁тех	-8.60839
▁Когда	-8.61256
▁нам	-8.6203
ч	-8.62111
▁мира	-8.62192
▁Во	-8.62314
▁именно	-8.6235
▁two	-8.62534
▁одной	-8.62781
▁те	-8.63444
▁хотя	-8.63622
▁Они	-8.64105
▁США	-8.64384
—	-8.64796
▁ним	-8.65019
▁сказал	-8.65037
▁стороны	-8.65362
m	-8.65417
он	-8.65443
▁B	-8.65526
▁почти	-8.65866
▁вместе	-8.65899
▁такой	-8.66339
▁Да	-8.66705
▁жизнь	-8.66747
▁Из	-8.66954
b	-8.67011
О	-8.67725
ние	-8.67803
▁re	-8.67835
▁all	-8.67902
or	-8.68097
▁люди	-8.6832
▁около	-8.68575
те	-8.68662
да	-8.68797
ыми	-8.68989
▁затем	-8.68995
▁города	-8.69129
c	-8.69592
▁имеет	-8.69876
▁would	-8.70578
▁должны	-8.70599
▁должен	-8.7141
ское	-8.71612
▁надо	-8.7175
ев	-8.72008
▁другие	-8.72084
М	-8.721
▁да	-8.72251
▁into	-8.72868
▁ничего	-8.7288
▁after	-8.73167
[	-8.73205
▁time	-8.73563
вер	-8.73737
▁чего	-8.73756
▁other	-8.74041
К	-8.74746
▁she	-8.74903
▁другой	-8.75421
▁out	-8.75793
▁тоже	-8.75953
▁Про	-8.76193
▁Что	-8.76269
ком	-8.76296
▁ней	-8.76435
▁теперь	-8.77521
▁de	-8.77546
);	-8.77549
▁пока	-8.77667
▁over	-8.77674
▁качестве	-8.78978
▁которое	-8.7906
▁потом	-8.79099
▁F	-8.79378
▁вас	-8.79482
▁It	-8.79686
▁E	-8.79789
▁п	-8.79828
k	-8.79931
▁д	-8.80125
▁одного	-8.80136
▁свой	-8.80276
▁одно	-8.80391
▁дело	-8.80536
▁/	-8.80933
▁связи	-8.81931
скую	-8.81978
▁м	-8.82006
▁часто	-8.82224
▁де	-8.8224
▁more	-8.82657
▁up	-8.82925
x	-8.82943
▁вам	-8.83131
C	-8.83181
▁однако	-8.83275
▁Она	-8.83307
ному	-8.83433
▁будут	-8.83452
▁истории	-8.83694
▁менее	-8.8376
▁=	-8.83991
▁конце	-8.84025
▁мир	-8.84055
▁От	-8.84435
▁him	-8.84443
▁состав	-8.84631
▁Р	-8.84685
▁R	-8.84723
ля	-8.84872
ль	-8.84966
ц	-8.85152
▁when	-8.85169
ство	-8.85266
f	-8.85517
▁До	-8.85585
▁среди	-8.85744
ф	-8.85983
лось	-8.86023
ers	-8.86161
▁период	-8.86249
ось	-8.8635
▁D	-8.86668
ion	-8.86835
▁всем	-8.86855
u	-8.87084
И	-8.87129
re	-8.87251
▁Об	-8.8731
▁годы	-8.87536
▁T	-8.88025
▁например	-8.88371
ник	-8.884
▁века	-8.88445
▁тому	-8.88457
ским	-8.8883
▁стали	-8.8903
▁мог	-8.8913
П	-8.8935
овой	-8.89496
ась	-8.89581
▁new	-8.90022
▁свое	-8.90449
Г	-8.90552
▁can	-8.90608
▁этим	-8.90633
▁тут	-8.90752
ение	-8.90775
▁котором	-8.91123
ясь	-8.91157
▁эту	-8.91222
ж	-8.91235
ец	-8.91377
us	-8.91761
до	-8.91768
▁км	-8.91968
▁пор	-8.92093
▁какой	-8.92393
▁Его	-8.92694
▁своим	-8.92708
з	-8.92735
▁момент	-8.92914
▁N	-8.93288
ic	-8.93436
▁хорошо	-8.93471
l	-8.93472
из	-8.93709
▁Вот	-8.93765
▁M	-8.93769
D	-8.93869
▁G	-8.93975
A	-8.94004
h	-8.94015
Я	-8.94289
ения	-8.94335
g	-8.94388
Б	-8.94737
▁сейчас	-8.94741
▁системы	-8.94805
▁эта	-8.9482
Н	-8.94883
ман	-8.94947
ать	-8.95074
▁Под	-8.95235
▁вопрос	-8.95301
▁On	-8.95301
▁страны	-8.95476
on	-8.95598
ова	-8.95627
en	-8.95899
▁W	-8.95921
ер	-8.96052
▁ещё	-8.96129
ив	-8.96291
▁др	-8.96371
man	-8.96564
▁Ш	-8.96657
▁всё	-8.96857
▁слова	-8.96997
ле	-8.97062
▁первый	-8.97503
▁ко	-8.97515
▁сделать	-8.97631
▁друг	-8.97711
ди	-8.98022
▁таких	-8.9806
га	-8.98225
ва	-8.98677
▁числе	-8.9871
Д	-8.99486
▁результате	-8.99636
вы	-8.99651
▁течение	-9.00089
У	-9.001
▁власти	-9.00121
▁особенно	-9.00558
B	-9.00832
▁армии	-9.01041
мер	-9.01121
▁оно	-9.01188
code	-9.01238
цы	-9.01491
Ф	-9.01684
▁Э	-9.01705
са	-9.02176
ну	-9.0253
▁only	-9.02629
▁сразу	-9.0293
z	-9.02952
▁поэтому	-9.02971
▁которую	-9.03161
ра	-9.03613
ти	-9.03961
▁II	-9.04163
▁тысяч	-9.04453
▁помощью	-9.04486
де	-9.0455
ость	-9.04774
ты	-9.04848
▁K	-9.0491
▁about	-9.04916
▁New	-9.05091
▁такие	-9.05111
ре	-9.05427
▁сказать	-9.05478
▁следует	-9.05568
▁никогда	-9.05622
▁город	-9.05885
▁years	-9.06037
овых	-9.06052
▁получил	-9.06057
▁This	-9.06223
ства	-9.06286
нибудь	-9.06318
▁само	-9.06361
▁виде	-9.06559
при	-9.06972
ости	-9.06985
ма	-9.07039
ту	-9.07305
▁дома	-9.07339
ша	-9.07384
▁пред	-9.07882
овые	-9.07967
▁совершенно	-9.07983
▁две	-9.08092
▁территории	-9.08327
▁быстро	-9.08364
тер	-9.08449
>	-9.08568
▁where	-9.08695
▁ей	-9.08727
ал	-9.08767
▁Е	-9.08815
an	-9.08992
▁$	-9.0908
ина	-9.09091
▁H	-9.09348
▁достаточно	-9.09697
▁начале	-9.09916
ца	-9.09951
▁начала	-9.10245
▁возможность	-9.10339
▁То	-9.10634
▁лучше	-9.10932
▁than	-9.11453
▁роль	-9.11697
▁самом	-9.12065
▁второй	-9.12215
▁работу	-9.12734
ня	-9.12869
▁there	-9.12882
T	-9.12923
▁говорит	-9.12983
▁каждый	-9.13066
▁таким	-9.13125
▁вообще	-9.13274
▁no	-9.13465
▁одна	-9.13571
▁мало	-9.13689
▁then	-9.1387
ками	-9.13897
▁поскольку	-9.13922
▁them	-9.14054
H	-9.14192
▁L	-9.14345
▁районе	-9.14346
▁либо	-9.14424
▁some	-9.14455
▁имени	-9.14485
▁развития	-9.14545
▁свет	-9.14614
▁группы	-9.14664
▁made	-9.15038
▁Поэтому	-9.151
▁during	-9.15137
▁such	-9.15146
!"	-9.15327
▁конечно	-9.15352
▁дня	-9.15442
▁мая	-9.15593
st	-9.15743
▁РФ	-9.15833
ировать	-9.16007
▁стало	-9.16285
▁такое	-9.16414
▁U	-9.16461
про	-9.16594
▁находится	-9.16819
].	-9.16877
▁p	-9.17246
ation	-9.17397
to	-9.17574
▁стала	-9.17639
▁between	-9.17712
▁V	-9.17773
id	-9.17791
▁("	-9.1782
▁детей	-9.17957
▁одним	-9.1827
▁многие	-9.1838
▁деятельности	-9.18595
▁обычно	-9.18706
▁Кроме	-9.18797
▁компании	-9.18968
либо	-9.1931
али	-9.1932
F	-9.19331
▁Х	-9.19374
▁э	-9.19401
ому	-9.1994
▁смерти	-9.1995
▁р	-9.20036
▁этому	-9.2019
▁under	-9.20196
▁снова	-9.20266
ри	-9.20389
▁многих	-9.20569
▁пре	-9.20645
▁ведь	-9.20705
▁июля	-9.20736
▁самого	-9.21296
Т	-9.21414
ис	-9.21423
▁most	-9.21466
▁внимание	-9.21494
би	-9.21511
▁Со	-9.21573
▁право	-9.21589
▁всей	-9.21656
▁used	-9.2177
▁наиболее	-9.21858
во	-9.21992
ар	-9.21995
G	-9.2214
мен	-9.22271
P	-9.22621
▁сентября	-9.22748
▁могли	-9.2286
▁so	-9.22968
об	-9.23082
ик	-9.23179
ился	-9.23312
▁необходимо	-9.23368
▁сил	-9.23402
▁later	-9.23426
▁организации	-9.23508
▁месте	-9.23558
ст	-9.2362
▁деле	-9.23843
▁Ну	-9.2386
▁количество	-9.23905
▁июня	-9.23918
▁августа	-9.23958
ист	-9.23979
▁начал	-9.24027
ель	-9.24097
▁являются	-9.25012
▁делать	-9.25056
ar	-9.25149
ится	-9.25167
▁марта	-9.25261
▁совсем	-9.25374
▁стран	-9.25408
▁дней	-9.25442
▁октября	-9.25461
▁степени	-9.25501
▁нашей	-9.25557
▁января	-9.25642
ических	-9.25854
▁которым	-9.25891
По	-9.25955
вин	-9.25957
▁почему	-9.26015
ием	-9.26076
че	-9.26157
le	-9.26261
▁three	-9.26381
▁действия	-9.26517
▁нем	-9.2659
нее	-9.26757
ья	-9.26813
▁составе	-9.26844
▁дела	-9.2691
▁должно	-9.27106
▁Ю	-9.2753
▁being	-9.27595
I	-9.27608
▁силы	-9.27832
▁As	-9.27987
▁назад	-9.28048
▁ж	-9.28235
▁годах	-9.28326
ические	-9.28366
▁выше	-9.2842
▁должна	-9.28467
▁некоторые	-9.28761
▁участие	-9.29137
▁декабря	-9.29138
▁O	-9.29562
▁б	-9.29651
▁Александр	-9.29895
it	-9.29909
▁мире	-9.29937
▁района	-9.30112
▁решение	-9.30179
цев	-9.30346
▁стоит	-9.30591
▁большой	-9.30704
▁места	-9.30734
=	-9.30886
ической	-9.31005
▁годов	-9.31019
▁той	-9.31083
ist	-9.31092
ос	-9.3114
▁З	-9.31325
▁управления	-9.3137
▁полностью	-9.3142
▁прав	-9.31552
▁well	-9.3171
▁апреля	-9.31723
ан	-9.31938
▁слишком	-9.32542
▁you	-9.326
▁данных	-9.32625
▁всю	-9.32631
ум	-9.32703
Х	-9.328
▁мере	-9.32801
?"	-9.32871
▁происходит	-9.3289
▁права	-9.33127
▁возможно	-9.33314
▁She	-9.33346
▁прежде	-9.3335
▁through	-9.33367
▁гг	-9.33386
▁гор	-9.33526
▁действительно	-9.33557
el	-9.33695
ive	-9.33749
▁использовать	-9.339
ск	-9.34004
▁пути	-9.34193
мы	-9.34228
v	-9.34236
ton	-9.34306
▁такого	-9.34445
ите	-9.34451
ба	-9.34465
ового	-9.34524
▁became	-9.34669
▁against	-9.34674
▁первой	-9.34734
▁ноября	-9.34844
▁типа	-9.35049
нии	-9.35073
▁many	-9.35079
▁сегодня	-9.35264
▁ними	-9.35282
ус	-9.35308
прав	-9.35321
▁Re	-9.35327
▁воды	-9.35329
ду	-9.35781
▁while	-9.35892
па	-9.35901
▁нельзя	-9.36011
▁ре	-9.36298
▁общества	-9.36316
▁part	-9.36441
ta	-9.36592
▁дел	-9.36646
able	-9.36701
▁движения	-9.36986
ье	-9.36999
▁тебя	-9.3707
ча	-9.37197
ity	-9.37331
▁характер	-9.37344
▁work	-9.37444
▁имя	-9.37734
▁генерал	-9.37861
ились	-9.37885
▁удалось	-9.3802
▁ответ	-9.38141
▁тыс	-9.38198
ика	-9.3821
▁значение	-9.38344
is	-9.38399
w	-9.38428
▁year	-9.3867
K	-9.38709
▁before	-9.38764
▁руки	-9.38777
▁J	-9.38849
▁people	-9.38942
▁населения	-9.39029
ющие	-9.39209
▁часов	-9.39283
▁кон	-9.39336
▁un	-9.39359
ический	-9.39475
иться	-9.39524
ут	-9.39558
il	-9.3973
▁иногда	-9.39844
ическая	-9.39903
ia	-9.3995
▁отношения	-9.40092
ор	-9.40149
M	-9.40179
скому	-9.40464
▁различных	-9.40478
ью	-9.40626
▁партии	-9.40632
▁войск	-9.40766
Ш	-9.40903
▁название	-9.40934
▁государства	-9.40993
раз	-9.41061
ги	-9.41166
▁will	-9.41255
ат	-9.41452
▁c	-9.41605
ющих	-9.41693
▁род	-9.41808
ики	-9.41874
▁мой	-9.41884
▁городе	-9.41995
ши	-9.42011
▁новые	-9.42022
▁самых	-9.42071
ний	-9.42203
▁if	-9.42321
си	-9.42463
се	-9.42468
▁дом	-9.42549
▁весьма	-9.42565
▁весь	-9.4258
▁февраля	-9.42589
ович	-9.42642
▁своем	-9.42653
▁вполне	-9.42857
▁становится	-9.42915
ющий	-9.4292
▁said	-9.4294
▁Ар	-9.42953
▁Москве	-9.43311
ников	-9.43414
▁легко	-9.43463
▁работе	-9.43552
ie	-9.43628
▁бес	-9.43701
▁некоторых	-9.43778
▁какие	-9.43781
▁>	-9.44158
▁новых	-9.44227
▁After	-9.44269
ment	-9.44368
тор	-9.44462
▁работа	-9.44477
▁имеют	-9.4449
▁Тем	-9.44503
▁минут	-9.4472
▁довольно	-9.45069
▁куда	-9.45182
N	-9.45348
▁second	-9.45468
▁реки	-9.45497
▁возможности	-9.45722
чи	-9.45813
▁вновь	-9.45824
co	-9.45906
▁информации	-9.45907
et	-9.45963
▁Этот	-9.4619
Л	-9.46258
Е	-9.4627
▁кроме	-9.46295
ne	-9.46362
▁разных	-9.46364
ического	-9.4644
▁конца	-9.46613
ках	-9.46668
▁самым	-9.46686
нов	-9.46762
▁both	-9.46858
▁трех	-9.47006
су	-9.47072
▁вид	-9.47172
▁Российской	-9.47295
W	-9.47426
ян	-9.47436
ация	-9.47662
▁back	-9.47666
ией	-9.47758
▁суд	-9.47769
ила	-9.47891
овая	-9.47893
ше	-9.47965
це	-9.47973
▁одном	-9.48126
▁зрения	-9.48384
▁рода	-9.48505
▁основе	-9.48784
▁кого	-9.48791
▁including	-9.49031
▁Ко	-9.49082
▁полу	-9.49105
▁культуры	-9.49248
▁система	-9.49249
▁меньше	-9.49327
▁нового	-9.49393
▁ряд	-9.49449
at	-9.49485
под	-9.49509
▁Ре	-9.49571
▁четыре	-9.49577
дер	-9.49657
йте	-9.49673
▁*	-9.49715
со	-9.49813
▁тебе	-9.49837
▁could	-9.5008
▁do	-9.50102
Э	-9.5011
▁решения	-9.50181
▁Таким	-9.50334
сь	-9.50357
э	-9.50364
ве	-9.50393
▁//	-9.5041
▁деньги	-9.50523
▁самой	-9.50549
▁н	-9.50622
▁процесс	-9.50697
ry	-9.50719
ры	-9.50779
▁постоянно	-9.50796
▁новый	-9.50809
na	-9.50863
гу	-9.50865
ешь	-9.50872
▁книги	-9.50926
▁практически	-9.5096
▁Эти	-9.51047
▁помощи	-9.51072
▁'	-9.51083
бер	-9.51157
▁известно	-9.5124
▁точно	-9.5129
▁нескольких	-9.51327
▁\-	-9.51377
..."	-9.51385
▁прямо	-9.51531
вид	-9.51587
▁точки	-9.51625
the	-9.517
▁Теперь	-9.5194
лю	-9.51979
▁значит	-9.52239
▁никто	-9.52279
▁вокруг	-9.52282
E	-9.52397
вар	-9.52525
▁найти	-9.52599
Р	-9.5266
▁Здесь	-9.52698
▁Украины	-9.5272
▁идет	-9.52803
▁условиях	-9.52809
▁равно	-9.52944
▁наши	-9.52949
▁сторону	-9.53249
▁ст	-9.53294
▁работать	-9.53303
ней	-9.53331
▁очередь	-9.53346
▁одну	-9.53438
ent	-9.53502
▁тела	-9.53588
▁these	-9.54006
▁St	-9.54111
ско	-9.54115
▁season	-9.54255
стью	-9.54288
ации	-9.54369
▁Раз	-9.54382
▁долго	-9.54515
▁наших	-9.54745
▁число	-9.54829
ian	-9.5491
На	-9.55167
▁первого	-9.55274
лен	-9.55305
L	-9.55348
▁United	-9.55405
▁работал	-9.55494
▁Затем	-9.55702
▁сильно	-9.55726
ate	-9.55869
ника	-9.55971
▁глаза	-9.56048
`	-9.56076
▁впервые	-9.56124
▁средств	-9.56216
▁путь	-9.56351
▁писал	-9.56358
рис	-9.56439
▁слово	-9.56444
▁end	-9.56484
овым	-9.56538
ники	-9.56653
▁та	-9.56671
▁столь	-9.56697
age	-9.56717
▁закон	-9.5673
▁уж	-9.5674
▁цвет	-9.56746
▁At	-9.56749
ическое	-9.56762
▁ходе	-9.56864
ста	-9.56961
▁Владимир	-9.56974
▁рядом	-9.56986
лу	-9.57085
as	-9.57117
▁данным	-9.57214
▁Например	-9.57235
▁самое	-9.57248
um	-9.57286
▁автор	-9.57336
V	-9.57355
▁центр	-9.57419
▁частности	-9.57459
ро	-9.57523
же	-9.57524
ro	-9.57614
te	-9.57762
▁мысли	-9.57781
▁Кон	-9.5792
▁film	-9.58077
▁стать	-9.58446
▁млн	-9.58765
son	-9.58822
▁земли	-9.58859
лин	-9.58862
▁внутри	-9.59017
▁Также	-9.59049
▁своими	-9.59143
▁Германии	-9.59177
За	-9.59184
▁ту	-9.5919
▁отношении	-9.59222
▁словам	-9.59457
▁until	-9.59568
▁могу	-9.59747
▁проблемы	-9.59788
овать	-9.59792
▁немного	-9.60029
▁рублей	-9.60097
▁друга	-9.60125
ch	-9.60186
▁Франции	-9.60259
▁район	-9.60484
▁Эта	-9.6049
▁благодаря	-9.60507
de	-9.60546
▁same	-9.60789
▁составляет	-9.60946
▁пар	-9.60997
▁получить	-9.61183
род	-9.61187
ек	-9.61201
▁труд	-9.61216
▁говорить	-9.61285
▁примерно	-9.61518
кин	-9.61522
▁сами	-9.61557
▁number	-9.61609
▁стране	-9.62162
▁знаю	-9.62187
▁Федерации	-9.62505
▁any	-9.62538
ница	-9.62714
▁иметь	-9.6272
▁X	-9.6276
▁use	-9.62889
▁нее	-9.62964
ич	-9.63044
▁противника	-9.63102
ид	-9.63112
▁решил	-9.63164
▁одновременно	-9.63287
▁опыт	-9.63324
▁Пере	-9.63453
▁m	-9.63455
▁говорил	-9.63556
чин	-9.6358
▁пол	-9.63654
▁Ж	-9.6366
▁Там	-9.63713
▁заявил	-9.63772
▁called	-9.63852
▁анти	-9.63899
пер	-9.63917
▁did	-9.63931
▁team	-9.63981
ющей	-9.64138
▁сколько	-9.64148
▁known	-9.64211
▁ф	-9.64297
▁like	-9.64316
▁f	-9.64362
▁кино	-9.6448
ает	-9.64525
▁сын	-9.64598
▁Ни	-9.6464
▁проект	-9.64727
▁класс	-9.64831
ски	-9.64849
▁положение	-9.64899
▁будто	-9.64942
▁другим	-9.65099
▁способ	-9.6543
▁лица	-9.65603
▁`	-9.65651
▁нему	-9.65892
se	-9.65987
▁кажется	-9.65988
▁пять	-9.66
▁may	-9.66122
▁Тогда	-9.66351
▁каждого	-9.66374
его	-9.66385
▁They	-9.66486
енко	-9.66645
изм	-9.66719
ран	-9.66855
таки	-9.67104
▁b	-9.67141
▁Ты	-9.67218
▁новой	-9.67256
▁язык	-9.67274
▁силу	-9.67284
▁другими	-9.67371
лы	-9.67411
енный	-9.67435
▁school	-9.67508
▁позволяет	-9.67547
▁нашего	-9.67591
▁основном	-9.67709
▁церкви	-9.67759
▁вместо	-9.67779
▁пост	-9.67873
ur	-9.67985
▁name	-9.68104
▁Ли	-9.68117
▁целью	-9.68331
The	-9.68378
вший	-9.68451
ve	-9.68531
▁Чтобы	-9.68581
▁воз	-9.6866
▁American	-9.68678
▁первых	-9.68949
ющего	-9.6901
▁ранее	-9.69064
ход	-9.69118
▁early	-9.69136
be	-9.69212
ism	-9.6922
▁De	-9.69337
▁University	-9.69362
▁производства	-9.69386
▁began	-9.69398
вод	-9.69476
З	-9.69485
▁команды	-9.69578
▁правило	-9.69769
▁безопасности	-9.69847
▁цели	-9.69849
▁народа	-9.69919
▁действий	-9.69992
▁наконец	-9.69994
кон	-9.70015
стер	-9.70027
ant	-9.70052
▁Мне	-9.70059
▁Al	-9.70066
▁поле	-9.70074
▁существует	-9.70075
ви	-9.70086
▁игры	-9.70177
▁наш	-9.70235
▁Нет	-9.70271
▁фильм	-9.70279
ями	-9.7045
ими	-9.70465
тон	-9.70467
ант	-9.70485
▁данные	-9.70544
▁дальше	-9.70545
▁матери	-9.70569
▁роли	-9.7058
▁см	-9.70614
▁War	-9.70617
up	-9.70689
▁средства	-9.70753
ary	-9.70844
▁состоянии	-9.70878
▁Только	-9.70905
R	-9.70944
ir	-9.71064
▁имел	-9.71121
ала	-9.71134
▁Ч	-9.71159
▁Европы	-9.71513
ден	-9.71517
енные	-9.71536
▁For	-9.71712
▁формы	-9.71758
▁dis	-9.71913
жи	-9.7196
▁public	-9.71966
шей	-9.7214
ine	-9.72226
бо	-9.72285
▁речь	-9.72386
▁government	-9.72392
ies	-9.72432
▁представляет	-9.72584
▁me	-9.728
O	-9.72823
▁назначен	-9.72855
▁Кор	-9.73047
▁мнению	-9.73187
▁работ	-9.73378
▁самый	-9.7351
она	-9.73562
▁several	-9.7359
образ	-9.73613
▁раньше	-9.73626
▁May	-9.73665
оз	-9.73711
▁#	-9.73732
▁далеко	-9.73993
сон	-9.74113
ее	-9.74133
▁Co	-9.74205
изма	-9.74253
▁found	-9.743
▁состоит	-9.74536
▁Примечания	-9.74538
▁главным	-9.74614
Ч	-9.74645
▁наук	-9.74749
▁факт	-9.74886
▁what	-9.74891
см	-9.74965
▁мировой	-9.74969
лом	-9.7497
▁войска	-9.74993
▁труда	-9.75029
▁сделал	-9.75105
▁любой	-9.75152
ге	-9.7521
▁вопросы	-9.75264
ели	-9.75282
▁исследования	-9.75305
▁La	-9.7532
альные	-9.75459
▁ибо	-9.75496
▁народ	-9.75502
▁линии	-9.75559
▁изменения	-9.7559
▁ч	-9.75687
▁образования	-9.75744
ter	-9.75773
▁понять	-9.75781
▁другом	-9.75813
▁образ	-9.75906
▁цен	-9.7604
▁пришлось	-9.76054
▁city	-9.76135
▁хотел	-9.76138
▁трудно	-9.76329
▁<	-9.76361
ак	-9.76394
▁area	-9.76405
лож	-9.76482
▁целом	-9.76484
▁план	-9.76495
▁счет	-9.76506
▁случаях	-9.76639
ra	-9.7675
▁языка	-9.76764
X	-9.76789
▁four	-9.76824
▁развитие	-9.76903
")	-9.76986
am	-9.77008
▁because	-9.77055
▁школы	-9.77059
▁Иван	-9.77151
▁Ц	-9.77191
▁улица	-9.77214
тель	-9.77272
▁своему	-9.77346
▁которому	-9.77356
▁говоря	-9.7754
▁home	-9.77547
▁относительно	-9.77639
ическую	-9.77711
▁кор	-9.77711
стр	-9.77881
▁World	-9.77884
▁настоящее	-9.77984
▁state	-9.78056
Не	-9.78061
▁we	-9.78229
▁Ла	-9.78239
▁работает	-9.78485
▁искусства	-9.78489
▁первые	-9.78654
▁деятельность	-9.78681
▁York	-9.78683
ха	-9.78714
ший	-9.79028
альный	-9.79057
▁пер	-9.79111
зем	-9.79172
▁власть	-9.79186
▁ситуации	-9.79281
un	-9.79438
▁моря	-9.79466
com	-9.7947
▁To	-9.79644
▁слов	-9.79651
▁Через	-9.79768
▁удар	-9.79877
вших	-9.79883
ают	-9.79925
▁co	-9.79929
нет	-9.80014
мин	-9.80032
лей	-9.80086
▁правительства	-9.80119
▁лиц	-9.80145
▁However	-9.80162
вшие	-9.80209
▁давно	-9.80233
ty	-9.80262
▁скорее	-9.8041
▁первую	-9.80466
ющим	-9.80505
▁метров	-9.80552
▁Еще	-9.80566
▁радио	-9.80695
▁Именно	-9.80896
▁соответствии	-9.80916
ел	-9.80935
иль	-9.81009
▁моей	-9.81042
▁случай	-9.81078
▁пишет	-9.81167
▁ясно	-9.8124
▁смысл	-9.81291
▁группа	-9.81301
мет	-9.81364
▁took	-9.81365
▁опять	-9.81386
▁море	-9.81443
▁невозможно	-9.81524
▁pre	-9.81633
▁There	-9.81655
▁непосредственно	-9.81685
нес	-9.81708
▁Хотя	-9.8177
▁чуть	-9.81805
▁деревня	-9.81905
▁John	-9.81967
ент	-9.82018
ru	-9.82168
ева	-9.82197
▁первым	-9.82217
▁III	-9.82221
▁состояние	-9.82249
▁выход	-9.82289
▁game	-9.82339
▁His	-9.82372
▁Кар	-9.82377
▁поэт	-9.82673
▁down	-9.82679
лет	-9.82714
▁family	-9.82731
▁вдруг	-9.8274
ении	-9.82818
*	-9.82998
▁рамках	-9.83089
▁двумя	-9.83093
▁сайте	-9.83113
▁off	-9.83139
▁пяти	-9.83162
▁Вер	-9.83174
li	-9.83217
▁па	-9.83331
▁own	-9.83345
▁взгляд	-9.83362
▁жить	-9.834
▁now	-9.83454
▁ум	-9.83486
▁форме	-9.83492
▁систем	-9.83689
▁long	-9.83768
мо	-9.83816
ён	-9.83869
илась	-9.83887
▁high	-9.84004
▁знал	-9.84024
дел	-9.84058
▁жителей	-9.8407
▁несмотря	-9.84085
▁Мар	-9.84094
▁роман	-9.84098
юсь	-9.84111
est	-9.84399
ём	-9.84468
гор	-9.84507
▁гораздо	-9.84539
▁States	-9.84584
J	-9.84621
▁Совета	-9.84718
▁делает	-9.84797
▁Те	-9.84878
▁такая	-9.8494
▁создания	-9.84984
▁Один	-9.84992
▁другого	-9.84995
▁place	-9.85055
▁set	-9.85142
▁each	-9.85165
▁позже	-9.85297
▁сама	-9.85414
▁говорят	-9.85443
▁знает	-9.85493
лов	-9.85516
▁group	-9.8552
▁голову	-9.85534
▁женщин	-9.85585
ях	-9.85603
▁Ведь	-9.85772
▁around	-9.85843
▁мин	-9.85903
▁тело	-9.85974
инг	-9.8613
ды	-9.86143
жа	-9.8615
ated	-9.86253
итель	-9.86311
скими	-9.86342
оп	-9.86374
ley	-9.8641
▁земле	-9.86424
▁помощь	-9.86451
ска	-9.86526
эн	-9.86545
▁уровне	-9.86568
▁отличие	-9.86584
▁л	-9.86785
▁Le	-9.87076
▁последние	-9.87129
▁ниже	-9.87157
▁Пол	-9.87196
▁множество	-9.87219
▁since	-9.87242
lo	-9.87284
бор	-9.87355
▁Их	-9.87453
́	-9.87523
▁series	-9.87579
▁долларов	-9.87624
▁day	-9.87648
▁Бо	-9.87707
▁local	-9.87711
▁Союза	-9.87862
▁код	-9.87887
ma	-9.87915
ступ	-9.87941
ним	-9.87947
воз	-9.88022
no	-9.88088
вал	-9.88095
енных	-9.881
▁умер	-9.88131
▁движение	-9.88135
▁left	-9.88171
▁значения	-9.88196
ance	-9.882
▁теории	-9.88201
▁член	-9.88206
▁каким	-9.88231
▁life	-9.88336
▁сначала	-9.88362
▁значительно	-9.8838
ру	-9.88554
▁программы	-9.88696
▁готов	-9.88748
▁русской	-9.8884
▁начали	-9.88857
▁мед	-9.88914
▁солдат	-9.88947
▁дать	-9.8904
кам	-9.89108
▁метод	-9.89132
▁история	-9.89205
▁проекта	-9.89226
▁дни	-9.8928
▁Москвы	-9.89372
▁[/	-9.89431
▁главе	-9.89595
▁операции	-9.89607
▁мол	-9.89755
sh	-9.89877
▁животных	-9.89943
мир	-9.90065
▁самые	-9.90158
лив	-9.90204
▁Та	-9.90293
Ж	-9.90331
▁университета	-9.90347
▁вскоре	-9.90359
▁Бар	-9.90371
ul	-9.90395
▁system	-9.904
альных	-9.90427
овый	-9.9046
▁Россия	-9.90501
▁отец	-9.90525
▁жил	-9.90527
▁клуб	-9.90528
▁женщины	-9.90612
land	-9.90681
альная	-9.9069
▁месяцев	-9.90772
▁денег	-9.90779
▁very	-9.90841
ера	-9.90877
▁con	-9.90891
▁August	-9.90899
▁Согласно	-9.90926
ri	-9.9093
▁Ру	-9.9102
ган	-9.9102
ad	-9.91051
▁ночь	-9.91055
▁t	-9.91143
стве	-9.91212
▁теле	-9.91255
ав	-9.91273
▁честь	-9.91421
▁электро	-9.91433
тся	-9.91469
▁отца	-9.91471
▁released	-9.915
▁пресс	-9.91758
ятся	-9.91832
▁могла	-9.91884
▁сообщил	-9.91897
▁хоть	-9.91946
▁начало	-9.91948
ров	-9.91972
▁иначе	-9.92017
нию	-9.92021
ству	-9.92104
▁большинство	-9.92216
рен	-9.92249
▁still	-9.9237
▁революции	-9.92469
os	-9.92473
▁означает	-9.92492
▁русских	-9.92557
▁чаще	-9.92605
▁согласно	-9.92608
▁семьи	-9.92653
▁Ка	-9.92725
▁президент	-9.92738
▁полка	-9.92738
▁September	-9.92885
▁war	-9.92931
j	-9.93017
▁Сам	-9.93067
▁языке	-9.93088
▁Гор	-9.93235
▁just	-9.93306
▁National	-9.93317
▁Ма	-9.93399
▁March	-9.93427
▁June	-9.93457
▁лицо	-9.93473
▁семье	-9.93554
▁поля	-9.93606
▁проблем	-9.93619
▁дивизии	-9.93648
Y	-9.93712
▁смысле	-9.93721
▁любви	-9.93723
▁зависимости	-9.93744
▁Конечно	-9.93856
ющая	-9.93932
▁числа	-9.93939
ению	-9.93981
▁берегу	-9.94018
▁видов	-9.94167
▁уровня	-9.94302
▁союз	-9.94329
▁принял	-9.94337
рон	-9.94397
▁сих	-9.94401
▁видел	-9.94444
▁систему	-9.94543
люб	-9.94628
me	-9.94634
▁постепенно	-9.94696
▁выбор	-9.94859
▁тип	-9.94908
▁Де	-9.9491
пол	-9.94918
▁доме	-9.94946
пре	-9.94968
ген	-9.94993
▁туда	-9.95001
▁бур	-9.95048
▁причин	-9.95101
ce	-9.95103
▁album	-9.95162
▁ради	-9.95182
ща	-9.95218
▁Z	-9.95243
▁line	-9.95286
ёр	-9.95363
ление	-9.95367
▁An	-9.95446
▁October	-9.95527
▁those	-9.95571
▁памяти	-9.95582
ена	-9.95589
▁частью	-9.95685
говор	-9.95746
▁world	-9.9586
▁форм	-9.96133
▁брат	-9.96324
пере	-9.96366
▁первом	-9.96413
▁компания	-9.96458
▁my	-9.96462
сов	-9.96619
нос	-9.96655
ван	-9.96696
стро	-9.9673
сен	-9.96803
▁суда	-9.96857
▁науки	-9.96891
▁каждой	-9.96917
▁уровень	-9.96963
▁Даже	-9.96963
▁произошло	-9.97005
▁граф	-9.97051
вен	-9.97071
аль	-9.97121
▁можем	-9.97228
▁another	-9.97229
▁оказался	-9.9731
фа	-9.97315
▁раза	-9.97354
▁интерес	-9.97429
▁XIX	-9.97446
ous	-9.97531
ланд	-9.97578
▁мм	-9.97584
истов	-9.97596
▁make	-9.97596
▁Con	-9.9768
▁дети	-9.97812
▁резко	-9.97815
▁show	-9.97849
▁July	-9.97999
▁Есть	-9.98034
▁влияние	-9.98042
ностью	-9.9807
▁мест	-9.98146
▁дает	-9.98227
▁никаких	-9.9824
▁машин	-9.98247
ted	-9.98258
▁какое	-9.98274
▁центра	-9.98291
▁British	-9.98307
▁игр	-9.9831
▁January	-9.98368
▁обязательно	-9.98405
▁During	-9.98457
▁Европе	-9.98598
U	-9.98617
▁much	-9.98662
▁итоге	-9.98731
яв	-9.98853
▁%	-9.98943
▁вышел	-9.99015
▁настолько	-9.99117
▁службы	-9.99119
▁северо	-9.9916
der	-9.99172
▁различные	-9.99287
▁Кто	-9.99324
▁following	-9.99428
▁Можно	-9.99487
▁water	-9.99507
▁дороги	-9.99531
ция	-9.99629
▁April	-9.9963
▁Среди	-9.99672
▁School	-9.99741
овое	-9.99749
▁due	-9.99817
▁функции	-9.99842
ою	-9.99844
▁создать	-9.9985
▁получили	-9.99851
▁South	-9.99928
лер	-9.99959
пор	-10.0004
овал	-10.0008
▁село	-10.0013
▁Николай	-10.0014
▁завод	-10.0016
▁Ан	-10.0017
▁Ле	-10.0019
▁глаз	-10.002
▁следующий	-10.0022
▁When	-10.0027
вит	-10.0031
▁won	-10.0031
▁вещи	-10.0034
▁начинает	-10.0044
▁правительство	-10.0047
нуть	-10.0051
▁скоро	-10.0056
ол	-10.0057
▁ш	-10.0059
бе	-10.006
ness	-10.006
pe	-10.0061
▁large	-10.0062
▁ребенка	-10.0068
бу	-10.007
ha	-10.0083
▁хочет	-10.0083
▁войне	-10.0086
▁можете	-10.0088
▁машины	-10.0092
▁всеми	-10.01
▁per	-10.01
пар	-10.0103
▁Мал	-10.0106
▁отношение	-10.0106
ll	-10.011
▁связь	-10.0121
▁час	-10.0125
ё	-10.0127
▁событий	-10.0129
ул	-10.0139
уз	-10.0142
▁last	-10.0146
▁v	-10.0148
▁Су	-10.0151
ling	-10.0155
▁лес	-10.0155
▁XX	-10.0157
▁мной	-10.0161
▁большое	-10.0164
▁пример	-10.0167
▁million	-10.0171
▁каких	-10.0171
▁военных	-10.0173
лад	-10.0178
▁голос	-10.0179
овский	-10.0181
▁even	-10.0182
кая	-10.0183
▁события	-10.0205
кова	-10.0208
▁Ха	-10.0208
ших	-10.0208
▁класса	-10.0214
чат	-10.0215
▁Бог	-10.0219
la	-10.0219
▁написал	-10.022
тов	-10.0234
▁путем	-10.0244
чик	-10.0249
▁срок	-10.0252
ТАСС	-10.0256
▁along	-10.0257
▁фронта	-10.0269
▁важно	-10.0275
▁d	-10.0276
one	-10.028
go	-10.0282
мор	-10.0292
▁company	-10.0299
чер	-10.0301
▁Сергей	-10.0302
ост	-10.0303
од	-10.0303
▁комплекс	-10.0304
▁членов	-10.0306
▁книге	-10.0315
▁благо	-10.0321
ирование	-10.0329
▁историю	-10.0332
▁цель	-10.0335
▁людьми	-10.034
▁использования	-10.0341
лан	-10.0358
▁поводу	-10.0371
▁again	-10.0375
im	-10.0377
▁муж	-10.0383
▁way	-10.0387
▁разные	-10.0389
▁которыми	-10.039
▁Михаил	-10.0401
кор	-10.0403
▁support	-10.0403
овую	-10.0406
▁условия	-10.0406
▁русского	-10.0411
▁статьи	-10.042
▁вовсе	-10.0421
▁Ту	-10.0422
▁head	-10.0424
▁борьбы	-10.0426
том	-10.0427
▁мои	-10.043
▁спустя	-10.0435
▁человеком	-10.0443
▁станет	-10.0445
▁November	-10.0446
and	-10.0447
▁отношений	-10.0451
▁позиции	-10.046
изации	-10.046
▁имели	-10.0464
▁переход	-10.0465
шие	-10.0469
▁виду	-10.0472
▁общем	-10.0481
▁принять	-10.0487
▁другое	-10.0489
▁избран	-10.0497
#	-10.0497
▁руб	-10.0499
▁man	-10.0499
▁процессе	-10.0506
▁людям	-10.0512
▁мать	-10.0521
вшись	-10.0531
ard	-10.054
▁системе	-10.0548
▁президента	-10.0548
▁century	-10.0551
ca	-10.0552
▁обороны	-10.0558
▁плен	-10.056
▁Sa	-10.0562
рас	-10.0563
▁буду	-10.0564
▁Рас	-10.0569
▁...	-10.0572
▁December	-10.0573
▁моя	-10.0577
▁кому	-10.0577
▁age	-10.0579
▁результат	-10.0579
ции	-10.0581
▁знать	-10.0586
▁фото	-10.0589
▁вести	-10.0591
ирования	-10.0602
ины	-10.0603
ni	-10.0604
сто	-10.0605
▁столько	-10.0614
▁никак	-10.0616
▁временем	-10.0624
▁всему	-10.0627
▁станции	-10.0632
▁came	-10.0636
▁последний	-10.0637
▁Почему	-10.0637
▁Республики	-10.0638
чу	-10.0645
телей	-10.0649
▁причем	-10.0652
▁Потом	-10.0656
▁Ал	-10.0657
▁death	-10.0657
▁символ	-10.0663
▁остается	-10.0668
▁полк	-10.0669
▁фон	-10.0675
▁граждан	-10.0684
ti	-10.0685
▁задачи	-10.0685
▁война	-10.0692
▁small	-10.0706
do	-10.0707
▁Великой	-10.0708
▁месяца	-10.0716
▁Может	-10.0726
▁гол	-10.0729
тен	-10.073
▁held	-10.0733
▁вроде	-10.0739
▁большую	-10.074
▁часа	-10.0742
три	-10.0748
▁men	-10.075
ol	-10.0758
da	-10.0758
ts	-10.0758
▁пользу	-10.0771
гер	-10.0775
бы	-10.0779
▁энергии	-10.078
▁single	-10.0781
▁pro	-10.079
rs	-10.0791
▁вероятно	-10.0792
ря	-10.0794
▁final	-10.0796
▁информацию	-10.0812
▁Кол	-10.0815
▁Мор	-10.0822
▁дал	-10.0832
ировал	-10.0838
ite	-10.0838
▁return	-10.0842
▁текст	-10.0845
ac	-10.0849
шу	-10.0852
▁будем	-10.0853
les	-10.0858
щ	-10.0861
Ю	-10.0864
▁received	-10.0871
▁времена	-10.0871
нер	-10.088
▁телефон	-10.0882
Ц	-10.0883
▁вернулся	-10.0886
▁крайне	-10.089
▁края	-10.0891
▁считает	-10.0891
как	-10.0895
▁Li	-10.0896
▁сына	-10.0905
▁исключительно	-10.0908
▁империи	-10.0933
▁плохо	-10.0937
пи	-10.0941
зи	-10.0942
▁played	-10.0942
▁округа	-10.0945
▁необходимости	-10.0948
▁общей	-10.0953
▁сбор	-10.0957
▁Второй	-10.096
▁поверхности	-10.0964
▁мысль	-10.0977
бр	-10.0996
▁Первый	-10.0998
▁main	-10.0999
овского	-10.1001
▁e	-10.1001
ово	-10.1007
нием	-10.1011
▁Mo	-10.1015
дов	-10.1016
▁City	-10.1024
▁Некоторые	-10.1024
зы	-10.1027
▁модели	-10.1029
▁Га	-10.103
▁фильма	-10.1041
▁органов	-10.1043
▁договор	-10.1051
инского	-10.1052
▁different	-10.1054
▁music	-10.1058
▁сети	-10.1074
▁вариант	-10.108
▁используется	-10.1082
▁нами	-10.1084
▁руку	-10.1085
▁Отечественной	-10.1089
▁природы	-10.1093
▁ну	-10.1096
цу	-10.11
▁крови	-10.1106
▁направлении	-10.1108
▁взять	-10.111
зна	-10.1112
▁вне	-10.1117
▁Bo	-10.1118
▁женщина	-10.112
▁Ди	-10.1125
▁сборной	-10.1132
ям	-10.1134
цион	-10.1137
ишь	-10.1137
▁руках	-10.1137
▁стар	-10.1143
▁включая	-10.115
кол	-10.1153
min	-10.1157
ge	-10.1157
▁домой	-10.1161
▁мор	-10.1165
▁members	-10.1171
▁внимания	-10.1172
▁цвета	-10.1172
▁личности	-10.1174
▁относится	-10.1182
ще	-10.1188
▁идеи	-10.1191
▁North	-10.1197
ga	-10.1199
▁Мин	-10.1202
▁вз	-10.1203
▁Пред	-10.1208
▁любовь	-10.1211
▁within	-10.1215
▁хочу	-10.1219
▁письмо	-10.1222
▁программ	-10.1223
▁состояния	-10.1226
▁находятся	-10.1229
▁игра	-10.1232
ун	-10.1234
▁касается	-10.1236
ющее	-10.1237
con	-10.1241
▁процесса	-10.1243
▁странах	-10.1244
▁большим	-10.1245
▁Be	-10.1254
▁землю	-10.1255
▁сообщает	-10.1257
▁приходится	-10.1261
▁вес	-10.1262
▁children	-10.1262
way	-10.1264
▁разум	-10.1265
ическом	-10.1268
▁вперед	-10.1272
▁named	-10.1277
ацию	-10.128
▁Сан	-10.1282
▁таком	-10.1285
▁Александра	-10.1286
▁словами	-10.1289
he	-10.129
▁командир	-10.1291
дан	-10.1298
▁Несмотря	-10.1303
▁Сейчас	-10.1305
▁Санкт	-10.1305
va	-10.1311
▁ракет	-10.1317
гар	-10.1324
▁доступ	-10.1333
▁By	-10.1333
▁сердце	-10.1333
▁сто	-10.1334
▁русский	-10.1344
▁take	-10.1346
▁театр	-10.1348
▁крестьян	-10.135
▁обо	-10.135
▁кур	-10.1364
▁l	-10.1368
▁порядке	-10.1369
енной	-10.1375
ирует	-10.1377
men	-10.1378
▁середине	-10.1383
▁высоко	-10.1387
▁Англии	-10.1391
▁действие	-10.1396
хи	-10.1397
нь	-10.1398
жен	-10.1403
▁often	-10.1404
шего	-10.1407
город	-10.1408
иков	-10.1408
▁Me	-10.1413
▁юго	-10.1415
зов	-10.1416
рат	-10.1419
▁речи	-10.1422
▁протяжении	-10.1423
▁Ман	-10.1425
▁Между	-10.1431
▁названием	-10.1433
▁Mar	-10.1441
▁месяц	-10.1443
):	-10.1444
ню	-10.1474
кро	-10.1474
▁души	-10.1482
▁Ор	-10.1482
que	-10.1483
ow	-10.1486
▁шесть	-10.1487
▁стороне	-10.1487
▁далее	-10.1497
▁находился	-10.1501
em	-10.1502
▁групп	-10.1502
▁команд	-10.151
рез	-10.1512
ap	-10.1515
▁зависит	-10.1515
вой	-10.152
▁бывает	-10.152
▁видеть	-10.1521
кан	-10.1531
▁новое	-10.1536
▁built	-10.1538
бин	-10.1541
▁period	-10.1542
ание	-10.155
▁концов	-10.155
дон	-10.1558
▁Или	-10.1564
▁Петр	-10.1573
▁возрасте	-10.1579
▁широко	-10.158
nd	-10.1583
▁five	-10.1585
▁went	-10.1588
▁рабочих	-10.1593
шим	-10.1594
▁All	-10.1594
▁Ha	-10.1594
▁included	-10.1599
дар	-10.1601
цами	-10.1606
▁корпуса	-10.1608
сад	-10.161
Й	-10.1615
▁совета	-10.1615
\.	-10.1618
mer	-10.1619
▁произведения	-10.1619
▁led	-10.162
▁миллионов	-10.1623
▁Многие	-10.1624
▁явно	-10.1625
":	-10.1626
▁Нью	-10.163
q	-10.1634
емых	-10.1635
▁правда	-10.1635
▁писатель	-10.1641
фер	-10.1642
▁воду	-10.1648
▁версии	-10.1649
▁центре	-10.1652
▁ди	-10.1654
▁принято	-10.1655
исты	-10.1658
ницы	-10.166
▁вида	-10.1664
▁родился	-10.1674
▁оказалось	-10.1676
стан	-10.168
что	-10.1683
▁Бер	-10.1685
▁должность	-10.1688
▁отдельных	-10.1696
mo	-10.1699
▁приводит	-10.17
ющихся	-10.1704
ler	-10.1705
▁положения	-10.1707
▁German	-10.171
ёт	-10.1714
луч	-10.1715
▁литературы	-10.1718
▁коллектив	-10.172
▁Перед	-10.1726
mon	-10.1729
мент	-10.1739
чет	-10.1741
▁Мо	-10.1744
▁моего	-10.176
▁получила	-10.1763
▁общего	-10.1766
▁February	-10.1774
▁улице	-10.1775
дель	-10.1775
вшихся	-10.1776
теля	-10.1777
брос	-10.1779
▁большие	-10.1782
▁вер	-10.1783
▁next	-10.1785
▁former	-10.1792
▁впоследствии	-10.1798
▁кг	-10.18
▁сторон	-10.1801
▁основных	-10.1805
▁ком	-10.1808
▁считать	-10.1815
▁Ин	-10.1821
▁вечер	-10.1824
▁building	-10.1826
▁окончил	-10.183
sa	-10.183
▁веке	-10.1833
▁защиты	-10.1837
▁Ar	-10.1842
▁аппарат	-10.1848
ете	-10.1858
▁ужас	-10.1859
▁бизнес	-10.1861
уд	-10.1862
емся	-10.1869
ана	-10.187
▁народов	-10.1874
").	-10.1883
ak	-10.1887
▁order	-10.1889
▁селе	-10.1889
ило	-10.189
▁Па	-10.1902
▁Man	-10.1904
▁band	-10.1906
▁трёх	-10.1906
▁One	-10.1914
▁few	-10.192
▁смог	-10.1923
мест	-10.1926
ед	-10.1926
▁population	-10.1932
▁Se	-10.1942
time	-10.1942
▁самолет	-10.1943
▁могло	-10.195
▁политики	-10.1953
▁частей	-10.1953
▁Пер	-10.1955
▁список	-10.1957
▁form	-10.1964
▁света	-10.1964
▁книг	-10.1969
мат	-10.197
▁круг	-10.1973
пад	-10.1973
ень	-10.1978
▁казалось	-10.1989
▁рост	-10.1994
▁результаты	-10.1994
▁тысячи	-10.1994
тан	-10.1998
▁область	-10.1999
ас	-10.2008
ур	-10.2008
▁называется	-10.2008
▁советский	-10.2008
▁major	-10.201
▁ответил	-10.2016
▁Ro	-10.2016
▁недо	-10.2018
▁book	-10.2019
ания	-10.2019
▁предложил	-10.2021
▁бед	-10.2024
ци	-10.2025
▁глава	-10.2027
▁перевод	-10.2037
▁жена	-10.2038
▁видео	-10.204
▁утра	-10.2043
▁главное	-10.2047
▁волн	-10.2053
▁Более	-10.2056
▁совет	-10.2058
▁play	-10.2059
государственного	-10.2059
вес	-10.2059
юр	-10.2061
"[	-10.2063
▁get	-10.2068
den	-10.2076
ред	-10.2086
ившись	-10.209
▁отметил	-10.2091
▁исход	-10.2091
▁US	-10.2093
▁команда	-10.2097
▁side	-10.2097
ез	-10.2104
()	-10.2107
▁Итак	-10.2107
год	-10.2114
форм	-10.2122
ическим	-10.2125
▁словно	-10.213
▁местах	-10.2133
▁Уже	-10.2142
▁форму	-10.2148
▁начальник	-10.215
▁команду	-10.2151
▁задач	-10.2153
▁правил	-10.2156
вест	-10.2157
▁Ку	-10.2161
▁оружия	-10.2163
▁военной	-10.2163
▁клуба	-10.2167
▁театра	-10.2172
твор	-10.2173
▁курс	-10.2177
▁отдел	-10.2178
▁раздел	-10.2178
▁Лит	-10.2181
вел	-10.2183
енная	-10.2184
кий	-10.2188
ka	-10.219
▁второго	-10.2191
бит	-10.2196
▁сад	-10.2198
▁видно	-10.22
ления	-10.2204
▁церковь	-10.2216
io	-10.2221
▁объем	-10.2225
▁рис	-10.2227
▁секрет	-10.2228
ang	-10.2236
▁Советского	-10.224
▁авто	-10.2245
готов	-10.2245
▁новую	-10.225
▁father	-10.225
▁шаг	-10.2252
▁power	-10.2253
▁Pro	-10.2255
▁El	-10.2256
\	-10.2256
▁скорость	-10.2258
▁острова	-10.2263
ющиеся	-10.2266
▁борьбе	-10.2271
▁села	-10.2291
▁контроль	-10.2294
▁большая	-10.2296
▁тепло	-10.2298
рам	-10.2299
▁Бел	-10.2302
▁качества	-10.2303
▁актив	-10.2306
▁сезона	-10.2307
▁late	-10.2312
цеп	-10.2314
▁такую	-10.2318
▁больших	-10.2321
▁успешно	-10.2335
<	-10.2341
▁армия	-10.2343
вшийся	-10.2345
▁чувство	-10.2346
▁пе	-10.2346
▁service	-10.2352
ah	-10.236
рос	-10.2362
▁короля	-10.2368
▁обратно	-10.2371
▁вся	-10.2372
▁чувства	-10.2374
▁десять	-10.238
аж	-10.2384
si	-10.2387
▁London	-10.2387
▁режим	-10.2389
▁based	-10.2393
хо	-10.2394
альной	-10.2397
▁Москву	-10.2399
рей	-10.2402
▁большей	-10.2414
▁школе	-10.2423
телем	-10.2427
▁профессор	-10.2427
▁become	-10.2428
кар	-10.2432
▁четырех	-10.2432
▁руководством	-10.2435
▁техники	-10.2436
▁Ра	-10.2437
▁редко	-10.2443
▁women	-10.2444
нул	-10.2445
зе	-10.2448
▁думаю	-10.2453
▁крест	-10.2455
▁пришел	-10.2461
▁войну	-10.2463
▁оказались	-10.2468
ting	-10.2468
вшиеся	-10.2469
▁называют	-10.247
";	-10.2474
ut	-10.2477
op	-10.2485
дом	-10.2498
▁порядка	-10.2499
▁смерть	-10.2501
▁Пре	-10.2502
▁требует	-10.2504
▁основной	-10.2508
▁жив	-10.2512
тели	-10.2518
▁объект	-10.2519
▁представитель	-10.2519
▁We	-10.252
▁государственной	-10.2521
▁Мак	-10.2524
per	-10.2526
сел	-10.2527
ху	-10.2537
▁образование	-10.2537
▁Без	-10.2537
▁Тут	-10.2539
▁house	-10.254
▁боевых	-10.2542
▁San	-10.2549
▁наше	-10.2551
ana	-10.2553
▁Мир	-10.2555
▁ЦК	-10.2557
ица	-10.2558
ial	-10.256
▁проблема	-10.2561
гре	-10.2561
▁ин	-10.2562
▁мнение	-10.2564
/.	-10.2568
▁non	-10.2575
▁ноги	-10.2578
▁отношению	-10.2581
ner	-10.2583
▁пр	-10.2584
▁go	-10.2585
▁French	-10.2587
▁дочь	-10.2593
ложить	-10.2595
▁серии	-10.2596
▁Был	-10.2601
▁огонь	-10.2603
▁площади	-10.2607
▁книгу	-10.2611
шая	-10.2613
▁первое	-10.2614
▁without	-10.2614
▁общество	-10.2615
▁post	-10.2616
▁Ra	-10.2616
▁считал	-10.2616
▁Впрочем	-10.262
▁third	-10.262
▁Do	-10.2622
▁директор	-10.2624
▁взял	-10.2624
▁знаком	-10.2627
пис	-10.2629
енного	-10.263
став	-10.263
▁крайней	-10.2635
тра	-10.2636
зер	-10.2636
▁near	-10.2638
lin	-10.2641
▁бой	-10.2643
ec	-10.2654
Да	-10.2664
▁прием	-10.2664
▁научно	-10.2667
▁moved	-10.2671
ата	-10.2672
▁State	-10.2675
▁увидел	-10.2675
▁письма	-10.2676
▁Ба	-10.2677
▁en	-10.2678
▁форма	-10.2683
▁control	-10.2686
▁предприятия	-10.2689
кер	-10.2692
▁идти	-10.2703
▁человеку	-10.2715
▁говорится	-10.2721
▁книга	-10.2726
▁Италии	-10.2733
▁оказывается	-10.2735
▁country	-10.2737
дж	-10.2739
▁военного	-10.274
▁проходит	-10.2743
▁land	-10.2745
▁помочь	-10.2745
ice	-10.2747
▁главный	-10.2749
▁using	-10.2751
▁университет	-10.2753
▁абсолютно	-10.2757
▁пара	-10.2761
▁промышленности	-10.2771
▁Сталин	-10.2773
лиз	-10.2776
▁West	-10.2778
ань	-10.2778
▁лично	-10.2779
▁расположен	-10.2779
▁создание	-10.2787
ish	-10.2788
://	-10.2789
руч	-10.279
▁едва	-10.2793
▁правильно	-10.2795
▁двор	-10.2808
▁Ми	-10.2809
▁увидеть	-10.281
ence	-10.2811
▁чемпионата	-10.2813
мон	-10.2815
▁Ленина	-10.2818
ot	-10.2818
▁however	-10.2822
▁original	-10.2823
di	-10.2825
▁своё	-10.2831
▁услуг	-10.2833
▁построен	-10.2833
▁понял	-10.2836
tic	-10.2839
▁объектов	-10.2842
ud	-10.2842
▁говорили	-10.2842
▁представления	-10.2848
▁right	-10.2853
▁Возможно	-10.2853
▁следующие	-10.2857
▁сайт	-10.2858
▁военно	-10.2859
▁among	-10.2861
очный	-10.2862
▁активно	-10.2864
жив	-10.2866
▁мужчин	-10.2867
гин	-10.2871
▁how	-10.2873
▁подход	-10.2873
▁short	-10.2875
чен	-10.2876
"),	-10.2877
▁лист	-10.2884
ьные	-10.2885
▁Бор	-10.2886
▁Эр	-10.2888
▁идея	-10.2892
▁никакого	-10.2893
▁зло	-10.2897
▁include	-10.2899
▁st	-10.2903
ир	-10.2907
▁строго	-10.2909
ally	-10.2909
▁car	-10.2915
ион	-10.2917
▁Совет	-10.2919
▁дальнейшем	-10.2922
▁данном	-10.2928
ике	-10.2938
▁town	-10.2942
],	-10.2943
ci	-10.2943
эр	-10.2946
лез	-10.2947
▁естественно	-10.2952
ized	-10.2953
дав	-10.2959
▁порт	-10.296
▁материал	-10.2962
▁участников	-10.2963
▁здания	-10.2963
▁нес	-10.2967
▁Три	-10.297
▁крупных	-10.2974
ять	-10.2976
▁задача	-10.2978
так	-10.2982
▁особенности	-10.2982
гран	-10.2987
▁top	-10.2989
куп	-10.2991
▁ограничен	-10.2992
▁первая	-10.2995
емые	-10.2999
▁анализ	-10.3004
▁писать	-10.3007
бан	-10.3007
▁ряда	-10.3011
▁published	-10.3015
▁элементов	-10.3016
▁некоторое	-10.3016
атор	-10.3027
▁стандарт	-10.303
▁di	-10.3039
бел	-10.304
▁блок	-10.3044
▁стол	-10.3047
▁возникает	-10.3048
зд	-10.3049
less	-10.305
рев	-10.3055
▁транспорт	-10.3065
▁очевидно	-10.3066
▁деятель	-10.3066
▁статус	-10.3066
▁млрд	-10.3068
▁предмет	-10.3068
эй	-10.3069
▁свободы	-10.3073
▁позднее	-10.3073
▁Go	-10.3075
вшего	-10.308
▁образован	-10.308
▁national	-10.3081
▁сельского	-10.3087
▁чемпионате	-10.3087
▁having	-10.3095
ьный	-10.3097
▁болезни	-10.3107
нут	-10.3111
▁какая	-10.3112
▁окончания	-10.3114
▁Her	-10.3118
▁видим	-10.3119
▁King	-10.3122
эт	-10.3123
▁Хо	-10.3125
▁пункт	-10.3126
▁Сегодня	-10.3127
▁память	-10.3132
▁института	-10.3135
▁автора	-10.3137
▁вывод	-10.3137
▁какого	-10.315
▁какую	-10.3159
▁Бу	-10.316
ke	-10.3161
▁Иванович	-10.3165
▁These	-10.3174
▁конец	-10.3176
▁поведения	-10.3177
▁вкус	-10.3177
▁исследований	-10.3181
крат	-10.3183
▁Car	-10.3188
коп	-10.3188
▁вынужден	-10.319
▁откуда	-10.3191
▁role	-10.3192
▁сюжет	-10.3193
line	-10.3195
▁should	-10.3197
▁службу	-10.3198
нич	-10.3201
▁производство	-10.3206
Про	-10.3208
▁остров	-10.3211
▁доктор	-10.3211
▁институт	-10.322
net	-10.3226
При	-10.3232
▁рождения	-10.3233
▁полной	-10.3238
▁водой	-10.3238
▁объекта	-10.324
▁пусть	-10.3241
▁мозг	-10.3244
▁Пар	-10.3244
▁нечто	-10.3246
▁спросил	-10.3248
▁должности	-10.3251
▁компьютер	-10.3257
▁момента	-10.3259
▁Джон	-10.326
▁development	-10.3261
▁случайно	-10.3262
▁station	-10.3266
▁состава	-10.3267
fe	-10.3268
▁матче	-10.3268
▁фактически	-10.3271
▁чисто	-10.3271
▁son	-10.3276
out	-10.3282
▁Ро	-10.3285
▁страх	-10.3293
ship	-10.3294
▁штаб	-10.3295
▁возраста	-10.3296
ального	-10.3298
▁недели	-10.3306
щей	-10.3307
▁Y	-10.3311
овыми	-10.3317
▁окончательно	-10.3318
▁немедленно	-10.332
▁Бога	-10.3322
поль	-10.3322
▁Кур	-10.3336
цов	-10.3339
▁министр	-10.3341
▁So	-10.3341
кс	-10.3343
ало	-10.3344
▁Правда	-10.3349
tro	-10.3351
▁номер	-10.3353
▁died	-10.3357
▁started	-10.3359
▁рук	-10.3372
ест	-10.3375
▁Ka	-10.3377
▁six	-10.3381
ill	-10.3382
▁Би	-10.3383
▁решили	-10.3386
▁участвовал	-10.3389
сы	-10.3392
za	-10.3393
▁контракт	-10.3393
▁представителей	-10.34
▁IV	-10.3407
▁эффект	-10.3412
end	-10.3418
▁порядок	-10.342
▁случаев	-10.3424
вед	-10.3426
▁государство	-10.3426
▁air	-10.3426
джи	-10.3436
▁погиб	-10.3441
▁начать	-10.3444
▁знания	-10.3449
▁Сер	-10.3451
▁успех	-10.3453
▁сказала	-10.3465
▁начинается	-10.3471
▁опер	-10.3471
▁цикл	-10.3474
▁рыб	-10.3481
Z	-10.3483
▁song	-10.3487
▁каждом	-10.3491
dy	-10.3492
ует	-10.3494
▁Андрей	-10.3503
▁самолета	-10.3505
▁Земли	-10.3507
▁ход	-10.3508
лег	-10.3524
един	-10.3528
▁данной	-10.353
▁иностранных	-10.3531
▁флота	-10.3533
▁кол	-10.3536
ог	-10.3537
▁every	-10.3538
▁Карл	-10.3539
▁вклад	-10.354
дал	-10.3548
Мы	-10.355
▁устройства	-10.3552
▁Поскольку	-10.3554
▁представить	-10.3555
ений	-10.3557
реш	-10.3559
▁history	-10.3562
▁появились	-10.3563
▁служил	-10.3566
▁чему	-10.3569
мар	-10.357
▁одному	-10.3574
▁насколько	-10.3584
чка	-10.3586
▁политической	-10.3586
▁ТАСС	-10.3589
сп	-10.359
цен	-10.3594
▁la	-10.3596
▁периода	-10.3603
▁Po	-10.3607
ong	-10.3612
▁Каждый	-10.3612
▁штаба	-10.3613
▁announced	-10.3615
кал	-10.3622
▁member	-10.3623
▁Иногда	-10.3628
ium	-10.3641
▁модель	-10.3641
▁Air	-10.3642
▁современной	-10.3642
▁continued	-10.3645
▁days	-10.3652
▁Na	-10.3653
▁небольшой	-10.3655
оф	-10.3656
ating	-10.3656
ража	-10.3657
▁best	-10.3665
▁ныне	-10.3666
▁входит	-10.3673
▁Ти	-10.3674
▁given	-10.368
▁данный	-10.3691
▁political	-10.3695
той	-10.3695
жал	-10.3695
▁Рис	-10.3697
щие	-10.37
▁never	-10.3701
Как	-10.3702
ck	-10.3703
ors	-10.3703
▁Dr	-10.3707
▁характера	-10.3712
летний	-10.3715
om	-10.3716
ier	-10.3722
▁создан	-10.3723
▁разговор	-10.3726
раж	-10.3732
▁himself	-10.3732
▁спокойно	-10.3736
▁получения	-10.3737
▁point	-10.3742
ina	-10.3744
▁титул	-10.3766
кур	-10.377
▁основании	-10.3775
ung	-10.3776
▁run	-10.3777
▁club	-10.3779
▁меры	-10.378
▁Pa	-10.3781
▁заметил	-10.3782
ub	-10.3783
▁использование	-10.3783
▁old	-10.3788
▁проведения	-10.379
▁free	-10.379
▁строительство	-10.3791
▁членом	-10.3793
▁автомат	-10.3804
очка	-10.3804
▁приказ	-10.3806
▁собственной	-10.3808
▁wrote	-10.381
▁считают	-10.3817
сер	-10.3823
▁returned	-10.3825
▁неожиданно	-10.3827
▁школу	-10.3827
▁sub	-10.3828
▁определить	-10.3838
▁советских	-10.384
▁Ге	-10.384
▁present	-10.3841
ai	-10.3844
▁границы	-10.3846
▁Ме	-10.3847
пы	-10.3852
au	-10.3852
▁заключается	-10.3853
vo	-10.3854
▁отдела	-10.3857
▁бар	-10.3858
ip	-10.3862
ful	-10.3864
еж	-10.3866
▁Вас	-10.3866
▁самостоятельно	-10.3867
▁прошлом	-10.3867
▁голов	-10.3869
▁Ho	-10.387
▁комитета	-10.3871
▁Азии	-10.3871
▁хозяйства	-10.3872
▁мое	-10.3877
▁сознания	-10.3879
▁наоборот	-10.388
тро	-10.3887
стра	-10.3887
▁наша	-10.3889
ющую	-10.3892
▁served	-10.3892
▁ситуация	-10.3893
▁городов	-10.3894
▁принимать	-10.3899
▁help	-10.3902
▁Орден	-10.3902
▁Москва	-10.3904
▁крас	-10.3907
лит	-10.3907
зу	-10.3909
▁стихи	-10.391
евич	-10.391
йтесь	-10.3911
▁кос	-10.3924
▁придется	-10.3929
▁вызывает	-10.3933
▁sp	-10.3934
▁главного	-10.3938
▁моих	-10.3944
▁win	-10.3944
▁соответственно	-10.3953
▁вдоль	-10.3955
▁фронт	-10.3962
▁губернии	-10.3965
▁относятся	-10.3967
▁медленно	-10.3972
щи	-10.3976
▁English	-10.398
▁времен	-10.3981
инский	-10.3984
ож	-10.3984
▁достижения	-10.3984
▁будущем	-10.3987
▁отсутствие	-10.3988
▁Пока	-10.3989
▁Ис	-10.3992
▁закона	-10.3994
▁неё	-10.3995
▁Автор	-10.3996
▁Очень	-10.3998
▁советской	-10.3998
кат	-10.4
▁вверх	-10.4002
▁вред	-10.401
вшей	-10.4012
▁students	-10.4016
▁встреча	-10.4019
оль	-10.4021
▁hand	-10.4027
▁след	-10.4033
хан	-10.4033
▁царя	-10.4035
▁see	-10.4036
▁деревни	-10.4042
▁Вскоре	-10.4042
▁Ma	-10.4048
▁русские	-10.4048
▁сравнению	-10.405
tra	-10.4052
▁прошлого	-10.4054
ток	-10.4056
▁термин	-10.4061
▁дороге	-10.4063
ину	-10.4064
рад	-10.4068
▁здание	-10.4069
▁деревне	-10.4072
▁разве	-10.4073
▁поселения	-10.4073
ьная	-10.4074
▁production	-10.4074
▁меж	-10.4075
пе	-10.4077
▁впечатление	-10.4081
▁рад	-10.4081
▁неделю	-10.4088
▁другую	-10.4092
вор	-10.4093
ities	-10.4094
▁считается	-10.4094
▁высокой	-10.4095
▁Виктор	-10.4098
▁дар	-10.4101
▁case	-10.4103
▁делают	-10.4105
ical	-10.4106
bo	-10.4107
▁идеал	-10.4109
кие	-10.411
▁But	-10.411
▁правила	-10.4111
▁оружие	-10.4114
▁law	-10.412
▁боя	-10.4121
▁управление	-10.4128
▁Наконец	-10.413
▁корпус	-10.413
▁position	-10.4134
тин	-10.414
ham	-10.4142
ением	-10.4144
▁базе	-10.4147
▁площадь	-10.4149
▁веществ	-10.4154
▁основания	-10.416
▁премьер	-10.416
ацией	-10.4161
щая	-10.4161
мысл	-10.4164
▁open	-10.4165
вшейся	-10.4165
▁class	-10.4165
вол	-10.4165
ены	-10.417
▁Стар	-10.4176
ается	-10.4178
цию	-10.4181
▁недавно	-10.4184
▁total	-10.4191
▁k	-10.4194
шин	-10.4196
$	-10.4204
▁хлеб	-10.4205
▁бомб	-10.4209
▁труб	-10.4211
еля	-10.4214
аться	-10.4219
▁Глава	-10.4219
▁документ	-10.4219
ber	-10.4222
нем	-10.4223
▁создал	-10.4223
▁Алексей	-10.4224
▁ночью	-10.4227
▁шести	-10.4227
мед	-10.4229
▁население	-10.4235
▁специально	-10.4236
▁сведения	-10.4237
▁вход	-10.4241
ад	-10.4242
▁Мон	-10.4242
by	-10.4243
▁Красной	-10.4243
▁light	-10.4243
▁спор	-10.4244
▁чувств	-10.4245
▁взрыв	-10.4248
▁оба	-10.425
▁record	-10.4256
▁статье	-10.4256
енным	-10.4263
▁обучения	-10.4264
▁Ленин	-10.4265
дор	-10.4266
▁Lo	-10.4269
▁маг	-10.4277
уют	-10.428
▁поведение	-10.4284
изация	-10.4284
▁Пан	-10.4286
ster	-10.4288
▁строительства	-10.4288
▁песни	-10.429
▁капитан	-10.4295
▁чел	-10.4296
ино	-10.4298
▁вышла	-10.4307
▁Россию	-10.4308
▁ру	-10.4308
щим	-10.4315
лог	-10.4317
▁остальные	-10.4327
▁мод	-10.4329
уль	-10.4331
▁result	-10.4334
▁семья	-10.4339
аз	-10.435
ja	-10.4354
▁ста	-10.4356
▁знак	-10.4357
▁Верховного	-10.436
▁Дж	-10.4361
▁мер	-10.4364
▁шум	-10.4366
▁ген	-10.4366
▁существования	-10.4367
первых	-10.4367
▁Кат	-10.4371
▁good	-10.4372
▁##	-10.4376
▁сообщения	-10.4378
▁последних	-10.4381
▁начальника	-10.4387
пред	-10.4392
▁уверен	-10.4394
▁воздуха	-10.4394
▁сверх	-10.4395
▁добавил	-10.4396
ions	-10.4396
▁чрезвычайно	-10.4396
кина	-10.4398
▁земля	-10.4399
▁Се	-10.4401
▁various	-10.441
▁Дело	-10.4413
действительности	-10.4414
▁большого	-10.4418
фи	-10.4418
▁оказалась	-10.4427
▁другу	-10.4428
▁з	-10.4429
▁###	-10.4432
▁i	-10.4439
▁мае	-10.444
▁Гар	-10.4448
▁Su	-10.4451
ig	-10.4452
▁основные	-10.446
▁сожалению	-10.4464
чки	-10.4464
▁Са	-10.4465
▁social	-10.4465
▁названия	-10.4469
▁important	-10.447
▁military	-10.4472
▁корм	-10.4476
▁оп	-10.4476
▁воздух	-10.4477
▁Японии	-10.4479
▁заниматься	-10.4482
▁Гу	-10.4486
▁условий	-10.4487
ron	-10.4495
▁газеты	-10.4499
зор	-10.4503
▁выпуск	-10.4504
руш	-10.4505
цем	-10.4506
▁внутренних	-10.4514
▁реализации	-10.4514
▁организован	-10.4514
▁силой	-10.4519
▁River	-10.452
ba	-10.4521
тей	-10.4522
▁добро	-10.4533
чев	-10.4535
илось	-10.4538
▁Ему	-10.4542
▁Ca	-10.4546
▁желание	-10.4547
▁further	-10.455
▁имеется	-10.4557
▁вниз	-10.4563
нные	-10.4564
ющийся	-10.4566
нный	-10.457
▁Хар	-10.457
▁обеспечения	-10.4574
▁general	-10.4575
▁Че	-10.4576
▁Человек	-10.4578
▁связано	-10.4579
▁количества	-10.458
▁Надо	-10.4583
работ	-10.4585
Об	-10.4589
емый	-10.4591
▁career	-10.4595
▁российский	-10.4597
▁вопросов	-10.4598
▁применения	-10.4601
▁бу	-10.4602
▁понятия	-10.4604
▁пару	-10.4606
▁искать	-10.4609
▁дух	-10.4609
▁отчет	-10.4612
ze	-10.4613
▁сфере	-10.4615
▁established	-10.4615
▁must	-10.4615
▁приходилось	-10.4617
▁away	-10.4618
▁назвал	-10.4623
▁слабо	-10.4623
▁содержание	-10.4626
пал	-10.4628
▁экономики	-10.4628
▁играть	-10.4629
▁запас	-10.4631
альным	-10.4632
▁ваш	-10.4633
▁появился	-10.4633
▁кот	-10.4635
▁эпохи	-10.4639
▁match	-10.464
ex	-10.4643
▁адрес	-10.4643
▁склад	-10.4644
▁штат	-10.4644
▁рассказал	-10.4645
нин	-10.4658
▁автомобиль	-10.4661
остью	-10.4664
▁сердца	-10.4666
▁остался	-10.4668
▁мозга	-10.467
например	-10.4671
▁улицы	-10.4674
▁представление	-10.4675
лон	-10.4676
инов	-10.468
пу	-10.468
▁north	-10.4682
▁Оно	-10.4686
▁similar	-10.4688
▁главы	-10.4689
pa	-10.469
▁идей	-10.469
▁занял	-10.4696
▁Им	-10.4697
▁скорости	-10.47
стоя	-10.47
▁север	-10.4703
щий	-10.4704
тур	-10.4712
▁миф	-10.4714
▁получает	-10.4716
▁ордена	-10.4717
▁full	-10.472
▁Вместе	-10.4722
▁провести	-10.4727
▁нашем	-10.4727
▁показывает	-10.4727
▁делу	-10.4732
знач	-10.4733
▁совместно	-10.4737
▁Ее	-10.4739
щу	-10.4747
чь	-10.4748
▁марте	-10.4756
▁поход	-10.4756
▁кем	-10.4757
▁христиан	-10.4758
▁школа	-10.4758
вшим	-10.476
ушка	-10.476
▁пришли	-10.4763
▁обе	-10.4773
▁half	-10.4776
ющими	-10.4778
▁General	-10.4778
▁встречи	-10.4787
▁административно	-10.4791
быт	-10.4797
цвет	-10.4799
бил	-10.4801
ves	-10.4803
▁целей	-10.4804
▁process	-10.4808
ируют	-10.4808
▁Лев	-10.4811
▁сезоне	-10.4811
▁концерт	-10.4818
▁друзей	-10.482
▁километров	-10.4822
прежнему	-10.4822
▁подготовки	-10.4828
▁тщательно	-10.4833
ляр	-10.4833
▁сила	-10.4837
▁роста	-10.4839
▁вода	-10.4841
▁орган	-10.4843
▁project	-10.4844
▁Си	-10.4846
лик	-10.4846
▁Ne	-10.485
▁воде	-10.4854
▁games	-10.4858
▁организация	-10.4858
▁языков	-10.4859
▁нём	-10.4859
бой	-10.4862
▁бюджет	-10.4862
лем	-10.4862
▁together	-10.4866
▁Ta	-10.4868
▁полиции	-10.4871
ора	-10.4871
▁национальной	-10.4875
▁молодой	-10.4876
син	-10.4878
▁представители	-10.4878
hi	-10.4879
▁кар	-10.4879
▁появляется	-10.4882
ten	-10.4883
▁последнее	-10.4884
▁Род	-10.4884
▁lost	-10.4885
▁преступления	-10.4888
▁чтоб	-10.4888
рожден	-10.4888
▁земель	-10.4891
▁km	-10.4895
▁коп	-10.4895
▁флот	-10.4897
вели	-10.4898
фор	-10.4898
▁будучи	-10.4899
▁боль	-10.4907
дра	-10.4909
▁элементы	-10.4916
▁Родился	-10.4917
▁буквально	-10.492
▁хотелось	-10.4922
▁ма	-10.4922
▁данного	-10.4928
▁узнать	-10.4929
▁fire	-10.493
port	-10.4934
чей	-10.4935
▁human	-10.4937
▁Ло	-10.4939
▁перемен	-10.4942
▁августе	-10.4944
ву	-10.4948
вшая	-10.4948
▁головы	-10.495
▁выпуска	-10.4954
▁Рим	-10.4954
▁га	-10.496
ko	-10.4961
▁героя	-10.4971
▁дверь	-10.4972
уш	-10.4974
▁семей	-10.4974
▁XVIII	-10.4975
рин	-10.499
▁привести	-10.4992
стей	-10.4999
жу	-10.5004
▁возник	-10.5005
▁концу	-10.5005
▁январе	-10.5006
▁нужны	-10.501
ology	-10.5012
▁ПО	-10.5014
▁организаций	-10.5016
ho	-10.5017
шки	-10.5017
▁Особенно	-10.5017
▁League	-10.5017
крас	-10.5019
▁Street	-10.5019
ировали	-10.5021
▁интернет	-10.5024
▁House	-10.5024
▁художник	-10.5025
▁great	-10.5026
смотр	-10.5026
▁принцип	-10.503
▁последнего	-10.5038
▁Ново	-10.5043
▁Дмитрий	-10.5045
▁рассказ	-10.5047
▁design	-10.5049
▁Му	-10.5056
▁сентябре	-10.5058
="	-10.5058
▁осталось	-10.5058
▁причине	-10.5066
гр	-10.5067
sen	-10.5069
▁Park	-10.507
▁пал	-10.5071
щего	-10.5071
▁business	-10.5074
field	-10.5075
▁академии	-10.5077
тар	-10.5081
▁товар	-10.5081
▁декабре	-10.5083
ук	-10.5089
▁плат	-10.5089
▁полно	-10.509
▁times	-10.5091
сом	-10.5094
▁Вам	-10.5095
▁example	-10.5096
веч	-10.5098
▁положении	-10.5102
▁российских	-10.5109
▁акт	-10.5117
▁источник	-10.5118
▁сюда	-10.5118
нев	-10.5119
▁Чем	-10.5121
▁новым	-10.5123
▁семь	-10.5127
log	-10.5129
альное	-10.5132
суд	-10.5132
нова	-10.5137
sk	-10.5138
od	-10.514
▁комиссии	-10.5141
led	-10.5147
▁именем	-10.5151
ура	-10.5157
▁program	-10.5158
▁though	-10.5161
ключ	-10.5165
▁существование	-10.5165
▁обществе	-10.5165
▁материалов	-10.5167
пас	-10.5172
ара	-10.5173
▁сосед	-10.5173
мана	-10.5175
▁немало	-10.5185
▁втором	-10.5188
▁среды	-10.5189
▁император	-10.5192
▁сможет	-10.5192
▁информация	-10.5194
▁поиск	-10.5199
▁created	-10.5199
енд	-10.52
▁резерв	-10.5205
▁Ga	-10.5205
рик	-10.5206
ливо	-10.5209
▁видели	-10.5211
гон	-10.5217
▁РСФСР	-10.5218
ложил	-10.5218
▁попал	-10.5218
▁нос	-10.5223
▁установить	-10.5223
▁находились	-10.5225
▁рез	-10.5225
▁изображения	-10.5227
▁половине	-10.5228
▁East	-10.5229
▁Лу	-10.5231
▁While	-10.5232
ари	-10.5233
▁интересов	-10.5236
▁France	-10.524
▁направлен	-10.5245
▁less	-10.5245
▁группе	-10.5245
▁забот	-10.5246
▁According	-10.5248
▁явления	-10.5253
▁Бен	-10.526
ay	-10.5263
▁романа	-10.5265
▁социальной	-10.5267
▁отряд	-10.5267
▁победу	-10.5268
▁растений	-10.5268
▁born	-10.527
▁сделали	-10.5272
▁государств	-10.5274
ес	-10.5274
▁видит	-10.5275
▁сотрудников	-10.5282
▁лежит	-10.5286
ue	-10.5287
▁know	-10.5288
▁нередко	-10.5289
▁глазами	-10.529
▁обязан	-10.5292
ьных	-10.5293
▁утром	-10.5295
▁преимущественно	-10.5299
▁птиц	-10.5301
▁located	-10.5304
овали	-10.5305
▁Pi	-10.5313
вр	-10.5315
▁сути	-10.5318
▁глазах	-10.5318
▁College	-10.5323
▁думать	-10.5324
▁распространен	-10.5324
▁знали	-10.5325
▁опыта	-10.5331
▁десяти	-10.5331
▁философии	-10.5333
▁корабля	-10.5336
▁появилась	-10.5338
▁категории	-10.5339
▁вещей	-10.5345
▁пространство	-10.5346
▁Act	-10.535
▁структур	-10.535
▁International	-10.5357
▁Per	-10.5357
▁взят	-10.5358
▁комитет	-10.536
ьев	-10.536
▁новая	-10.5361
▁футболист	-10.5367
▁способность	-10.5371
▁title	-10.5371
▁поддержку	-10.5372
▁двадцать	-10.5373
▁самому	-10.5373
▁картины	-10.5373
▁Some	-10.538
▁партия	-10.538
▁Мер	-10.5382
▁этими	-10.5382
▁конфликт	-10.5386
▁назван	-10.5391
▁записи	-10.5393
▁известный	-10.5405
▁выполнения	-10.5406
▁лучших	-10.5406
ически	-10.541
▁играл	-10.5411
▁звание	-10.5411
▁князя	-10.5414
▁программа	-10.5416
▁подробно	-10.5416
▁community	-10.5418
▁тему	-10.5419
▁And	-10.5422
▁подобных	-10.5423
▁кредит	-10.5431
▁рот	-10.5431
▁такими	-10.5432
▁Наиболее	-10.5434
▁используют	-10.5435
▁республики	-10.5436
▁авиа	-10.5441
▁группу	-10.5442
▁основан	-10.5443
▁Великобритании	-10.5444
зо	-10.5448
▁нож	-10.5449
▁храм	-10.5452
▁прекрасно	-10.5459
fa	-10.546
▁река	-10.5462
▁завода	-10.5463
▁come	-10.5465
▁свойства	-10.5466
ологии	-10.5468
▁Северной	-10.5474
▁газ	-10.5478
▁однажды	-10.5479
che	-10.5484
▁силами	-10.5485
▁выступал	-10.5494
▁звезд	-10.5497
▁традиции	-10.5498
▁выражен	-10.55
фе	-10.5501
▁генерала	-10.5502
▁архив	-10.5505
▁Люб	-10.5505
▁требования	-10.5506
▁современных	-10.5507
вторых	-10.5509
▁Всего	-10.5509
▁экс	-10.5512
буд	-10.5516
▁Город	-10.5519
▁технологии	-10.5519
ряд	-10.552
▁President	-10.5521
!..	-10.5528
▁live	-10.5529
▁готовы	-10.5532
▁представляют	-10.5533
▁Кара	-10.5534
▁пят	-10.5537
▁авиации	-10.5538
▁Далее	-10.554
▁Америки	-10.5542
онов	-10.5544
▁Пу	-10.5545
▁ребенок	-10.5551
▁considered	-10.5554
▁хор	-10.5558
▁продолжал	-10.5559
бен	-10.5561
▁Борис	-10.5563
▁содержит	-10.5563
пут	-10.5565
▁успеха	-10.5565
след	-10.5572
др	-10.5574
бол	-10.5575
▁документов	-10.5577
red	-10.5577
▁октябре	-10.5579
▁тонн	-10.5587
▁набор	-10.5588
▁самолетов	-10.5589
▁put	-10.5593
▁Ru	-10.5594
▁England	-10.5594
енное	-10.5595
▁норм	-10.5598
лев	-10.5601
▁вод	-10.5611
▁making	-10.5612
▁миру	-10.5613
▁ног	-10.5615
ations	-10.5617
▁никакой	-10.5617
▁выхода	-10.562
▁ВВС	-10.5621
▁видимо	-10.5623
▁вследствие	-10.5625
▁участия	-10.5625
wa	-10.5628
▁вернуться	-10.5632
▁сыр	-10.5632
▁Петра	-10.5634
▁организма	-10.5636
▁документы	-10.5637
▁научных	-10.5638
щих	-10.5638
▁самая	-10.564
▁site	-10.5641
шее	-10.5646
▁south	-10.5646
чем	-10.5651
▁вечером	-10.5652
▁Gu	-10.5653
▁литературе	-10.5663
▁пространства	-10.5664
▁body	-10.5666
▁оборот	-10.5666
дин	-10.5669
▁mother	-10.567
▁склон	-10.5672
▁продукции	-10.5673
▁партизан	-10.5677
стар	-10.5678
▁Bar	-10.5678
▁природе	-10.5678
ита	-10.5683
▁working	-10.5684
▁предложения	-10.5684
▁началась	-10.5684
▁With	-10.5686
gen	-10.5688
▁worked	-10.5695
▁Тро	-10.5696
▁включает	-10.5697
▁From	-10.5697
▁Гер	-10.5703
рус	-10.5713
▁писателя	-10.5714
▁Church	-10.5716
▁члены	-10.572
▁бога	-10.5721
▁мастер	-10.5725
▁too	-10.5726
▁занимает	-10.5727
▁горы	-10.5729
бить	-10.573
▁вещества	-10.5733
▁виды	-10.5735
▁якобы	-10.5735
▁принадлежит	-10.5735
▁Army	-10.5736
▁служит	-10.5736
▁продуктов	-10.5737
ально	-10.5737
▁будущего	-10.5738
рак	-10.574
▁отказ	-10.575
▁сезон	-10.575
ведение	-10.5751
▁Hu	-10.5753
▁Было	-10.5757
▁философ	-10.5761
▁рукой	-10.5763
слов	-10.5765
tor	-10.5767
вич	-10.5769
▁joined	-10.577
▁Тот	-10.577
▁требуется	-10.5773
ven	-10.5773
▁социально	-10.5779
▁знаем	-10.5779
иш	-10.5784
▁методы	-10.5785
▁Марк	-10.5789
▁стр	-10.5789
▁артист	-10.5796
▁gave	-10.5798
side	-10.5801
▁мужчины	-10.5804
▁воин	-10.5807
▁Ст	-10.5811
еров	-10.5811
▁фоне	-10.5811
▁структуры	-10.5812
▁стоял	-10.5816
▁real	-10.5817
▁предложение	-10.5818
▁гости	-10.5822
▁кр	-10.5825
▁Ch	-10.5826
▁назвать	-10.5829
нят	-10.5836
po	-10.5836
▁передачи	-10.5836
▁минимум	-10.5841
центр	-10.5846
▁com	-10.5846
▁Тер	-10.5846
▁третий	-10.5846
▁ярко	-10.5847
▁обнаружил	-10.5853
глав	-10.5858
▁ситуацию	-10.586
▁князь	-10.5861
альную	-10.5861
▁обмен	-10.5863
▁прибыл	-10.5863
вести	-10.5864
плат	-10.5865
▁провинции	-10.5865
▁руками	-10.5866
▁сигнал	-10.5867
еть	-10.5868
гл	-10.5869
▁апреле	-10.587
▁отметить	-10.5873
ft	-10.5874
▁once	-10.5874
▁Николаевич	-10.5875
▁Чу	-10.5877
ьте	-10.5877
тай	-10.5877
нского	-10.5879
all	-10.5879
▁руководство	-10.5881
▁местных	-10.5884
▁спорта	-10.5886
▁America	-10.5887
ада	-10.5891
▁закрыт	-10.5894
lan	-10.5894
▁фигур	-10.5895
дали	-10.5897
▁front	-10.5905
мел	-10.5905
▁тяжело	-10.591
▁имела	-10.5911
▁шли	-10.5911
▁пожар	-10.5911
▁любого	-10.5913
▁ночи	-10.5914
ством	-10.5914
▁others	-10.592
▁текста	-10.592
▁research	-10.5922
▁договора	-10.5925
▁интервью	-10.593
▁регулярно	-10.5933
▁story	-10.5936
▁сахар	-10.5939
▁собственно	-10.594
▁Дом	-10.5941
▁вплоть	-10.5943
▁Ba	-10.5945
▁version	-10.5948
▁шла	-10.5949
▁ten	-10.5958
▁июне	-10.5959
ош	-10.5962
▁инженер	-10.5964
ya	-10.5966
▁доход	-10.5969
▁игру	-10.5972
▁добавить	-10.5973
▁your	-10.5974
▁контроля	-10.5975
Вы	-10.5976
ure	-10.5977
▁глубоко	-10.5979
▁попытки	-10.5979
ther	-10.5982
▁понятно	-10.5983
▁sent	-10.5983
▁подобно	-10.5984
▁существенно	-10.5985
▁заместитель	-10.5988
▁главных	-10.599
днев	-10.5993
▁лицом	-10.5993
▁мимо	-10.5993
▁al	-10.5995
▁ума	-10.5996
очные	-10.5997
▁Ша	-10.5998
gu	-10.6012
еле	-10.6012
▁Киев	-10.6014
▁выпущен	-10.6015
▁Украине	-10.6015
няя	-10.6016
▁принимал	-10.602
▁июле	-10.602
рит	-10.6023
▁искусство	-10.6024
▁государственный	-10.6024
тр	-10.6025
▁фильме	-10.6031
▁round	-10.6035
▁Париже	-10.6035
▁примеру	-10.6036
▁character	-10.6037
▁оставил	-10.6037
▁сложно	-10.6037
▁George	-10.6039
▁губ	-10.6043
▁организм	-10.6047
▁County	-10.605
▁пап	-10.605
▁родителей	-10.6054
писан	-10.6055
▁addition	-10.6055
▁политических	-10.606
▁контакт	-10.6063
яр	-10.6064
▁Vi	-10.6065
▁Ян	-10.6067
▁our	-10.6076
▁портрет	-10.6079
лок	-10.608
▁король	-10.6081
дет	-10.6081
of	-10.6083
▁победы	-10.6084
▁сотни	-10.6086
бле	-10.6088
▁special	-10.6091
▁музей	-10.6093
▁происхождения	-10.6095
▁пытался	-10.6098
▁наличие	-10.6098
▁night	-10.61
▁офицер	-10.61
▁способности	-10.6101
▁вос	-10.6104
▁изменить	-10.6105
▁становятся	-10.6105
▁близко	-10.6107
▁Ос	-10.6107
▁стены	-10.6111
▁объяснить	-10.6115
▁спас	-10.6117
▁taken	-10.6118
▁described	-10.6118
рок	-10.6124
▁сыграл	-10.6125
▁домов	-10.6125
▁необходимость	-10.6129
▁противо	-10.6135
▁стен	-10.6135
▁тренер	-10.6138
▁http	-10.6141
▁young	-10.6142
▁семи	-10.6143
▁приложения	-10.6144
▁используются	-10.6144
▁св	-10.6148
▁produced	-10.6149
▁wife	-10.6149
▁работают	-10.6151
▁История	-10.6157
▁край	-10.6158
▁Потому	-10.6159
▁private	-10.6165
▁Бур	-10.6168
▁нашу	-10.6169
▁особо	-10.6169
дается	-10.6169
▁does	-10.617
▁сообщение	-10.617
ct	-10.6171
Ре	-10.6172
ченко	-10.6173
ьную	-10.6173
ach	-10.6175
▁актёр	-10.6177
▁рынка	-10.6177
▁журналист	-10.6179
▁любит	-10.618
итесь	-10.6181
▁release	-10.6181
▁живет	-10.6181
▁приходит	-10.6182
▁выйти	-10.6183
year	-10.6184
▁механизм	-10.6185
▁although	-10.6186
▁небес	-10.6187
цер	-10.6192
▁Ча	-10.6193
▁вопросам	-10.6193
res	-10.6194
▁бывший	-10.6194
▁Тор	-10.6195
онос	-10.6197
▁диск	-10.6198
▁отдельные	-10.6198
▁герой	-10.6198
▁рынке	-10.6199
ард	-10.6203
▁микро	-10.6203
▁кораблей	-10.6206
▁g	-10.6207
▁показать	-10.6208
▁направления	-10.6209
рем	-10.6212
▁евреев	-10.6214
▁met	-10.6215
▁авторитет	-10.6216
▁отличается	-10.6217
▁mo	-10.6217
▁сознание	-10.6217
▁Союз	-10.6218
▁лице	-10.6222
▁High	-10.6223
▁корабль	-10.6225
▁Где	-10.6227
▁представлен	-10.6228
▁Жан	-10.6228
▁saw	-10.6231
▁веков	-10.6234
ким	-10.6235
ization	-10.6236
▁атом	-10.6237
очных	-10.6244
еры	-10.6245
▁My	-10.6248
ver	-10.625
ида	-10.6255
gi	-10.6255
▁Фа	-10.6259
▁anti	-10.6261
нная	-10.6261
▁ноябре	-10.6267
▁недостаточно	-10.6268
▁ремонт	-10.6273
хар	-10.6274
бл	-10.6276
▁военные	-10.6277
▁обладает	-10.6277
руж	-10.6277
▁Индии	-10.628
мал	-10.6281
▁заранее	-10.6282
▁понятие	-10.6284
▁журнал	-10.6284
▁процессов	-10.6286
▁товаров	-10.6289
ab	-10.629
вшегося	-10.6293
▁похоже	-10.6295
▁частично	-10.6297
▁разработки	-10.6297
▁нашел	-10.6303
▁раствор	-10.6304
▁little	-10.6306
▁прос	-10.6308
▁боевой	-10.6309
▁months	-10.6311
▁самим	-10.6311
десят	-10.6312
▁этапе	-10.6313
▁ССР	-10.6315
▁art	-10.6316
▁государственных	-10.6316
▁мужчина	-10.6317
▁married	-10.6318
▁другая	-10.632
▁seen	-10.6322
▁городского	-10.6326
if	-10.6326
▁описание	-10.6326
▁молодых	-10.6336
От	-10.6337
лам	-10.634
тив	-10.634
уха	-10.6344
▁анализа	-10.6346
▁church	-10.6347
шь	-10.6348
▁открыл	-10.6348
▁создании	-10.6348
леп	-10.6352
▁реформ	-10.6353
▁level	-10.6354
▁Jo	-10.6355
▁описан	-10.6358
▁остро	-10.6364
ified	-10.6364
▁вступил	-10.6367
видимому	-10.6368
▁элемент	-10.6371
▁across	-10.6371
▁феврале	-10.6372
лес	-10.6374
▁opened	-10.6376
▁органы	-10.6376
▁Пе	-10.6376
сель	-10.6377
пит	-10.6379
ителя	-10.638
шка	-10.638
▁ими	-10.6381
old	-10.6382
▁девушка	-10.6387
▁Московской	-10.6389
уса	-10.6391
▁close	-10.6398
tion	-10.6399
▁летом	-10.6401
▁будущее	-10.6402
▁пород	-10.6404
ey	-10.6407
▁существ	-10.6411
▁Помимо	-10.6414
▁Сталина	-10.6416
▁головой	-10.6417
▁хочется	-10.6419
▁свете	-10.642
▁массы	-10.642
▁полковник	-10.6422
▁William	-10.6423
▁Кам	-10.6424
▁success	-10.6425
▁обеспечить	-10.6426
▁главной	-10.6429
▁thought	-10.643
▁дают	-10.6432
▁жены	-10.6433
▁брата	-10.6435
нс	-10.6435
овской	-10.6438
▁Испании	-10.6441
▁холод	-10.6443
▁плане	-10.6443
▁потери	-10.6444
▁компаний	-10.6445
▁обоих	-10.6445
▁common	-10.6447
▁Ду	-10.6447
▁началось	-10.6449
лия	-10.6452
▁министра	-10.6452
▁проб	-10.6453
▁party	-10.6456
▁угол	-10.646
▁исключением	-10.646
▁European	-10.6462
все	-10.6464
▁Мат	-10.6466
▁показал	-10.6467
▁нашли	-10.6468
▁Da	-10.6468
▁журнала	-10.6469
▁court	-10.647
▁возраст	-10.6471
▁связаны	-10.6472
▁предназначен	-10.6474
▁запрет	-10.6476
ушки	-10.6481
▁любом	-10.6483
▁вашей	-10.6483
▁председатель	-10.6484
▁игре	-10.6485
▁сообщили	-10.6487
рыв	-10.6488
▁армию	-10.6488
▁ваши	-10.6491
▁нарушения	-10.6491
▁сел	-10.6493
▁машина	-10.6494
▁существуют	-10.6495
▁Роман	-10.6496
мышлен	-10.6498
▁шар	-10.6502
▁думал	-10.6502
▁голове	-10.6503
▁black	-10.6508
int	-10.6515
▁Мари	-10.6515
▁Люди	-10.6515
▁смеш	-10.652
▁Lu	-10.6521
▁внезапно	-10.6523
▁правления	-10.6525
ющейся	-10.6529
▁шт	-10.6529
▁войсками	-10.6531
▁modern	-10.6535
▁начинают	-10.6536
▁практике	-10.6538
▁Том	-10.654
ались	-10.6541
▁возле	-10.6542
▁мотив	-10.6546
▁Di	-10.655
▁ex	-10.655
get	-10.655
крыл	-10.6552
ником	-10.6553
▁став	-10.6556
▁Пушкин	-10.6557
▁слав	-10.6557
tal	-10.6557
▁брак	-10.6558
▁императора	-10.6559
Ан	-10.6559
▁areas	-10.6559
▁Windows	-10.6559
▁поток	-10.6559
▁хуже	-10.656
▁последней	-10.6561
▁ведет	-10.6564
▁размер	-10.6565
▁мост	-10.6566
▁зачем	-10.6568
▁канал	-10.6569
▁знают	-10.6569
▁лишен	-10.6571
ват	-10.6573
▁СМИ	-10.6575
▁добиться	-10.6577
▁питания	-10.6578
екс	-10.6578
▁приняли	-10.6578
ps	-10.6581
▁запах	-10.6581
шен	-10.6582
▁Первая	-10.6584
▁Иванов	-10.6584
▁ответственность	-10.6585
day	-10.6587
▁Red	-10.6588
▁командира	-10.6589
зин	-10.659
▁campaign	-10.6598
клон	-10.66
▁гидро	-10.6603
▁Ри	-10.6604
▁педагог	-10.6604
▁восемь	-10.6604
▁Василий	-10.661
▁отделения	-10.6611
?!	-10.6614
▁поставить	-10.6616
▁выглядит	-10.6617
ise	-10.6617
▁натур	-10.6619
▁бо	-10.6622
▁выходит	-10.6629
пан	-10.663
▁start	-10.6631
▁поддержки	-10.6632
порт	-10.6632
▁отправился	-10.6636
▁contract	-10.6637
▁мою	-10.6639
▁пан	-10.6641
▁пошел	-10.6641
▁forces	-10.6642
▁жители	-10.6642
▁причиной	-10.6643
▁дочери	-10.6643
vi	-10.6644
▁премии	-10.6644
▁Стра	-10.665
▁Армии	-10.665
▁век	-10.665
▁works	-10.6653
vis	-10.6653
ицы	-10.6656
ительно	-10.6656
▁поступил	-10.6656
▁черт	-10.6658
▁Ки	-10.6666
фон	-10.6667
▁шел	-10.6673
ding	-10.6674
mar	-10.6675
▁врага	-10.6677
▁смогли	-10.6677
▁установки	-10.6678
▁простой	-10.6679
▁мо	-10.6679
▁James	-10.668
▁признан	-10.6682
воль	-10.6686
етесь	-10.6687
▁читать	-10.6687
▁быстрее	-10.6689
ney	-10.6691
▁каком	-10.6693
▁вызван	-10.6694
кую	-10.6694
▁заболевания	-10.6695
ций	-10.67
val	-10.6705
част	-10.6705
▁начиная	-10.6707
▁озера	-10.6708
▁смотреть	-10.6712
кров	-10.6714
ируя	-10.6715
▁ma	-10.6719
▁занимался	-10.6719
▁большинстве	-10.6724
▁дву	-10.6724
pp	-10.6725
ator	-10.6726
ek	-10.6726
▁округ	-10.6727
дем	-10.6732
ическими	-10.6735
▁объявил	-10.6736
▁Mi	-10.6741
ьного	-10.6742
тельный	-10.6747
name	-10.6749
▁материала	-10.6751
▁Мария	-10.6751
▁страну	-10.6753
был	-10.6753
▁подобные	-10.6759
▁Южной	-10.6761
▁огня	-10.6762
ьян	-10.6768
▁####	-10.6774
▁popular	-10.6776
вая	-10.6776
▁машину	-10.6778
▁памятник	-10.6778
клад	-10.678
ists	-10.678
▁следующем	-10.6781
▁окна	-10.6782
▁американский	-10.6788
▁танков	-10.6789
▁картина	-10.6789
▁дав	-10.6789
▁lead	-10.679
▁большинства	-10.679
▁хотели	-10.679
▁Владимира	-10.6794
▁Ko	-10.6799
стрел	-10.6802
▁долг	-10.6803
▁video	-10.6804
▁интересно	-10.6808
▁Син	-10.6811
ving	-10.6812
▁реклам	-10.6817
▁автобус	-10.6817
вет	-10.6819
▁average	-10.682
бал	-10.682
▁карт	-10.6821
▁расстоянии	-10.6823
▁материалы	-10.6824
ителей	-10.6825
ren	-10.6827
▁жизнью	-10.6838
▁ближе	-10.6839
ius	-10.6842
act	-10.6846
▁developed	-10.6847
lock	-10.6848
▁international	-10.6848
▁Павел	-10.6849
▁reported	-10.6853
ств	-10.6857
селен	-10.6858
▁bar	-10.6858
▁хотят	-10.6861
▁риск	-10.6861
ких	-10.6864
▁целях	-10.6865
▁усилия	-10.6866
▁пределах	-10.6868
▁mid	-10.6868
▁напротив	-10.6869
числ	-10.6874
берг	-10.6878
стой	-10.688
▁дали	-10.6883
▁appeared	-10.6887
ума	-10.6888
▁остались	-10.6889
▁разно	-10.6892
▁призван	-10.6893
▁душе	-10.6895
▁офицеров	-10.6898
▁Нам	-10.6899
▁файл	-10.6899
▁field	-10.6899
▁изменений	-10.6899
▁followed	-10.6901
▁Шу	-10.691
Это	-10.6914
▁человеческого	-10.6919
▁максимально	-10.692
▁Sch	-10.6921
▁развитии	-10.6925
сте	-10.6926
set	-10.693
ger	-10.6931
▁мусульман	-10.6932
ide	-10.6933
▁одни	-10.6933
▁известных	-10.6934
▁Бе	-10.6934
пло	-10.6935
▁Сначала	-10.6936
▁играет	-10.6939
%.	-10.6941
▁социальных	-10.6943
▁посмотреть	-10.6943
▁труп	-10.6945
▁открыт	-10.6949
▁собак	-10.695
▁attack	-10.6952
▁Ком	-10.6954
▁горе	-10.6954
▁полном	-10.6958
our	-10.6958
▁инструмент	-10.6958
▁кризис	-10.6959
▁Благодаря	-10.696
▁случилось	-10.696
▁счёт	-10.6964
wi	-10.6966
ология	-10.6966
▁Много	-10.6967
▁h	-10.6967
▁уезда	-10.6973
▁вице	-10.6981
ине	-10.6981
▁волос	-10.6982
▁средней	-10.6985
▁стиле	-10.6988
▁гроз	-10.6989
▁процентов	-10.6989
▁совершил	-10.6989
▁современного	-10.699
▁Гитлер	-10.699
ica	-10.6991
▁Такие	-10.6992
ran	-10.6996
▁living	-10.6996
▁произведений	-10.6997
▁правом	-10.7001
▁пита	-10.7001
▁выполнять	-10.7003
▁решений	-10.7005
▁крупные	-10.7008
br	-10.7009
ался	-10.7009
▁определения	-10.7009
▁Ван	-10.7011
▁капитал	-10.7012
айн	-10.7017
▁ан	-10.702
лить	-10.702
лист	-10.7021
▁степень	-10.7022
▁занят	-10.7023
▁леса	-10.7025
▁fact	-10.7025
▁талант	-10.7027
▁жили	-10.7028
▁голуб	-10.7028
▁старт	-10.7033
фу	-10.7037
шт	-10.7037
ki	-10.7038
▁пытается	-10.7041
▁Сен	-10.7042
▁масштаб	-10.7043
▁действовать	-10.7043
▁причины	-10.7044
▁поражение	-10.7046
▁region	-10.7046
мм	-10.7046
▁мужа	-10.7049
▁университете	-10.705
анию	-10.7053
▁кровь	-10.7056
▁Китай	-10.7057
▁дорогу	-10.7058
ake	-10.7059
▁пространстве	-10.7059
use	-10.706
▁результатов	-10.7061
we	-10.7064
▁способом	-10.7064
казан	-10.7072
▁data	-10.7073
▁far	-10.7073
рю	-10.7077
рабатыва	-10.7079
ску	-10.7081
▁мальчик	-10.7081
▁соответствует	-10.7081
▁вашего	-10.7082
▁Robert	-10.7083
▁растения	-10.7084
ниц	-10.7084
▁доклад	-10.7085
▁связанные	-10.7086
▁пи	-10.7086
han	-10.7089
▁царь	-10.7093
▁делал	-10.7094
▁стоя	-10.7096
шир	-10.7096
▁Кубка	-10.7099
▁se	-10.71
▁неудач	-10.7103
▁этап	-10.7104
lu	-10.7105
▁приказал	-10.7106
▁линия	-10.7107
▁break	-10.7107
душ	-10.7111
очки	-10.7113
▁высоте	-10.7118
▁неоднократно	-10.7119
▁хотите	-10.7119
▁term	-10.7121
▁реке	-10.7126
▁свыше	-10.713
▁Google	-10.713
▁испытания	-10.7133
▁борт	-10.7141
▁Black	-10.7143
ешься	-10.7145
▁бал	-10.7146
▁обще	-10.715
граф	-10.7151
▁письме	-10.7155
▁боли	-10.7156
▁принимает	-10.7158
▁человечества	-10.716
оч	-10.716
евой	-10.7162
▁направление	-10.7171
▁Николая	-10.7171
off	-10.7175
▁объектив	-10.7177
▁банка	-10.7178
ители	-10.7179
руб	-10.7179
бар	-10.718
▁судов	-10.7183
▁стоимость	-10.7186
▁space	-10.7186
▁среднем	-10.7187
▁версия	-10.7188
еев	-10.719
▁остальных	-10.7191
▁Although	-10.7191
▁Or	-10.7192
сан	-10.7196
▁целый	-10.7201
хот	-10.7203
атель	-10.7204
▁операций	-10.7205
▁remained	-10.7208
▁кое	-10.7209
rus	-10.7211
▁масса	-10.7217
▁Рад	-10.7222
▁решить	-10.7229
▁ран	-10.7232
▁связан	-10.7235
▁реальности	-10.7238
▁поколения	-10.724
▁достиг	-10.7241
▁наблюдения	-10.7241
▁грамот	-10.7244
▁Само	-10.7249
▁медаль	-10.7254
▁небо	-10.7256
▁звук	-10.7258
sch	-10.7261
▁посредством	-10.7262
▁нрав	-10.7265
▁Пи	-10.7267
▁Эй	-10.7271
▁rest	-10.7271
▁Ri	-10.7274
▁сумел	-10.7279
▁обязанности	-10.728
▁able	-10.7284
▁сохранить	-10.729
▁демократ	-10.7293
▁x	-10.7294
▁производитель	-10.7296
▁теория	-10.7297
▁лечения	-10.7298
аций	-10.7299
▁upon	-10.7301
емой	-10.7302
hy	-10.7303
▁местного	-10.7303
▁ошибки	-10.7305
▁дуб	-10.7306
▁живут	-10.7307
▁дорога	-10.7308
▁поэта	-10.7311
емого	-10.7316
▁Company	-10.7316
▁занима	-10.7318
▁ответственности	-10.7324
▁станция	-10.7324
строен	-10.7325
qui	-10.7327
▁Ай	-10.7329
▁ощущение	-10.7329
▁Du	-10.7333
▁влияния	-10.7336
▁говорю	-10.7337
▁коллег	-10.7338
▁помогает	-10.7343
▁следующее	-10.7344
▁художника	-10.7345
хват	-10.7351
▁специалистов	-10.7351
ess	-10.7353
▁роз	-10.7353
▁задачу	-10.7354
▁двое	-10.7354
пов	-10.7355
еб	-10.7356
▁орден	-10.7358
▁разработан	-10.7359
▁чай	-10.7362
▁предприятий	-10.7363
▁понимать	-10.7365
▁Дон	-10.7365
▁Mon	-10.7369
▁действ	-10.7373
ируется	-10.7373
gar	-10.7378
лага	-10.7378
▁избежать	-10.7386
жит	-10.7388
▁Олимпийских	-10.7391
доб	-10.7393
тельные	-10.7394
▁последствия	-10.7396
▁наверное	-10.7396
bi	-10.7397
▁оценки	-10.7399
олог	-10.74
ville	-10.74
▁Михайлович	-10.7401
▁заключен	-10.7401
▁director	-10.7402
▁find	-10.7404
▁определяется	-10.7408
▁кладбище	-10.7413
ee	-10.7415
ath	-10.7416
▁статья	-10.7416
cal	-10.7417
▁поставил	-10.7418
▁study	-10.7418
▁внутренней	-10.7419
низ	-10.7419
рож	-10.7422
▁своём	-10.7422
▁написать	-10.7423
▁центром	-10.7424
▁formed	-10.7425
▁нашим	-10.7425
ens	-10.7425
oc	-10.7426
▁помимо	-10.7427
▁сход	-10.7428
▁Тур	-10.7433
▁карьеру	-10.7434
▁узнал	-10.7438
теле	-10.7441
ning	-10.7446
вшимся	-10.7447
овка	-10.7449
▁daughter	-10.7449
▁программу	-10.745
▁нужен	-10.7451
▁Council	-10.7453
▁играх	-10.7453
▁связанных	-10.7456
▁office	-10.7456
ище	-10.7457
лён	-10.7458
▁Сал	-10.7459
▁Джа	-10.7459
▁гон	-10.746
▁Позже	-10.746
▁пришла	-10.7464
▁баб	-10.7466
▁масс	-10.7466
▁суть	-10.7467
▁осуществляется	-10.747
▁сер	-10.7475
полн	-10.7475
▁вышли	-10.7477
▁гос	-10.7478
▁команде	-10.7479
▁служить	-10.7482
▁дивизия	-10.7482
▁police	-10.7483
▁Обычно	-10.7484
▁Mc	-10.7486
▁Ad	-10.7488
лун	-10.749
▁Вид	-10.7493
ял	-10.7494
▁ею	-10.7495
▁региона	-10.7497
они	-10.7499
▁провёл	-10.75
▁Юрий	-10.7501
▁попросил	-10.7502
пел	-10.7502
▁бог	-10.7502
▁пройти	-10.7503
▁style	-10.7505
▁раб	-10.7512
илл	-10.7512
tain	-10.7512
▁Большинство	-10.7513
▁способны	-10.7513
▁строй	-10.7526
▁player	-10.7526
даль	-10.7526
▁battle	-10.7526
▁близ	-10.7528
▁океан	-10.7529
▁устройство	-10.7532
еп	-10.7534
чист	-10.7535
▁size	-10.7537
ns	-10.7538
▁Mac	-10.7538
меш	-10.7539
хим	-10.754
▁городской	-10.7541
▁Court	-10.7547
▁отношениях	-10.7548
▁сумму	-10.7549
▁официально	-10.755
▁российской	-10.7552
▁автоматически	-10.7554
▁Тар	-10.7555
▁event	-10.7556
▁strong	-10.7559
▁двери	-10.7559
гляд	-10.7559
▁славян	-10.7562
прос	-10.7562
Ка	-10.7565
▁рынок	-10.7568
▁Ex	-10.7569
бра	-10.7572
чек	-10.7574
▁ship	-10.7578
▁тесно	-10.7584
▁Cha	-10.7584
▁change	-10.7585
▁available	-10.7587
▁пик	-10.7588
бур	-10.7589
▁всяком	-10.759
▁Roman	-10.7592
▁получается	-10.7593
▁test	-10.7594
▁словом	-10.7595
▁идут	-10.7596
▁солнце	-10.7596
пят	-10.7596
▁зуб	-10.7597
езд	-10.7599
айте	-10.7599
▁следовательно	-10.76
цам	-10.7602
▁внешней	-10.7604
▁Роберт	-10.7605
▁ru	-10.7605
▁бывшего	-10.7606
▁читал	-10.7606
▁здоровья	-10.7606
▁information	-10.7609
▁раст	-10.7613
▁продолжает	-10.7615
lar	-10.7616
▁нужна	-10.7618
изирован	-10.7619
▁качество	-10.7619
▁written	-10.7622
летнего	-10.7624
▁ред	-10.7625
▁татар	-10.7626
▁следующим	-10.7628
▁Paul	-10.7628
▁Центр	-10.7629
▁партий	-10.7632
▁race	-10.7633
енс	-10.7636
щик	-10.7638
▁stated	-10.7639
▁заряд	-10.764
джа	-10.764
енную	-10.7642
▁Cor	-10.7642
▁опубликован	-10.7644
▁независимо	-10.7644
▁ба	-10.7644
ag	-10.7647
▁Однажды	-10.7652
ward	-10.7658
ick	-10.7658
подоб	-10.7659
▁ключ	-10.7659
▁проход	-10.766
▁музыки	-10.7661
▁сеть	-10.7661
щен	-10.7662
▁друзья	-10.7663
▁администрации	-10.7664
▁военный	-10.7666
▁статей	-10.7668
▁вошли	-10.7669
▁работников	-10.7669
▁вопроса	-10.7671
▁четко	-10.7672
Во	-10.7672
▁собственности	-10.7673
иста	-10.7674
▁магнит	-10.7675
▁старший	-10.7675
▁режима	-10.7675
▁голод	-10.7676
▁white	-10.7676
▁Московского	-10.7678
▁человеческой	-10.7679
▁занятия	-10.7679
▁протест	-10.768
▁единственный	-10.768
▁ха	-10.768
▁побед	-10.7682
▁пользователей	-10.7682
▁range	-10.7683
▁температура	-10.7684
▁бор	-10.7685
▁Америке	-10.7688
▁костюм	-10.7691
щую	-10.7695
▁перспектив	-10.7697
▁конструктор	-10.7698
▁судьба	-10.7699
ено	-10.7699
amp	-10.77
▁love	-10.7702
▁соединения	-10.7704
ске	-10.7705
▁берег	-10.7707
очной	-10.771
back	-10.7711
мя	-10.7712
▁реакции	-10.7712
нит	-10.7712
▁Одна	-10.7714
▁sold	-10.7719
▁отказался	-10.7724
▁Indian	-10.7725
▁сан	-10.7726
ап	-10.7728
▁killed	-10.7728
▁ученые	-10.7732
▁неизвестно	-10.7733
▁городах	-10.7734
▁village	-10.7734
▁Гре	-10.7735
ьной	-10.7736
▁душа	-10.7738
▁сме	-10.7741
ведения	-10.7742
Ко	-10.7744
▁советского	-10.7748
ell	-10.775
фф	-10.775
▁low	-10.775
ограф	-10.7751
ik	-10.7752
▁ch	-10.7753
▁выступает	-10.7756
▁вызов	-10.7759
▁base	-10.7763
▁участник	-10.7765
▁классов	-10.7765
АЛ	-10.7768
▁плав	-10.777
▁Париж	-10.7771
▁территорию	-10.7771
▁Кстати	-10.7772
▁сквозь	-10.7773
▁Тре	-10.7774
иф	-10.7774
▁собственного	-10.7775
▁self	-10.7776
▁рассказывает	-10.778
▁Ni	-10.7781
▁секунд	-10.7783
▁Над	-10.7786
▁Меня	-10.7786
▁спец	-10.7787
▁подумал	-10.7788
▁открытия	-10.779
▁Union	-10.779
▁Cup	-10.7791
▁дважды	-10.7793
▁американских	-10.7794
eg	-10.7798
lib	-10.7799
▁type	-10.7804
▁источников	-10.7804
▁черты	-10.7806
▁батальон	-10.7809
▁eventually	-10.7809
▁трудом	-10.781
▁врач	-10.7812
▁всякого	-10.7812
▁If	-10.7813
▁Александрович	-10.7815
▁Pe	-10.7815
резан	-10.7817
▁прибыли	-10.7817
▁законы	-10.7817
▁points	-10.7818
ms	-10.7818
▁явля	-10.7818
▁эпоху	-10.7819
▁En	-10.782
▁местности	-10.7821
▁приход	-10.7821
каз	-10.7823
▁move	-10.7824
▁XVII	-10.7825
▁участок	-10.783
▁отправлен	-10.7833
▁construction	-10.7834
▁международных	-10.7834
▁российского	-10.7837
ему	-10.7838
▁собственных	-10.7843
▁угодно	-10.7845
▁создавать	-10.785
▁бою	-10.7851
ford	-10.7853
▁имена	-10.7855
ative	-10.7856
▁епископ	-10.7856
▁Сын	-10.7857
▁содержания	-10.7857
▁использует	-10.7858
▁проводить	-10.7859
▁каждая	-10.7859
чай	-10.7859
▁минуту	-10.786
▁воздухе	-10.7863
▁signed	-10.7864
▁тест	-10.7865
▁Руси	-10.7865
▁великого	-10.7865
▁Hall	-10.7866
▁Аль	-10.7867
▁недель	-10.7869
▁выбран	-10.787
▁весел	-10.7871
▁картин	-10.7875
▁inter	-10.7875
▁типов	-10.7878
▁общественного	-10.7879
▁Герой	-10.7881
▁назначения	-10.7882
▁посвящен	-10.7885
ику	-10.7886
▁знаний	-10.7889
▁мотор	-10.7892
▁первоначально	-10.7893
▁language	-10.7893
▁going	-10.7894
▁Просто	-10.7895
tu	-10.7895
▁either	-10.7897
▁Group	-10.7897
▁четырёх	-10.7897
▁нерв	-10.79
ьер	-10.7901
защит	-10.7902
▁education	-10.7903
▁Го	-10.7903
uck	-10.7903
▁расход	-10.7904
▁сделан	-10.7904
▁Royal	-10.7909
▁плана	-10.7913
pro	-10.7915
шек	-10.7917
▁стадии	-10.7917
▁КПСС	-10.7921
▁выступил	-10.7921
КА	-10.7925
▁перенос	-10.7928
▁brought	-10.7929
▁оставить	-10.7932
▁верх	-10.7933
▁India	-10.7934
▁началом	-10.7935
▁пассажир	-10.7937
▁установлен	-10.7937
▁ООН	-10.7938
▁Fa	-10.7941
▁выделен	-10.7943
▁"...	-10.7943
▁транс	-10.7947
овом	-10.7948
▁прошли	-10.7953
▁ресурсов	-10.7954
▁need	-10.7955
for	-10.7955
▁стрел	-10.7955
▁скрыт	-10.7956
топ	-10.7959
▁Работа	-10.7964
▁Can	-10.7964
жат	-10.7964
▁применение	-10.7964
▁past	-10.7965
▁половины	-10.7966
▁выборах	-10.797
▁свободу	-10.7971
▁жертв	-10.7973
▁знаете	-10.7975
car	-10.7975
chi	-10.7978
▁развитию	-10.7989
▁сомнения	-10.7989
▁California	-10.799
▁Мил	-10.7991
▁ар	-10.7995
пон	-10.7995
▁использованием	-10.7996
кра	-10.7996
▁немецких	-10.7997
овская	-10.7997
▁разрушен	-10.7999
яз	-10.7999
▁провел	-10.8
▁подготовлен	-10.8002
арт	-10.8002
▁замуж	-10.8003
▁decided	-10.8004
mp	-10.8004
▁карты	-10.8005
▁Несколько	-10.8005
▁попытка	-10.8005
▁храма	-10.8008
линг	-10.8015
ирован	-10.8015
▁минуты	-10.8017
▁got	-10.8018
ug	-10.802
▁национального	-10.802
▁отвечает	-10.802
▁общее	-10.802
▁You	-10.8021
▁собрания	-10.8022
▁r	-10.8023
▁сцене	-10.8025
▁газа	-10.8028
ьи	-10.8028
▁training	-10.8031
▁read	-10.8032
меча	-10.8033
▁верно	-10.8035
▁throughout	-10.8037
▁behind	-10.8039
▁плот	-10.8039
▁би	-10.8042
▁бригады	-10.8043
▁rather	-10.8045
ивший	-10.8045
ight	-10.8049
▁легче	-10.8052
▁рок	-10.8052
▁наступление	-10.8053
cent	-10.8053
▁Св	-10.8053
▁ворота	-10.8054
ницей	-10.8056
▁Wi	-10.8057
▁Первые	-10.8057
▁Первой	-10.8057
груз	-10.8058
▁смысла	-10.8058
▁творчества	-10.8059
▁вижу	-10.806
▁отдыха	-10.806
▁многом	-10.8063
Со	-10.8064
эм	-10.8067
очного	-10.8072
▁Europe	-10.8072
нима	-10.8073
ins	-10.8074
имся	-10.8076
▁эпизод	-10.8076
▁родители	-10.8077
▁стремление	-10.8077
▁слышал	-10.808
▁называли	-10.808
▁David	-10.8085
▁Китае	-10.8087
Что	-10.8088
▁Пусть	-10.809
ование	-10.8102
▁Ge	-10.8106
▁фин	-10.8107
▁мясо	-10.8108
нец	-10.8111
▁арест	-10.8114
▁рекорд	-10.8115
ok	-10.8115
▁потеря	-10.8118
мут	-10.8118
▁основу	-10.8123
▁принят	-10.8123
▁сильнее	-10.8123
▁species	-10.8123
▁заявление	-10.8124
▁дорог	-10.8128
▁Division	-10.8128
▁проблему	-10.8131
▁училище	-10.8133
рав	-10.8134
это	-10.8135
▁j	-10.8144
▁массив	-10.8147
▁привело	-10.8149
▁possible	-10.8153
▁существу	-10.8154
▁Петров	-10.8155
▁China	-10.8158
▁процессы	-10.816
▁almost	-10.8162
▁душу	-10.8162
ейн	-10.8163
▁выступления	-10.8164
▁Васильевич	-10.8165
печат	-10.8166
▁Земле	-10.8167
ковский	-10.8169
▁позицию	-10.8172
▁устав	-10.8172
▁аль	-10.8172
▁герои	-10.8173
▁арестован	-10.8175
cha	-10.8175
▁Такое	-10.8176
rd	-10.8177
▁функций	-10.8184
▁среде	-10.8187
▁Am	-10.8187
▁полный	-10.819
▁прямой	-10.8191
▁поверхность	-10.8192
mi	-10.8192
▁руководитель	-10.8194
метр	-10.8194
▁встречается	-10.8194
▁био	-10.8195
▁least	-10.8197
pl	-10.8199
▁являлся	-10.8201
▁базы	-10.8202
In	-10.8203
▁сказано	-10.8204
▁банк	-10.8204
эк	-10.8205
▁изучения	-10.8206
▁встречаются	-10.8208
▁health	-10.8208
▁involved	-10.8213
▁фонд	-10.8214
бек	-10.8215
тика	-10.8216
▁психолог	-10.8218
▁уезд	-10.8222
▁кожи	-10.8222
▁soon	-10.8223
жил	-10.8227
а́	-10.8228
▁завтра	-10.8234
▁services	-10.8235
▁директора	-10.8236
пет	-10.8237
арь	-10.8237
▁Святого	-10.8237
▁face	-10.8239
Если	-10.8239
▁Кал	-10.824
цией	-10.824
▁Party	-10.8242
изу	-10.8242
▁provided	-10.8243
тек	-10.8243
▁понимал	-10.8244
▁чемпион	-10.8245
▁желания	-10.8246
cr	-10.8249
▁понимание	-10.825
▁помню	-10.8251
▁золото	-10.8252
глядыва	-10.8253
мель	-10.8254
вил	-10.8254
▁Президент	-10.8255
▁сверху	-10.8255
▁среднего	-10.8263
▁зато	-10.8265
сона	-10.8266
▁действует	-10.8266
▁сервер	-10.8266
▁влиянием	-10.8267
▁model	-10.8269
well	-10.8274
▁Вар	-10.8275
▁железной	-10.8275
▁ground	-10.8277
▁events	-10.8285
▁Pre	-10.8287
▁заметно	-10.829
▁recorded	-10.8292
▁опор	-10.8292
▁подписан	-10.8294
созна	-10.8295
▁force	-10.83
%)	-10.8301
эл	-10.8303
▁получив	-10.8305
▁количестве	-10.8305
▁Bi	-10.8307
▁отделение	-10.8308
чан	-10.8308
вшее	-10.8308
▁поражения	-10.8314
▁голосов	-10.8314
▁Кир	-10.8314
▁Гос	-10.8318
ile	-10.8319
▁народного	-10.8322
▁don	-10.8323
▁сельскохозяйств	-10.8323
▁Чи	-10.8323
▁зале	-10.8323
▁Ver	-10.8324
▁Максим	-10.8329
▁стан	-10.833
аф	-10.8333
НО	-10.8334
ual	-10.8335
▁Ja	-10.8336
▁конструкции	-10.8337
▁Май	-10.8338
▁дворян	-10.8339
▁успел	-10.834
▁переговоры	-10.8342
ела	-10.8342
▁забил	-10.8343
скор	-10.8344
▁политика	-10.8347
▁древних	-10.8347
НИ	-10.8349
ота	-10.835
▁корон	-10.835
▁Такой	-10.8351
ever	-10.8355
▁школ	-10.836
▁фирмы	-10.836
▁person	-10.8361
▁торговли	-10.8361
▁понимаю	-10.8363
▁делам	-10.8366
▁знач	-10.8366
▁борьбу	-10.8367
▁искусств	-10.8368
▁"«	-10.8369
▁жар	-10.8372
лич	-10.8372
▁возврат	-10.8372
▁ритм	-10.8374
▁объём	-10.8375
▁center	-10.8375
▁novel	-10.8375
▁выражение	-10.8378
▁страна	-10.838
пр	-10.8381
▁рабочего	-10.8383
тона	-10.8386
▁мнения	-10.8386
жда	-10.8387
▁Хан	-10.8388
▁might	-10.8388
▁рано	-10.8388
▁performance	-10.8389
▁тема	-10.839
▁борьба	-10.8395
▁высшей	-10.8397
свет	-10.8402
▁вторая	-10.8402
▁Крым	-10.8405
пил	-10.8406
▁частиц	-10.8409
▁ученых	-10.8413
▁цены	-10.8414
ino	-10.8415
▁писателей	-10.8416
▁удач	-10.8423
▁разряд	-10.8424
▁отлича	-10.8426
▁нравится	-10.843
▁духа	-10.843
▁трав	-10.8432
аются	-10.8433
▁острове	-10.8436
▁продолжил	-10.8437
зон	-10.8437
▁Гол	-10.8437
▁способен	-10.8438
жига	-10.8439
▁печати	-10.844
▁track	-10.8441
чит	-10.8443
▁составляют	-10.8444
▁председателя	-10.8444
▁Член	-10.8448
нулся	-10.8448
▁дипломат	-10.845
голов	-10.8451
▁АН	-10.8454
▁расчет	-10.8455
РА	-10.8456
hu	-10.8458
▁deal	-10.8459
▁слегка	-10.846
жение	-10.846
▁поли	-10.8461
▁русском	-10.8463
tr	-10.8463
▁многое	-10.8465
har	-10.8465
ющегося	-10.847
▁маршрут	-10.8477
▁получают	-10.8477
▁берега	-10.848
▁тихо	-10.8481
гра	-10.8481
▁Китая	-10.8481
nes	-10.8482
без	-10.8482
▁Сар	-10.8482
av	-10.8483
low	-10.8484
▁воздействия	-10.8486
▁пошли	-10.8486
вали	-10.8487
фт	-10.8487
чив	-10.8489
cy	-10.8491
▁оборудования	-10.8492
▁альбом	-10.8494
▁Чер	-10.8494
▁фронте	-10.8496
▁убит	-10.8499
▁сопротивление	-10.8502
кус	-10.8507
ious	-10.8507
▁собственные	-10.8508
▁опасности	-10.8509
▁Ху	-10.8511
▁масла	-10.8512
▁VI	-10.8513
▁музея	-10.8513
щем	-10.8514
нар	-10.8516
▁Ур	-10.8516
АР	-10.8517
▁смерт	-10.8518
▁изображение	-10.8519
▁герцог	-10.852
▁часы	-10.852
▁представлял	-10.852
чиков	-10.8521
вые	-10.8522
▁пакет	-10.8524
▁МОСКВА	-10.8526
▁мил	-10.8526
потреб	-10.8528
▁немцев	-10.8532
▁намного	-10.8535
▁Australia	-10.8535
▁переписи	-10.8536
▁планеты	-10.8539
▁методов	-10.8539
▁итогам	-10.8539
▁режиме	-10.8541
▁выгод	-10.8541
▁торжеств	-10.8542
▁проектов	-10.8542
▁episode	-10.8542
держан	-10.8544
▁дворе	-10.8545
▁представил	-10.8548
▁Сил	-10.8549
▁полное	-10.8549
▁выиграл	-10.8551
▁найден	-10.8551
▁Great	-10.8552
▁самих	-10.8553
▁парламент	-10.8554
▁дер	-10.8554
▁штраф	-10.8554
тельная	-10.8554
ua	-10.8555
▁работой	-10.8557
▁Христа	-10.8557
▁каждому	-10.8559
▁лидер	-10.856
▁возможностей	-10.8562
▁Ак	-10.8565
▁определение	-10.8569
▁Тай	-10.8571
сил	-10.8572
▁экипаж	-10.8574
▁stage	-10.8576
▁Константин	-10.8577
▁продукт	-10.8577
▁Прежде	-10.8578
Он	-10.8578
▁Мол	-10.8581
ложен	-10.8583
▁руководства	-10.8587
рид	-10.8587
▁groups	-10.8588
тес	-10.8589
▁отдал	-10.8591
▁интересы	-10.8591
▁формирования	-10.8592
▁культур	-10.8592
▁writing	-10.8593
фо	-10.8593
сот	-10.8594
▁Академии	-10.8595
оне	-10.8596
цит	-10.8597
ийский	-10.8606
▁Germany	-10.8607
Re	-10.8608
▁социал	-10.861
▁Paris	-10.861
иц	-10.8611
▁любил	-10.8613
▁районах	-10.8615
▁картину	-10.8616
▁использовал	-10.8616
ИН	-10.8619
tin	-10.862
▁входят	-10.8623
▁чувствовал	-10.8626
▁туман	-10.8626
▁network	-10.8629
▁известен	-10.8635
слав	-10.8636
▁ад	-10.8636
▁цел	-10.8639
▁делом	-10.8641
▁французский	-10.8641
берт	-10.8642
ny	-10.8643
▁законодательств	-10.8645
▁морской	-10.8646
нской	-10.865
▁Анна	-10.8652
▁appointed	-10.8653
▁God	-10.8654
▁Mal	-10.8654
▁отлично	-10.8658
▁Западной	-10.8662
▁темы	-10.8665
инф	-10.8665
▁зал	-10.8666
▁автомобиля	-10.8666
совет	-10.8668
▁всякий	-10.867
чных	-10.8671
▁Джо	-10.8672
▁депутатов	-10.8676
ительные	-10.8677
▁имеются	-10.8677
пт	-10.868
ker	-10.868
бран	-10.8681
▁Тан	-10.8684
▁performed	-10.8684
▁никого	-10.8685
▁подписал	-10.8686
▁строя	-10.8686
▁звезды	-10.8687
▁сущности	-10.8688
▁leading	-10.869
веден	-10.8691
▁Фе	-10.8691
евский	-10.8692
▁исследование	-10.8692
нис	-10.8694
ize	-10.8696
▁праздник	-10.8696
▁программе	-10.8698
▁поставлен	-10.8699
шко	-10.8702
▁идею	-10.8705
▁command	-10.8706
▁ранен	-10.8707
ass	-10.8709
▁высокого	-10.8709
состоя	-10.8714
▁сей	-10.8715
▁последовательно	-10.8718
▁сказали	-10.8721
▁рек	-10.8721
нных	-10.8722
▁передать	-10.8725
план	-10.8726
air	-10.8726
▁Два	-10.8726
▁Эль	-10.8728
▁оттуда	-10.873
▁едино	-10.8733
▁разумеется	-10.8733
▁рассказывал	-10.8736
▁Sp	-10.8736
▁издания	-10.8739
▁Вал	-10.874
действ	-10.8742
▁Одно	-10.8742
▁Charles	-10.8745
▁Star	-10.8749
▁fight	-10.875
▁собор	-10.875
дорож	-10.8751
чика	-10.8754
сол	-10.8756
несли	-10.876
▁единственным	-10.8761
важ	-10.8762
▁законом	-10.8762
ностей	-10.8763
ради	-10.8763
▁completed	-10.8766
len	-10.8767
.[	-10.8768
▁function	-10.8768
▁Путин	-10.877
▁английский	-10.877
▁Фу	-10.8772
▁sh	-10.8774
нский	-10.8774
▁дис	-10.8777
▁provide	-10.8778
класс	-10.878
▁money	-10.878
▁уме	-10.8781
▁считали	-10.8782
▁шут	-10.8782
ини	-10.8782
▁цифр	-10.8783
▁обучение	-10.8783
ev	-10.8784
▁лучшим	-10.8784
▁свод	-10.8786
▁отдельно	-10.8786
▁нормально	-10.8787
мол	-10.8788
▁Пример	-10.8794
▁соль	-10.8796
▁мяч	-10.8797
движ	-10.8797
▁меч	-10.8801
аш	-10.8803
▁неизбежно	-10.8807
▁поворот	-10.8809
▁серьезно	-10.8809
▁никому	-10.881
тические	-10.8811
▁decision	-10.8811
есть	-10.8814
▁конференции	-10.8815
лли	-10.8817
IN	-10.8817
гал	-10.8817
▁очередной	-10.8819
кос	-10.882
▁комплекса	-10.8825
▁состоянию	-10.8826
▁используя	-10.8827
iz	-10.8828
▁научной	-10.8829
▁полного	-10.8829
▁outside	-10.8829
град	-10.8829
▁seven	-10.8829
▁изначально	-10.883
▁гибели	-10.8831
▁явление	-10.8831
▁ad	-10.8833
▁кавалер	-10.8833
▁Северо	-10.8835
▁Ев	-10.8835
▁опасность	-10.8836
▁прогноз	-10.8837
Йорк	-10.8838
▁комнате	-10.8838
▁ветер	-10.8839
▁длиной	-10.8841
▁ждать	-10.8843
гла	-10.8844
▁продолжительн	-10.8844
▁hard	-10.8846
▁технологий	-10.8847
▁находилась	-10.8848
▁устройств	-10.8849
!)	-10.8849
▁медали	-10.8849
культур	-10.8849
▁боях	-10.885
▁семейства	-10.8851
ore	-10.8852
цин	-10.8852
pi	-10.8859
▁многочисленные	-10.8862
▁election	-10.8863
▁героев	-10.8864
аты	-10.8865
истор	-10.8866
▁взаимодействия	-10.8867
▁XVI	-10.8869
иг	-10.887
tan	-10.8871
▁другому	-10.8871
▁вчера	-10.8873
▁бесконечно	-10.8874
▁открыто	-10.8874
▁орденом	-10.8875
▁перешёл	-10.8875
ory	-10.8877
▁запад	-10.8878
▁днем	-10.8878
▁красно	-10.8881
ируем	-10.8883
▁Причем	-10.8883
жела	-10.8886
▁Новый	-10.8887
▁зоны	-10.8887
Все	-10.8887
▁дерево	-10.8888
▁instead	-10.8889
▁television	-10.889
нт	-10.8891
▁пилот	-10.8893
▁Center	-10.8893
▁религии	-10.8897
▁выполнение	-10.89
вшаяся	-10.8906
▁футбол	-10.891
ari	-10.8911
вай	-10.8911
▁мама	-10.8912
▁road	-10.8912
▁живот	-10.8917
телю	-10.8922
▁получать	-10.8926
▁ever	-10.8926
▁проще	-10.8927
▁изменение	-10.8929
▁собаки	-10.893
▁лейтенант	-10.8931
▁удобно	-10.8933
▁Оста	-10.8935
▁Вместо	-10.8935
▁Green	-10.8937
общ	-10.8937
str	-10.8938
▁палат	-10.8938
▁конечном	-10.8939
▁альтернатив	-10.8941
фин	-10.8941
▁вечера	-10.8941
шеств	-10.8941
ическому	-10.8942
▁Тол	-10.8943
▁current	-10.8944
▁подразделения	-10.8947
▁внимательно	-10.8952
▁ваше	-10.8955
▁поздно	-10.8957
▁функция	-10.8958
▁brother	-10.8961
▁Ген	-10.8962
▁et	-10.8966
▁араб	-10.8967
▁квадрат	-10.8971
▁задержан	-10.8971
▁законов	-10.8972
▁общий	-10.8973
До	-10.8974
▁распространение	-10.8976
▁средство	-10.8977
▁пользоваться	-10.8978
▁хвост	-10.8978
ov	-10.898
▁вряд	-10.8982
▁finished	-10.8984
▁Other	-10.8984
▁указывает	-10.8984
▁west	-10.8984
▁action	-10.8985
очек	-10.8986
▁That	-10.8988
▁Бат	-10.8989
▁миллиона	-10.899
ade	-10.8993
▁Отец	-10.8998
▁east	-10.9
▁благород	-10.9003
▁объекты	-10.9004
▁идеолог	-10.9004
▁added	-10.9006
стями	-10.9006
ори	-10.9006
▁host	-10.9007
нюю	-10.901
▁штата	-10.901
king	-10.9011
▁list	-10.9011
▁навсегда	-10.9015
▁пунктов	-10.9016
ack	-10.902
und	-10.9026
▁Часть	-10.9028
▁общим	-10.9032
инд	-10.9033
▁осад	-10.9034
ae	-10.9034
▁already	-10.9037
▁Королев	-10.9037
▁песен	-10.9038
▁любим	-10.9038
ея	-10.9038
▁слеп	-10.9039
▁дым	-10.9043
▁занимал	-10.9044
▁пояс	-10.9046
хов	-10.9047
▁немцы	-10.9048
мб	-10.9048
▁Ад	-10.905
▁издание	-10.9051
▁наука	-10.9054
▁корабли	-10.9054
▁Fe	-10.9055
▁волны	-10.9056
чный	-10.9059
▁порой	-10.9063
ико	-10.9063
▁Ответ	-10.9068
▁свойств	-10.9069
▁канала	-10.9069
▁реша	-10.907
▁Art	-10.9071
▁регистр	-10.9071
шн	-10.9074
оцен	-10.9076
▁встрече	-10.9076
▁товарищ	-10.9077
▁states	-10.9077
плав	-10.9079
▁масло	-10.908
иан	-10.9082
арк	-10.9088
▁непрерывно	-10.9088
▁топ	-10.9089
орт	-10.9089
СК	-10.9093
ast	-10.9093
талкива	-10.9096
▁продаж	-10.9097
ear	-10.9103
били	-10.9106
▁высоты	-10.9107
раста	-10.9108
вис	-10.9108
▁театре	-10.9108
▁Петрович	-10.911
▁кода	-10.9111
▁asked	-10.9112
▁адвокат	-10.9113
▁клин	-10.9113
лёт	-10.9113
станов	-10.9116
▁матч	-10.9117
▁вещь	-10.9119
▁board	-10.912
▁sea	-10.912
учи	-10.9122
▁имея	-10.9123
оса	-10.9123
мена	-10.9124
▁новом	-10.9124
▁access	-10.9124
рек	-10.9125
▁продукты	-10.9125
▁прошел	-10.9126
▁метода	-10.9129
▁Антон	-10.913
▁голова	-10.9132
ице	-10.9132
▁работали	-10.9133
▁Запад	-10.9134
▁w	-10.9135
▁trade	-10.9135
тем	-10.9139
тир	-10.914
▁получен	-10.9141
▁армян	-10.9141
▁Washington	-10.9142
ons	-10.9145
▁появления	-10.9146
▁вирус	-10.9148
▁Суд	-10.9149
▁Лен	-10.915
▁поэзии	-10.915
▁запрос	-10.9152
▁американской	-10.9156
▁Кра	-10.9157
▁второе	-10.9157
▁Ивана	-10.9159
▁экран	-10.916
▁told	-10.916
▁общественных	-10.9162
▁Association	-10.9163
инга	-10.9168
▁Крас	-10.9169
▁общения	-10.917
▁расстояние	-10.9171
рош	-10.9171
▁Canada	-10.9176
▁признать	-10.9176
вей	-10.9178
ral	-10.9178
▁пуст	-10.918
жд	-10.9181
▁предлагает	-10.9182
ительный	-10.9183
▁купить	-10.9183
ании	-10.9184
▁клетки	-10.9184
▁сравнительно	-10.9185
▁пос	-10.9187
▁тверд	-10.9188
▁create	-10.9189
▁счастье	-10.9194
▁allowed	-10.9194
▁обнаружен	-10.9194
▁Japanese	-10.9195
▁монет	-10.9195
▁уровнем	-10.9195
▁причинам	-10.9196
АН	-10.9197
▁воли	-10.9198
▁rights	-10.9199
▁провод	-10.9199
▁itself	-10.92
▁собрать	-10.9201
▁контр	-10.9204
▁Si	-10.9204
can	-10.9205
▁авторов	-10.9206
нен	-10.9207
нув	-10.9209
ыш	-10.921
▁прогресс	-10.9212
зелен	-10.9212
▁суток	-10.9216
▁Шар	-10.9217
ющаяся	-10.9218
▁White	-10.922
light	-10.922
▁Ник	-10.922
▁report	-10.9221
▁состоялась	-10.9222
юн	-10.9224
Ме	-10.9224
дат	-10.9224
▁экономической	-10.9224
народ	-10.9225
▁поиска	-10.9227
▁вооружен	-10.9228
kin	-10.923
▁мышц	-10.9231
▁playing	-10.9234
ks	-10.9235
рь	-10.9236
▁Ок	-10.9238
▁цветов	-10.9243
тя	-10.9244
Ба	-10.9245
▁необходимые	-10.9245
веща	-10.9246
bl	-10.9246
пс	-10.9249
ложение	-10.9251
▁goal	-10.9251
▁вопросу	-10.9254
▁radio	-10.9254
▁появляются	-10.9256
▁опубликовал	-10.9256
gg	-10.9257
▁relationship	-10.9259
▁женой	-10.9259
▁мероприятия	-10.9259
▁imp	-10.926
▁coach	-10.9261
▁выбора	-10.9263
сты	-10.9264
▁Кан	-10.9267
▁импульс	-10.9268
▁media	-10.9271
▁нежели	-10.9271
▁Sal	-10.9271
ction	-10.9273
воен	-10.9274
чные	-10.9275
▁вечно	-10.9277
▁increase	-10.9278
▁моим	-10.9281
▁designed	-10.9281
американ	-10.9281
nce	-10.9282
▁желез	-10.9284
▁обшир	-10.9285
▁text	-10.9286
лива	-10.9288
▁поезд	-10.9289
▁приятно	-10.9289
▁Hill	-10.929
▁Ju	-10.9291
▁астроном	-10.9291
▁Chinese	-10.9291
▁дебютировал	-10.9292
нную	-10.9292
ji	-10.9294
▁студентов	-10.9295
учить	-10.9298
▁суб	-10.93
ix	-10.9303
нат	-10.9306
▁позволяют	-10.9308
верх	-10.9314
▁будете	-10.9315
▁полета	-10.9316
тянут	-10.9317
▁Воз	-10.9319
сек	-10.932
иса	-10.9321
▁Ах	-10.9321
▁учреждения	-10.9323
▁child	-10.9323
▁планы	-10.9325
росс	-10.9325
▁Всё	-10.9326
▁составлен	-10.9327
▁наклон	-10.9328
▁посёлок	-10.9331
▁First	-10.9332
"?	-10.9333
▁голоса	-10.9334
▁собака	-10.9335
▁miles	-10.9336
ring	-10.9338
▁точку	-10.9341
▁Кас	-10.9344
▁живых	-10.9344
▁отказаться	-10.9345
▁Кри	-10.9346
водит	-10.9347
▁встал	-10.9347
▁сложности	-10.9353
ition	-10.9353
бед	-10.9354
»;	-10.9354
▁разведки	-10.9354
▁оригинальн	-10.9356
пат	-10.936
▁руководителя	-10.9362
▁восьми	-10.9364
зен	-10.9369
▁пласт	-10.937
▁Te	-10.937
▁решительно	-10.9372
▁покинул	-10.9373
ставлен	-10.9373
▁жир	-10.9375
▁средствами	-10.9376
▁Russian	-10.9376
▁Леонид	-10.9376
▁view	-10.9376
▁выборов	-10.938
▁проч	-10.9382
▁Гра	-10.9382
bb	-10.9383
▁economic	-10.9383
▁См	-10.9385
mark	-10.9387
▁атаки	-10.9388
▁reached	-10.9388
▁командованием	-10.9395
рес	-10.9397
▁МВД	-10.9397
▁Фил	-10.9398
▁произведение	-10.9398
▁орудий	-10.9398
▁usually	-10.9399
▁кристалл	-10.9401
▁des	-10.9402
ленд	-10.9402
▁основным	-10.9403
▁юге	-10.9404
▁пункта	-10.9405
▁бумаги	-10.9406
▁бизнеса	-10.9407
▁газет	-10.9407
▁призыв	-10.9407
тик	-10.9408
▁конфликта	-10.9411
▁official	-10.9415
▁стиль	-10.9415
▁хватает	-10.9416
▁гражданской	-10.9416
боль	-10.9417
▁связана	-10.9417
▁пу	-10.9417
▁эксперимент	-10.9418
▁сцен	-10.9419
энд	-10.9426
▁предметы	-10.9427
лина	-10.9427
▁countries	-10.9427
▁смотрел	-10.9427
чики	-10.9428
▁сон	-10.9429
свобод	-10.943
▁Бр	-10.9432
▁Ши	-10.9436
▁НА	-10.9437
▁редактор	-10.9438
▁Пушкина	-10.9438
сим	-10.9438
▁газета	-10.9438
▁Впервые	-10.9442
▁евро	-10.9442
бож	-10.9443
▁проверки	-10.9444
▁pay	-10.9445
▁магазин	-10.9446
▁market	-10.9449
▁стимул	-10.9452
тики	-10.9454
▁несомненно	-10.9457
▁лап	-10.9457
▁give	-10.9457
▁гигант	-10.9459
ивать	-10.9461
▁better	-10.9461
▁расположены	-10.9462
▁tour	-10.9463
▁формул	-10.9464
▁направля	-10.9468
▁супер	-10.9469
▁зла	-10.9469
жать	-10.9472
▁eight	-10.9473
ающий	-10.9473
▁везде	-10.9473
▁феномен	-10.9474
актив	-10.9475
▁особ	-10.9478
сет	-10.9478
вшую	-10.9478
▁немецкий	-10.9478
слу	-10.9479
▁week	-10.9481
ИТ	-10.9489
▁плюс	-10.9489
▁дат	-10.9492
▁обстоятельства	-10.9492
▁душ	-10.9493
▁plan	-10.9495
▁Christian	-10.9495
▁график	-10.9497
▁известны	-10.9498
▁монастыря	-10.9502
ково	-10.9503
▁послал	-10.9503
▁Одним	-10.9504
▁груз	-10.9505
нок	-10.9505
▁room	-10.9506
▁демон	-10.9508
бат	-10.9509
▁отряда	-10.951
▁показали	-10.9511
▁Свет	-10.9513
▁системой	-10.9515
шев	-10.9515
гн	-10.9516
▁союза	-10.9518
▁куб	-10.9518
▁ор	-10.9521
▁полезно	-10.9524
▁turn	-10.9525
form	-10.9526
▁Ранее	-10.9527
▁песня	-10.9528
unt	-10.9529
▁тепл	-10.9529
▁president	-10.953
▁Ti	-10.9531
ОН	-10.9531
запад	-10.9533
▁Юр	-10.9537
▁запись	-10.954
▁архитектор	-10.954
▁груди	-10.954
▁крут	-10.9544
▁налогов	-10.9546
▁бег	-10.9552
▁открытие	-10.9553
▁утверждает	-10.9556
▁швед	-10.9556
▁приведен	-10.9557
▁таинств	-10.9557
▁операция	-10.9559
▁понят	-10.956
министр	-10.9561
бир	-10.9563
▁Road	-10.9564
▁группой	-10.9564
sis	-10.9565
▁here	-10.957
▁aircraft	-10.957
▁сутки	-10.9571
▁огромное	-10.9571
▁международного	-10.9572
ича	-10.9573
▁Un	-10.9577
▁стат	-10.9578
▁погибли	-10.9579
▁am	-10.958
▁пытались	-10.9581
▁помог	-10.9583
ани	-10.9586
▁Олег	-10.9586
▁river	-10.9587
▁фи	-10.9587
носит	-10.9588
кры	-10.9588
▁атаку	-10.9588
▁Первым	-10.9589
▁общественной	-10.959
пущен	-10.9591
дач	-10.9591
▁Мед	-10.9591
▁культура	-10.9597
▁секс	-10.9597
▁сборную	-10.9599
▁Peter	-10.96
▁заключения	-10.9601
▁огне	-10.9602
бри	-10.9604
▁великий	-10.9604
▁уехал	-10.9604
ром	-10.9605
ou	-10.9607
▁СС	-10.9608
▁теми	-10.9608
▁детали	-10.9609
▁du	-10.9612
РЕ	-10.9612
▁army	-10.9612
▁давление	-10.9613
▁Сто	-10.9617
▁десант	-10.9623
чёт	-10.9628
▁клиент	-10.9629
▁настоящий	-10.9629
▁горизонт	-10.963
▁креп	-10.9633
▁пожалуй	-10.9633
оны	-10.9634
▁утверждал	-10.9638
▁состоялся	-10.9639
▁приз	-10.964
bin	-10.964
▁прошла	-10.964
▁игрок	-10.9641
▁престол	-10.9641
▁создает	-10.9641
▁предметов	-10.9643
▁сторона	-10.9645
ris	-10.9646
уча	-10.9646
имен	-10.9647
▁услуги	-10.9647
▁think	-10.9648
▁образа	-10.9649
▁always	-10.965
унд	-10.965
▁лежа	-10.9652
▁камен	-10.9652
▁протокол	-10.9653
▁убийства	-10.9655
▁previous	-10.9658
▁Thomas	-10.9659
tt	-10.9661
закон	-10.9662
▁оста	-10.9663
▁schools	-10.9664
let	-10.9665
ern	-10.9666
лоп	-10.9668
▁приехал	-10.9669
ницу	-10.967
ski	-10.9676
▁прошло	-10.9679
ТО	-10.968
▁Основные	-10.9683
▁позволит	-10.9683
▁разрешения	-10.9684
▁зоне	-10.9685
▁утро	-10.9687
▁давать	-10.9688
▁рассказать	-10.9688
пла	-10.9689
▁имущества	-10.969
▁веб	-10.9691
прям	-10.9694
▁мар	-10.9695
друг	-10.9695
▁духов	-10.9697
▁впрочем	-10.9698
есс	-10.97
▁hit	-10.9701
▁required	-10.9703
house	-10.9706
▁скоростью	-10.9706
ложения	-10.9708
▁жест	-10.971
▁Times	-10.9711
▁поможет	-10.9713
▁взрыва	-10.9715
▁replaced	-10.9716
▁ул	-10.9717
▁PS	-10.9717
▁кат	-10.9719
▁пищи	-10.9723
▁Super	-10.9724
▁защиту	-10.9726
▁рассказа	-10.9726
▁Код	-10.9727
▁делали	-10.9728
▁future	-10.9728
▁План	-10.9729
▁секретарь	-10.9731
инской	-10.9733
▁ответа	-10.9734
▁аналог	-10.9739
▁Большой	-10.9741
▁обработки	-10.9743
▁металл	-10.9744
▁ежегодно	-10.9745
▁слуша	-10.9746
▁Ум	-10.9747
▁принципе	-10.9747
▁личность	-10.9751
АЗ	-10.9751
иды	-10.9752
▁Tri	-10.9757
▁мета	-10.9758
▁пен	-10.9758
▁выбрать	-10.9758
шли	-10.9761
▁признал	-10.9762
▁сборник	-10.9763
герман	-10.9766
▁Игорь	-10.977
брон	-10.9775
▁температуры	-10.9777
лат	-10.9777
▁лук	-10.9779
ets	-10.9783
▁Har	-10.9784
hal	-10.9784
▁Sc	-10.9785
▁парк	-10.9785
▁оставался	-10.9786
▁lower	-10.9787
▁скажем	-10.9787
сия	-10.9788
▁привет	-10.979
иб	-10.979
▁регион	-10.979
▁founded	-10.9792
▁старых	-10.9794
ично	-10.9794
▁цивилизации	-10.9794
▁обман	-10.9796
("	-10.9798
▁подвиг	-10.9803
ister	-10.9804
▁двигатель	-10.9804
▁отвечал	-10.9804
▁столб	-10.9807
▁повтор	-10.9811
ящих	-10.9815
▁above	-10.9816
rum	-10.9817
▁рассматривать	-10.9817
▁чувствует	-10.9818
▁экспедиции	-10.9821
▁sound	-10.9823
сопровожда	-10.9824
для	-10.9825
▁пьян	-10.9827
▁крепости	-10.9828
сар	-10.9828
соб	-10.9829
АТ	-10.9829
▁Mor	-10.9832
▁мечта	-10.9833
ock	-10.9833
▁кадров	-10.9833
▁Вос	-10.9834
▁ценности	-10.9836
▁featured	-10.9836
my	-10.9839
▁столетия	-10.984
row	-10.9841
▁диалог	-10.9842
очная	-10.9843
</	-10.9844
ID	-10.9844
▁мышления	-10.9844
▁эпи	-10.9846
▁Мен	-10.9847
▁Стр	-10.9849
▁taking	-10.9851
▁Фи	-10.9851
▁стояли	-10.9852
▁окно	-10.9853
оциалистического	-10.9853
▁food	-10.9853
▁привык	-10.9853
▁определяет	-10.9856
▁Сол	-10.9858
▁границу	-10.9858
▁UK	-10.986
nt	-10.9861
head	-10.9861
▁interest	-10.9861
▁Мой	-10.9862
fer	-10.9862
доволь	-10.9864
пуск	-10.9864
▁детьми	-10.9865
▁встретил	-10.9868
▁размере	-10.9869
▁ракеты	-10.9869
▁вел	-10.987
▁Лес	-10.9871
▁выразил	-10.9871
если	-10.9875
▁американского	-10.9875
AR	-10.9879
МА	-10.9881
▁охраны	-10.9881
▁среду	-10.9882
▁тайны	-10.9883
▁movement	-10.9886
▁выражения	-10.9888
▁Bay	-10.989
▁учителя	-10.989
▁центральной	-10.9892
▁возникают	-10.9893
▁метро	-10.9896
▁сидел	-10.9896
▁объявлен	-10.9898
▁серий	-10.9899
спе	-10.99
дея	-10.99
▁непри	-10.9901
дес	-10.9902
▁whose	-10.9903
▁Day	-10.9904
▁созда	-10.9906
so	-10.9906
▁подобного	-10.9908
▁последним	-10.9908
▁course	-10.991
mm	-10.991
емая	-10.9913
▁транспорта	-10.9914
як	-10.9916
▁call	-10.9917
dr	-10.9918
бег	-10.992
▁introduced	-10.9923
чку	-10.9923
▁Кап	-10.9923
▁Греции	-10.9924
▁свободно	-10.9929
▁стоят	-10.9931
▁третьего	-10.9932
▁обратился	-10.9932
▁Ab	-10.9934
▁произведен	-10.9939
▁Мало	-10.9939
qu	-10.9941
▁севере	-10.9943
▁обед	-10.9945
▁диалект	-10.9949
▁профессионально	-10.9952
▁Since	-10.9961
▁Советской	-10.9961
▁TV	-10.9961
▁бол	-10.9963
▁стоимости	-10.9963
▁правой	-10.9964
▁судьбы	-10.9966
способ	-10.9966
over	-10.9968
▁Вопрос	-10.9969
▁lo	-10.9971
▁Bra	-10.9971
▁производстве	-10.9974
▁повод	-10.9978
▁Первое	-10.998
▁окруж	-10.9983
▁подвод	-10.9984
lic	-10.9984
▁уйти	-10.9987
▁матча	-10.9987
▁понимает	-10.9987
вшееся	-10.9989
ЕН	-10.9991
▁наличии	-10.9993
ments	-10.9995
▁здоровье	-10.9995
▁хороший	-10.9996
▁value	-10.9996
бург	-10.9997
▁меди	-10.9999
▁образов	-11
▁фа	-11.0001
▁факультет	-11.0001
ans	-11.0003
▁вели	-11.0003
▁Значит	-11.0006
▁evidence	-11.0006
!!!	-11.0007
▁фотографии	-11.0007
▁единиц	-11.0008
▁ходу	-11.0012
▁Кла	-11.0012
▁столицы	-11.0012
▁подчеркнул	-11.0014
▁Department	-11.0014
▁Ги	-11.0014
▁вызвать	-11.0015
бес	-11.0015
▁beginning	-11.0016
▁Закон	-11.0017
▁ислам	-11.0019
ull	-11.0021
▁sc	-11.0029
Дж	-11.0032
ителем	-11.0033
▁эксперт	-11.0033
тру	-11.0033
▁языком	-11.0034
AS	-11.0035
▁комнату	-11.0036
▁указ	-11.0037
dia	-11.0038
▁largest	-11.0038
▁услышал	-11.0039
▁natural	-11.0044
▁непо	-11.0044
▁выполнить	-11.0045
▁процент	-11.0046
▁проводил	-11.0047
▁towards	-11.0047
▁подходит	-11.0049
яд	-11.0052
iv	-11.0052
istic	-11.0053
▁социального	-11.0055
▁especially	-11.0056
▁red	-11.0057
▁каждым	-11.0059
aw	-11.006
▁каждое	-11.0061
▁настоящего	-11.0061
▁наряду	-11.0065
тельных	-11.0066
тека	-11.0067
шем	-11.0067
знаком	-11.0068
зрел	-11.0069
▁газов	-11.0071
▁Лондоне	-11.0071
▁статью	-11.0076
▁менеджер	-11.0077
дро	-11.0077
▁троп	-11.0079
тяж	-11.0081
▁successful	-11.0086
▁clear	-11.0087
▁enough	-11.0088
▁Красного	-11.0093
▁греб	-11.0095
▁камень	-11.0096
▁via	-11.0097
RE	-11.0097
▁случаи	-11.0098
добр	-11.0099
▁следующих	-11.0103
▁миром	-11.0106
▁родов	-11.0106
▁напоминает	-11.0108
▁почт	-11.011
▁провал	-11.011
▁стакан	-11.011
ола	-11.0112
▁водо	-11.0114
fi	-11.0115
ST	-11.0116
мах	-11.0116
▁active	-11.012
▁приложение	-11.0121
su	-11.0122
дают	-11.0122
▁акций	-11.0124
▁Ричард	-11.0125
▁океана	-11.0126
▁зап	-11.0126
▁сервис	-11.0126
▁обеих	-11.0127
No	-11.0127
▁app	-11.0127
▁Джордж	-11.0128
▁соглашение	-11.0129
▁индекс	-11.0131
▁Music	-11.0132
▁Кот	-11.0132
▁placed	-11.0135
▁цена	-11.0137
водить	-11.0139
▁Эн	-11.0139
▁сцены	-11.014
▁службе	-11.0141
▁кампании	-11.0141
ken	-11.0142
▁look	-11.0142
▁block	-11.0144
▁Филипп	-11.0146
▁значительной	-11.0147
▁ежедневно	-11.0148
▁пулемет	-11.0149
jo	-11.0151
нк	-11.0152
▁Такая	-11.0153
?..	-11.0154
▁потерял	-11.0154
▁причина	-11.0157
▁уст	-11.0157
ped	-11.0158
ёл	-11.0159
▁странно	-11.0161
▁shows	-11.0162
▁players	-11.0163
тряс	-11.0163
иями	-11.0164
▁Харьков	-11.0164
▁mi	-11.0165
▁Нужно	-11.0167
▁яйца	-11.0167
▁специальных	-11.017
▁Ярослав	-11.017
▁встреч	-11.017
▁щит	-11.017
▁открыть	-11.0172
▁тур	-11.0172
▁оказаться	-11.0174
ево	-11.0174
▁структура	-11.0175
▁описания	-11.0177
▁усили	-11.0178
ez	-11.0178
▁банков	-11.0179
▁дерева	-11.018
▁снят	-11.018
▁Моск	-11.0183
кле	-11.0183
▁историк	-11.0185
▁лег	-11.0191
▁приём	-11.0191
▁пить	-11.0191
аны	-11.0192
▁берет	-11.0193
▁кстати	-11.0197
▁специалист	-11.0198
▁Michael	-11.0199
имо	-11.0199
▁African	-11.0201
▁сельсовета	-11.0202
▁высоких	-11.0202
▁Берлин	-11.0206
▁Польши	-11.0207
чным	-11.0209
▁прочих	-11.0209
Ma	-11.021
дела	-11.021
▁done	-11.0211
▁рус	-11.0211
▁переименован	-11.0215
ющееся	-11.0215
▁отмечает	-11.0216
▁заметить	-11.0216
▁темп	-11.0216
▁ящик	-11.022
ological	-11.022
атели	-11.0223
▁победил	-11.0225
▁двигателя	-11.0227
▁аппарата	-11.0227
там	-11.0228
▁собрание	-11.0228
дели	-11.023
▁валют	-11.0232
▁офис	-11.0232
ене	-11.0235
ff	-11.0239
▁общин	-11.0241
▁ничем	-11.0241
▁Другие	-11.0242
сып	-11.0242
▁тобой	-11.0242
▁честно	-11.0242
шла	-11.0244
▁использовали	-11.0245
тического	-11.0248
лежа	-11.0249
wood	-11.025
▁понимания	-11.0251
мина	-11.0252
▁Ben	-11.0252
ером	-11.0253
обра	-11.0254
▁Ам	-11.0255
ставка	-11.0255
▁танк	-11.0256
▁пле	-11.0257
▁точка	-11.0259
▁square	-11.0259
▁луч	-11.026
ER	-11.026
▁ограничения	-11.0261
▁исторических	-11.0271
ходит	-11.0271
▁Цар	-11.0271
▁каждую	-11.0272
▁любое	-11.0274
cus	-11.0274
▁Fi	-11.0275
▁обход	-11.0275
▁Богу	-11.0276
▁отнюдь	-11.028
▁орудия	-11.0281
▁высокий	-11.0283
роп	-11.0287
mal	-11.0289
▁Нас	-11.0293
▁скал	-11.0293
org	-11.0294
▁приток	-11.0294
▁впереди	-11.0295
▁Часто	-11.0297
▁захват	-11.0298
ьное	-11.0299
гур	-11.03
▁Richard	-11.0301
▁командование	-11.0301
анта	-11.0302
▁Award	-11.0304
рог	-11.0306
▁давления	-11.0306
▁Марии	-11.0307
ключа	-11.0308
▁ле	-11.0309
key	-11.0309
Ст	-11.031
КО	-11.031
▁лед	-11.0311
▁вооружение	-11.0312
ole	-11.0312
▁woman	-11.0314
▁shot	-11.0316
чувств	-11.0317
▁акции	-11.0318
▁бывают	-11.0319
▁важных	-11.0321
▁Одновременно	-11.0323
▁объединения	-11.0325
▁мною	-11.0326
еро	-11.0327
▁колхоз	-11.0329
ire	-11.033
▁Los	-11.033
▁Петербург	-11.033
▁оставаться	-11.0331
des	-11.0334
нд	-11.0342
овича	-11.0343
лейтенант	-11.0344
▁поста	-11.0345
▁Col	-11.0345
▁учения	-11.0346
don	-11.0349
▁оставалось	-11.0354
тельного	-11.0354
пл	-11.0355
▁учился	-11.0356
▁league	-11.0357
▁сестра	-11.0357
▁кофе	-11.0358
пп	-11.0363
бре	-11.0364
▁Ещё	-11.0364
▁Japan	-11.0365
НА	-11.0366
▁различными	-11.0366
иров	-11.0367
Па	-11.0369
▁обстоятельств	-11.037
лип	-11.0371
▁Белоруссии	-11.0372
▁шоссе	-11.0373
производ	-11.0374
▁начались	-11.0378
berg	-11.0379
ene	-11.038
чел	-11.0383
▁pi	-11.0384
▁важным	-11.0385
art	-11.0388
▁быт	-11.039
ива	-11.039
▁спин	-11.0391
▁Население	-11.0393
▁заключение	-11.0395
▁крик	-11.0395
▁убежден	-11.0402
▁гроб	-11.0406
▁соглашения	-11.0406
▁мораль	-11.0407
▁веру	-11.0408
▁лоб	-11.0408
▁Хорошо	-11.0408
▁лучший	-11.0409
▁district	-11.0409
▁создана	-11.041
▁девушки	-11.0411
CA	-11.0412
ised	-11.0413
▁Питер	-11.0416
▁vi	-11.0416
serv	-11.0416
▁ро	-11.0417
▁female	-11.0417
▁районов	-11.0417
ates	-11.0418
нож	-11.0419
реб	-11.0419
▁care	-11.042
▁Western	-11.0424
▁комплект	-11.0424
▁Club	-11.0425
акт	-11.0425
rie	-11.0429
▁монарх	-11.043
▁остаются	-11.0431
▁Кро	-11.0431
vent	-11.0434
▁нарушение	-11.0435
▁упал	-11.0435
▁themselves	-11.0435
▁wanted	-11.0435
▁свидетельствует	-11.0435
щее	-11.0436
▁rock	-11.0443
▁Время	-11.0443
АС	-11.0443
▁Лишь	-11.0444
▁фильмов	-11.0445
tes	-11.0447
бежал	-11.0448
▁низ	-11.0448
бли	-11.0449
▁division	-11.0449
▁Лондон	-11.045
▁отказа	-11.045
▁Министерства	-11.0454
▁Гри	-11.0457
▁музыку	-11.0461
▁клиентов	-11.0461
уг	-11.0462
▁окончании	-11.0463
▁учетом	-11.0464
▁Йо	-11.0465
▁пределы	-11.0466
▁Мартин	-11.0466
▁debut	-11.0468
▁режиссёр	-11.0469
▁старый	-11.0469
▁Island	-11.0472
ющему	-11.0473
лас	-11.0474
▁повторя	-11.0475
▁светло	-11.0476
▁купил	-11.0477
▁партнер	-11.0477
▁legal	-11.0478
▁продолжать	-11.0478
▁Жен	-11.0479
▁твердо	-11.048
▁иной	-11.048
▁больных	-11.0484
▁брать	-11.0486
береж	-11.0486
монт	-11.0487
▁урок	-11.0489
▁Henry	-11.049
рия	-11.049
▁матчей	-11.0492
▁экзамен	-11.0492
▁звёзд	-11.0495
реч	-11.0496
▁Евгений	-11.0497
▁want	-11.0499
шую	-11.05
мит	-11.05
▁зачастую	-11.0501
ants	-11.0501
▁детям	-11.0502
▁пря	-11.0503
▁вернуть	-11.0505
▁появление	-11.0505
▁key	-11.0506
are	-11.0507
▁Порт	-11.0508
▁сотрудники	-11.0509
ph	-11.051
▁связей	-11.0512
▁покор	-11.0512
▁Australian	-11.0515
▁Президиума	-11.0516
▁каса	-11.0519
▁видом	-11.052
▁whom	-11.052
▁факты	-11.052
▁болезнь	-11.052
рел	-11.0521
▁руко	-11.0523
пада	-11.0525
▁чемпионат	-11.0525
▁регионе	-11.0527
пуст	-11.0529
AC	-11.0529
▁европейских	-11.0534
▁нужда	-11.0534
▁influence	-11.0535
▁букв	-11.0536
▁культуре	-11.0537
▁просил	-11.0538
▁политике	-11.0538
▁гипер	-11.0538
▁интер	-11.0538
je	-11.0539
▁окружающей	-11.054
▁любые	-11.0542
нять	-11.0544
▁increased	-11.0545
никами	-11.0545
mb	-11.0547
▁culture	-11.0547
▁физики	-11.0547
▁обращения	-11.0547
▁выполнен	-11.0549
еда	-11.0551
▁Gi	-11.0552
Из	-11.0552
▁changed	-11.0553
▁Михаила	-11.0555
▁super	-11.0555
▁кирпич	-11.0559
pur	-11.0559
▁целиком	-11.056
▁результатом	-11.056
▁central	-11.0562
▁детства	-11.0562
▁передал	-11.0562
▁Мел	-11.0564
трен	-11.0564
горел	-11.0566
ration	-11.0567
▁Лук	-11.0569
▁significant	-11.057
числен	-11.0571
▁дед	-11.0572
▁скандал	-11.0573
af	-11.0573
▁личного	-11.0574
▁practice	-11.0576
▁Soviet	-11.0578
▁взяли	-11.0579
аг	-11.0581
уме	-11.0581
▁ушел	-11.0583
▁заказ	-11.0585
тельно	-11.0587
▁Society	-11.0587
▁потенциал	-11.0588
▁эксплуатации	-11.0588
▁unit	-11.0591
▁Эл	-11.0592
▁особого	-11.0593
ческой	-11.0596
кри	-11.0596
труд	-11.0597
▁обеспечение	-11.0598
▁вино	-11.06
▁Many	-11.06
▁мужик	-11.0601
▁Рос	-11.0603
▁сделано	-11.0603
▁принятия	-11.0605
▁занимается	-11.0608
▁десятки	-11.0608
сок	-11.0608
▁живой	-11.0609
сыла	-11.0611
▁individual	-11.0611
тая	-11.0613
▁проверить	-11.0615
▁features	-11.0615
ys	-11.0618
▁Длина	-11.062
«	-11.0621
ющимся	-11.0621
▁Two	-11.0624
▁попасть	-11.0624
ающие	-11.0625
▁левой	-11.0627
▁prevent	-11.0628
▁пользователя	-11.0628
▁физической	-11.0629
яет	-11.063
SA	-11.063
▁ресторан	-11.0631
▁Герман	-11.0632
▁определён	-11.0633
▁старик	-11.0634
▁политику	-11.0636
▁двадцати	-11.0637
ован	-11.0639
▁внутреннего	-11.064
▁люблю	-11.0642
▁самую	-11.0644
лай	-11.0645
▁факторов	-11.0648
▁Др	-11.0648
▁президентом	-11.065
▁feet	-11.065
▁Больше	-11.0653
лова	-11.0654
dis	-11.0655
▁батальона	-11.0655
▁созданию	-11.0656
▁professional	-11.0657
▁счастлив	-11.0659
▁Павлов	-11.066
фен	-11.066
ble	-11.0661
гло	-11.0661
▁пойти	-11.0662
▁борту	-11.0662
▁ворот	-11.0662
коль	-11.0664
▁Дю	-11.0664
▁удел	-11.0665
▁грубо	-11.0666
▁Ав	-11.0667
▁stop	-11.0669
дут	-11.067
Корр	-11.0673
▁турнира	-11.0676
▁возможным	-11.0676
▁характеристик	-11.0676
▁Рус	-11.0676
▁озеро	-11.0677
▁написано	-11.0677
▁возглавил	-11.0679
▁месту	-11.0679
▁Гал	-11.068
▁существа	-11.068
Ар	-11.0682
▁нормы	-11.0684
дол	-11.0684
▁ткани	-11.0685
▁поселение	-11.0686
▁Церковь	-11.0689
▁summer	-11.0689
▁Шт	-11.069
▁полет	-11.0691
▁сочета	-11.0691
▁предполагает	-11.0692
▁ответить	-11.0694
▁отличаются	-11.0695
▁использовании	-11.0697
страда	-11.0697
tz	-11.0697
▁mis	-11.0697
▁почувствовал	-11.0699
▁Петербурге	-11.0701
▁смогут	-11.0701
▁keep	-11.0702
▁упомянут	-11.0703
▁Али	-11.0703
сс	-11.0705
▁ran	-11.0706
▁держать	-11.0707
щими	-11.0707
▁сидя	-11.0707
чал	-11.071
▁turned	-11.071
бега	-11.071
▁заводе	-11.0711
▁response	-11.0711
▁thus	-11.0711
▁облик	-11.0712
▁Tu	-11.0712
▁май	-11.0716
▁Зо	-11.0717
RA	-11.0718
▁спирт	-11.0719
▁актер	-11.072
▁Mary	-11.0722
форд	-11.0724
▁французского	-11.0726
жим	-11.0726
▁страхов	-11.0727
▁собою	-11.0728
▁Куб	-11.0728
▁перейти	-11.0729
▁карте	-11.073
▁проявления	-11.0731
анг	-11.0731
▁островов	-11.0732
▁волости	-11.0733
▁подо	-11.0734
mit	-11.0734
▁въ	-11.0734
отвор	-11.0735
▁collection	-11.0735
▁Grand	-11.0736
▁народу	-11.0737
▁Вообще	-11.0737
▁услов	-11.0739
▁мн	-11.074
▁Россией	-11.0741
▁capital	-11.0744
▁самолёт	-11.0744
▁Minister	-11.0746
▁Год	-11.0748
▁Вит	-11.0749
▁носит	-11.0749
нки	-11.075
▁строки	-11.0751
пин	-11.0752
▁ошибок	-11.0755
▁исполнения	-11.0755
▁сосредоточен	-11.0755
▁приблизительно	-11.0757
▁Кер	-11.0759
▁Окончил	-11.0761
▁публично	-11.0763
тип	-11.0766
▁недалеко	-11.0766
cl	-11.0766
▁us	-11.0767
▁веры	-11.0768
▁cut	-11.0769
▁алгоритм	-11.0769
тической	-11.0769
ода	-11.0772
яется	-11.0773
▁Smith	-11.0773
▁повышение	-11.0774
▁Иоанн	-11.0777
ible	-11.0778
▁cast	-11.0778
ola	-11.0779
▁армией	-11.078
▁Никто	-11.0781
▁пределами	-11.0783
▁флаг	-11.0783
▁отправ	-11.0783
▁потребовал	-11.0784
▁броне	-11.0785
▁поддерживать	-11.0786
▁хлоп	-11.0787
▁различия	-11.0789
tur	-11.0791
▁ba	-11.0793
▁наступления	-11.0794
▁cost	-11.0794
Ма	-11.0794
▁профессора	-11.0796
oo	-11.0796
▁ваших	-11.0798
▁переговоров	-11.0799
▁Bur	-11.0801
▁боевые	-11.0802
▁глав	-11.0802
▁верхней	-11.0803
▁упор	-11.0803
▁Прав	-11.0804
ходить	-11.0804
▁разрешение	-11.0804
▁songs	-11.0805
▁наказания	-11.0808
▁гром	-11.0809
als	-11.0809
▁согласился	-11.0809
▁Institute	-11.0809
▁lack	-11.0809
▁уходит	-11.0812
пост	-11.0812
▁Список	-11.0815
▁ряде	-11.0816
▁parts	-11.0818
▁Были	-11.0818
▁меньшей	-11.0818
прашива	-11.0819
▁повышен	-11.082
измом	-11.0821
▁удивительно	-11.0824
▁носил	-11.0826
▁Сибири	-11.0826
▁климат	-11.0827
▁higher	-11.0827
▁ритуал	-11.0828
пев	-11.0828
▁местные	-11.083
▁пола	-11.0831
фил	-11.0832
▁осталась	-11.0832
▁перехода	-11.0834
▁английского	-11.0834
▁происходило	-11.0835
▁сорок	-11.0836
▁линию	-11.0839
▁приговор	-11.0839
▁геолог	-11.0842
тый	-11.0842
De	-11.0845
read	-11.0848
▁получилось	-11.0848
иде	-11.0849
▁means	-11.0852
▁располага	-11.0854
▁психологии	-11.0854
▁срока	-11.0855
▁тре	-11.0856
▁съезд	-11.0857
▁Дев	-11.0858
▁comp	-11.0858
ery	-11.0859
организ	-11.0859
▁общих	-11.086
▁предварительно	-11.0864
▁баз	-11.0866
восточн	-11.0867
▁Восточной	-11.0867
▁работала	-11.0868
▁снять	-11.0869
▁худ	-11.087
▁Маг	-11.0872
нуться	-11.0873
▁казни	-11.0875
▁подготовке	-11.0876
ave	-11.0877
▁снег	-11.0877
▁следовало	-11.0879
▁принципы	-11.088
PA	-11.0881
енность	-11.0881
▁начальником	-11.0881
уч	-11.0882
ывают	-11.0882
▁изо	-11.0883
▁обзор	-11.0889
▁немецкой	-11.0889
▁true	-11.0889
гов	-11.089
одно	-11.089
крыт	-11.089
▁бытия	-11.089
▁страха	-11.0893
▁девять	-11.0893
();	-11.0893
▁Турции	-11.0893
▁экономического	-11.0893
->	-11.0894
▁Лин	-11.0895
cho	-11.0897
▁книж	-11.0898
сказ	-11.0899
▁разработке	-11.0902
▁находит	-11.0902
ьным	-11.0905
▁некоторым	-11.0905
чество	-11.0906
▁запрещен	-11.0906
▁двора	-11.0907
▁мертв	-11.0907
▁обслужива	-11.091
ЛА	-11.091
ds	-11.0911
▁football	-11.0912
▁Following	-11.0913
▁обнаружили	-11.0913
▁стрем	-11.0914
▁собран	-11.0914
▁маленький	-11.0914
▁сыном	-11.0918
▁Хи	-11.0919
носить	-11.0921
▁середины	-11.0922
▁elected	-11.0922
▁принес	-11.0924
▁исполнение	-11.0924
▁оси	-11.0925
енными	-11.0926
▁эволюции	-11.0929
▁certain	-11.0933
тка	-11.0933
▁врагов	-11.0934
▁Сид	-11.0936
▁обеспечивает	-11.0937
▁участники	-11.0937
▁одинаково	-11.0939
▁earlier	-11.0939
▁безусловно	-11.094
верт	-11.094
▁известного	-11.0942
хожу	-11.0942
▁park	-11.0943
eng	-11.0945
роб	-11.0948
сам	-11.0948
du	-11.0949
ric	-11.0949
тел	-11.0949
и́	-11.095
▁college	-11.095
▁тел	-11.0952
ita	-11.0952
▁установил	-11.0952
▁сна	-11.0954
▁движении	-11.0956
▁Николаев	-11.0958
▁журнале	-11.0959
▁Вселенной	-11.0959
ПК	-11.096
▁составил	-11.096
▁достичь	-11.0961
▁реку	-11.0962
▁Ил	-11.0962
охран	-11.0963
▁according	-11.0964
ГА	-11.0964
▁предложен	-11.0965
▁units	-11.0965
▁событие	-11.0966
▁результатам	-11.0966
▁властей	-11.0968
▁обвиня	-11.0968
iti	-11.0969
ox	-11.0969
▁Жив	-11.0969
▁учитель	-11.097
▁personal	-11.0971
▁одежды	-11.0973
▁passed	-11.0973
тал	-11.0973
▁участка	-11.0974
▁комиссар	-11.0976
▁фильтр	-11.0977
▁западной	-11.0978
▁осужден	-11.098
▁Bre	-11.098
▁советские	-11.0982
▁высшего	-11.0983
ax	-11.0986
bu	-11.0988
▁доступа	-11.0989
▁industry	-11.0989
▁захвачен	-11.0991
▁Кос	-11.0992
▁страшно	-11.0993
▁Ус	-11.0995
▁ended	-11.0997
▁Catholic	-11.0998
▁лав	-11.0999
war	-11.0999
▁ошибка	-11.0999
▁подобное	-11.1002
ведом	-11.1003
▁многочисленных	-11.1004
▁subject	-11.1004
lies	-11.1005
▁Позднее	-11.1006
▁исполнитель	-11.1007
зим	-11.1009
стран	-11.101
▁скот	-11.1013
ala	-11.1013
▁помещения	-11.1014
щиков	-11.1014
дум	-11.1019
алл	-11.1021
▁призёр	-11.1024
▁режиссер	-11.1025
▁отрыв	-11.1028
▁неправильно	-11.103
▁forced	-11.1031
▁списка	-11.1034
work	-11.1035
py	-11.1039
▁получал	-11.104
ston	-11.104
▁зенит	-11.104
▁похорон	-11.1041
ицу	-11.1041
шив	-11.1042
▁художников	-11.1043
▁награжден	-11.1044
▁фланг	-11.1044
зар	-11.1045
▁солдаты	-11.1045
ированные	-11.1046
Кар	-11.1046
▁тормоз	-11.1047
▁Сирии	-11.1049
▁характеристики	-11.1049
▁низко	-11.105
▁Впоследствии	-11.105
уда	-11.1051
ичный	-11.1052
памят	-11.1053
▁кабинет	-11.1054
▁коридор	-11.1055
▁обращение	-11.1056
▁газете	-11.1058
▁обусловлен	-11.1061
▁восстания	-11.1061
▁курса	-11.1061
sc	-11.1061
чную	-11.1062
▁прочим	-11.1062
▁молод	-11.1064
▁Алекс	-11.1064
оли	-11.1065
енно	-11.1066
ОК	-11.1068
▁systems	-11.107
▁волосы	-11.1072
Но	-11.1073
))	-11.1074
▁представляется	-11.1074
▁машине	-11.1075
▁специальные	-11.1075
▁предприятие	-11.1075
брет	-11.1077
OS	-11.1078
инь	-11.1079
▁Андре	-11.108
▁нефти	-11.1081
дей	-11.1082
▁говорилось	-11.1083
▁последнем	-11.1083
▁пациент	-11.1084
mes	-11.1084
ИС	-11.1085
ram	-11.1089
сор	-11.1091
▁включен	-11.1095
▁тремя	-11.1096
▁звания	-11.11
иях	-11.1101
нор	-11.1101
▁ката	-11.1102
▁границе	-11.1103
дя	-11.1104
▁глубине	-11.1108
▁Don	-11.1108
пали	-11.1108
фан	-11.1108
bar	-11.1109
▁массу	-11.1109
▁пра	-11.111
▁моем	-11.1111
ительных	-11.1113
атов	-11.1114
tre	-11.1116
▁молодого	-11.1116
▁правительственн	-11.1117
AP	-11.1118
▁рука	-11.1118
▁дев	-11.112
▁темно	-11.1121
hr	-11.1122
▁источники	-11.1122
▁лесу	-11.1125
▁политические	-11.1125
ировании	-11.1126
▁издан	-11.1127
▁положить	-11.1127
▁color	-11.1128
▁bo	-11.1128
ash	-11.113
▁оказа	-11.113
▁ЕС	-11.113
мур	-11.113
нице	-11.1131
▁troops	-11.1135
▁признаки	-11.1136
стен	-11.1137
MS	-11.1138
▁произ	-11.1139
▁холм	-11.114
▁бросил	-11.1141
чков	-11.1141
▁расположена	-11.1142
▁клеток	-11.1142
ированных	-11.1144
▁broadcast	-11.1149
▁старые	-11.1151
▁управлять	-11.1152
sky	-11.1152
▁награждён	-11.1155
▁освобождения	-11.1157
og	-11.116
▁дур	-11.116
спор	-11.1161
▁Существует	-11.1161
▁Сав	-11.1161
▁Pan	-11.1161
▁тонко	-11.1163
несен	-11.1164
▁графа	-11.1166
▁важное	-11.1171
▁интерфейс	-11.1172
еш	-11.1172
▁sa	-11.1174
gra	-11.1174
▁проведение	-11.1176
▁арт	-11.1176
▁высокие	-11.1177
▁требований	-11.1177
▁Разве	-11.1179
▁Рам	-11.1179
ственный	-11.118
▁structure	-11.118
▁камер	-11.118
▁say	-11.1183
ОВ	-11.1185
▁сотрудник	-11.1186
▁something	-11.1187
▁originally	-11.1188
лиц	-11.1188
▁продукта	-11.1189
▁ощущения	-11.119
dic	-11.119
▁русским	-11.1193
креп	-11.1194
cre	-11.1194
▁штурм	-11.1194
▁считаю	-11.1194
▁весной	-11.1195
▁смотрит	-11.1195
анов	-11.1196
▁прибыль	-11.1199
▁аспект	-11.1199
▁Ku	-11.12
▁ведут	-11.1201
▁отсюда	-11.1201
▁деятельностью	-11.1203
орд	-11.1203
▁моно	-11.1204
тельной	-11.1204
▁Летом	-11.1207
▁слух	-11.1208
▁молитв	-11.1209
▁кара	-11.121
НК	-11.1212
▁поддержке	-11.1213
▁племен	-11.1215
▁Рай	-11.1215
▁ходить	-11.1217
▁активности	-11.1217
▁врача	-11.1219
летней	-11.1219
▁hours	-11.1221
vin	-11.1223
ительная	-11.1225
▁еврей	-11.1226
▁interview	-11.1229
▁осенью	-11.123
▁продолжа	-11.123
▁построить	-11.1231
▁Разумеется	-11.1231
▁начался	-11.1231
▁размеров	-11.1232
▁аргумент	-11.1234
▁делается	-11.1236
ийской	-11.1237
▁музыка	-11.1237
▁экипажа	-11.1239
пеш	-11.124
▁entire	-11.1243
▁подряд	-11.1248
▁фотограф	-11.1249
▁caused	-11.125
▁случая	-11.1251
▁политический	-11.1252
▁черно	-11.1254
▁сл	-11.1254
▁whole	-11.1255
эс	-11.1256
▁артиллерии	-11.126
▁Начал	-11.126
▁Умер	-11.1261
Мо	-11.1261
▁французской	-11.1263
ЛИ	-11.1265
▁номера	-11.1265
▁утвержден	-11.1265
▁travel	-11.1266
▁удара	-11.1267
ируются	-11.1267
мес	-11.1268
▁успехом	-11.1269
ющем	-11.127
▁Расположен	-11.1274
ea	-11.1276
▁текстов	-11.1279
ings	-11.1279
▁технических	-11.128
▁библиотека	-11.1282
обща	-11.1282
▁заслуги	-11.1282
▁творчество	-11.1283
▁Central	-11.1284
▁расходы	-11.1284
вир	-11.1285
▁папа	-11.1285
этаж	-11.1287
▁солнца	-11.1287
▁competition	-11.1291
▁остаться	-11.1291
▁превраща	-11.1291
▁month	-11.13
▁послан	-11.13
▁участием	-11.1301
tar	-11.1304
дент	-11.1304
ord	-11.1305
▁organization	-11.1305
ающего	-11.1309
исто	-11.131
▁Церкви	-11.1311
▁хлеба	-11.1315
▁колес	-11.1317
▁target	-11.1317
▁тридцать	-11.1318
▁квартире	-11.1318
рн	-11.132
проща	-11.132
▁необходимым	-11.132
▁закончил	-11.1322
▁старого	-11.1322
▁третьей	-11.1324
▁проходил	-11.1326
▁Sun	-11.1327
▁чудес	-11.1327
az	-11.1327
́т	-11.1329
▁прекратил	-11.1331
▁размера	-11.1332
▁Оба	-11.1332
▁оператор	-11.1337
▁вспоминал	-11.1338
▁кости	-11.1338
▁Флор	-11.1339
▁Most	-11.134
чная	-11.1343
▁следующего	-11.1344
▁концепции	-11.1351
▁пользователь	-11.1351
рал	-11.1351
щение	-11.1352
▁Отсюда	-11.1352
вшими	-11.1353
▁передает	-11.1355
▁Sea	-11.1355
▁District	-11.1356
▁корреспондент	-11.1357
▁реакция	-11.1358
▁планет	-11.1359
▁хранения	-11.1359
ведении	-11.1361
ret	-11.1361
ui	-11.1361
▁участке	-11.1362
▁страницы	-11.1362
▁границ	-11.1362
▁sw	-11.1363
▁напряжения	-11.1363
▁лок	-11.1363
▁port	-11.1364
▁ср	-11.1366
▁священник	-11.1367
▁traditional	-11.1368
▁круж	-11.1369
овод	-11.137
оты	-11.137
▁собрал	-11.1372
▁обвинения	-11.1374
▁Солнца	-11.1375
нным	-11.1375
▁ущерб	-11.1377
▁Ир	-11.1378
▁section	-11.1378
шел	-11.1378
ient	-11.138
▁источником	-11.138
▁путём	-11.1383
скоп	-11.1384
▁мини	-11.1385
▁подтвердил	-11.1386
▁opening	-11.1387
▁scored	-11.1387
▁приготовления	-11.1388
▁имело	-11.1388
▁психо	-11.1388
▁сайта	-11.1391
sp	-11.1391
чина	-11.1392
фашист	-11.1393
▁обещал	-11.1393
▁Круп	-11.1393
▁нападения	-11.1395
▁вспомнить	-11.1396
▁рейс	-11.1397
▁operations	-11.1403
▁review	-11.1404
▁подлинно	-11.1404
▁норматив	-11.1405
ступление	-11.1409
▁функционал	-11.1409
▁Эд	-11.141
▁принадлежа	-11.141
▁Th	-11.141
▁оружием	-11.1412
based	-11.1412
▁amount	-11.1412
▁схема	-11.1414
настоящему	-11.1416
▁independent	-11.1419
▁монастырь	-11.1419
▁основа	-11.1419
▁формально	-11.142
▁разными	-11.1421
▁посмотрел	-11.1422
▁зная	-11.1424
тракт	-11.1424
▁effect	-11.1427
▁вынуждены	-11.1427
▁финансов	-11.1428
▁Росс	-11.1428
▁депутат	-11.1428
▁спать	-11.1428
▁основы	-11.1428
▁функцию	-11.1428
▁несколькими	-11.1429
▁устроен	-11.1429
▁старой	-11.1429
▁аэродром	-11.1429
vision	-11.1432
▁Es	-11.1434
очку	-11.1434
▁Rock	-11.1435
▁позиций	-11.1437
шах	-11.1438
▁архитектуры	-11.1438
▁побережье	-11.144
оза	-11.1441
▁семью	-11.1444
▁здоров	-11.1444
анти	-11.1445
▁использован	-11.1445
▁останется	-11.1446
хал	-11.1447
▁commercial	-11.145
fl	-11.145
▁Знамени	-11.145
▁син	-11.1451
▁обладают	-11.1451
служ	-11.1452
ады	-11.1452
▁news	-11.1453
▁конкурс	-11.1454
▁предан	-11.1454
▁рабочие	-11.1455
▁ваша	-11.1455
раст	-11.1456
▁News	-11.1457
▁бумаж	-11.1457
▁чу	-11.1457
▁Martin	-11.1458
идов	-11.1458
Ра	-11.1459
▁небольшие	-11.1459
▁лат	-11.1461
▁немецкого	-11.1461
▁дополнительные	-11.1462
тический	-11.1463
▁отбор	-11.1463
▁Аб	-11.1464
истые	-11.1465
▁чет	-11.1466
▁привели	-11.1467
▁Open	-11.1468
офф	-11.147
ОР	-11.147
▁представлены	-11.1471
▁выводу	-11.1473
▁воздействие	-11.1475
▁Народ	-11.1475
▁мастера	-11.1476
▁кандидат	-11.1477
▁явлений	-11.1479
▁измерения	-11.1482
оген	-11.1482
стях	-11.1483
▁свят	-11.1485
▁определенные	-11.1486
▁рыбы	-11.1489
▁реально	-11.149
▁Port	-11.149
▁сумма	-11.1492
▁специалисты	-11.1492
▁компанией	-11.1493
▁опасно	-11.1494
▁лучшие	-11.1495
▁громко	-11.1497
е́	-11.1498
▁Австралии	-11.1499
▁сформирован	-11.15
▁Apple	-11.1502
▁Press	-11.1504
▁народных	-11.1505
предел	-11.1507
Си	-11.1508
ute	-11.151
▁вина	-11.151
▁обер	-11.1512
▁пребывания	-11.1512
ries	-11.1516
▁командой	-11.1516
▁энергию	-11.1517
бирал	-11.1518
▁наблюдать	-11.1519
тера	-11.152
▁Жуков	-11.1522
Кон	-11.1523
▁spent	-11.1524
▁состоял	-11.1524
▁абсолют	-11.1525
▁вблизи	-11.1525
Ле	-11.1526
ёв	-11.1528
▁мелких	-11.1529
▁word	-11.153
▁loss	-11.153
▁называет	-11.1532
кли	-11.1532
ивает	-11.1537
▁Востока	-11.1538
овском	-11.1539
▁огромный	-11.154
учен	-11.154
▁claimed	-11.1541
▁останавлива	-11.1542
ability	-11.1543
▁студент	-11.1545
▁структуру	-11.1548
евского	-11.1549
▁material	-11.155
▁какими	-11.155
▁Государственной	-11.1553
фир	-11.1555
▁чьи	-11.1555
Name	-11.1555
▁появилось	-11.1556
▁решать	-11.1556
▁взаимо	-11.1559
▁Север	-11.1559
▁политического	-11.1561
▁Microsoft	-11.1563
▁leave	-11.1564
▁игроков	-11.1566
▁начинал	-11.1567
▁каб	-11.1568
▁пролив	-11.1568
▁знание	-11.1569
зр	-11.157
иком	-11.157
▁уход	-11.1571
сед	-11.1572
рай	-11.1573
▁пары	-11.1573
▁развива	-11.1574
lt	-11.1574
▁владения	-11.1575
▁персонаж	-11.1575
▁longer	-11.1576
▁source	-11.1577
▁зимой	-11.1578
▁вами	-11.1578
▁meeting	-11.158
бул	-11.1583
ава	-11.1586
▁idea	-11.1587
▁обращен	-11.1588
▁братьев	-11.1588
▁пришло	-11.1589
аев	-11.159
▁Sha	-11.159
ound	-11.1593
▁дворов	-11.1595
▁моему	-11.1596
▁Великого	-11.1598
шему	-11.1599
▁определенной	-11.1601
▁проявил	-11.1602
▁Ростов	-11.1602
▁древней	-11.1603
лот	-11.1603
▁восторг	-11.1604
uff	-11.1605
▁particular	-11.1605
▁известные	-11.1606
▁includes	-11.1608
▁возможных	-11.161
▁ball	-11.1612
вание	-11.1613
▁науке	-11.1614
языч	-11.1615
▁путей	-11.1617
ящий	-11.1618
бай	-11.1621
▁территория	-11.1622
pot	-11.1622
▁believed	-11.1623
rent	-11.1626
▁убийство	-11.1627
▁Лю	-11.1628
майор	-11.1628
▁следующей	-11.1631
▁Бело	-11.1631
▁Почти	-11.1632
▁балл	-11.1632
ошел	-11.1633
▁учение	-11.1633
▁Lake	-11.1634
▁властью	-11.1634
▁System	-11.1635
cul	-11.1636
кад	-11.1636
ani	-11.1638
нье	-11.164
▁build	-11.1641
▁<...>	-11.1643
▁score	-11.1643
▁сознательно	-11.1645
раг	-11.165
▁держав	-11.1651
▁идёт	-11.1652
▁реальность	-11.1654
читыва	-11.1654
▁Вся	-11.1655
пот	-11.1656
▁трое	-11.1658
рова	-11.1659
▁смех	-11.1663
▁задачей	-11.1667
▁началу	-11.1668
▁долю	-11.1668
▁buildings	-11.1671
▁фундамент	-11.1674
▁достигает	-11.1678
▁account	-11.1678
▁Юго	-11.1681
▁magazine	-11.1683
▁деревьев	-11.1683
▁ценность	-11.1684
ования	-11.1685
▁выяснилось	-11.1686
▁тон	-11.1688
ьем	-11.1693
▁плод	-11.1693
▁персонажей	-11.1696
▁авторы	-11.1697
▁необыч	-11.1698
▁property	-11.17
▁issue	-11.17
▁приоритет	-11.1701
▁решением	-11.1701
▁промышленность	-11.1702
▁route	-11.1704
▁concept	-11.1704
▁активность	-11.1705
▁ровно	-11.1705
▁очереди	-11.1705
▁определенных	-11.1705
ux	-11.1706
ТА	-11.1708
▁voice	-11.171
lor	-11.171
▁собственный	-11.1711
яют	-11.1712
▁повести	-11.1714
▁kind	-11.1714
▁Героя	-11.1716
▁умел	-11.1718
рий	-11.172
Ну	-11.172
▁оборудование	-11.1726
her	-11.1726
▁братья	-11.1726
▁saying	-11.1726
йся	-11.1726
▁im	-11.1728
lon	-11.1728
гли	-11.1729
▁читатель	-11.1729
плыв	-11.173
▁многим	-11.1732
йдем	-11.1734
▁defeated	-11.1736
▁способы	-11.1736
▁Интернет	-11.1737
▁помощник	-11.1737
▁Web	-11.1737
▁books	-11.1737
▁Spanish	-11.1738
ленный	-11.1738
▁сложных	-11.174
ned	-11.1744
ser	-11.1746
▁столице	-11.1749
▁Австр	-11.175
▁полную	-11.175
blockquote	-11.1751
▁усилий	-11.1752
uc	-11.1752
льский	-11.1753
▁энергия	-11.1755
▁сидит	-11.1757
He	-11.1758
дз	-11.1759
▁майор	-11.1759
▁Фар	-11.176
AT	-11.176
▁Sir	-11.1763
▁отцом	-11.1765
▁городом	-11.1767
равн	-11.1767
▁истины	-11.1768
мас	-11.1768
писал	-11.1769
▁заставить	-11.1769
▁повышения	-11.1769
▁детстве	-11.1771
▁морских	-11.1771
▁sister	-11.1773
▁надежн	-11.1773
казать	-11.1775
▁квартиру	-11.1776
▁руководил	-11.1776
▁возвращается	-11.1776
▁полит	-11.1776
▁объяснил	-11.1778
▁сильный	-11.1778
▁бесплатно	-11.1778
▁испытаний	-11.178
▁Польше	-11.178
тягива	-11.1782
▁практики	-11.1784
▁называть	-11.1785
▁проходят	-11.1785
▁крепость	-11.1786
▁author	-11.1787
To	-11.1787
▁удостоен	-11.1788
вязыва	-11.1794
пыта	-11.1794
▁юг	-11.1794
разум	-11.1795
▁sometimes	-11.1795
▁friend	-11.1795
▁командиров	-11.1795
▁цирк	-11.1796
▁generally	-11.1796
▁богов	-11.1799
MA	-11.18
▁автором	-11.1802
▁Зе	-11.1802
ЕР	-11.1804
▁записан	-11.1804
▁пушки	-11.1805
▁Under	-11.1805
итов	-11.1807
▁начина	-11.1808
▁математик	-11.1808
▁camp	-11.1808
▁стиля	-11.1808
▁областях	-11.1809
▁приближа	-11.1809
фикс	-11.1809
▁кризиса	-11.181
▁staff	-11.1811
▁Сколько	-11.1811
емое	-11.1812
▁молодые	-11.1812
кто	-11.1813
хрон	-11.1814
▁расходов	-11.1815
▁верить	-11.1815
▁республик	-11.1815
гро	-11.1815
▁зритель	-11.1816
истом	-11.1816
Ла	-11.1818
▁companies	-11.182
▁Africa	-11.1822
▁свин	-11.1823
▁танка	-11.1824
▁Дар	-11.1826
▁machine	-11.1826
▁армий	-11.1827
▁Пал	-11.1827
▁кап	-11.1828
▁рай	-11.1829
▁ребята	-11.1831
▁будь	-11.1832
town	-11.1834
нял	-11.1834
ping	-11.1834
▁работник	-11.1835
▁лагеря	-11.1836
▁визит	-11.1836
▁Men	-11.1836
▁страш	-11.1837
▁запуска	-11.1837
зв	-11.184
▁существо	-11.184
▁Её	-11.184
▁народной	-11.1841
Петербург	-11.1841
▁множества	-11.1842
▁посту	-11.1842
bra	-11.1843
▁просит	-11.1844
▁Che	-11.1844
тических	-11.1849
▁великолеп	-11.185
шение	-11.185
▁элемента	-11.1854
▁Спас	-11.1855
▁воспользоваться	-11.1858
▁Ничего	-11.1858
▁северной	-11.1859
ueen	-11.1859
▁religious	-11.186
▁experience	-11.1861
▁плит	-11.1861
▁tax	-11.1861
▁focus	-11.1861
▁признак	-11.1863
Ли	-11.1863
стру	-11.1864
▁Hol	-11.1865
▁cur	-11.1866
▁перевоз	-11.1866
▁одних	-11.1869
▁хозяин	-11.187
▁Иль	-11.1871
▁standard	-11.1871
чего	-11.1871
▁Зна	-11.1871
▁пир	-11.1871
▁issues	-11.1871
▁additional	-11.1874
▁Ленинград	-11.1876
кса	-11.1876
▁личной	-11.1879
нском	-11.1879
▁улицу	-11.188
▁доктора	-11.1881
▁обряд	-11.1881
▁находиться	-11.1883
▁национальных	-11.1883
▁полным	-11.1886
▁бит	-11.1887
▁самолеты	-11.1888
▁reason	-11.1889
рук	-11.1889
кого	-11.1889
▁Военно	-11.1891
цел	-11.1891
▁библиотеки	-11.1892
▁direct	-11.1892
эконом	-11.1892
▁потребности	-11.1892
▁дисциплин	-11.1893
▁институте	-11.1893
▁участвовать	-11.1894
▁flow	-11.1894
ara	-11.1895
лек	-11.1895
▁почет	-11.1896
▁attended	-11.1897
▁Italian	-11.1897
ЕЛ	-11.1898
йского	-11.1899
▁plant	-11.1901
иной	-11.1901
▁Кост	-11.1904
▁чудовищ	-11.1905
▁шаблон	-11.1905
▁комнаты	-11.1905
▁ядер	-11.1906
▁радость	-11.1906
▁Cal	-11.1906
▁композитор	-11.1906
▁документа	-11.1908
▁верхов	-11.1909
▁завершен	-11.191
▁переехал	-11.191
▁Дэвид	-11.1912
полит	-11.1912
▁Dis	-11.1912
▁количеством	-11.1914
▁ци	-11.1914
▁рабочий	-11.1914
▁Гран	-11.1915
истый	-11.1916
ДА	-11.1916
▁божеств	-11.1917
▁живописи	-11.1917
▁зданий	-11.1918
▁установка	-11.1918
▁коров	-11.1919
▁литература	-11.1919
▁точек	-11.192
▁руководителей	-11.1921
вать	-11.1922
▁субъект	-11.1923
▁известной	-11.1924
бель	-11.1924
▁парламента	-11.1924
ковского	-11.1924
йдя	-11.1925
▁Ed	-11.1926
▁VII	-11.1928
▁Ран	-11.1929
ust	-11.193
▁накануне	-11.193
▁убить	-11.193
▁things	-11.193
▁приняты	-11.1931
▁Бл	-11.1932
▁выборы	-11.1932
▁complex	-11.1932
▁собственную	-11.1932
fin	-11.1933
▁movie	-11.1934
бах	-11.1935
▁вагон	-11.1937
раб	-11.1939
▁der	-11.1939
▁Бес	-11.1939
групп	-11.1939
▁крупнейших	-11.194
▁гнев	-11.194
▁Вин	-11.1941
▁снял	-11.1942
▁double	-11.1943
▁farm	-11.1943
них	-11.1945
▁разрыв	-11.1946
дает	-11.1946
▁хирург	-11.1946
tle	-11.1947
▁возникновения	-11.1947
▁пора	-11.1947
gate	-11.1948
▁трудности	-11.1949
▁cross	-11.1949
пала	-11.1951
▁Официальный	-11.1952
▁Бир	-11.1952
▁Созда	-11.1953
мой	-11.1954
▁провели	-11.1957
▁нашему	-11.1959
ере	-11.1959
▁особой	-11.1959
▁написан	-11.1964
▁высших	-11.1965
▁arrived	-11.1967
▁Зато	-11.1969
▁фонда	-11.1969
▁лиги	-11.1969
▁complete	-11.197
▁познания	-11.1973
▁руке	-11.1973
▁Федор	-11.1974
▁хозяйство	-11.1974
▁мат	-11.1975
▁victory	-11.1975
▁возникла	-11.1976
▁исторической	-11.1977
▁Адам	-11.1977
▁отчасти	-11.1978
▁строить	-11.198
▁временно	-11.1981
▁спасти	-11.1983
▁удален	-11.1984
елл	-11.1985
▁справедливо	-11.1985
▁Ци	-11.1986
▁соответствующие	-11.1987
▁отставку	-11.1989
▁мет	-11.1989
▁всяких	-11.199
▁Lord	-11.199
▁trans	-11.1991
▁Вен	-11.1991
▁student	-11.1992
▁пластин	-11.1994
▁заседании	-11.1995
▁manager	-11.1995
▁surface	-11.1997
несения	-11.1997
▁игрока	-11.1999
cher	-11.2
▁происхождение	-11.2
▁птицы	-11.2
▁следствие	-11.2
▁Кирилл	-11.2
▁левом	-11.2002
ett	-11.2005
▁жид	-11.2008
яться	-11.2009
▁centre	-11.2011
▁Около	-11.2012
▁простым	-11.2013
Мар	-11.2014
▁турнире	-11.2018
рим	-11.2018
▁particularly	-11.2018
▁изд	-11.2018
ывать	-11.202
▁believe	-11.202
▁формирование	-11.202
уя	-11.2023
▁Bas	-11.2023
▁председателем	-11.2023
▁надежды	-11.2023
▁посетил	-11.2025
"...	-11.2026
▁топлива	-11.2026
▁получение	-11.203
▁allow	-11.203
oke	-11.203
ийского	-11.2031
▁суммы	-11.2033
▁Force	-11.2034
▁wide	-11.2036
▁Зачем	-11.2037
▁XV	-11.2037
стон	-11.2038
▁связ	-11.2039
▁экспорт	-11.2041
▁премия	-11.2041
▁length	-11.2042
гора	-11.2044
веду	-11.2044
▁следы	-11.2045
▁Museum	-11.2045
▁regular	-11.2048
▁автомобилей	-11.2049
▁лодки	-11.2049
▁Mr	-11.2051
▁Saint	-11.2052
▁заключа	-11.2052
▁велико	-11.2052
▁разу	-11.2052
▁degree	-11.2053
▁fourth	-11.2053
▁leader	-11.2054
▁running	-11.2054
лению	-11.2056
▁языках	-11.2056
ng	-11.2056
рач	-11.2056
влек	-11.2058
▁finally	-11.2058
нить	-11.2059
▁хотим	-11.206
ированный	-11.206
дова	-11.2063
▁gr	-11.2063
▁whether	-11.2064
▁оркестр	-11.2064
▁смертью	-11.2065
▁отсутствия	-11.2066
▁let	-11.2069
▁окружен	-11.207
инском	-11.2071
▁king	-11.2072
скольз	-11.2072
поз	-11.2072
глад	-11.2072
▁изучение	-11.2074
водят	-11.2075
var	-11.2076
евые	-11.2076
▁Бол	-11.2076
стал	-11.2078
▁Chi	-11.208
▁Par	-11.208
▁слой	-11.2081
▁changes	-11.2081
▁процессор	-11.2082
▁крова	-11.2083
ерс	-11.2084
Ис	-11.2084
▁fr	-11.2085
реж	-11.2086
рд	-11.2087
▁poor	-11.2089
▁показывают	-11.2089
вок	-11.2089
▁primary	-11.209
▁pa	-11.2091
▁отдать	-11.2092
доль	-11.2093
▁позволило	-11.2093
мобил	-11.2094
▁ha	-11.2095
ext	-11.2098
▁sign	-11.2098
▁visit	-11.2098
▁продажи	-11.21
евых	-11.21
▁Действительно	-11.2101
▁financial	-11.2101
▁потребность	-11.2103
шан	-11.2103
▁ду	-11.2104
Та	-11.2105
▁сообщила	-11.2107
▁weeks	-11.2109
▁вспомнил	-11.211
ОП	-11.2112
пресс	-11.2113
▁привод	-11.2115
▁заключил	-11.2116
▁бок	-11.2117
рот	-11.2118
▁Следует	-11.2118
▁собира	-11.2118
▁длина	-11.212
▁Later	-11.212
рап	-11.212
▁мл	-11.212
▁lived	-11.2122
ага	-11.2126
▁Battle	-11.2128
▁studies	-11.2128
▁Bu	-11.213
▁украшен	-11.2131
▁Красно	-11.2131
▁Ры	-11.2134
тки	-11.2136
▁проник	-11.2137
▁спрос	-11.214
▁признание	-11.214
полз	-11.2141
▁Цвет	-11.2141
▁предусмотрен	-11.2141
▁составляла	-11.2143
▁принципиально	-11.2144
▁похож	-11.2144
▁Вторая	-11.2145
▁older	-11.2145
type	-11.2146
▁Земля	-11.2146
▁патрон	-11.2147
▁добра	-11.2148
▁Крест	-11.2148
▁вторым	-11.2149
▁любят	-11.215
▁Louis	-11.2151
▁поднял	-11.2154
тическая	-11.2155
▁policy	-11.2155
▁глух	-11.2158
lit	-11.2159
▁наверняка	-11.216
лав	-11.2162
▁применяется	-11.2162
▁Sam	-11.2164
▁белых	-11.2164
оград	-11.2165
▁думает	-11.2165
▁эффективно	-11.2167
▁барон	-11.2169
▁духовной	-11.2169
▁Германия	-11.2171
▁сельсовет	-11.2173
▁ветра	-11.2173
▁terms	-11.2176
tern	-11.2176
▁эфир	-11.2176
▁громад	-11.2177
▁квартиры	-11.2177
глуш	-11.2178
▁Bank	-11.2178
▁учет	-11.2179
▁деревья	-11.2181
яс	-11.2181
▁заканчива	-11.2182
▁Law	-11.2184
нц	-11.2187
▁огромные	-11.2189
аешь	-11.2189
▁изготовлен	-11.2189
роз	-11.2192
гас	-11.2195
▁грузов	-11.2195
▁develop	-11.2195
▁Чемпионат	-11.2197
▁заявления	-11.2199
шал	-11.22
▁войн	-11.2201
▁важные	-11.2201
▁бороться	-11.2201
▁question	-11.2202
▁исходя	-11.2202
▁Анти	-11.2202
▁шоу	-11.2203
даются	-11.2204
икой	-11.2204
▁noted	-11.2204
президент	-11.2205
▁независимости	-11.2205
▁Какие	-11.2205
аков	-11.2206
▁Вол	-11.2206
▁offered	-11.2211
▁нижней	-11.2211
▁восстановить	-11.2212
▁Африки	-11.2212
yl	-11.2213
▁гражданин	-11.2214
́р	-11.2215
part	-11.2215
▁carried	-11.2215
▁вариантов	-11.2217
КИ	-11.2217
▁Ред	-11.222
врат	-11.222
▁пассажиров	-11.2222
▁особое	-11.2223
▁капитала	-11.2223
▁нечего	-11.2226
финанс	-11.2227
ep	-11.2227
вшуюся	-11.2228
▁упоминается	-11.2229
▁десятков	-11.2229
▁бронз	-11.2231
▁манер	-11.2232
▁пас	-11.2234
board	-11.2234
▁экономических	-11.2235
▁pass	-11.2239
▁Коп	-11.2239
вшему	-11.224
ившего	-11.2241
▁действиях	-11.2242
▁бюджета	-11.2243
▁крае	-11.2243
▁обстрел	-11.2243
▁указал	-11.2245
▁Ас	-11.2246
▁dead	-11.2246
▁XIV	-11.2248
цкий	-11.2248
▁числу	-11.2248
▁вторую	-11.2249
▁sur	-11.2249
▁скажет	-11.225
ender	-11.2251
▁международной	-11.2251
▁Wal	-11.2251
▁Пра	-11.2252
bot	-11.2253
еса	-11.2254
▁товара	-11.2255
▁изменил	-11.2257
gent	-11.2257
▁искусстве	-11.2258
▁сущность	-11.2258
Хо	-11.226
резать	-11.226
быть	-11.2263
▁Min	-11.2264
▁организатор	-11.2267
▁переправ	-11.2267
▁failed	-11.2268
▁ho	-11.2268
лой	-11.2268
▁cause	-11.2269
▁южной	-11.2269
▁служба	-11.2269
человеч	-11.227
▁получаем	-11.2271
▁проявляется	-11.2272
▁решила	-11.2273
дина	-11.2273
▁supported	-11.2274
▁изучал	-11.2275
▁старше	-11.2275
▁Источник	-11.2275
▁ограничива	-11.2277
▁сферы	-11.2277
▁гвардии	-11.2277
исс	-11.2277
пуга	-11.2278
▁огнем	-11.228
ano	-11.228
▁прозрачн	-11.2281
▁сопротивления	-11.2283
▁produce	-11.2284
▁mission	-11.2285
▁технология	-11.2285
ип	-11.2286
▁Название	-11.2287
▁природа	-11.2289
▁губернатор	-11.2289
▁пункты	-11.2291
селя	-11.2292
▁date	-11.2292
Ха	-11.2296
анс	-11.2297
▁спектр	-11.2298
La	-11.2299
▁studio	-11.2301
▁Император	-11.2301
▁кип	-11.2301
▁золотой	-11.2302
▁отправил	-11.2302
▁separate	-11.2303
▁Ол	-11.2303
spect	-11.2304
▁долгое	-11.2304
▁attempt	-11.2305
▁утверждение	-11.2305
кисл	-11.2305
▁спорт	-11.2306
▁мудр	-11.2307
ane	-11.2308
▁позиция	-11.2308
▁ассоциации	-11.2309
▁скончался	-11.2309
▁затрат	-11.2309
улов	-11.231
▁Gra	-11.2311
▁хорошие	-11.2312
▁Всем	-11.2312
▁дорогой	-11.2313
Ал	-11.2314
▁доказать	-11.2316
▁ново	-11.2316
▁Ke	-11.2318
▁большими	-11.232
▁удовольствие	-11.2323
▁показания	-11.2324
▁Востоке	-11.2325
▁Главное	-11.2326
▁вслед	-11.2326
▁настроен	-11.2328
▁показатель	-11.233
▁Сергея	-11.233
ческого	-11.2331
опа	-11.2332
▁диаметр	-11.2332
▁Гитлера	-11.2332
izing	-11.2334
▁сне	-11.2335
▁location	-11.2337
▁Рей	-11.2337
ification	-11.2338
▁обмена	-11.2339
▁забыл	-11.234
▁поисках	-11.2348
▁Ph	-11.2348
▁голода	-11.235
▁духе	-11.235
▁финал	-11.2351
оре	-11.2354
bel	-11.2355
▁Ac	-11.2355
густ	-11.2355
▁Пир	-11.2356
▁Ста	-11.2362
▁небольших	-11.2364
▁возвращения	-11.2364
▁предположить	-11.2365
▁Хал	-11.2367
lam	-11.2369
vers	-11.237
▁пьесы	-11.237
▁Яр	-11.2371
чий	-11.2372
▁городу	-11.2372
лаж	-11.2374
▁напряжен	-11.2375
▁остатки	-11.2375
▁стремится	-11.2375
▁Грузии	-11.2376
▁лета	-11.2376
▁округе	-11.2377
стол	-11.2378
▁снижение	-11.238
АК	-11.2381
лых	-11.2382
illa	-11.2383
▁романе	-11.2384
ef	-11.2385
▁физических	-11.2387
рах	-11.2389
▁произошла	-11.2389
▁awarded	-11.2389
зл	-11.239
▁возглавлял	-11.239
▁воле	-11.2392
вый	-11.2393
▁имеем	-11.2394
▁бумаг	-11.2394
▁Inter	-11.2395
ати	-11.2398
▁крепко	-11.2402
▁leaving	-11.2403
▁берегов	-11.2403
▁критики	-11.2403
ray	-11.2403
▁мягко	-11.2404
ale	-11.2405
▁Championship	-11.2407
уголь	-11.2407
гнут	-11.2408
▁families	-11.241
лё	-11.2411
▁Mark	-11.2411
▁border	-11.2413
▁characters	-11.2414
▁hospital	-11.2415
ku	-11.2415
▁Майкл	-11.2416
▁публикации	-11.2416
ометр	-11.2418
▁отправля	-11.2419
чок	-11.242
тира	-11.2421
▁решению	-11.2421
▁заболеваний	-11.2422
▁Риме	-11.2422
▁parents	-11.2423
▁Киеве	-11.2428
▁радости	-11.2428
▁болот	-11.2428
▁оценить	-11.2429
ert	-11.243
▁today	-11.2431
▁реформы	-11.2432
▁door	-11.2433
▁Tom	-11.2434
▁teams	-11.2435
гнать	-11.2435
IS	-11.244
▁предмета	-11.2441
zi	-11.2442
▁падения	-11.2442
▁Despite	-11.2444
▁ab	-11.2445
▁экспериментальн	-11.2446
▁сроки	-11.2449
▁Большая	-11.245
▁союзников	-11.2452
льского	-11.2454
▁Chicago	-11.2456
▁felt	-11.2458
▁учиться	-11.2458
▁дабы	-11.2458
бон	-11.246
штейн	-11.246
▁цикла	-11.2463
lie	-11.2463
▁инструментов	-11.2464
▁жалоб	-11.2465
▁твой	-11.2465
▁периодически	-11.2466
альными	-11.2467
mann	-11.2468
▁большом	-11.2468
▁используем	-11.247
▁лагерь	-11.2471
▁entered	-11.2472
▁паспорт	-11.2474
▁коммунист	-11.2476
rit	-11.2476
▁проводится	-11.2476
▁основного	-11.2477
▁Committee	-11.2477
▁волк	-11.2478
▁Медаль	-11.2478
▁судить	-11.2478
SP	-11.2479
слаб	-11.2479
▁местом	-11.2481
▁заменить	-11.2481
▁мрачн	-11.2482
але	-11.2482
▁упражнения	-11.2486
▁прошлое	-11.2491
▁гл	-11.2491
gue	-11.2495
▁husband	-11.2496
▁строк	-11.2496
▁обратиться	-11.2497
▁академик	-11.2498
▁оставлен	-11.2501
▁экземпляр	-11.2502
▁существовать	-11.2502
▁гостей	-11.2503
▁теорию	-11.2503
▁пищу	-11.2504
▁closed	-11.2506
▁регистрации	-11.2506
▁любых	-11.2507
мерз	-11.2508
▁Спустя	-11.2508
▁сообщества	-11.2508
▁Поли	-11.2509
▁звезда	-11.251
▁вошел	-11.2511
▁gun	-11.2512
▁миг	-11.2514
▁установлены	-11.2514
▁лог	-11.2518
▁Джеймс	-11.2521
▁проекты	-11.2522
▁примере	-11.2522
▁пес	-11.2522
▁партию	-11.2524
оде	-11.2524
▁foreign	-11.2525
▁переведен	-11.2525
Ку	-11.2525
▁современном	-11.2525
▁хорошим	-11.2527
▁применять	-11.2528
▁Этим	-11.2528
▁print	-11.2529
▁господин	-11.2529
▁пещер	-11.253
▁выстрел	-11.253
псих	-11.2531
яли	-11.2531
ема	-11.2532
▁знаешь	-11.2532
mas	-11.2534
▁восприятия	-11.2534
▁осмотр	-11.2536
щин	-11.2537
▁recording	-11.2538
ob	-11.2538
▁хочешь	-11.2538
▁изображен	-11.2538
ните	-11.2539
▁Em	-11.254
▁счастью	-11.2541
лера	-11.2541
охот	-11.2542
чих	-11.2542
ome	-11.2544
мот	-11.2546
▁внутрь	-11.2547
add	-11.2547
▁дворец	-11.2549
rate	-11.255
▁Крыма	-11.255
▁Карла	-11.255
▁западных	-11.255
▁var	-11.2551
▁Главный	-11.2551
▁созданы	-11.2554
▁точнее	-11.2555
троф	-11.2555
▁Львов	-11.2556
▁train	-11.2556
▁достойн	-11.2558
▁previously	-11.256
ушку	-11.2563
таль	-11.2564
▁переводчик	-11.2565
▁жену	-11.2565
▁вулкан	-11.2566
▁настроение	-11.2566
▁ядра	-11.2568
держав	-11.2569
▁рабочей	-11.257
валь	-11.257
▁соответствующих	-11.257
▁helped	-11.2571
▁военную	-11.2571
▁marriage	-11.2571
▁Ше	-11.2572
▁сотрудничества	-11.2573
▁развивается	-11.2573
▁замок	-11.2575
зя	-11.2575
▁варианты	-11.2576
▁династии	-11.2577
▁Другой	-11.2579
▁сержант	-11.258
▁истребитель	-11.258
▁колен	-11.258
▁распространения	-11.2581
▁принц	-11.2581
▁приема	-11.2584
▁qua	-11.2585
▁командовал	-11.2585
зол	-11.2585
Са	-11.2585
▁требуют	-11.2587
▁всякой	-11.2588
▁bank	-11.2588
▁доказательства	-11.2588
уру	-11.2589
▁Боль	-11.259
▁назначение	-11.2591
▁island	-11.2591
▁учреждений	-11.2593
▁чём	-11.2594
блюд	-11.2598
ced	-11.2599
▁метра	-11.26
▁независимость	-11.26
длин	-11.2601
▁Вероятно	-11.2603
▁побережья	-11.2603
▁общая	-11.2604
▁половину	-11.2604
▁реальной	-11.2607
▁окажется	-11.2607
▁limited	-11.2608
▁почита	-11.2609
▁телевизор	-11.2609
▁вопросом	-11.2609
рё	-11.2609
shi	-11.261
▁выходил	-11.2611
ail	-11.2611
око	-11.2611
▁парень	-11.2611
▁лечение	-11.2612
Рус	-11.2613
ОЙ	-11.2615
▁списке	-11.2616
Гр	-11.2618
▁cases	-11.2618
▁условно	-11.2618
▁защите	-11.2618
▁внешних	-11.2619
▁войско	-11.2619
▁судно	-11.262
▁англичан	-11.262
▁yet	-11.2622
▁Вашингтон	-11.2622
cept	-11.2625
▁Лет	-11.2626
▁увидели	-11.2628
▁любую	-11.2634
▁Of	-11.2634
▁bi	-11.2636
▁наблюдается	-11.2636
▁мелко	-11.2636
▁революция	-11.2637
▁параллельно	-11.2638
стоян	-11.2638
▁организацию	-11.2638
▁наказание	-11.2638
▁didn	-11.2639
▁science	-11.264
техник	-11.2644
▁проезд	-11.2645
▁увеличение	-11.2645
▁o	-11.2646
▁мероприятий	-11.2647
▁понедельник	-11.2648
▁проходили	-11.2649
▁пытаются	-11.2649
▁баланс	-11.2652
▁обл	-11.2652
▁ждет	-11.2653
▁potential	-11.2654
▁допустим	-11.2654
строй	-11.2655
top	-11.2659
▁friends	-11.2662
▁учебник	-11.2662
▁rate	-11.2662
ворот	-11.2663
yn	-11.2663
▁файлов	-11.2664
▁противник	-11.2664
▁турнир	-11.2664
▁тревож	-11.2664
▁воспоминания	-11.2666
▁Bel	-11.2666
▁Брат	-11.2667
бира	-11.267
▁продолжают	-11.267
▁глуп	-11.267
▁Cre	-11.267
▁пароход	-11.2671
▁Year	-11.2672
▁жестоко	-11.2672
рут	-11.2674
▁предприниматель	-11.2674
кре	-11.2676
▁доля	-11.2677
▁планов	-11.2677
▁размеры	-11.2679
летел	-11.268
▁коммун	-11.268
▁сменил	-11.2681
▁коллеги	-11.2681
▁Bal	-11.2681
▁золота	-11.2682
▁капитана	-11.2683
▁грузин	-11.2684
▁уничтожить	-11.2685
ёк	-11.2686
▁Фер	-11.2687
▁Second	-11.2688
▁minutes	-11.2691
▁получа	-11.2691
press	-11.2692
▁попытался	-11.2693
▁specific	-11.2693
▁energy	-11.2698
▁Film	-11.2699
▁Лос	-11.2699
евым	-11.2699
▁молот	-11.27
lip	-11.27
▁problems	-11.2702
кот	-11.2703
▁звуков	-11.2703
▁решает	-11.2703
▁мелкие	-11.2704
ama	-11.2704
ьё	-11.2705
гул	-11.2708
▁screen	-11.2709
ella	-11.2711
▁внук	-11.2712
▁Израиля	-11.2713
ПА	-11.2713
▁источника	-11.2717
▁activities	-11.2717
▁сустав	-11.2721
▁критически	-11.2723
▁launched	-11.2723
▁lines	-11.2723
▁ценностей	-11.2724
▁открытым	-11.2724
ающая	-11.2726
ata	-11.2726
▁Бас	-11.2727
▁вошла	-11.2729
▁наград	-11.273
cer	-11.2732
▁Солнце	-11.2732
▁дворца	-11.2732
пись	-11.2733
▁удастся	-11.2733
▁традиционно	-11.2734
йский	-11.2734
▁XII	-11.2735
▁разреша	-11.2736
▁возвраща	-11.2737
▁majority	-11.2737
▁каталог	-11.2739
▁очков	-11.2739
▁общие	-11.2739
▁единого	-11.2739
▁способов	-11.2741
▁английском	-11.2742
▁cover	-11.2744
▁ac	-11.2745
▁запуск	-11.2746
силь	-11.2746
hen	-11.2746
ТИ	-11.2747
вых	-11.2747
▁республика	-11.2749
шке	-11.2751
▁star	-11.2751
▁gl	-11.2752
▁Сир	-11.2753
▁Over	-11.2754
ища	-11.2755
▁words	-11.2757
▁играют	-11.2758
▁архиепископ	-11.2759
▁Бак	-11.2761
▁хан	-11.2761
▁человеческих	-11.2763
▁противоположно	-11.2763
▁увеличить	-11.2765
▁прийти	-11.2765
делать	-11.2765
▁Is	-11.2766
ye	-11.2768
ded	-11.2769
ийских	-11.277
▁признаков	-11.2771
▁пору	-11.2772
▁непременно	-11.2775
▁multi	-11.2775
▁Джек	-11.2777
count	-11.2777
▁понимают	-11.2777
▁годом	-11.2777
Le	-11.2778
▁ЗА	-11.278
▁Петроград	-11.278
▁Brown	-11.278
▁Гр	-11.2782
▁стояла	-11.2783
▁вооружения	-11.2783
▁обла	-11.2784
▁заставляет	-11.2785
▁платеж	-11.2786
▁вероятность	-11.2787
▁зрителей	-11.2792
▁некогда	-11.2795
ich	-11.2795
▁Способ	-11.2795
▁Government	-11.2796
▁предоставлен	-11.2796
▁драма	-11.2797
▁act	-11.2797
▁белый	-11.2798
глас	-11.2798
нья	-11.2799
▁Баб	-11.2803
▁рос	-11.2803
▁высоту	-11.2803
двор	-11.2804
ийские	-11.2804
▁federal	-11.2804
▁пуш	-11.2805
▁салон	-11.2805
▁мороз	-11.2806
▁Известно	-11.2807
▁имущество	-11.2808
ственные	-11.2808
▁удается	-11.2809
▁присвоено	-11.281
тельным	-11.281
▁несчаст	-11.2813
▁Ер	-11.2813
stone	-11.2814
▁третьем	-11.2815
▁достоинства	-11.2815
▁полтора	-11.2816
▁чин	-11.2816
rel	-11.2817
▁рак	-11.282
чук	-11.2821
▁Бул	-11.2822
ВО	-11.2822
▁силе	-11.2824
▁примитив	-11.2824
▁канон	-11.2825
▁ангел	-11.2825
дри	-11.2826
▁Эдуард	-11.2826
▁читателя	-11.2828
▁бюро	-11.2829
▁bridge	-11.283
play	-11.2831
Петербурге	-11.2833
▁appearance	-11.2836
алась	-11.2836
▁современные	-11.2837
▁силах	-11.2838
дите	-11.2838
rt	-11.2838
▁уч	-11.2838
law	-11.284
где	-11.284
▁larger	-11.284
▁УК	-11.2842
▁Генерал	-11.2843
▁спутник	-11.2844
▁Характер	-11.2845
worth	-11.2845
дать	-11.2847
иев	-11.2848
▁полос	-11.2851
point	-11.2851
▁para	-11.2851
▁расширен	-11.2852
▁продолжали	-11.2852
▁участков	-11.2852
▁молодым	-11.2852
▁individuals	-11.2854
▁ученый	-11.2855
жан	-11.2856
▁областей	-11.2856
▁y	-11.2858
▁научного	-11.2858
▁стола	-11.2858
▁звон	-11.2859
▁агентства	-11.2859
нина	-11.286
▁Another	-11.286
▁лаборатории	-11.2861
▁проведен	-11.2863
зн	-11.2865
ходя	-11.2866
pic	-11.2868
▁Андрея	-11.2868
▁gas	-11.2869
рица	-11.287
▁Post	-11.287
атом	-11.2871
▁родилась	-11.2873
▁производить	-11.2873
Ни	-11.2873
бирать	-11.2874
▁шанс	-11.2874
аса	-11.2874
▁святого	-11.2876
▁производится	-11.2876
sha	-11.2876
▁Han	-11.2877
▁лошадей	-11.2877
▁Жизнь	-11.2878
▁взгляды	-11.2878
▁press	-11.2879
▁trial	-11.288
▁заместителем	-11.2881
рест	-11.2882
вержен	-11.2883
▁учеников	-11.2883
▁associated	-11.2884
оваться	-11.2885
▁quickly	-11.2885
▁сведений	-11.2885
▁shown	-11.2885
▁развед	-11.2886
▁Игра	-11.2886
▁выража	-11.2887
▁импорт	-11.2888
▁exc	-11.2889
▁изделия	-11.2889
док	-11.2889
▁камня	-11.289
▁высота	-11.289
▁Миш	-11.2891
▁двига	-11.2893
▁справа	-11.2894
▁remains	-11.2894
▁Бай	-11.2896
▁ногами	-11.2897
▁живопис	-11.2897
▁Швеции	-11.2897
▁угла	-11.2898
▁взрослых	-11.2902
▁осторожно	-11.2902
▁численность	-11.2903
▁winning	-11.2905
▁счастья	-11.2905
▁ошиб	-11.2905
▁сохранения	-11.2905
тали	-11.2908
▁likely	-11.2908
▁составляли	-11.2908
▁Kingdom	-11.2912
▁Дан	-11.2913
▁новыми	-11.2913
тис	-11.2913
кла	-11.2913
▁составляло	-11.2914
лый	-11.2915
▁суде	-11.2916
▁отрасли	-11.2916
▁одержал	-11.2917
ква	-11.2918
tri	-11.2919
▁брака	-11.292
▁ствол	-11.2921
▁создали	-11.2921
▁society	-11.2922
▁произошел	-11.2923
▁механик	-11.2925
аст	-11.2926
▁чтения	-11.293
ost	-11.2931
▁товары	-11.2931
▁реже	-11.2932
▁катастроф	-11.2933
ированы	-11.2933
ходящих	-11.2933
▁День	-11.2934
РО	-11.2935
bs	-11.2936
▁платить	-11.2939
ero	-11.294
lea	-11.2941
▁расположение	-11.2942
▁prior	-11.2942
▁печаль	-11.2943
▁защитник	-11.2943
рк	-11.2943
▁Дер	-11.2943
фри	-11.2944
▁raised	-11.2945
▁волю	-11.2945
▁мирового	-11.2945
▁share	-11.2946
▁floor	-11.2947
ign	-11.2948
ular	-11.2951
▁фаз	-11.2951
▁задания	-11.2952
▁командиром	-11.2952
▁НАТО	-11.2952
брод	-11.2954
▁Генри	-11.2954
▁ногу	-11.2955
▁Давайте	-11.2959
▁еже	-11.296
▁половина	-11.2961
▁chief	-11.2961
▁родной	-11.2963
▁str	-11.2965
телями	-11.2966
▁status	-11.2967
▁собора	-11.2968
Раз	-11.2968
▁близких	-11.2971
▁крив	-11.2971
▁фирм	-11.2972
▁некий	-11.2973
кси	-11.2973
uk	-11.2973
помни	-11.2974
Под	-11.2975
▁высоким	-11.2978
▁situation	-11.2978
▁дата	-11.2979
▁предстоит	-11.2979
▁командования	-11.2979
▁горд	-11.2981
▁Academy	-11.2981
▁включал	-11.2981
▁Fort	-11.2981
▁завершения	-11.2981
емым	-11.2982
▁пройдет	-11.2984
▁директором	-11.2985
▁отмечал	-11.2986
▁Comp	-11.2986
AN	-11.2987
▁Франция	-11.2987
▁nine	-11.2988
меч	-11.2988
US	-11.2989
▁бак	-11.2989
▁Последний	-11.299
▁советник	-11.299
▁рассчитан	-11.2992
игр	-11.2993
▁мощности	-11.2993
АМ	-11.2993
▁востоке	-11.2995
mail	-11.2999
▁runs	-11.3
▁выделить	-11.3001
▁икон	-11.3002
▁Com	-11.3004
▁соч	-11.3005
SE	-11.3005
нике	-11.3007
▁Фильм	-11.3008
▁Роз	-11.3008
▁срочно	-11.3008
▁numerous	-11.3011
▁организовать	-11.3012
▁Service	-11.3012
▁трон	-11.3013
правлен	-11.3018
▁ходил	-11.3022
▁kill	-11.3023
▁becoming	-11.3024
▁Canadian	-11.3026
▁Центральной	-11.3027
▁торжественно	-11.3028
▁nature	-11.3029
елей	-11.3029
▁дыхание	-11.303
▁вырос	-11.3032
▁клиента	-11.3032
опыт	-11.3033
▁heavy	-11.3034
▁Tra	-11.3034
▁physical	-11.3035
▁Следовательно	-11.3035
▁scene	-11.3039
arch	-11.3039
▁деталей	-11.3039
▁военным	-11.304
руд	-11.3041
див	-11.3043
bal	-11.3045
▁soldiers	-11.3046
▁сочинения	-11.3047
▁northern	-11.3047
Те	-11.3047
дача	-11.3049
▁соединя	-11.305
ствовал	-11.305
▁initially	-11.3051
эль	-11.3051
▁fun	-11.3052
▁простых	-11.3052
само	-11.3052
анский	-11.3053
овских	-11.3053
▁глагол	-11.3053
▁здании	-11.3054
▁небе	-11.3054
▁Речь	-11.3054
ави	-11.3054
▁молча	-11.3055
▁годами	-11.3056
▁занять	-11.3057
yard	-11.3058
цом	-11.3058
▁Пят	-11.3059
▁битвы	-11.3059
▁агентство	-11.3061
▁входили	-11.3061
▁битве	-11.3062
▁разобраться	-11.3063
▁животные	-11.3064
альд	-11.3065
▁heart	-11.3067
▁круга	-11.3067
▁необходимых	-11.3068
▁установлено	-11.3068
▁муч	-11.307
тельную	-11.3071
▁подхода	-11.3074
like	-11.3076
win	-11.3076
▁возвышен	-11.3077
▁вызвал	-11.3079
▁учитывать	-11.3079
▁собирается	-11.3081
▁пойдет	-11.3081
▁эффективность	-11.3082
▁ресурсы	-11.3083
▁Джона	-11.3083
▁Тип	-11.3083
▁считая	-11.3084
▁грязн	-11.3085
▁частных	-11.3085
▁проиграл	-11.3087
▁карьеры	-11.3088
кое	-11.3088
▁Русской	-11.3089
ходил	-11.3089
▁заняла	-11.3089
▁мятеж	-11.3092
▁соли	-11.3092
▁Texas	-11.3093
▁глубин	-11.3093
ившийся	-11.3094
▁уз	-11.3094
▁воинов	-11.3096
▁друзьями	-11.3097
▁Естественно	-11.3098
стает	-11.31
▁Днепр	-11.3101
▁завоевал	-11.3102
▁старшего	-11.3102
▁конкурент	-11.3103
cc	-11.3105
▁Рыб	-11.3107
▁fall	-11.3107
▁southern	-11.3108
▁прибор	-11.3108
▁примет	-11.3112
вое	-11.3112
▁полагал	-11.3113
▁листья	-11.3113
сал	-11.3114
▁готовности	-11.3115
cur	-11.3115
▁пистолет	-11.3116
шими	-11.3116
▁crew	-11.3117
енье	-11.3117
▁отсутствует	-11.3118
▁Иран	-11.3119
▁Васильев	-11.3119
▁фигуры	-11.312
__	-11.312
ians	-11.3122
дешев	-11.3123
▁кинематограф	-11.3124
▁отсутствии	-11.313
▁Дуб	-11.3132
Так	-11.3132
rad	-11.3135
плю	-11.3136
ающее	-11.3136
▁напряжение	-11.3138
▁выступать	-11.3139
▁смогла	-11.3139
▁положительно	-11.314
▁расстояния	-11.3141
din	-11.3141
▁Статья	-11.3142
▁происходят	-11.3142
гам	-11.3143
▁сине	-11.3143
▁speed	-11.3146
▁приняла	-11.3147
летия	-11.3148
гг	-11.3149
вёл	-11.3149
cu	-11.315
pr	-11.3152
och	-11.3152
лар	-11.3152
▁Алексеев	-11.3154
▁делах	-11.3155
▁враща	-11.3156
руп	-11.3156
▁Господь	-11.3157
class	-11.3157
▁Новой	-11.3158
верен	-11.3158
▁эконом	-11.316
▁подготовку	-11.316
опис	-11.3162
▁ведущих	-11.3162
▁Angeles	-11.3163
механ	-11.3163
▁описывает	-11.3164
ело	-11.3166
cker	-11.3167
▁крупный	-11.3168
▁вал	-11.3169
▁подъем	-11.317
беж	-11.3171
▁субъекта	-11.3171
▁оставив	-11.3172
▁хотела	-11.3173
▁многими	-11.3174
▁восстановлен	-11.3174
▁лошади	-11.3176
▁континент	-11.3177
▁int	-11.3178
gan	-11.3179
▁победа	-11.3179
▁Хор	-11.3179
▁путешествия	-11.3179
То	-11.3182
▁исчез	-11.3183
▁юрист	-11.3183
▁белые	-11.3184
pre	-11.3184
фиц	-11.3185
▁обезьян	-11.3186
Ro	-11.3187
ini	-11.3188
обр	-11.3188
▁Congress	-11.3189
▁пошла	-11.3189
▁природу	-11.3189
▁станут	-11.3189
▁маневр	-11.3191
▁Ск	-11.3192
▁одинок	-11.3193
▁залива	-11.3195
craft	-11.3195
▁Вильгельм	-11.3195
▁problem	-11.3195
▁Павла	-11.3195
▁оценка	-11.3197
▁ничто	-11.3199
▁dance	-11.32
▁кислот	-11.32
▁забав	-11.3202
шне	-11.3204
ЕЙ	-11.3205
▁Жил	-11.3205
▁коэффициент	-11.3205
вот	-11.3205
стов	-11.3206
▁nearly	-11.3208
▁бассейн	-11.3209
gs	-11.3209
▁переходит	-11.321
▁percent	-11.321
бро	-11.321
▁обязательств	-11.3211
▁Боб	-11.3211
▁Тра	-11.3211
▁гибель	-11.3212
▁сед	-11.3214
▁despite	-11.3214
▁принимали	-11.3214
зыв	-11.3215
▁восстановления	-11.3215
▁Бал	-11.3215
▁const	-11.3215
▁needed	-11.3218
деля	-11.3218
▁соединен	-11.3218
▁компанию	-11.322
▁Елена	-11.322
▁прочие	-11.3221
▁Проект	-11.3222
▁рассматривал	-11.3222
▁малыш	-11.3222
▁Уильям	-11.3223
ализм	-11.3224
▁судьбу	-11.3226
▁реал	-11.3226
▁вышло	-11.3227
▁takes	-11.3227
▁мыслей	-11.3227
▁практика	-11.3228
▁job	-11.3228
▁правду	-11.3228
Type	-11.3229
▁выполнил	-11.3229
▁Shi	-11.3231
луж	-11.3231
▁доказательств	-11.3232
Ты	-11.3232
avi	-11.3233
▁посвящён	-11.3235
▁Out	-11.3235
▁указания	-11.3236
▁восстание	-11.3237
ящая	-11.3237
▁мышцы	-11.3238
▁моменты	-11.3238
▁лимон	-11.3239
водится	-11.3239
▁лад	-11.324
▁присутствие	-11.3243
биты	-11.3244
▁тени	-11.3244
▁par	-11.3246
▁пил	-11.3247
́й	-11.3248
▁ложки	-11.3248
▁расти	-11.3249
▁комфорт	-11.3249
▁programs	-11.3251
▁акцент	-11.3251
▁базу	-11.3252
▁задание	-11.3252
('	-11.3253
AL	-11.3253
▁коммент	-11.3254
ech	-11.3254
инская	-11.3255
▁Михайлов	-11.3255
▁оператив	-11.3256
▁Гур	-11.3256
▁принимают	-11.3257
▁образца	-11.3257
▁слева	-11.3257
▁бывших	-11.3262
▁комиссия	-11.3262
▁животного	-11.3265
▁Шер	-11.3266
▁образы	-11.3266
▁разговора	-11.3267
app	-11.3267
▁попадает	-11.3269
▁двум	-11.327
▁драматург	-11.3271
▁покинуть	-11.3272
тельное	-11.3274
▁сознании	-11.3276
кл	-11.3276
Бел	-11.3277
▁proposed	-11.3279
▁male	-11.3279
дис	-11.3279
▁филиал	-11.3279
▁Old	-11.3279
▁откровенно	-11.328
rem	-11.3284
▁частях	-11.3284
▁сообщал	-11.3285
▁способствует	-11.3287
ящего	-11.3288
nn	-11.3289
rat	-11.329
▁sl	-11.3293
▁engine	-11.3295
▁поисков	-11.3298
дева	-11.3299
▁сильным	-11.33
▁больного	-11.3303
▁medical	-11.3304
▁le	-11.3305
▁рыба	-11.3305
▁Book	-11.3307
▁похожи	-11.3309
снеж	-11.3311
▁получится	-11.3312
нное	-11.3312
▁закончен	-11.3312
▁Образ	-11.3313
код	-11.3314
▁произнес	-11.3314
ged	-11.3315
▁выбрал	-11.3315
ette	-11.3316
Су	-11.3318
▁Иисус	-11.3319
кач	-11.3321
▁главная	-11.3323
▁ехать	-11.3323
▁тотчас	-11.3325
▁языки	-11.3326
▁общины	-11.3327
▁Дор	-11.3328
▁куст	-11.3328
▁стул	-11.333
▁blood	-11.3331
▁исторического	-11.3331
▁испытывал	-11.3332
▁называл	-11.3332
ливый	-11.3332
▁обнаружить	-11.3333
▁воскрес	-11.3333
▁Павлович	-11.3335
▁карту	-11.3337
рван	-11.3337
▁perform	-11.3338
нские	-11.3339
▁Наполеон	-11.3339
▁страниц	-11.334
▁Ольга	-11.334
▁допрос	-11.3342
▁Pri	-11.3344
eb	-11.3344
▁скажу	-11.3346
▁лидеров	-11.3346
▁дам	-11.3347
▁related	-11.3348
▁меню	-11.3348
▁theory	-11.3349
тора	-11.3349
▁обратил	-11.3349
страст	-11.3349
вяз	-11.3351
▁talk	-11.3352
▁кожа	-11.3352
член	-11.3355
▁производил	-11.336
АП	-11.336
▁Андреев	-11.336
▁построена	-11.336
▁массовой	-11.3361
▁разным	-11.3361
▁Первоначально	-11.3361
▁основал	-11.3361
rid	-11.3362
▁отход	-11.3363
▁Новая	-11.3367
▁label	-11.3367
▁правительством	-11.3367
▁Мать	-11.3367
▁двигаться	-11.3368
душев	-11.3369
▁Дела	-11.3373
струк	-11.3373
▁дополнительных	-11.3375
▁Кле	-11.3375
▁Австрии	-11.3376
▁Иосиф	-11.338
рский	-11.3382
▁НЕ	-11.3382
▁Дет	-11.3385
–	-11.3385
▁общую	-11.3386
med	-11.3387
▁проводит	-11.3389
▁движений	-11.3389
юк	-11.3389
▁давал	-11.3391
▁проспект	-11.3391
▁персонал	-11.3392
▁поддерживает	-11.3394
▁уважа	-11.3398
хин	-11.3399
▁соединение	-11.34
TV	-11.3401
ura	-11.3401
▁Gar	-11.3401
▁content	-11.3402
▁стекло	-11.3402
ивая	-11.3403
▁совершен	-11.3404
▁обстоятельствах	-11.3404
▁file	-11.3405
▁оснащен	-11.3405
▁бел	-11.3407
▁просьбой	-11.3408
инка	-11.3408
слан	-11.3408
стат	-11.3409
▁continue	-11.341
▁bring	-11.341
кт	-11.3411
▁box	-11.3411
▁девочка	-11.3412
▁лекарств	-11.3412
оры	-11.3414
▁голосом	-11.3418
давать	-11.3419
▁ordered	-11.3419
▁судна	-11.3423
▁парус	-11.3423
▁lot	-11.3423
мира	-11.3423
▁государством	-11.3424
▁онлайн	-11.3424
EC	-11.3426
nal	-11.3427
▁слоя	-11.3428
▁особый	-11.3429
▁Britain	-11.343
завод	-11.3431
▁поняли	-11.3433
▁Edward	-11.3433
▁plans	-11.3433
▁рожда	-11.3434
right	-11.3434
ецкий	-11.3435
▁Russia	-11.3436
▁Запада	-11.3437
▁firm	-11.3437
есь	-11.3438
▁внешнего	-11.3438
▁русская	-11.3439
▁Board	-11.3439
▁исследователи	-11.3439
▁ft	-11.344
пасть	-11.3441
▁большее	-11.3441
▁убор	-11.3443
▁Пен	-11.3445
▁Land	-11.3446
ES	-11.3447
▁хорошего	-11.345
▁болгар	-11.345
кут	-11.345
щики	-11.345
▁умеет	-11.3451
It	-11.3451
▁корабле	-11.3451
▁неизменно	-11.3452
▁бригад	-11.3452
▁Входит	-11.3453
▁подверга	-11.3453
par	-11.3453
sia	-11.3454
▁известным	-11.3455
▁органа	-11.3456
ify	-11.3457
▁Анатолий	-11.3457
▁пишут	-11.3459
▁похвал	-11.3461
любов	-11.3464
лис	-11.3466
▁звуки	-11.3466
▁Новосибирск	-11.3467
чар	-11.3469
▁Greek	-11.3471
проект	-11.3473
кр	-11.3473
▁вертолет	-11.3474
▁даст	-11.3475
щина	-11.3475
▁углу	-11.3476
▁Jewish	-11.3476
▁else	-11.3477
▁Очевидно	-11.3478
кост	-11.348
▁переводе	-11.348
▁mind	-11.3482
▁bus	-11.3483
▁американские	-11.3484
▁важную	-11.3485
▁эффективности	-11.3485
▁положил	-11.3485
▁дала	-11.3485
шедший	-11.3487
ace	-11.3488
чил	-11.3489
▁Це	-11.3489
▁ships	-11.349
МО	-11.3491
▁традиция	-11.3491
▁income	-11.3494
▁попали	-11.3495
▁Новгород	-11.3496
жир	-11.3496
тинг	-11.3497
▁кратко	-11.3498
▁безопасность	-11.3498
▁Нельзя	-11.3502
соглас	-11.3502
▁требовал	-11.3503
▁прицел	-11.3503
▁цилиндр	-11.3503
▁подчинен	-11.3503
▁XIII	-11.3504
изо	-11.3504
▁ль	-11.3504
▁исполня	-11.3504
▁gold	-11.3506
!»	-11.3506
String	-11.3507
▁латин	-11.3508
арх	-11.3509
▁approach	-11.3509
▁знала	-11.351
очно	-11.351
щика	-11.3512
bus	-11.3512
▁искренне	-11.3514
▁социальные	-11.3515
▁conditions	-11.3515
▁меняется	-11.3515
▁настоящим	-11.3516
▁членами	-11.3516
вато	-11.3517
▁схемы	-11.3517
▁воспитания	-11.3519
гром	-11.3519
волюцион	-11.3521
▁кожу	-11.3521
▁одежду	-11.3523
енг	-11.3524
▁работах	-11.3526
▁великих	-11.3526
ros	-11.3526
▁действием	-11.3527
ивается	-11.3528
▁below	-11.3528
ительным	-11.3529
▁makes	-11.3531
▁судеб	-11.3531
CC	-11.3532
▁Пес	-11.3533
ture	-11.3534
▁загадоч	-11.3534
CE	-11.3534
▁немецкие	-11.3534
РИ	-11.3536
▁градусов	-11.3538
▁famous	-11.354
министра	-11.3542
тет	-11.3545
ированию	-11.3545
▁Пас	-11.3545
▁создав	-11.3548
▁Ган	-11.3548
▁содержат	-11.3549
▁ставит	-11.3549
нка	-11.355
▁inside	-11.3551
▁восточной	-11.3552
дже	-11.3552
▁feature	-11.3552
▁enter	-11.3554
▁поднять	-11.3554
▁женился	-11.3555
ированной	-11.3555
▁составила	-11.3556
▁теряет	-11.3557
▁ожидать	-11.356
работать	-11.356
▁Института	-11.3561
▁says	-11.3561
▁использовались	-11.3562
▁middle	-11.3563
oon	-11.3563
▁«"	-11.3564
▁основой	-11.3565
▁image	-11.3565
брат	-11.3565
▁management	-11.3566
▁неплохо	-11.3568
▁развод	-11.3568
▁лак	-11.3569
мог	-11.357
▁велел	-11.357
▁новому	-11.357
▁Камен	-11.357
▁Коль	-11.3571
▁учебных	-11.3571
▁Павл	-11.3572
вз	-11.3574
▁сок	-11.3574
▁highest	-11.3576
▁CD	-11.3579
▁навстречу	-11.358
▁женщину	-11.358
▁моделей	-11.3581
".[	-11.3581
▁Vol	-11.3582
▁улиц	-11.3582
▁земной	-11.3582
▁диплом	-11.3582
нович	-11.3584
▁Доктор	-11.3584
▁патриот	-11.3586
благо	-11.3588
▁неба	-11.3589
▁Лучше	-11.359
▁убил	-11.359
▁officers	-11.3594
▁Старо	-11.3594
not	-11.3595
▁ввести	-11.3595
▁VIII	-11.3597
▁звучит	-11.3599
фар	-11.3599
▁писем	-11.3599
▁формат	-11.3601
▁линий	-11.3602
нская	-11.3603
▁Была	-11.3604
nie	-11.3605
▁Георгий	-11.3605
▁синтез	-11.3606
▁sexual	-11.3606
нера	-11.3607
▁Великий	-11.3609
▁дыр	-11.361
грамм	-11.361
▁бригада	-11.361
▁предметом	-11.3611
▁давали	-11.3611
▁башни	-11.3612
▁версию	-11.3614
▁Er	-11.3614
▁даёт	-11.3614
▁МИД	-11.3616
▁достижение	-11.3618
▁Берлине	-11.3618
ОС	-11.3618
▁films	-11.3619
▁рейтинг	-11.3621
▁Лей	-11.3621
▁оставались	-11.3621
нью	-11.3621
▁Богом	-11.3622
▁gene	-11.3622
хотя	-11.3624
sta	-11.3625
▁краю	-11.3625
▁Van	-11.3627
▁друж	-11.3629
tive	-11.363
▁join	-11.3631
▁Орлов	-11.3631
▁Нор	-11.3631
▁presented	-11.3632
▁очерк	-11.3633
▁техника	-11.3634
▁пейзаж	-11.3637
▁Сергеевич	-11.3638
▁десятилетия	-11.3638
▁Африке	-11.3639
существ	-11.3639
▁привычн	-11.364
▁сделала	-11.364
ria	-11.3641
▁пожалуйста	-11.3643
▁серия	-11.3643
▁объединен	-11.3644
▁сопровождал	-11.3645
▁развитием	-11.3648
▁пытаясь	-11.3649
ju	-11.365
▁Republic	-11.365
▁Hi	-11.3651
▁выступ	-11.3652
▁погибших	-11.3653
бот	-11.3655
▁сложные	-11.3656
▁злоб	-11.3656
▁мут	-11.3656
▁Генрих	-11.3657
▁крейсер	-11.3658
▁Za	-11.3659
бук	-11.3659
▁актриса	-11.3659
▁тюрем	-11.3659
▁далек	-11.366
▁закону	-11.366
ьном	-11.3663
нной	-11.3664
▁Леон	-11.3665
▁Mad	-11.3665
▁Финляндии	-11.3667
▁attention	-11.3667
▁Фото	-11.367
▁министерства	-11.3673
▁приложений	-11.3673
ивают	-11.3673
▁Хай	-11.3674
▁горах	-11.3674
▁пыта	-11.3675
▁НКВД	-11.3675
▁ведения	-11.3676
▁accept	-11.3676
▁обстановке	-11.3677
▁занятий	-11.3678
▁сыновей	-11.3682
▁точке	-11.3683
▁лидера	-11.3683
шина	-11.3684
▁наступил	-11.3687
праздн	-11.3687
▁computer	-11.3687
▁Труда	-11.3688
ging	-11.3689
инки	-11.369
▁малых	-11.3692
▁Двор	-11.3693
тре	-11.3694
▁роты	-11.3695
▁училища	-11.3695
▁бре	-11.3697
▁богослов	-11.3699
▁сахара	-11.37
aries	-11.3701
▁дому	-11.3704
▁гранат	-11.3705
▁agreed	-11.3706
▁кольцо	-11.3707
▁po	-11.3708
▁шахмат	-11.3712
▁выводы	-11.3713
▁районы	-11.3715
▁обыкновенно	-11.3716
▁Festival	-11.3716
▁Ireland	-11.3717
▁человечество	-11.3718
▁добавлен	-11.3718
▁контейнер	-11.3718
▁фамилии	-11.3718
▁import	-11.372
▁оценку	-11.3721
▁Григорий	-11.3721
▁облач	-11.3722
mat	-11.3722
ls	-11.3723
▁отражение	-11.3724
▁остановить	-11.3725
▁сильное	-11.3726
▁Public	-11.3726
▁повел	-11.3728
dan	-11.3728
изировать	-11.3728
new	-11.3729
▁Анны	-11.373
▁ожидания	-11.3731
вез	-11.3732
▁стихов	-11.3732
▁введен	-11.3733
▁Pat	-11.3733
бесед	-11.3734
▁защищать	-11.3735
ena	-11.3735
▁простор	-11.3736
▁проекту	-11.3737
flu	-11.3738
священ	-11.3739
▁лауреат	-11.3739
▁Bill	-11.374
лаз	-11.3743
▁белого	-11.3743
▁Артур	-11.3743
хана	-11.3744
▁собственным	-11.3746
▁обычных	-11.3747
▁мяса	-11.3748
▁Эк	-11.3749
▁Life	-11.3751
кладывать	-11.3751
▁сегмент	-11.3752
ult	-11.3754
▁основная	-11.3756
▁состоялось	-11.3757
▁channel	-11.3757
yo	-11.3757
▁Оль	-11.3757
▁опытом	-11.3758
▁partner	-11.3758
▁goals	-11.3758
View	-11.3759
▁человеке	-11.376
▁культ	-11.3761
▁намерен	-11.3763
▁Иоанна	-11.3765
▁крем	-11.3766
▁Труд	-11.3767
очную	-11.3768
▁stone	-11.3768
▁сухо	-11.3772
▁пехоты	-11.3772
ческая	-11.3772
шков	-11.3773
▁террорист	-11.3773
▁окон	-11.3774
▁search	-11.3775
▁действуют	-11.3775
▁псевдо	-11.3777
▁заговор	-11.3778
▁любовью	-11.3778
ставлять	-11.3779
▁Christ	-11.3779
▁treatment	-11.3781
▁Наш	-11.3781
▁участки	-11.3781
цк	-11.3782
овец	-11.3785
ИЛ	-11.3786
СП	-11.3787
▁свойство	-11.3788
▁распада	-11.3788
▁вызывают	-11.3789
▁Сим	-11.3789
▁results	-11.3789
▁внутренние	-11.379
▁Анд	-11.3791
▁моста	-11.3792
▁порог	-11.3792
SC	-11.3792
ери	-11.3792
▁интеллект	-11.3793
lum	-11.3794
леж	-11.3796
▁Blue	-11.3796
▁Святой	-11.3798
овское	-11.3799
▁Цел	-11.38
▁cell	-11.3804
▁важный	-11.3804
▁ранних	-11.3805
имый	-11.3806
гнал	-11.3809
DA	-11.3811
анный	-11.3812
ott	-11.3812
лета	-11.3812
▁letter	-11.3813
▁direction	-11.3813
▁Ram	-11.3814
▁бежать	-11.3814
чить	-11.3814
▁Science	-11.3815
▁имен	-11.3815
лении	-11.3818
▁доступны	-11.3819
▁flight	-11.3819
▁Рейн	-11.382
▁особенностей	-11.382
▁pressure	-11.3821
▁пересек	-11.3822
mus	-11.3822
▁премию	-11.3822
▁method	-11.3824
сид	-11.3825
истами	-11.3825
▁поддерживал	-11.3825
▁historical	-11.3827
мощ	-11.3828
лоб	-11.3829
дне	-11.3829
SI	-11.3835
▁Блок	-11.3836
▁столом	-11.3837
▁agreement	-11.3837
▁Their	-11.3838
верг	-11.3839
▁protect	-11.3841
▁разума	-11.3842
▁Свят	-11.3844
▁министров	-11.3846
▁пояснил	-11.3847
ослов	-11.3847
▁отрицательно	-11.3849
▁музее	-11.385
риф	-11.3851
mic	-11.3851
▁Весь	-11.3851
▁Март	-11.3851
▁Оп	-11.3852
▁поражен	-11.3853
▁Mexico	-11.3854
пул	-11.3854
▁Силь	-11.3854
▁студии	-11.3854
▁railway	-11.3855
вала	-11.3855
▁мгновенно	-11.3855
▁фактов	-11.3855
ящие	-11.3856
▁Вене	-11.3856
нёс	-11.3856
▁парашют	-11.3856
▁знаков	-11.3857
▁пище	-11.3858
▁последующие	-11.386
▁члена	-11.3861
▁согласован	-11.3861
▁Куп	-11.3861
▁километрах	-11.3861
▁граб	-11.3862
▁Вед	-11.3864
овала	-11.3867
▁распоряжение	-11.3867
▁потока	-11.3868
▁конкретно	-11.3869
▁растет	-11.387
▁индийск	-11.387
сло	-11.3871
**	-11.3871
▁причём	-11.3874
▁особых	-11.3875
▁этапа	-11.3875
▁фольклор	-11.3876
test	-11.3877
▁immediately	-11.388
▁Dan	-11.3881
▁Шел	-11.3883
▁подошел	-11.3884
▁обсуждения	-11.3884
mod	-11.3885
▁песню	-11.3885
▁служат	-11.3886
волок	-11.3886
Ch	-11.3889
▁смел	-11.3889
OR	-11.3891
▁суп	-11.3891
еги	-11.3891
▁инициативе	-11.3892
▁стабильн	-11.3893
▁vote	-11.3893
▁покой	-11.3893
▁Альберт	-11.3894
▁Западе	-11.3896
Де	-11.3898
▁операцию	-11.3898
IC	-11.3898
ову	-11.39
▁Банк	-11.39
лил	-11.3901
put	-11.3902
▁россиян	-11.3903
list	-11.3904
▁Вз	-11.3904
▁содержится	-11.3904
▁преступление	-11.3904
▁путешествие	-11.3905
ицкий	-11.3906
▁Ибо	-11.3907
▁весом	-11.3907
кажу	-11.3908
▁парка	-11.3908
▁печата	-11.3908
Лу	-11.3909
Йорке	-11.3911
чное	-11.3912
ЕМ	-11.3913
▁вначале	-11.3913
▁высотой	-11.3914
▁Рима	-11.3914
▁посад	-11.3914
load	-11.3915
анд	-11.3915
▁сельское	-11.3916
фр	-11.3919
▁обид	-11.392
▁Бре	-11.392
брать	-11.3921
▁читателей	-11.3921
ировав	-11.3923
оля	-11.3925
▁Екатерина	-11.3925
сни	-11.3926
▁еды	-11.3927
▁совершить	-11.3927
ПС	-11.3929
▁Став	-11.3931
▁объяснения	-11.3931
▁проблемой	-11.3931
▁стресс	-11.3932
▁directly	-11.3932
▁банки	-11.3933
дам	-11.3933
льной	-11.3934
BA	-11.3934
▁матчах	-11.3935
▁Home	-11.3935
▁кафе	-11.3936
▁можешь	-11.3936
▁невероятно	-11.3938
▁энерго	-11.3938
▁самыми	-11.3938
несла	-11.3939
▁примеры	-11.394
▁известна	-11.3941
▁расширение	-11.3941
▁атрибут	-11.3943
▁скульптур	-11.3943
▁latter	-11.3944
▁местной	-11.3945
маш	-11.3947
иска	-11.3947
▁subsequently	-11.3947
▁осуществления	-11.3948
▁камеры	-11.3948
▁надел	-11.3949
▁пассив	-11.3949
▁вере	-11.3951
▁следствия	-11.3951
▁Точно	-11.3953
sur	-11.3953
▁remaining	-11.3955
гина	-11.3955
сси	-11.3956
itz	-11.3957
▁офицера	-11.3957
long	-11.3958
▁робот	-11.3959
▁мяс	-11.396
ственная	-11.3961
▁Указом	-11.3961
▁государственные	-11.3961
▁доходов	-11.3962
▁помнить	-11.3962
▁файла	-11.3964
▁парад	-11.3964
▁Важно	-11.3965
▁усилива	-11.3965
▁отдельный	-11.3965
▁решено	-11.3965
▁Спасибо	-11.3966
▁стене	-11.3968
▁добровольно	-11.397
рет	-11.397
▁Попов	-11.3971
▁фактор	-11.3972
времен	-11.3972
кать	-11.3972
▁contact	-11.3972
▁покров	-11.3973
ческий	-11.3974
▁главные	-11.3975
▁ООО	-11.3975
▁Cas	-11.3975
▁operation	-11.3975
▁фрагмент	-11.3976
▁заседания	-11.3977
мех	-11.3978
▁avoid	-11.3978
▁Italy	-11.3979
▁хватало	-11.398
▁закрыл	-11.3981
▁Смит	-11.3982
▁su	-11.3987
има	-11.3988
▁соединений	-11.3988
вязан	-11.3989
▁торпед	-11.399
▁Тим	-11.3991
▁конкретных	-11.3993
ичность	-11.3993
▁musical	-11.3994
обы	-11.3995
службе	-11.3996
▁сооружения	-11.3997
ПУ	-11.3997
▁лежал	-11.3999
▁теме	-11.3999
▁утверждают	-11.3999
▁Система	-11.4
▁обстоятельство	-11.4
▁чудо	-11.4001
▁длины	-11.4001
▁прошу	-11.4002
▁жанр	-11.4003
▁руга	-11.4003
▁origin	-11.4004
▁Иерусалим	-11.4004
▁политик	-11.4004
жев	-11.4005
▁восток	-11.4007
▁бессмерт	-11.4007
русски	-11.4008
▁ворон	-11.4009
▁требованиям	-11.4009
▁Research	-11.401
▁реализован	-11.4011
сур	-11.4012
▁слез	-11.4013
ывает	-11.4013
▁похоронен	-11.4013
▁присутствует	-11.4015
▁персонажа	-11.4016
▁собеседник	-11.4016
▁использоваться	-11.4017
сса	-11.4019
▁Сразу	-11.4019
льные	-11.4019
▁целое	-11.4019
▁oil	-11.402
вешен	-11.402
ОМ	-11.4021
▁Необходимо	-11.4021
рии	-11.4022
▁великим	-11.4022
▁Бах	-11.4023
▁сможете	-11.4023
▁moment	-11.4024
▁бухгалтер	-11.4024
▁аромат	-11.4027
▁recent	-11.4027
sy	-11.4028
сла	-11.4029
▁поездки	-11.4029
▁построения	-11.4031
▁привлек	-11.4032
▁mostly	-11.4032
▁имеющих	-11.4033
▁defeat	-11.4033
яна	-11.4034
▁Баз	-11.4034
яков	-11.4036
▁велосипед	-11.4037
ement	-11.4037
▁вернулись	-11.4039
▁API	-11.4039
▁зарегистрирован	-11.4039
▁Участник	-11.404
строитель	-11.4041
▁officer	-11.4042
▁признавал	-11.4042
▁IP	-11.4043
▁cultural	-11.4045
▁установлена	-11.4045
▁присутствии	-11.4045
▁Val	-11.4046
▁master	-11.4046
▁разница	-11.4046
▁личных	-11.4046
▁отпуск	-11.4046
▁высокую	-11.4047
▁участвовали	-11.4047
▁Маль	-11.4048
▁приступ	-11.4048
демократ	-11.4049
▁строительстве	-11.405
▁видите	-11.4051
еты	-11.4053
крет	-11.4053
▁плотно	-11.4053
▁последняя	-11.4054
▁Наши	-11.4054
уж	-11.4054
▁tri	-11.4056
▁приобретен	-11.4056
▁звука	-11.4056
▁Европу	-11.406
▁Гей	-11.4061
body	-11.4066
▁блог	-11.4066
▁подумать	-11.4066
морф	-11.4068
▁Both	-11.4068
ЕВ	-11.4068
уется	-11.4069
▁послуш	-11.407
полнение	-11.407
▁примера	-11.4073
▁receive	-11.4073
rated	-11.4074
▁initial	-11.4075
стям	-11.4076
▁жила	-11.4077
▁Дома	-11.408
сей	-11.4082
Ро	-11.4082
давая	-11.4082
▁юноше	-11.4083
позитив	-11.4083
▁видят	-11.4083
▁artists	-11.4084
▁ориентирован	-11.4086
▁hold	-11.4087
▁стратегии	-11.4088
шло	-11.4088
▁Площадь	-11.4089
▁переулок	-11.4089
fu	-11.409
▁база	-11.409
зан	-11.409
▁слушать	-11.4091
▁продолжение	-11.4091
▁прокат	-11.4091
овки	-11.4092
▁камни	-11.4092
▁состояла	-11.4093
▁tried	-11.4094
плот	-11.4094
пуска	-11.4096
▁Министерство	-11.4096
▁описал	-11.4096
▁protest	-11.4096
анского	-11.4097
▁высокая	-11.4098
▁муниципального	-11.4099
риз	-11.4099
▁говорила	-11.4099
рского	-11.41
▁передан	-11.4101
рт	-11.4102
тана	-11.4102
▁хутор	-11.4103
тим	-11.4103
▁paper	-11.4104
▁workers	-11.4104
▁Театр	-11.4104
▁устал	-11.4105
▁объяснение	-11.4106
▁усилен	-11.4106
▁воскресенье	-11.4107
▁красиво	-11.4107
▁правилам	-11.4107
изацию	-11.4107
▁поезда	-11.4109
▁условии	-11.411
▁organ	-11.4111
▁будешь	-11.4112
aven	-11.4114
▁Северного	-11.4115
▁находилось	-11.4115
▁Интересно	-11.4115
▁Cla	-11.4117
▁карман	-11.4118
▁зон	-11.4119
▁занимались	-11.412
блок	-11.412
▁великой	-11.4122
▁annual	-11.4122
▁подчиня	-11.4122
▁ток	-11.4125
▁объясняется	-11.4126
▁врачей	-11.4127
▁ранга	-11.4128
оци	-11.413
▁городских	-11.4131
динами	-11.4132
▁обязаны	-11.4132
▁впечатления	-11.4132
вещ	-11.4133
мешал	-11.4135
▁фокус	-11.4135
▁сцену	-11.4135
▁создавал	-11.4136
▁Empire	-11.4137
▁ведомства	-11.4138
▁штук	-11.4138
▁secret	-11.4139
▁тюрьмы	-11.4141
фиг	-11.4141
TA	-11.4141
ora	-11.4142
▁высказал	-11.4142
нула	-11.4143
▁последнюю	-11.4143
▁directed	-11.4144
▁странице	-11.4144
▁грани	-11.4145
▁Frank	-11.4145
дана	-11.4145
▁ап	-11.4146
▁российские	-11.4147
▁Хр	-11.4147
против	-11.4148
▁demand	-11.4149
▁und	-11.4149
▁бассейна	-11.4149
▁Решение	-11.4149
▁преобразован	-11.415
▁гео	-11.4151
▁КГБ	-11.4153
горь	-11.4154
ившие	-11.4154
▁лето	-11.4155
▁сестры	-11.4156
▁Мик	-11.4158
▁Free	-11.4158
шер	-11.4159
▁преимущество	-11.4159
nic	-11.416
писать	-11.416
▁параметров	-11.4162
IT	-11.4165
мести	-11.4166
▁продюсер	-11.4166
▁сообщении	-11.4168
▁практику	-11.4169
▁иск	-11.4169
▁XI	-11.417
▁Метод	-11.417
▁murder	-11.4171
носим	-11.4172
Се	-11.4173
ject	-11.4175
чение	-11.4176
▁исследователь	-11.4176
гиб	-11.4177
▁принципов	-11.4177
▁митинг	-11.4178
▁размеща	-11.4178
▁жертвы	-11.4179
▁секунду	-11.4183
▁марш	-11.4184
▁Best	-11.4185
▁прекращ	-11.4188
▁приходил	-11.4189
лена	-11.4191
▁музыкант	-11.4192
▁пуга	-11.4192
▁Билл	-11.4193
▁родину	-11.4193
рост	-11.4194
▁stay	-11.4195
▁имеющие	-11.4195
▁artist	-11.4196
▁превращается	-11.4196
▁приходят	-11.4198
▁лингвист	-11.4198
два	-11.4199
▁risk	-11.4199
овна	-11.42
ЕТ	-11.42
▁Бра	-11.4201
▁объектом	-11.4201
▁coast	-11.4201
▁канад	-11.4203
▁помещение	-11.4203
▁собственное	-11.4203
ходящие	-11.4204
▁избавиться	-11.4206
▁hands	-11.4207
крыть	-11.4207
▁каз	-11.4208
туп	-11.4209
▁утверждения	-11.421
▁Экс	-11.421
▁семинар	-11.4211
▁выявлен	-11.4212
▁животное	-11.4213
▁уклон	-11.4213
▁трудов	-11.4213
▁мальчика	-11.4216
▁really	-11.4217
▁браузер	-11.4217
ающих	-11.4218
▁вправе	-11.4219
▁След	-11.422
▁тюрьме	-11.4221
▁позвонил	-11.4221
▁Глав	-11.4222
▁отклик	-11.4222
хоз	-11.4224
▁освобожден	-11.4225
тти	-11.4226
▁данными	-11.4227
▁uses	-11.4229
▁такому	-11.4229
▁художественной	-11.4231
▁взаимодействие	-11.4231
»:	-11.4232
лор	-11.4234
▁матерью	-11.4236
▁заложен	-11.4236
▁величины	-11.4236
▁revealed	-11.4237
▁Пет	-11.4237
ившихся	-11.4239
́д	-11.4241
вшимися	-11.4243
▁transport	-11.4243
рожа	-11.4244
▁несет	-11.4245
▁Какой	-11.4246
щему	-11.4246
▁марки	-11.4247
▁напрямую	-11.4247
работал	-11.4248
рын	-11.4248
дикт	-11.4249
▁Хэ	-11.425
▁герб	-11.425
физ	-11.4251
▁владельца	-11.4252
▁Earth	-11.4253
▁превышает	-11.4253
▁компонент	-11.4253
ada	-11.4254
▁Смоленск	-11.4254
▁meaning	-11.4254
vas	-11.4255
▁civil	-11.4256
атора	-11.4257
ющимися	-11.4257
абель	-11.4258
▁Кен	-11.4258
ничтож	-11.4258
▁Фор	-11.4258
Динамо	-11.4259
▁пациента	-11.426
▁tradition	-11.426
▁technology	-11.426
▁прототип	-11.4261
ste	-11.4261
▁price	-11.4261
▁органами	-11.4261
▁каст	-11.4262
лиги	-11.4262
▁Казалось	-11.4262
▁Mer	-11.4263
▁подполковник	-11.4266
оход	-11.4266
▁table	-11.4267
san	-11.4267
▁Томас	-11.4267
▁согласия	-11.4268
▁изделий	-11.4269
перед	-11.427
▁лицу	-11.4271
▁deep	-11.4271
▁решении	-11.4272
▁танки	-11.4272
▁разработка	-11.4273
▁холодной	-11.4274
under	-11.4274
енский	-11.4277
▁теоретически	-11.4277
украин	-11.4278
▁специализирован	-11.4278
▁honor	-11.4278
▁аэропорт	-11.4278
▁управляем	-11.4279
▁Стро	-11.4281
▁свеже	-11.4282
губ	-11.4283
▁выяснить	-11.4284
▁заполнен	-11.4284
qua	-11.4285
▁бояр	-11.4285
▁умение	-11.4286
▁полов	-11.4287
▁параметры	-11.4289
▁хорошее	-11.4289
▁исключа	-11.429
▁закреплен	-11.4291
▁царств	-11.4291
▁dark	-11.4291
▁bomb	-11.4291
▁свободного	-11.4293
▁менять	-11.4293
каль	-11.4295
▁Жена	-11.4295
ечный	-11.4295
▁старался	-11.4295
▁Казахстана	-11.4295
прост	-11.4295
▁Navy	-11.4297
▁damage	-11.4298
▁обязанностей	-11.4299
▁четверг	-11.4299
▁огромной	-11.43
▁Алексеевич	-11.4301
▁ИТАР	-11.4303
▁Думаю	-11.4304
работка	-11.4304
▁итог	-11.4304
дур	-11.4306
▁sense	-11.4306
▁конкурса	-11.4306
▁рассказы	-11.4307
▁либеральн	-11.4307
ВА	-11.4307
▁портал	-11.4308
▁представителями	-11.4309
▁referred	-11.4311
▁географ	-11.4311
▁исключения	-11.4313
▁преступлений	-11.4313
ленные	-11.4313
Me	-11.4316
pha	-11.4317
желт	-11.4319
зм	-11.4319
▁producer	-11.432
▁Education	-11.432
▁бежал	-11.4321
bor	-11.4321
▁Станислав	-11.4322
▁страдания	-11.4323
вос	-11.4323
▁дневник	-11.4323
банк	-11.4324
пур	-11.4325
▁оперы	-11.4327
▁расстрел	-11.4328
▁Рез	-11.4328
▁постройки	-11.4329
▁BBC	-11.433
pos	-11.433
вля	-11.4332
ставить	-11.4332
▁сильные	-11.4332
▁оптимальн	-11.4333
▁реактив	-11.4335
▁военном	-11.4335
Co	-11.4335
▁levels	-11.4335
▁придет	-11.4335
▁финале	-11.4336
▁специальной	-11.4338
нских	-11.4338
▁Бан	-11.4339
▁Мэри	-11.4341
▁оценке	-11.4341
ington	-11.4342
▁бои	-11.4342
late	-11.4342
▁СО	-11.4343
▁Wood	-11.4343
▁кулак	-11.4344
▁идеально	-11.4346
▁писали	-11.4347
проб	-11.4348
▁отверг	-11.4348
▁Big	-11.4348
▁длину	-11.435
▁полку	-11.4351
правил	-11.4353
its	-11.4354
▁научные	-11.4355
▁ряду	-11.4357
▁подал	-11.4357
▁хозяйств	-11.4359
▁Records	-11.4359
очным	-11.4361
▁винт	-11.4361
кул	-11.4361
▁увеличения	-11.4362
▁reg	-11.4362
▁appears	-11.4363
▁запреща	-11.4363
▁Класс	-11.4363
▁держа	-11.4363
верну	-11.4364
▁edition	-11.4365
rain	-11.4367
▁equal	-11.4369
▁mass	-11.4369
троп	-11.4369
▁привел	-11.4369
▁древние	-11.4371
AM	-11.4372
▁сделает	-11.4372
▁ведомств	-11.4373
▁semi	-11.4373
▁виртуал	-11.4375
▁буквы	-11.4376
▁meet	-11.4376
▁Jack	-11.4378
▁Давид	-11.4379
▁выполняет	-11.4379
▁давайте	-11.438
▁равнин	-11.4381
▁древности	-11.4382
▁сотен	-11.4382
bat	-11.4382
дак	-11.4383
▁редакции	-11.4384
спект	-11.4384
евая	-11.4385
▁disease	-11.4385
имость	-11.4386
▁multiple	-11.4387
▁играли	-11.4388
▁сокращен	-11.4388
▁рев	-11.4388
▁conflict	-11.439
▁целого	-11.439
мешан	-11.439
Инд	-11.4391
королев	-11.4392
▁платье	-11.4393
иты	-11.4395
▁issued	-11.4395
▁экране	-11.4396
▁единство	-11.4396
▁Mu	-11.4398
xi	-11.4398
▁внешним	-11.4398
▁Стоит	-11.4399
▁постоянной	-11.44
▁Нев	-11.4402
▁цепи	-11.4403
фы	-11.4403
▁rule	-11.4405
▁limit	-11.4405
марк	-11.4407
нг	-11.4408
▁волна	-11.4408
▁ставить	-11.4409
▁ПРО	-11.4409
▁couple	-11.441
▁клубе	-11.441
▁Алексея	-11.4411
▁рецепт	-11.4411
нимая	-11.4413
▁крыла	-11.4414
▁лодка	-11.4414
att	-11.4415
▁колонии	-11.4415
тянуть	-11.4417
▁approximately	-11.4417
▁стрелковой	-11.4418
лева	-11.4418
▁каш	-11.4418
▁осуществить	-11.4419
шись	-11.4419
ринг	-11.442
ean	-11.442
▁последствий	-11.4422
благоприят	-11.4423
▁Бей	-11.4423
▁serve	-11.4423
▁object	-11.4424
▁очаг	-11.4424
зра	-11.4424
▁difficult	-11.4426
▁абстракт	-11.4427
We	-11.4427
▁Иисуса	-11.4428
ulation	-11.4432
▁структуре	-11.4432
жин	-11.4433
шиб	-11.4433
▁What	-11.4434
▁евреи	-11.4435
▁надзор	-11.4436
тическое	-11.4437
burg	-11.4438
▁выразить	-11.4438
▁явился	-11.4438
▁лыж	-11.444
▁pair	-11.444
альном	-11.4441
ТЕ	-11.4442
▁Эм	-11.4443
▁signal	-11.4443
нулась	-11.4443
носят	-11.4443
▁маленькие	-11.4446
▁пятницу	-11.4446
▁полков	-11.4448
▁мистер	-11.4449
жей	-11.445
▁примеров	-11.445
▁РАН	-11.445
▁заместителя	-11.4451
▁приготовлен	-11.4451
▁полюс	-11.4452
▁определил	-11.4453
▁фантаст	-11.4454
▁государственном	-11.4454
▁App	-11.4455
▁СПб	-11.4456
▁Эту	-11.4457
data	-11.446
▁owned	-11.4461
▁Мад	-11.4462
▁тайно	-11.4462
▁облака	-11.4463
эстет	-11.4464
▁невидим	-11.4466
▁Facebook	-11.4466
трав	-11.4467
▁образу	-11.4468
▁kept	-11.4468
лаг	-11.4469
▁падает	-11.447
▁известность	-11.447
▁reference	-11.4473
него	-11.4473
ворачива	-11.4473
▁перешли	-11.4473
ИК	-11.4474
▁отмечается	-11.4476
▁Тал	-11.4478
▁дебют	-11.448
ked	-11.448
▁leg	-11.4481
▁probably	-11.4482
▁курсы	-11.4483
▁усовершенствова	-11.4483
▁кольца	-11.4484
▁максимум	-11.4485
▁комнат	-11.4485
ump	-11.4485
▁concert	-11.4485
▁блока	-11.4488
▁обычным	-11.4488
щенко	-11.4488
няв	-11.449
ённый	-11.4491
▁seat	-11.4491
▁окружающих	-11.4492
▁приклад	-11.4494
брасыва	-11.4495
▁Joseph	-11.4495
▁ДНК	-11.4495
чим	-11.4496
▁фу	-11.4496
▁продолжается	-11.4497
▁замкнут	-11.4498
▁монопол	-11.4498
▁свобода	-11.4499
тина	-11.4501
▁грех	-11.4502
▁Pra	-11.4503
script	-11.4503
▁лорд	-11.4504
▁избав	-11.4504
нули	-11.4504
▁Мус	-11.4505
▁==	-11.4505
▁senior	-11.4507
▁патриарх	-11.4509
унг	-11.4509
ектор	-11.451
▁судьбе	-11.451
▁выступление	-11.451
▁красный	-11.4511
илов	-11.4511
▁тока	-11.4511
Украин	-11.4511
▁удивля	-11.4511
▁благополучно	-11.4511
▁зависимость	-11.4512
▁встречу	-11.4512
▁здравоохранения	-11.4513
▁mar	-11.4514
▁инструменты	-11.4515
▁Sh	-11.4516
▁удивительн	-11.4516
слушива	-11.4516
▁кандидатов	-11.4517
▁русско	-11.4518
▁похода	-11.4519
▁Восток	-11.4519
LE	-11.452
▁appear	-11.452
▁телом	-11.452
▁проклят	-11.4522
▁big	-11.4523
▁называемые	-11.4523
▁настроения	-11.4523
▁spread	-11.4524
▁течения	-11.4527
оид	-11.4528
▁Теле	-11.4529
▁насилия	-11.4529
▁преимущества	-11.453
ei	-11.4532
▁Tre	-11.4534
▁ламп	-11.4535
▁fell	-11.4536
▁Сент	-11.4536
▁объясняет	-11.4536
▁Черн	-11.4537
▁обычной	-11.4538
▁французских	-11.4539
▁физик	-11.454
▁security	-11.454
▁объединение	-11.4543
▁Sub	-11.4543
хай	-11.4544
▁основана	-11.4544
An	-11.4544
▁специального	-11.4545
▁Os	-11.4546
ити	-11.4549
опер	-11.4549
▁Израиль	-11.4551
▁губернатора	-11.4552
▁западе	-11.4552
рика	-11.4552
▁собственник	-11.4554
▁протекает	-11.4556
чие	-11.4556
▁содержал	-11.4557
wing	-11.4557
▁помогал	-11.4558
▁памятника	-11.4558
kh	-11.4559
▁получали	-11.4559
▁лошадь	-11.4561
▁инстинкт	-11.4561
ичные	-11.4562
ably	-11.4562
▁Сталинград	-11.4563
▁болезней	-11.4563
las	-11.4564
▁включают	-11.4565
▁university	-11.4566
ties	-11.4567
▁ликвидации	-11.4568
▁словах	-11.4569
▁ряды	-11.457
Пол	-11.457
▁узлов	-11.457
▁оборону	-11.457
▁населённых	-11.457
сажен	-11.4571
▁жестко	-11.4573
никова	-11.4573
▁молока	-11.4573
АД	-11.4573
▁Ильич	-11.4574
▁вооруженных	-11.4574
▁посёлка	-11.4574
▁милиции	-11.4574
летняя	-11.4575
▁факультета	-11.4576
▁границей	-11.4578
▁торгов	-11.4578
▁платы	-11.4578
▁Хе	-11.4579
▁Отдел	-11.4579
▁жен	-11.458
звон	-11.458
очное	-11.458
▁племени	-11.4581
▁параллель	-11.4582
▁Советский	-11.4582
▁ПВО	-11.4582
▁фасад	-11.4583
ули	-11.4583
чес	-11.4584
▁намерения	-11.4585
▁стремительно	-11.4585
ved	-11.4587
▁частот	-11.4587
▁Gold	-11.4588
▁Long	-11.4588
▁пятна	-11.4589
ступал	-11.459
бегает	-11.459
▁пират	-11.4591
▁selected	-11.4591
ичная	-11.4591
▁оппозиции	-11.4591
▁снимал	-11.4592
▁Долго	-11.4592
▁специальный	-11.4594
▁лука	-11.4594
▁efforts	-11.4595
ироваться	-11.4596
слы	-11.4596
▁черный	-11.4596
бери	-11.4597
▁назвали	-11.4599
▁task	-11.4599
▁желал	-11.46
▁Love	-11.46
▁чист	-11.46
▁actually	-11.4602
ийская	-11.4602
анн	-11.4603
▁лозунг	-11.4604
▁request	-11.4606
▁администратор	-11.4606
▁обоснован	-11.4607
▁Макс	-11.4607
▁вв	-11.4608
▁недолго	-11.4608
▁народы	-11.461
ming	-11.461
▁толк	-11.4611
▁искал	-11.4611
▁наблюда	-11.4611
ыск	-11.4611
▁представителя	-11.4612
▁discovered	-11.4613
▁ана	-11.4616
▁передаче	-11.4618
▁образуют	-11.4619
▁славы	-11.462
▁всячески	-11.462
▁разделе	-11.462
▁консерв	-11.462
▁Au	-11.4621
ождеств	-11.4621
▁настоящей	-11.4621
крытие	-11.4621
▁сценарий	-11.4622
▁движением	-11.4623
ценз	-11.4623
▁wall	-11.4625
▁чемпионом	-11.4625
▁Irish	-11.4626
▁audience	-11.4628
▁Самое	-11.4628
▁спрашивает	-11.4631
чке	-11.4632
▁залив	-11.4632
ившиеся	-11.4632
▁Кре	-11.4633
shed	-11.4634
▁Храм	-11.4638
▁сообщений	-11.4638
▁starting	-11.4638
▁Yu	-11.4639
▁обладал	-11.4639
▁заставил	-11.4639
▁Bell	-11.464
Ри	-11.4641
▁western	-11.4642
▁рамки	-11.4642
▁мощность	-11.4642
▁IX	-11.4643
▁Mil	-11.4644
▁забыть	-11.4644
▁обратить	-11.4645
ствовать	-11.4645
▁аналитик	-11.4645
▁разбил	-11.4646
дь	-11.4647
era	-11.4647
▁уничтожен	-11.4649
итар	-11.4649
▁заняли	-11.4649
▁effects	-11.4651
▁Марс	-11.4651
▁глас	-11.4651
▁столе	-11.4651
▁дизайн	-11.4652
гад	-11.4652
▁третье	-11.4652
▁принадлежат	-11.4653
уна	-11.4653
▁forest	-11.4653
▁успели	-11.4654
▁дне	-11.4656
▁коррект	-11.4657
уре	-11.4658
▁груд	-11.4658
▁существовало	-11.4658
▁Работал	-11.4658
▁Од	-11.4659
▁Sho	-11.466
▁Денис	-11.4661
St	-11.4662
▁входа	-11.4664
св	-11.4667
Чер	-11.4669
▁позволить	-11.4669
▁аварий	-11.4669
Cl	-11.4669
▁туалет	-11.467
▁уголовного	-11.4672
▁издатель	-11.4672
▁кратер	-11.4673
еет	-11.4673
▁произвел	-11.4675
▁вспоминает	-11.4675
мобиль	-11.4676
▁переживания	-11.4677
▁кн	-11.4677
▁формой	-11.4678
▁финансовых	-11.4679
bit	-11.468
▁Пр	-11.468
▁Гон	-11.4681
▁археолог	-11.4681
▁полосы	-11.4682
▁ожидал	-11.4682
айт	-11.4682
▁входил	-11.4682
▁породы	-11.4682
cast	-11.4683
▁try	-11.4683
▁образцов	-11.4684
▁жертву	-11.4684
пира	-11.4684
ировала	-11.4685
▁сохрани	-11.4685
FC	-11.4686
речь	-11.4687
▁elements	-11.4687
▁cannot	-11.4687
вилл	-11.4688
▁кандидата	-11.4688
▁Толстого	-11.4689
▁законодатель	-11.4689
▁привлечь	-11.469
▁мелоди	-11.4691
▁европейской	-11.4692
▁crime	-11.4692
▁Аг	-11.4693
▁равны	-11.4693
▁fi	-11.4694
▁указан	-11.4695
▁готова	-11.4699
▁responsible	-11.4701
ras	-11.4702
▁странами	-11.4703
▁проведении	-11.4703
▁Win	-11.4704
Бр	-11.4705
ечная	-11.4706
▁Commission	-11.4706
▁параметр	-11.4706
LA	-11.4709
▁residents	-11.471
▁первыми	-11.4711
▁грудь	-11.4711
▁указать	-11.4711
▁кислоты	-11.4711
▁сбора	-11.4712
sum	-11.4712
▁currently	-11.4713
▁вектор	-11.4714
▁методом	-11.4715
истых	-11.4715
Когда	-11.4715
▁православной	-11.4715
ящей	-11.4715
ковой	-11.4715
▁упомина	-11.4719
▁сражения	-11.472
КС	-11.4724
▁Президента	-11.4725
бив	-11.4725
▁угрозы	-11.4726
▁упрек	-11.4728
▁насыщен	-11.4729
▁бандит	-11.473
▁средних	-11.473
ишься	-11.4731
▁чувствовать	-11.4732
▁removed	-11.4732
Интер	-11.4732
▁бренд	-11.4733
▁легион	-11.4733
▁диапазон	-11.4734
▁Power	-11.4734
информ	-11.4735
▁миссии	-11.4737
van	-11.4738
изме	-11.4738
▁бомбардировщик	-11.4738
pet	-11.4738
▁охотник	-11.4739
▁growth	-11.474
▁ищет	-11.474
▁managed	-11.474
▁display	-11.4741
ческие	-11.4742
▁вошёл	-11.4743
▁интересах	-11.4743
левых	-11.4744
▁variety	-11.4746
▁council	-11.4746
▁столкновения	-11.4746
▁Египта	-11.4747
Мир	-11.4747
бет	-11.4748
греш	-11.4748
▁называемый	-11.4749
▁группировки	-11.4749
▁Стивен	-11.475
▁вторник	-11.4751
▁Middle	-11.4752
▁инспектор	-11.4752
▁Пара	-11.4753
▁Мама	-11.4754
▁невы	-11.4755
▁разруша	-11.4755
▁шляп	-11.4758
▁Средне	-11.4759
▁богат	-11.476
анской	-11.476
айл	-11.476
бей	-11.4761
▁Ki	-11.4761
▁houses	-11.4762
▁morning	-11.4762
няк	-11.4764
lia	-11.4764
▁собирать	-11.4764
▁упорно	-11.4764
ose	-11.4766
▁легких	-11.4766
орг	-11.4767
▁пригород	-11.4768
▁нации	-11.4768
▁информацией	-11.4769
а́н	-11.4769
▁минерал	-11.477
▁тексте	-11.4771
▁имею	-11.4772
фра	-11.4772
▁forward	-11.4773
▁кровью	-11.4774
▁сердечно	-11.4774
▁Стефан	-11.4775
down	-11.4775
▁долга	-11.4776
▁Цель	-11.4777
▁дереве	-11.4777
del	-11.4778
▁справедливости	-11.4779
▁Книга	-11.478
tel	-11.478
▁элит	-11.478
verse	-11.478
You	-11.4782
падают	-11.4784
▁рельеф	-11.4785
▁хим	-11.4785
▁колонн	-11.4786
▁потерпел	-11.4786
▁ОАО	-11.4787
енном	-11.4788
▁записал	-11.4788
ношения	-11.4788
тян	-11.4789
▁запущен	-11.479
▁лагере	-11.479
▁организовал	-11.479
чко	-11.4792
▁значительное	-11.4797
▁Team	-11.48
▁Journal	-11.4801
▁жидкости	-11.4801
карт	-11.4802
Ин	-11.4802
▁полем	-11.4802
▁преодолеть	-11.4802
▁Фрейд	-11.4803
▁Ел	-11.4803
есса	-11.4804
▁способа	-11.4804
▁перелом	-11.4805
части	-11.4805
▁вашу	-11.4806
▁поколение	-11.481
ame	-11.481
bre	-11.4811
льник	-11.4812
▁доверие	-11.4813
▁Профиль	-11.4816
▁ability	-11.4817
▁шест	-11.4818
▁Virginia	-11.4819
▁ВКП	-11.4819
▁обез	-11.4821
▁del	-11.4821
▁красоты	-11.4822
плош	-11.4823
ула	-11.4823
восток	-11.4824
▁сокровищ	-11.4824
Аль	-11.4825
rac	-11.4827
▁численности	-11.4827
▁личный	-11.4828
▁расширения	-11.4829
анты	-11.483
▁Ваш	-11.4831
▁отражен	-11.4831
▁взлет	-11.4832
▁психиатр	-11.4833
▁войти	-11.4834
▁молодежи	-11.4835
▁заново	-11.4835
▁highly	-11.4836
нским	-11.4838
▁activity	-11.4839
▁искусственно	-11.4841
ava	-11.4841
▁Arts	-11.4842
ута	-11.4842
▁отцов	-11.4842
Золотой	-11.4844
▁воевод	-11.4844
уры	-11.4844
▁шок	-11.485
уди	-11.485
ляется	-11.4852
▁cities	-11.4852
▁взорва	-11.4852
▁metal	-11.4853
▁швейцар	-11.4854
▁демократии	-11.4855
▁forms	-11.4856
eri	-11.4858
оди	-11.4858
▁Общая	-11.486
▁сенатор	-11.4861
хер	-11.4861
▁РИА	-11.4862
▁дальнейшего	-11.4862
▁орех	-11.4863
▁счета	-11.4864
▁feel	-11.4865
▁падение	-11.4866
with	-11.4867
▁трагедии	-11.4869
оте	-11.4871
▁собственность	-11.4873
▁южн	-11.4876
▁Мур	-11.4877
▁молекул	-11.4877
▁Украина	-11.4878
▁Pacific	-11.4878
▁участии	-11.4879
евого	-11.488
book	-11.4881
▁судя	-11.4882
▁ссылкой	-11.4883
▁возведен	-11.4884
▁регионов	-11.4884
▁judge	-11.4884
▁mine	-11.4885
▁Большого	-11.4886
звуч	-11.4886
маль	-11.4887
работан	-11.4888
верс	-11.4888
▁оборудован	-11.4889
▁лекции	-11.4889
▁трус	-11.489
ною	-11.489
▁Lee	-11.489
lem	-11.489
▁балет	-11.4891
Петербурга	-11.4891
▁медицины	-11.4893
▁отвечать	-11.4893
▁попада	-11.4894
▁четвёрт	-11.4894
▁дистанции	-11.4894
ese	-11.4896
шку	-11.4896
▁постоянного	-11.4897
▁bill	-11.4898
▁blue	-11.4898
▁офицеры	-11.4899
hood	-11.4899
▁некое	-11.4899
▁завершил	-11.49
▁отцу	-11.49
▁биограф	-11.49
oy	-11.4903
une	-11.4905
▁поклон	-11.4906
▁последующих	-11.4906
▁направил	-11.4906
▁чтение	-11.4906
▁телеканал	-11.4908
▁медицинской	-11.4909
▁вызвало	-11.4909
cycl	-11.491
▁Also	-11.491
▁исследователей	-11.4912
▁квартал	-11.4914
▁непонятно	-11.4915
▁intended	-11.4916
▁Александров	-11.4916
Господ	-11.4918
▁отнести	-11.4918
етт	-11.4918
▁ссылки	-11.4918
ступил	-11.4919
▁механизма	-11.4919
▁прогул	-11.492
▁принципу	-11.492
ческих	-11.492
терн	-11.4921
▁определенного	-11.4921
гент	-11.4921
уются	-11.4921
▁магазина	-11.4921
▁средством	-11.4922
▁проводим	-11.4924
▁Луны	-11.4924
дос	-11.4924
▁coming	-11.4925
везли	-11.4926
▁выдвига	-11.4927
▁крупного	-11.4928
▁истинно	-11.4929
▁процента	-11.493
tract	-11.4931
▁череп	-11.4931
▁Boy	-11.4932
▁address	-11.4933
▁наблюдение	-11.4934
▁физического	-11.4934
spi	-11.494
▁царство	-11.4941
государ	-11.4942
▁поп	-11.4943
▁религиозных	-11.4943
тянул	-11.4944
eth	-11.4944
▁Медведев	-11.4945
говарива	-11.4945
▁reform	-11.4945
▁names	-11.4947
ВД	-11.4947
▁простые	-11.4952
▁касс	-11.4952
колон	-11.4952
▁Ля	-11.4954
▁Чемпион	-11.4955
▁Самый	-11.4955
ree	-11.4955
▁свидетельства	-11.4955
кнул	-11.496
pt	-11.4961
▁рефлекс	-11.4961
▁отнес	-11.4962
▁captured	-11.4962
давались	-11.4962
▁штурмов	-11.4962
▁path	-11.4965
▁контексте	-11.4966
иваться	-11.4966
▁печать	-11.4967
квартир	-11.4967
gin	-11.4968
ПО	-11.4969
кция	-11.4969
▁connection	-11.497
aff	-11.4971
▁chart	-11.4972
▁Остров	-11.4974
▁стрелкового	-11.4975
▁сериала	-11.4975
жива	-11.4975
Россия	-11.4975
лая	-11.4976
▁святых	-11.4977
иваются	-11.4978
▁пригласил	-11.4978
▁Поль	-11.4979
бог	-11.4979
uch	-11.498
▁наполнен	-11.498
▁нервной	-11.4981
нику	-11.4981
енского	-11.4982
ответ	-11.4982
́н	-11.4982
lus	-11.4983
];	-11.4983
▁центров	-11.4983
дре	-11.4984
▁умерла	-11.4985
▁благ	-11.4985
▁wing	-11.4988
▁защищен	-11.4988
меняют	-11.4989
▁знаменитый	-11.499
льц	-11.4992
▁нигде	-11.4992
▁военное	-11.4993
следователь	-11.4993
▁пусто	-11.4994
▁критик	-11.4995
поли	-11.4996
▁набрал	-11.4998
table	-11.4998
пра	-11.4999
▁Time	-11.4999
▁логически	-11.4999
gram	-11.5
интерес	-11.5001
▁Свобод	-11.5001
▁Cu	-11.5001
▁длинно	-11.5002
▁Сара	-11.5002
унт	-11.5003
▁включил	-11.5003
▁Radio	-11.5003
▁железа	-11.5003
▁обозначен	-11.5004
▁схеме	-11.5005
вого	-11.5006
Команд	-11.501
▁глядя	-11.5011
▁югу	-11.5012
гармон	-11.5013
▁Буд	-11.5013
нам	-11.5014
зия	-11.5015
▁Благо	-11.5015
▁возникли	-11.5016
▁оказываются	-11.5016
уэ	-11.5017
▁нужд	-11.5019
▁соревнованиях	-11.5019
now	-11.502
▁дано	-11.5021
▁пыль	-11.5022
лекс	-11.5022
▁значений	-11.5025
▁Федер	-11.5025
▁деталь	-11.5026
Запад	-11.5026
▁компонентов	-11.5027
▁Бри	-11.5027
▁=>	-11.5027
архи	-11.5028
тяг	-11.5031
▁буржуа	-11.5031
▁дорого	-11.5031
ОЗ	-11.5033
▁наряд	-11.5034
▁Nor	-11.5034
▁серию	-11.5034
▁проекте	-11.5035
▁environment	-11.5037
бород	-11.5037
▁этаже	-11.5038
▁атак	-11.5038
▁плач	-11.5038
▁телефону	-11.5039
▁перевода	-11.5041
▁спасения	-11.5041
▁покоя	-11.5042
▁людях	-11.5042
зой	-11.5043
▁Мои	-11.5043
itch	-11.5044
▁цитат	-11.5044
▁минус	-11.5044
▁расширя	-11.5045
tis	-11.5047
▁ОС	-11.5047
▁предположение	-11.5048
▁классе	-11.5048
▁Слово	-11.505
▁матрос	-11.5051
▁определенным	-11.5051
▁рубежом	-11.5052
реза	-11.5053
place	-11.5056
▁Game	-11.5056
▁нейро	-11.5056
▁точности	-11.5056
ind	-11.5057
▁спортсмен	-11.5059
▁предельно	-11.5059
▁желает	-11.5059
DE	-11.5059
▁небольшое	-11.5059
lad	-11.5059
▁гибк	-11.506
▁престиж	-11.506
▁поднялся	-11.5063
▁fellow	-11.5063
▁скромно	-11.5064
Бо	-11.5065
▁освобождение	-11.5066
▁братом	-11.5066
▁творчестве	-11.5067
▁charge	-11.5068
▁произвол	-11.5069
pon	-11.5069
▁являлись	-11.507
▁знаки	-11.507
ступит	-11.5071
▁незаконно	-11.5071
това	-11.5076
▁судом	-11.5076
▁декор	-11.5077
▁организме	-11.5077
никам	-11.5079
тил	-11.5079
тельство	-11.508
▁журналистам	-11.508
▁отмечают	-11.508
▁классической	-11.5081
ыч	-11.5081
кладки	-11.5082
date	-11.5083
▁размером	-11.5084
▁Ser	-11.5084
ография	-11.5084
▁Диа	-11.5085
▁гал	-11.5086
андер	-11.5086
рой	-11.509
▁Office	-11.509
▁внутренний	-11.509
▁acquired	-11.509
▁отмечен	-11.5091
oe	-11.5092
▁Гро	-11.5094
▁оригинал	-11.5097
▁Ант	-11.5097
Урал	-11.5098
▁любым	-11.5098
▁Армении	-11.5098
▁задумыва	-11.5099
▁расположено	-11.5099
▁Владимирович	-11.5099
▁укрепления	-11.5099
▁композиции	-11.51
▁Будучи	-11.51
▁пл	-11.5101
рина	-11.5101
▁showed	-11.5101
▁Inc	-11.5101
▁championship	-11.5102
Se	-11.5102
▁tournament	-11.5105
▁destroyed	-11.5107
исповед	-11.5107
▁хо	-11.5108
ib	-11.5109
▁присвоен	-11.5109
▁холодно	-11.511
▁Моя	-11.511
▁ребят	-11.5111
роч	-11.5112
▁безопасн	-11.5112
▁попытку	-11.5114
▁остальное	-11.5114
▁шкур	-11.5115
▁вопреки	-11.5115
bound	-11.5115
▁увеличива	-11.5117
водя	-11.5118
▁десятка	-11.5119
хор	-11.5119
▁вовремя	-11.512
ящим	-11.5122
gal	-11.5122
▁дивизий	-11.5123
▁оптим	-11.5123
луп	-11.5124
ступив	-11.5125
▁руководителем	-11.5126
▁фанат	-11.5126
▁цари	-11.5127
▁дивизион	-11.513
ицей	-11.513
▁моменту	-11.513
▁побег	-11.5131
▁сохранение	-11.5132
▁водитель	-11.5132
▁provides	-11.5133
ущего	-11.5134
▁begin	-11.5136
▁заметны	-11.5136
▁Правительство	-11.514
▁батареи	-11.514
▁главную	-11.514
▁созыва	-11.514
▁подбор	-11.5142
систем	-11.5142
альность	-11.5146
ительное	-11.5147
▁nothing	-11.5147
cor	-11.5149
▁методик	-11.515
разному	-11.515
ичной	-11.515
уров	-11.5151
▁Foundation	-11.5151
▁обознача	-11.5152
анье	-11.5153
▁Грин	-11.5154
▁Ham	-11.5154
цкого	-11.5155
▁поиски	-11.5155
▁Василия	-11.5156
▁выведен	-11.5156
▁захватить	-11.5156
▁организацией	-11.5156
▁Толстой	-11.5157
▁свидетельствуют	-11.5157
▁химии	-11.5158
▁knowledge	-11.5158
zo	-11.5158
ивших	-11.5159
▁спиной	-11.5159
арий	-11.516
CH	-11.516
боя	-11.516
▁ставил	-11.5161
ges	-11.5162
Покров	-11.5162
двига	-11.5163
▁Бек	-11.5163
▁кругу	-11.5164
▁matter	-11.5164
▁ввиду	-11.5165
▁желая	-11.5166
ony	-11.5166
▁прост	-11.5166
править	-11.5166
bon	-11.5168
lay	-11.5168
▁ферм	-11.5168
▁представлений	-11.5171
оборон	-11.5172
▁гражданского	-11.5172
▁drive	-11.5174
▁draw	-11.5174
РУ	-11.5175
▁Фр	-11.5176
ложили	-11.5179
▁поехал	-11.5179
▁берут	-11.518
▁sha	-11.518
технолог	-11.5181
meter	-11.5183
▁общение	-11.5183
▁Илья	-11.5184
▁управлении	-11.5184
▁planned	-11.5185
▁Петербурга	-11.5185
▁Вели	-11.5185
▁гитар	-11.5185
▁Зем	-11.5186
▁санитар	-11.5186
нными	-11.5187
▁store	-11.5187
▁заявила	-11.5188
ook	-11.5188
▁Chief	-11.5188
▁document	-11.5192
▁представлена	-11.5192
ующих	-11.5192
▁следовать	-11.5193
▁продвига	-11.5194
▁знакомых	-11.5195
▁допустить	-11.5195
коло	-11.5195
▁металла	-11.5195
▁частицы	-11.5196
▁счита	-11.5196
▁понятий	-11.5197
▁Арт	-11.5199
▁покрыт	-11.5199
▁шпион	-11.5199
▁равна	-11.5199
▁постиг	-11.5199
▁Кавказ	-11.5201
eo	-11.5201
лак	-11.5202
▁полиция	-11.5203
▁секретаря	-11.5203
▁department	-11.5203
кай	-11.5205
▁напечатан	-11.5205
▁скрип	-11.5206
▁средне	-11.5206
▁слуг	-11.5207
▁Android	-11.5207
▁Село	-11.5207
варить	-11.5208
▁сыну	-11.5209
▁защитить	-11.521
▁предков	-11.521
▁alone	-11.521
▁fear	-11.5211
▁контраст	-11.5212
▁определенный	-11.5214
▁Эли	-11.5214
▁интервал	-11.5218
rin	-11.5219
хозяй	-11.5219
▁стакана	-11.522
пустить	-11.5222
▁шин	-11.5223
▁тестов	-11.5223
▁ob	-11.5224
▁узнали	-11.5224
▁pen	-11.5225
▁захватил	-11.5225
▁серьезные	-11.5225
живать	-11.5226
▁открыли	-11.5226
▁наблюдал	-11.5227
территор	-11.5227
aka	-11.5228
▁прекратить	-11.5228
▁женат	-11.5228
▁стрельбы	-11.5229
▁сосуд	-11.5231
остей	-11.5232
мож	-11.5233
▁платформы	-11.5233
▁убедить	-11.5233
▁жене	-11.5234
▁Маркс	-11.5234
▁Бразилии	-11.5236
▁поврежден	-11.5236
▁ударов	-11.5237
▁Pol	-11.5239
gre	-11.5239
▁leaders	-11.5239
▁gain	-11.524
▁paid	-11.524
▁мужество	-11.524
оров	-11.5243
▁дефицит	-11.5243
Вер	-11.5243
▁водян	-11.5244
▁действовал	-11.5245
▁вашим	-11.5246
▁хорошей	-11.5247
▁Хам	-11.5247
торж	-11.5248
ele	-11.5249
▁Пётр	-11.525
▁представлять	-11.5251
▁позор	-11.5252
▁крепостн	-11.5252
▁единственной	-11.5253
▁сохранились	-11.5254
▁расследования	-11.5255
слыша	-11.5256
гун	-11.5258
▁giving	-11.5258
▁Town	-11.5259
устойчив	-11.526
▁разработку	-11.526
▁ушли	-11.526
▁календар	-11.5261
▁федерального	-11.5262
▁ждал	-11.5262
▁растение	-11.5263
▁прокурор	-11.5263
▁охран	-11.5264
ТС	-11.5264
ношен	-11.5265
ставьте	-11.5266
▁акта	-11.5267
▁удовольствием	-11.5269
▁назначил	-11.5269
▁Новости	-11.5269
▁Кузнецов	-11.527
▁барабан	-11.527
▁средняя	-11.5272
хватить	-11.5272
▁Пьер	-11.5273
▁Институт	-11.5273
▁Германию	-11.5274
▁Газ	-11.5274
▁восприятие	-11.5274
▁указывал	-11.5274
▁конструктив	-11.5275
struct	-11.5275
▁Швейцарии	-11.5276
▁Valley	-11.5277
ложите	-11.5277
▁settlement	-11.5279
vel	-11.5281
▁влияет	-11.5281
́л	-11.5281
▁установили	-11.5282
▁therefore	-11.5283
▁Prince	-11.5284
▁Открыт	-11.5286
▁показалось	-11.5286
орган	-11.5287
▁установления	-11.5289
▁хозяина	-11.529
▁духовного	-11.529
▁numbers	-11.5291
плет	-11.5291
эд	-11.5291
▁сторонников	-11.5291
кевич	-11.5292
▁уступ	-11.5292
▁мужем	-11.5294
▁беседы	-11.5297
▁эмоции	-11.5297
▁подготовка	-11.5297
▁результата	-11.5297
▁Gal	-11.5299
▁турист	-11.5301
окс	-11.5302
▁Шам	-11.5303
oli	-11.5303
▁запланирован	-11.5306
▁лит	-11.5307
▁Бала	-11.5307
устройств	-11.5308
▁цифры	-11.5309
▁применяют	-11.5309
ИЗ	-11.5311
▁Stra	-11.5312
▁IT	-11.5314
▁шло	-11.5314
стин	-11.5316
▁бюрократ	-11.5316
▁позади	-11.5316
▁изучать	-11.5318
▁Университет	-11.5318
▁значительные	-11.5318
▁небольшая	-11.5319
▁бунт	-11.5319
▁extended	-11.532
▁данное	-11.532
овским	-11.532
▁охотно	-11.5321
▁quarter	-11.5321
▁прошёл	-11.5322
▁именова	-11.5323
▁expected	-11.5323
▁выходить	-11.5324
▁отряды	-11.5324
вшем	-11.5325
▁скуч	-11.5326
служив	-11.5327
▁ядро	-11.5327
рабо	-11.5327
▁wind	-11.5328
▁era	-11.5328
▁ответы	-11.5332
▁Две	-11.5334
▁die	-11.5334
основ	-11.5335
ковым	-11.5335
▁дождь	-11.5335
нас	-11.5336
Пере	-11.5336
more	-11.5337
▁привела	-11.5337
▁бойцов	-11.5339
друж	-11.5339
елли	-11.534
пак	-11.534
▁бас	-11.5341
▁Процесс	-11.5342
ныне	-11.5342
▁появится	-11.5342
▁удавалось	-11.5343
▁Дей	-11.5343
[...]
