{
  "version": "1.0",
  "truncation": null,
  "padding": null,
  "added_tokens": [
    {
      "id": 0,
      "content": "<unk>",
      "single_word": false,
      "lstrip": false,
      "rstrip": false,
      "normalized": false,
      "special": true
    },
    {
      "id": 1,
      "content": "<s>",
      "single_word": false,
      "lstrip": false,
      "rstrip": false,
      "normalized": false,
      "special": true
    },
    {
      "id": 2,
      "content": "</s>",
      "single_word": false,
      "lstrip": false,
      "rstrip": false,
      "normalized": false,
      "special": true
    }
  ],
  "normalizer": {
    "type": "Sequence",
    "normalizers": [
      {
        "type": "Prepend",
        "prepend": "▁"
      },
      {
        "type": "Replace",
        "pattern": {
          "String": " "
        },
        "content": "▁"
      }
    ]
  },
  "pre_tokenizer": null,
  "post_processor": {
    "type": "TemplateProcessing",
    "single": [
      {
        "SpecialToken": {
          "id": "<s>",
          "type_id": 0
        }
      },
      {
        "Sequence": {
          "id": "A",
          "type_id": 0
        }
      }
    ],
    "pair": [
      {
        "SpecialToken": {
          "id": "<s>",
          "type_id": 0
        }
      },
      {
        "Sequence": {
          "id": "A",
          "type_id": 0
        }
      },
      {
        "SpecialToken": {
          "id": "<s>",
          "type_id": 1
        }
      },
      {
        "Sequence": {
          "id": "B",
          "type_id": 1
        }
      }
    ],
    "special_tokens": {
      "<s>": {
        "id": "<s>",
        "ids": [
          1
        ],
        "tokens": [
          "<s>"
        ]
      }
    }
  },
  "decoder": {
    "type": "Sequence",
    "decoders": [
      {
        "type": "Replace",
        "pattern": {
          "String": "▁"
        },
        "content": " "
      },
      {
        "type": "ByteFallback"
      },
      {
        "type": "Fuse"
      },
      {
        "type": "Strip",
        "content": " ",
        "start": 1,
        "stop": 0
      }
    ]
  },
  "model": {
    "type": "Unigram",
    "unk_id": 0,
    "vocab": [
      [
        "<unk>",
        0.0
      ],
      [
        "<s>",
        0.0
      ],
      [
        "</s>",
        0.0
      ],
      [
        "<0x00>",
        0.0
      ],
      [
        "<0x01>",
        0.0
      ],
      [
        "<0x02>",
        0.0
      ],
      [
        "<0x03>",
        0.0
      ],
      [
        "<0x04>",
        0.0
      ],
      [
        "<0x05>",
        0.0
      ],
      [
        "<0x06>",
        0.0
      ],
      [
        "<0x07>",
        0.0
      ],
      [
        "<0x08>",
        0.0
      ],
      [
        "<0x09>",
        0.0
      ],
      [
        "<0x0A>",
        0.0
      ],
      [
        "<0x0B>",
        0.0
      ],
      [
        "<0x0C>",
        0.0
      ],
      [
        "<0x0D>",
        0.0
      ],
      [
        "<0x0E>",
        0.0
      ],
      [
        "<0x0F>",
        0.0
      ],
      [
        "<0x10>",
        0.0
      ],
      [
        "<0x11>",
        0.0
      ],
      [
        "<0x12>",
        0.0
      ],
      [
        "<0x13>",
        0.0
      ],
      [
        "<0x14>",
        0.0
      ],
      [
        "<0x15>",
        0.0
      ],
      [
        "<0x16>",
        0.0
      ],
      [
        "<0x17>",
        0.0
      ],
      [
        "<0x18>",
        0.0
      ],
      [
        "<0x19>",
        0.0
      ],
      [
        "<0x1A>",
        0.0
      ],
      [
        "<0x1B>",
        0.0
      ],
      [
        "<0x1C>",
        0.0
      ],
      [
        "<0x1D>",
        0.0
      ],
      [
        "<0x1E>",
        0.0
      ],
      [
        "<0x1F>",
        0.0
      ],
      [
        "<0x20>",
        0.0
      ],
      [
        "<0x21>",
        0.0
      ],
      [
        "<0x22>",
        0.0
      ],
      [
        "<0x23>",
        0.0
      ],
      [
        "<0x24>",
        0.0
      ],
      [
        "<0x25>",
        0.0
      ],
      [
        "<0x26>",
        0.0
      ],
      [
        "<0x27>",
        0.0
      ],
      [
        "<0x28>",
        0.0
      ],
      [
        "<0x29>",
        0.0
      ],
      [
        "<0x2A>",
        0.0
      ],
      [
        "<0x2B>",
        0.0
      ],
      [
        "<0x2C>",
        0.0
      ],
      [
        "<0x2D>",
        0.0
      ],
      [
        "<0x2E>",
        0.0
      ],
      [
        "<0x2F>",
        0.0
      ],
      [
        "<0x30>",
        0.0
      ],
      [
        "<0x31>",
        0.0
      ],
      [
        "<0x32>",
        0.0
      ],
      [
        "<0x33>",
        0.0
      ],
      [
        "<0x34>",
        0.0
      ],
      [
        "<0x35>",
        0.0
      ],
      [
        "<0x36>",
        0.0
      ],
      [
        "<0x37>",
        0.0
      ],
      [
        "<0x38>",
        0.0
      ],
      [
        "<0x39>",
        0.0
      ],
      [
        "<0x3A>",
        0.0
      ],
      [
        "<0x3B>",
        0.0
      ],
      [
        "<0x3C>",
        0.0
      ],
      [
        "<0x3D>",
        0.0
      ],
      [
        "<0x3E>",
        0.0
      ],
      [
        "<0x3F>",
        0.0
      ],
      [
        "<0x40>",
        0.0
      ],
      [
        "<0x41>",
        0.0
      ],
      [
        "<0x42>",
        0.0
      ],
      [
        "<0x43>",
        0.0
      ],
      [
        "<0x44>",
        0.0
      ],
      [
        "<0x45>",
        0.0
      ],
      [
        "<0x46>",
        0.0
      ],
      [
        "<0x47>",
        0.0
      ],
      [
        "<0x48>",
        0.0
      ],
      [
        "<0x49>",
        0.0
      ],
      [
        "<0x4A>",
        0.0
      ],
      [
        "<0x4B>",
        0.0
      ],
      [
        "<0x4C>",
        0.0
      ],
      [
        "<0x4D>",
        0.0
      ],
      [
        "<0x4E>",
        0.0
      ],
      [
        "<0x4F>",
        0.0
      ],
      [
        "<0x50>",
        0.0
      ],
      [
        "<0x51>",
        0.0
      ],
      [
        "<0x52>",
        0.0
      ],
      [
        "<0x53>",
        0.0
      ],
      [
        "<0x54>",
        0.0
      ],
      [
        "<0x55>",
        0.0
      ],
      [
        "<0x56>",
        0.0
      ],
      [
        "<0x57>",
        0.0
      ],
      [
        "<0x58>",
        0.0
      ],
      [
        "<0x59>",
        0.0
      ],
      [
        "<0x5A>",
        0.0
      ],
      [
        "<0x5B>",
        0.0
      ],
      [
        "<0x5C>",
        0.0
      ],
      [
        "<0x5D>",
        0.0
      ],
      [
        "<0x5E>",
        0.0
      ],
      [
        "<0x5F>",
        0.0
      ],
      [
        "<0x60>",
        0.0
      ],
      [
        "<0x61>",
        0.0
      ],
      [
        "<0x62>",
        0.0
      ],
      [
        "<0x63>",
        0.0
      ],
      [
        "<0x64>",
        0.0
      ],
      [
        "<0x65>",
        0.0
      ],
      [
        "<0x66>",
        0.0
      ],
      [
        "<0x67>",
        0.0
      ],
      [
        "<0x68>",
        0.0
      ],
      [
        "<0x69>",
        0.0
      ],
      [
        "<0x6A>",
        0.0
      ],
      [
        "<0x6B>",
        0.0
      ],
      [
        "<0x6C>",
        0.0
      ],
      [
        "<0x6D>",
        0.0
      ],
      [
        "<0x6E>",
        0.0
      ],
      [
        "<0x6F>",
        0.0
      ],
      [
        "<0x70>",
        0.0
      ],
      [
        "<0x71>",
        0.0
      ],
      [
        "<0x72>",
        0.0
      ],
      [
        "<0x73>",
        0.0
      ],
      [
        "<0x74>",
        0.0
      ],
      [
        "<0x75>",
        0.0
      ],
      [
        "<0x76>",
        0.0
      ],
      [
        "<0x77>",
        0.0
      ],
      [
        "<0x78>",
        0.0
      ],
      [
        "<0x79>",
        0.0
      ],
      [
        "<0x7A>",
        0.0
      ],
      [
        "<0x7B>",
        0.0
      ],
      [
        "<0x7C>",
        0.0
      ],
      [
        "<0x7D>",
        0.0
      ],
      [
        "<0x7E>",
        0.0
      ],
      [
        "<0x7F>",
        0.0
      ],
      [
        "<0x80>",
        0.0
      ],
      [
        "<0x81>",
        0.0
      ],
      [
        "<0x82>",
        0.0
      ],
      [
        "<0x83>",
        0.0
      ],
      [
        "<0x84>",
        0.0
      ],
      [
        "<0x85>",
        0.0
      ],
      [
        "<0x86>",
        0.0
      ],
      [
        "<0x87>",
        0.0
      ],
      [
        "<0x88>",
        0.0
      ],
      [
        "<0x89>",
        0.0
      ],
      [
        "<0x8A>",
        0.0
      ],
      [
        "<0x8B>",
        0.0
      ],
      [
        "<0x8C>",
        0.0
      ],
      [
        "<0x8D>",
        0.0
      ],
      [
        "<0x8E>",
        0.0
      ],
      [
        "<0x8F>",
        0.0
      ],
      [
        "<0x90>",
        0.0
      ],
      [
        "<0x91>",
        0.0
      ],
      [
        "<0x92>",
        0.0
      ],
      [
        "<0x93>",
        0.0
      ],
      [
        "<0x94>",
        0.0
      ],
      [
        "<0x95>",
        0.0
      ],
      [
        "<0x96>",
        0.0
      ],
      [
        "<0x97>",
        0.0
      ],
      [
        "<0x98>",
        0.0
      ],
      [
        "<0x99>",
        0.0
      ],
      [
        "<0x9A>",
        0.0
      ],
      [
        "<0x9B>",
        0.0
      ],
      [
        "<0x9C>",
        0.0
      ],
      [
        "<0x9D>",
        0.0
      ],
      [
        "<0x9E>",
        0.0
      ],
      [
        "<0x9F>",
        0.0
      ],
      [
        "<0xA0>",
        0.0
      ],
      [
        "<0xA1>",
        0.0
      ],
      [
        "<0xA2>",
        0.0
      ],
      [
        "<0xA3>",
        0.0
      ],
      [
        "<0xA4>",
        0.0
      ],
      [
        "<0xA5>",
        0.0
      ],
      [
        "<0xA6>",
        0.0
      ],
      [
        "<0xA7>",
        0.0
      ],
      [
        "<0xA8>",
        0.0
      ],
      [
        "<0xA9>",
        0.0
      ],
      [
        "<0xAA>",
        0.0
      ],
      [
        "<0xAB>",
        0.0
      ],
      [
        "<0xAC>",
        0.0
      ],
      [
        "<0xAD>",
        0.0
      ],
      [
        "<0xAE>",
        0.0
      ],
      [
        "<0xAF>",
        0.0
      ],
      [
        "<0xB0>",
        0.0
      ],
      [
        "<0xB1>",
        0.0
      ],
      [
        "<0xB2>",
        0.0
      ],
      [
        "<0xB3>",
        0.0
      ],
      [
        "<0xB4>",
        0.0
      ],
      [
        "<0xB5>",
        0.0
      ],
      [
        "<0xB6>",
        0.0
      ],
      [
        "<0xB7>",
        0.0
      ],
      [
        "<0xB8>",
        0.0
      ],
      [
        "<0xB9>",
        0.0
      ],
      [
        "<0xBA>",
        0.0
      ],
      [
        "<0xBB>",
        0.0
      ],
      [
        "<0xBC>",
        0.0
      ],
      [
        "<0xBD>",
        0.0
      ],
      [
        "<0xBE>",
        0.0
      ],
      [
        "<0xBF>",
        0.0
      ],
      [
        "<0xC0>",
        0.0
      ],
      [
        "<0xC1>",
        0.0
      ],
      [
        "<0xC2>",
        0.0
      ],
      [
        "<0xC3>",
        0.0
      ],
      [
        "<0xC4>",
        0.0
      ],
      [
        "<0xC5>",
        0.0
      ],
      [
        "<0xC6>",
        0.0
      ],
      [
        "<0xC7>",
        0.0
      ],
      [
        "<0xC8>",
        0.0
      ],
      [
        "<0xC9>",
        0.0
      ],
      [
        "<0xCA>",
        0.0
      ],
      [
        "<0xCB>",
        0.0
      ],
      [
        "<0xCC>",
        0.0
      ],
      [
        "<0xCD>",
        0.0
      ],
      [
        "<0xCE>",
        0.0
      ],
      [
        "<0xCF>",
        0.0
      ],
      [
        "<0xD0>",
        0.0
      ],
      [
        "<0xD1>",
        0.0
      ],
      [
        "<0xD2>",
        0.0
      ],
      [
        "<0xD3>",
        0.0
      ],
      [
        "<0xD4>",
        0.0
      ],
      [
        "<0xD5>",
        0.0
      ],
      [
        "<0xD6>",
        0.0
      ],
      [
        "<0xD7>",
        0.0
      ],
      [
        "<0xD8>",
        0.0
      ],
      [
        "<0xD9>",
        0.0
      ],
      [
        "<0xDA>",
        0.0
      ],
      [
        "<0xDB>",
        0.0
      ],
      [
        "<0xDC>",
        0.0
      ],
      [
        "<0xDD>",
        0.0
      ],
      [
        "<0xDE>",
        0.0
      ],
      [
        "<0xDF>",
        0.0
      ],
      [
        "<0xE0>",
        0.0
      ],
      [
        "<0xE1>",
        0.0
      ],
      [
        "<0xE2>",
        0.0
      ],
      [
        "<0xE3>",
        0.0
      ],
      [
        "<0xE4>",
        0.0
      ],
      [
        "<0xE5>",
        0.0
      ],
      [
        "<0xE6>",
        0.0
      ],
      [
        "<0xE7>",
        0.0
      ],
      [
        "<0xE8>",
        0.0
      ],
      [
        "<0xE9>",
        0.0
      ],
      [
        "<0xEA>",
        0.0
      ],
      [
        "<0xEB>",
        0.0
      ],
      [
        "<0xEC>",
        0.0
      ],
      [
        "<0xED>",
        0.0
      ],
      [
        "<0xEE>",
        0.0
      ],
      [
        "<0xEF>",
        0.0
      ],
      [
        "<0xF0>",
        0.0
      ],
      [
        "<0xF1>",
        0.0
      ],
      [
        "<0xF2>",
        0.0
      ],
      [
        "<0xF3>",
        0.0
      ],
      [
        "<0xF4>",
        0.0
      ],
      [
        "<0xF5>",
        0.0
      ],
      [
        "<0xF6>",
        0.0
      ],
      [
        "<0xF7>",
        0.0
      ],
      [
        "<0xF8>",
        0.0
      ],
      [
        "<0xF9>",
        0.0
      ],
      [
        "<0xFA>",
        0.0
      ],
      [
        "<0xFB>",
        0.0
      ],
      [
        "<0xFC>",
        0.0
      ],
      [
        "<0xFD>",
        0.0
      ],
      [
        "<0xFE>",
        0.0
      ],
      [
        "<0xFF>",
        0.0
      ],
      [
        ",",
        -3.027647018432617
      ],
      [
        ".",
        -3.3018651008605957
      ],
      [
        "▁",
        -3.363384962081909
      ],
      [
        "▁в",
        -4.123651027679443
      ],
      [
        "▁и",
        -4.216183185577393
      ],
      [
        "а",
        -4.5568952560424805
      ],
      [
        "1",
        -4.575718402862549
      ],
      [
        "-",
        -4.873411178588867
      ],
      [
        "▁на",
        -4.891572952270508
      ],
      [
        "0",
        -4.932518005371094
      ],
      [
        "▁the",
        -4.988923072814941
      ],
      [
        "▁с",
        -5.01276969909668
      ],
      [
        "е",
        -5.086967945098877
      ],
      [
        "▁не",
        -5.125104904174805
      ],
      [
        "2",
        -5.13015604019165
      ],
      [
        "s",
        -5.14469575881958
      ],
      [
        "9",
        -5.263086795806885
      ],
      [
        "и",
        -5.278300762176514
      ],
      [
        "▁-",
        -5.385796070098877
      ],
      [
        "▁\"",
        -5.396396636962891
      ],
      [
        "▁по",
        -5.472606658935547
      ],
      [
        "▁что",
        -5.557353973388672
      ],
      [
        "у",
        -5.5676798820495605
      ],
      [
        "ы",
        -5.584571361541748
      ],
      [
        "▁of",
        -5.626079559326172
      ],
      [
        "м",
        -5.649768829345703
      ],
      [
        "▁(",
        -5.696846008300781
      ],
      [
        "▁В",
        -5.704764366149902
      ],
      [
        "▁and",
        -5.7517242431640625
      ],
      [
        "3",
        -5.758033275604248
      ],
      [
        "5",
        -5.780776500701904
      ],
      [
        ":",
        -5.793091297149658
      ],
      [
        "8",
        -5.822084426879883
      ],
      [
        "4",
        -5.834414482116699
      ],
      [
        "о",
        -5.862349987030029
      ],
      [
        "\"",
        -5.873266220092773
      ],
      [
        "ом",
        -5.901949882507324
      ],
      [
        "▁in",
        -5.908233165740967
      ],
      [
        "▁к",
        -5.922454833984375
      ],
      [
        "▁за",
        -5.928120136260986
      ],
      [
        "ов",
        -5.954828262329102
      ],
      [
        "▁to",
        -5.957934379577637
      ],
      [
        "▁из",
        -5.980566501617432
      ],
      [
        "6",
        -5.983713626861572
      ],
      [
        "7",
        -6.015425205230713
      ],
      [
        "▁от",
        -6.033642768859863
      ],
      [
        "▁a",
        -6.0824480056762695
      ],
      [
        "▁как",
        -6.13746452331543
      ],
      [
        "▁о",
        -6.172603130340576
      ],
      [
        ")",
        -6.207870006561279
      ],
      [
        "й",
        -6.210558891296387
      ],
      [
        "х",
        -6.235164165496826
      ],
      [
        "▁—",
        -6.315232276916504
      ],
      [
        "▁у",
        -6.319976806640625
      ],
      [
        "▁«",
        -6.333858966827393
      ],
      [
        "▁его",
        -6.359655380249023
      ],
      [
        "▁а",
        -6.366929054260254
      ],
      [
        "▁для",
        -6.380069255828857
      ],
      [
        "я",
        -6.431949615478516
      ],
      [
        ";",
        -6.477528095245361
      ],
      [
        "▁при",
        -6.481978416442871
      ],
      [
        "▁он",
        -6.490682125091553
      ],
      [
        "ой",
        -6.537344932556152
      ],
      [
        "▁до",
        -6.567325115203857
      ],
      [
        "ных",
        -6.583400249481201
      ],
      [
        "'",
        -6.6126484870910645
      ],
      [
        "▁это",
        -6.615474700927734
      ],
      [
        "▁С",
        -6.630661964416504
      ],
      [
        "ные",
        -6.638759136199951
      ],
      [
        "▁was",
        -6.654568195343018
      ],
      [
        "ся",
        -6.661481857299805
      ],
      [
        "ной",
        -6.6947760581970215
      ],
      [
        "ный",
        -6.702592372894287
      ],
      [
        "▁года",
        -6.705719470977783
      ],
      [
        "ами",
        -6.71793794631958
      ],
      [
        "▁но",
        -6.721200942993164
      ],
      [
        "▁или",
        -6.755629539489746
      ],
      [
        "▁же",
        -6.772890090942383
      ],
      [
        "▁был",
        -6.775633811950684
      ],
      [
        "▁я",
        -6.783236503601074
      ],
      [
        "ми",
        -6.790658473968506
      ],
      [
        "ю",
        -6.802841663360596
      ],
      [
        "го",
        -6.802985191345215
      ],
      [
        "▁вы",
        -6.826679229736328
      ],
      [
        "▁А",
        -6.830605983734131
      ],
      [
        "▁то",
        -6.841127872467041
      ],
      [
        "▁все",
        -6.8506760597229
      ],
      [
        "▁под",
        -6.857980728149414
      ],
      [
        "▁И",
        -6.864785194396973
      ],
      [
        "ки",
        -6.865771770477295
      ],
      [
        "ed",
        -6.866955280303955
      ],
      [
        "▁The",
        -6.906435012817383
      ],
      [
        "?",
        -6.91948127746582
      ],
      [
        "ного",
        -6.920509338378906
      ],
      [
        "ка",
        -6.933992862701416
      ],
      [
        "но",
        -6.937544822692871
      ],
      [
        "ing",
        -6.938809871673584
      ],
      [
        "▁было",
        -6.939849853515625
      ],
      [
        "с",
        -6.955843448638916
      ],
      [
        "»",
        -6.956413269042969
      ],
      [
        "▁for",
        -6.968678951263428
      ],
      [
        "▁так",
        -6.974396228790283
      ],
      [
        "ет",
        -6.977236747741699
      ],
      [
        "то",
        -6.983011722564697
      ],
      [
        "\".",
        -6.991100788116455
      ],
      [
        "ия",
        -7.029816150665283
      ],
      [
        "▁их",
        -7.04174280166626
      ],
      [
        "ли",
        -7.055139541625977
      ],
      [
        "▁году",
        -7.057323455810547
      ],
      [
        ").",
        -7.059961795806885
      ],
      [
        "ная",
        -7.075600624084473
      ],
      [
        "▁as",
        -7.079819679260254
      ],
      [
        "\",",
        -7.10430383682251
      ],
      [
        "▁про",
        -7.121648788452148
      ],
      [
        "▁on",
        -7.1233320236206055
      ],
      [
        "▁with",
        -7.125495910644531
      ],
      [
        "▁that",
        -7.132840633392334
      ],
      [
        "на",
        -7.1388139724731445
      ],
      [
        "в",
        -7.143076419830322
      ],
      [
        "▁is",
        -7.157647132873535
      ],
      [
        "▁только",
        -7.160427570343018
      ],
      [
        "▁На",
        -7.177241325378418
      ],
      [
        "ах",
        -7.186323165893555
      ],
      [
        "▁со",
        -7.187084674835205
      ],
      [
        "▁По",
        -7.187283515930176
      ],
      [
        "ным",
        -7.191691875457764
      ],
      [
        "л",
        -7.216866493225098
      ],
      [
        "▁раз",
        -7.2263970375061035
      ],
      [
        "т",
        -7.232895851135254
      ],
      [
        "!",
        -7.247374534606934
      ],
      [
        "▁by",
        -7.250690937042236
      ],
      [
        "▁бы",
        -7.2566986083984375
      ],
      [
        "ть",
        -7.259420394897461
      ],
      [
        "▁время",
        -7.259495258331299
      ],
      [
        "),",
        -7.272653102874756
      ],
      [
        "▁мы",
        -7.282336711883545
      ],
      [
        "▁они",
        -7.319019317626953
      ],
      [
        "▁Но",
        -7.3201727867126465
      ],
      [
        "ого",
        -7.326524257659912
      ],
      [
        "▁были",
        -7.332240104675293
      ],
      [
        "▁г",
        -7.334259510040283
      ],
      [
        "▁во",
        -7.337015628814697
      ],
      [
        "d",
        -7.339453220367432
      ],
      [
        "ии",
        -7.34016752243042
      ],
      [
        "▁К",
        -7.371276378631592
      ],
      [
        "▁об",
        -7.373031139373779
      ],
      [
        "ий",
        -7.3769049644470215
      ],
      [
        "...",
        -7.388184547424316
      ],
      [
        "ая",
        -7.390544891357422
      ],
      [
        "▁чтобы",
        -7.390594959259033
      ],
      [
        "ное",
        -7.427158355712891
      ],
      [
        "ие",
        -7.434528350830078
      ],
      [
        "/",
        -7.442013740539551
      ],
      [
        "▁уже",
        -7.446422576904297
      ],
      [
        "▁также",
        -7.452810764312744
      ],
      [
        "ку",
        -7.466214179992676
      ],
      [
        "▁когда",
        -7.466465950012207
      ],
      [
        "▁Я",
        -7.47810173034668
      ],
      [
        "▁была",
        -7.482821464538574
      ],
      [
        "ых",
        -7.486618518829346
      ],
      [
        "ской",
        -7.494576930999756
      ],
      [
        "ам",
        -7.497767925262451
      ],
      [
        "ем",
        -7.4998955726623535
      ],
      [
        "▁his",
        -7.49992036819458
      ],
      [
        "▁которые",
        -7.514376640319824
      ],
      [
        "▁at",
        -7.515491008758545
      ],
      [
        "ную",
        -7.516582012176514
      ],
      [
        "▁У",
        -7.5215654373168945
      ],
      [
        "▁того",
        -7.531482219696045
      ],
      [
        "ь",
        -7.5336833000183105
      ],
      [
        "ей",
        -7.534409999847412
      ],
      [
        "▁from",
        -7.53507661819458
      ],
      [
        "er",
        -7.535854339599609
      ],
      [
        "▁ее",
        -7.541709899902344
      ],
      [
        "ского",
        -7.546907901763916
      ],
      [
        "▁может",
        -7.558887004852295
      ],
      [
        "▁пере",
        -7.56776762008667
      ],
      [
        "▁том",
        -7.578948974609375
      ],
      [
        "▁этом",
        -7.587612628936768
      ],
      [
        "ию",
        -7.588748931884766
      ],
      [
        "▁In",
        -7.589623928070068
      ],
      [
        "e",
        -7.592013359069824
      ],
      [
        "за",
        -7.5944929122924805
      ],
      [
        "▁более",
        -7.595227241516113
      ],
      [
        "н",
        -7.61203145980835
      ],
      [
        "▁еще",
        -7.614706039428711
      ],
      [
        "y",
        -7.616430759429932
      ],
      [
        "▁после",
        -7.6179518699646
      ],
      [
        "t",
        -7.618091106414795
      ],
      [
        "▁если",
        -7.619164943695068
      ],
      [
        "▁она",
        -7.6209397315979
      ],
      [
        "▁М",
        -7.6224284172058105
      ],
      [
        "ые",
        -7.623619556427002
      ],
      [
        "ок",
        -7.629093170166016
      ],
      [
        "▁he",
        -7.629907131195068
      ],
      [
        "ский",
        -7.642164707183838
      ],
      [
        "ла",
        -7.661037445068359
      ],
      [
        "▁быть",
        -7.661221981048584
      ],
      [
        "ый",
        -7.661538124084473
      ],
      [
        "n",
        -7.670471668243408
      ],
      [
        "».",
        -7.672829627990723
      ],
      [
        "▁этого",
        -7.67590856552124
      ],
      [
        "ly",
        -7.678284645080566
      ],
      [
        "▁который",
        -7.686875343322754
      ],
      [
        "▁можно",
        -7.688551425933838
      ],
      [
        "▁без",
        -7.697201728820801
      ],
      [
        "ном",
        -7.701003074645996
      ],
      [
        "▁есть",
        -7.7069807052612305
      ],
      [
        "не",
        -7.709751129150391
      ],
      [
        "к",
        -7.7179951667785645
      ],
      [
        "▁где",
        -7.726747512817383
      ],
      [
        "▁Он",
        -7.730403900146484
      ],
      [
        "▁чем",
        -7.7410173416137695
      ],
      [
        "▁ни",
        -7.741236686706543
      ],
      [
        "▁О",
        -7.755135536193848
      ],
      [
        "ить",
        -7.757119655609131
      ],
      [
        "▁Не",
        -7.759888648986816
      ],
      [
        "д",
        -7.768660068511963
      ],
      [
        "▁будет",
        -7.7765583992004395
      ],
      [
        "▁лет",
        -7.780632019042969
      ],
      [
        "▁were",
        -7.781172275543213
      ],
      [
        "▁При",
        -7.789886474609375
      ],
      [
        "ют",
        -7.791812896728516
      ],
      [
        "▁Это",
        -7.7958598136901855
      ],
      [
        "▁ли",
        -7.800418853759766
      ],
      [
        "ым",
        -7.801304340362549
      ],
      [
        "ке",
        -7.80162239074707
      ],
      [
        "ными",
        -7.811014652252197
      ],
      [
        "▁an",
        -7.824462413787842
      ],
      [
        "ется",
        -7.826656341552734
      ],
      [
        "ую",
        -7.838411808013916
      ],
      [
        "В",
        -7.842702388763428
      ],
      [
        "▁меня",
        -7.848540306091309
      ],
      [
        "▁тем",
        -7.85128927230835
      ],
      [
        "▁За",
        -7.854991912841797
      ],
      [
        "▁be",
        -7.863138675689697
      ],
      [
        "▁даже",
        -7.863409519195557
      ],
      [
        "a",
        -7.877166271209717
      ],
      [
        "]",
        -7.879255294799805
      ],
      [
        "▁it",
        -7.881182670593262
      ],
      [
        "▁A",
        -7.8813886642456055
      ],
      [
        "▁очень",
        -7.881697654724121
      ],
      [
        "▁т",
        -7.886159896850586
      ],
      [
        "al",
        -7.893038749694824
      ],
      [
        "▁себя",
        -7.906387805938721
      ],
      [
        "ит",
        -7.917050361633301
      ],
      [
        "»,",
        -7.917570114135742
      ],
      [
        "▁ему",
        -7.920686721801758
      ],
      [
        "▁мне",
        -7.924821376800537
      ],
      [
        "С",
        -7.9308762550354
      ],
      [
        "▁I",
        -7.935527801513672
      ],
      [
        "▁них",
        -7.93742036819458
      ],
      [
        "им",
        -7.967972755432129
      ],
      [
        "▁had",
        -7.968218803405762
      ],
      [
        "▁человек",
        -7.993649482727051
      ],
      [
        "сти",
        -7.996572017669678
      ],
      [
        "▁which",
        -7.999053001403809
      ],
      [
        "o",
        -7.999159812927246
      ],
      [
        "▁Г",
        -8.00382137298584
      ],
      [
        "p",
        -8.006678581237793
      ],
      [
        "му",
        -8.009430885314941
      ],
      [
        "лись",
        -8.010088920593262
      ],
      [
        "▁П",
        -8.012420654296875
      ],
      [
        "▁S",
        -8.019745826721191
      ],
      [
        "i",
        -8.022692680358887
      ],
      [
        "▁между",
        -8.025151252746582
      ],
      [
        "▁всех",
        -8.048105239868164
      ],
      [
        "р",
        -8.049219131469727
      ],
      [
        "та",
        -8.049779891967773
      ],
      [
        "▁are",
        -8.051541328430176
      ],
      [
        "ен",
        -8.055465698242188
      ],
      [
        "по",
        -8.067530632019043
      ],
      [
        "▁один",
        -8.072830200195312
      ],
      [
        "▁всего",
        -8.0739107131958
      ],
      [
        "б",
        -8.074590682983398
      ],
      [
        "ло",
        -8.075343132019043
      ],
      [
        "▁России",
        -8.081267356872559
      ],
      [
        "п",
        -8.082609176635742
      ],
      [
        "ться",
        -8.083093643188477
      ],
      [
        "▁жизни",
        -8.09662914276123
      ],
      [
        "th",
        -8.107017517089844
      ],
      [
        "▁Если",
        -8.10771369934082
      ],
      [
        "▁через",
        -8.117450714111328
      ],
      [
        "ны",
        -8.117674827575684
      ],
      [
        "▁этой",
        -8.121950149536133
      ],
      [
        "▁нас",
        -8.122969627380371
      ],
      [
        "▁Как",
        -8.1300630569458
      ],
      [
        "es",
        -8.136800765991211
      ],
      [
        "▁этот",
        -8.143935203552246
      ],
      [
        "ская",
        -8.154911994934082
      ],
      [
        "ое",
        -8.156075477600098
      ],
      [
        "▁or",
        -8.164960861206055
      ],
      [
        "▁Б",
        -8.166528701782227
      ],
      [
        "лся",
        -8.174052238464355
      ],
      [
        "от",
        -8.175251960754395
      ],
      [
        "ских",
        -8.175259590148926
      ],
      [
        "▁He",
        -8.175292015075684
      ],
      [
        "▁него",
        -8.176329612731934
      ],
      [
        "▁является",
        -8.178166389465332
      ],
      [
        "ни",
        -8.178738594055176
      ],
      [
        "in",
        -8.184808731079102
      ],
      [
        "▁своей",
        -8.186001777648926
      ],
      [
        "г",
        -8.188800811767578
      ],
      [
        "ются",
        -8.189661979675293
      ],
      [
        "▁несколько",
        -8.190277099609375
      ],
      [
        "или",
        -8.191587448120117
      ],
      [
        "их",
        -8.193467140197754
      ],
      [
        "ин",
        -8.206395149230957
      ],
      [
        "▁над",
        -8.211620330810547
      ],
      [
        "_",
        -8.214126586914062
      ],
      [
        "▁Д",
        -8.21511459350586
      ],
      [
        "▁n",
        -8.220524787902832
      ],
      [
        "%",
        -8.225640296936035
      ],
      [
        "▁которых",
        -8.229593276977539
      ],
      [
        "▁им",
        -8.232008934020996
      ],
      [
        "▁много",
        -8.233858108520508
      ],
      [
        "▁not",
        -8.240946769714355
      ],
      [
        "▁рас",
        -8.241827964782715
      ],
      [
        "▁себе",
        -8.244988441467285
      ],
      [
        "▁нет",
        -8.247570037841797
      ],
      [
        "▁больше",
        -8.25472640991211
      ],
      [
        "ности",
        -8.254919052124023
      ],
      [
        "▁кто",
        -8.263943672180176
      ],
      [
        "▁эти",
        -8.269527435302734
      ],
      [
        "ском",
        -8.276708602905273
      ],
      [
        "ч",
        -8.277814865112305
      ],
      [
        "ил",
        -8.284039497375488
      ],
      [
        "ские",
        -8.285537719726562
      ],
      [
        "▁[",
        -8.289031982421875
      ],
      [
        "ков",
        -8.291510581970215
      ],
      [
        "▁their",
        -8.29439926147461
      ],
      [
        "▁перед",
        -8.295557975769043
      ],
      [
        "▁лишь",
        -8.296728134155273
      ],
      [
        "▁Т",
        -8.300326347351074
      ],
      [
        "(",
        -8.30157470703125
      ],
      [
        "▁re",
        -8.312442779541016
      ],
      [
        "ность",
        -8.312653541564941
      ],
      [
        "ъ",
        -8.317432403564453
      ],
      [
        "ко",
        -8.323441505432129
      ],
      [
        "▁also",
        -8.325177192687988
      ],
      [
        "r",
        -8.326300621032715
      ],
      [
        "▁просто",
        -8.32959270477295
      ],
      [
        "▁которая",
        -8.333508491516113
      ],
      [
        "▁Так",
        -8.338289260864258
      ],
      [
        "▁времени",
        -8.338507652282715
      ],
      [
        "▁стал",
        -8.339414596557617
      ],
      [
        "лась",
        -8.339679718017578
      ],
      [
        "▁После",
        -8.344056129455566
      ],
      [
        "кой",
        -8.348978042602539
      ],
      [
        "▁but",
        -8.356730461120605
      ],
      [
        "▁человека",
        -8.357461929321289
      ],
      [
        "ш",
        -8.35916805267334
      ],
      [
        "S",
        -8.359313011169434
      ],
      [
        "А",
        -8.360631942749023
      ],
      [
        "▁Н",
        -8.360865592956543
      ],
      [
        "▁her",
        -8.373294830322266
      ],
      [
        "▁свою",
        -8.374655723571777
      ],
      [
        "▁которой",
        -8.381176948547363
      ],
      [
        "▁людей",
        -8.384420394897461
      ],
      [
        "▁других",
        -8.385416030883789
      ],
      [
        "▁has",
        -8.386516571044922
      ],
      [
        "▁против",
        -8.386846542358398
      ],
      [
        "ят",
        -8.38850212097168
      ],
      [
        "▁области",
        -8.389678001403809
      ],
      [
        "▁have",
        -8.39101505279541
      ],
      [
        "or",
        -8.394083023071289
      ],
      [
        "те",
        -8.403379440307617
      ],
      [
        "▁first",
        -8.407402992248535
      ],
      [
        "▁своих",
        -8.407951354980469
      ],
      [
        "да",
        -8.414450645446777
      ],
      [
        "▁два",
        -8.416120529174805
      ],
      [
        "вер",
        -8.416193962097168
      ],
      [
        "сть",
        -8.427175521850586
      ],
      [
        "▁C",
        -8.428384780883789
      ],
      [
        "▁там",
        -8.429048538208008
      ],
      [
        "▁this",
        -8.430953025817871
      ],
      [
        "он",
        -8.435809135437012
      ],
      [
        "▁образом",
        -8.436190605163574
      ],
      [
        "▁Однако",
        -8.437601089477539
      ],
      [
        "▁Ф",
        -8.441195487976074
      ],
      [
        "▁Вы",
        -8.445634841918945
      ],
      [
        "К",
        -8.453113555908203
      ],
      [
        "▁могут",
        -8.456267356872559
      ],
      [
        "▁год",
        -8.46076774597168
      ],
      [
        "М",
        -8.462382316589355
      ],
      [
        "▁день",
        -8.469252586364746
      ],
      [
        "ал",
        -8.471489906311035
      ],
      [
        "Б",
        -8.471637725830078
      ],
      [
        "m",
        -8.474798202514648
      ],
      [
        "▁Для",
        -8.47863483428955
      ],
      [
        "ле",
        -8.479930877685547
      ],
      [
        "u",
        -8.487069129943848
      ],
      [
        "▁P",
        -8.487753868103027
      ],
      [
        "c",
        -8.48908519744873
      ],
      [
        "▁этих",
        -8.492088317871094
      ],
      [
        "▁one",
        -8.492810249328613
      ],
      [
        "▁случае",
        -8.494815826416016
      ],
      [
        "ния",
        -8.495896339416504
      ],
      [
        "ль",
        -8.497811317443848
      ],
      [
        "▁who",
        -8.500246047973633
      ],
      [
        "ж",
        -8.503409385681152
      ],
      [
        "▁своего",
        -8.505075454711914
      ],
      [
        "▁Все",
        -8.505290985107422
      ],
      [
        "ля",
        -8.51431941986084
      ],
      [
        "ать",
        -8.515298843383789
      ],
      [
        "▁No",
        -8.519439697265625
      ],
      [
        "▁сам",
        -8.520459175109863
      ],
      [
        "▁те",
        -8.526349067687988
      ],
      [
        "▁двух",
        -8.52968978881836
      ],
      [
        "b",
        -8.531557083129883
      ],
      [
        "овой",
        -8.53292465209961
      ],
      [
        "▁Л",
        -8.534175872802734
      ],
      [
        "f",
        -8.537156105041504
      ],
      [
        "ком",
        -8.541770935058594
      ],
      [
        "ев",
        -8.544069290161133
      ],
      [
        "▁войны",
        -8.549854278564453
      ],
      [
        "ф",
        -8.550857543945312
      ],
      [
        "ись",
        -8.550958633422852
      ],
      [
        "▁ты",
        -8.559926986694336
      ],
      [
        "▁its",
        -8.560091972351074
      ],
      [
        "▁свои",
        -8.560399055480957
      ],
      [
        "▁B",
        -8.567237854003906
      ],
      [
        "▁части",
        -8.571013450622559
      ],
      [
        "ние",
        -8.572040557861328
      ],
      [
        "О",
        -8.576241493225098
      ],
      [
        "▁место",
        -8.576420783996582
      ],
      [
        "га",
        -8.576642036437988
      ],
      [
        "▁её",
        -8.57791519165039
      ],
      [
        "▁всегда",
        -8.579263687133789
      ],
      [
        "▁Да",
        -8.57976245880127
      ],
      [
        "l",
        -8.584190368652344
      ],
      [
        "ers",
        -8.584405899047852
      ],
      [
        "▁потому",
        -8.586490631103516
      ],
      [
        "▁F",
        -8.588261604309082
      ],
      [
        "Д",
        -8.589795112609863
      ],
      [
        "▁been",
        -8.590421676635742
      ],
      [
        "▁три",
        -8.593507766723633
      ],
      [
        "▁работы",
        -8.597124099731445
      ],
      [
        "▁Мы",
        -8.598323822021484
      ],
      [
        "▁часть",
        -8.598806381225586
      ],
      [
        "▁тогда",
        -8.59976577758789
      ],
      [
        "▁де",
        -8.600052833557129
      ],
      [
        "▁they",
        -8.60117244720459
      ],
      [
        "скую",
        -8.605029106140137
      ],
      [
        "▁которого",
        -8.606682777404785
      ],
      [
        "▁вот",
        -8.608969688415527
      ],
      [
        "▁de",
        -8.610118865966797
      ],
      [
        "▁здесь",
        -8.61098861694336
      ],
      [
        "▁тот",
        -8.612700462341309
      ],
      [
        "з",
        -8.613446235656738
      ],
      [
        "ения",
        -8.614228248596191
      ],
      [
        "ыми",
        -8.616652488708496
      ],
      [
        "ion",
        -8.617444038391113
      ],
      [
        "▁Во",
        -8.623286247253418
      ],
      [
        "h",
        -8.629904747009277
      ],
      [
        "▁–",
        -8.630523681640625
      ],
      [
        "ась",
        -8.631363868713379
      ],
      [
        "цы",
        -8.635931015014648
      ],
      [
        "▁нужно",
        -8.636421203613281
      ],
      [
        "ение",
        -8.636601448059082
      ],
      [
        "▁пред",
        -8.638477325439453
      ],
      [
        "▁Из",
        -8.638632774353027
      ],
      [
        "▁Про",
        -8.642119407653809
      ],
      [
        "▁собой",
        -8.650857925415039
      ],
      [
        "re",
        -8.652522087097168
      ],
      [
        "ди",
        -8.653616905212402
      ],
      [
        "ство",
        -8.656370162963867
      ],
      [
        "▁СССР",
        -8.66092300415039
      ],
      [
        "ова",
        -8.661359786987305
      ],
      [
        "▁тех",
        -8.662775993347168
      ],
      [
        "▁Когда",
        -8.665983200073242
      ],
      [
        "en",
        -8.667302131652832
      ],
      [
        "▁д",
        -8.668157577514648
      ],
      [
        "▁D",
        -8.669893264770508
      ],
      [
        "k",
        -8.670130729675293
      ],
      [
        "лось",
        -8.671438217163086
      ],
      [
        "g",
        -8.671440124511719
      ],
      [
        "B",
        -8.671452522277832
      ],
      [
        "▁Об",
        -8.673574447631836
      ],
      [
        "мер",
        -8.674760818481445
      ],
      [
        "ation",
        -8.675230026245117
      ],
      [
        "▁G",
        -8.67622184753418
      ],
      [
        "▁именно",
        -8.676765441894531
      ],
      [
        "▁да",
        -8.67747688293457
      ],
      [
        "▁two",
        -8.678006172180176
      ],
      [
        "▁мира",
        -8.679710388183594
      ],
      [
        "Г",
        -8.681020736694336
      ],
      [
        "▁одной",
        -8.681415557861328
      ],
      [
        "C",
        -8.686144828796387
      ],
      [
        "ному",
        -8.689078330993652
      ],
      [
        "▁хотя",
        -8.689702987670898
      ],
      [
        "▁нам",
        -8.68972396850586
      ],
      [
        "▁мир",
        -8.68976879119873
      ],
      [
        "▁Они",
        -8.69539737701416
      ],
      [
        "ц",
        -8.696904182434082
      ],
      [
        "▁США",
        -8.697168350219727
      ],
      [
        "ти",
        -8.697738647460938
      ],
      [
        "—",
        -8.698762893676758
      ],
      [
        "an",
        -8.69895076751709
      ],
      [
        "▁Р",
        -8.699369430541992
      ],
      [
        "▁сказал",
        -8.701567649841309
      ],
      [
        "ер",
        -8.703204154968262
      ],
      [
        "П",
        -8.704357147216797
      ],
      [
        "▁E",
        -8.7070951461792
      ],
      [
        "▁стороны",
        -8.707282066345215
      ],
      [
        "▁ним",
        -8.709749221801758
      ],
      [
        "ну",
        -8.712239265441895
      ],
      [
        "▁вместе",
        -8.712285995483398
      ],
      [
        "▁почти",
        -8.71483325958252
      ],
      [
        "ское",
        -8.716205596923828
      ],
      [
        "▁такой",
        -8.717823028564453
      ],
      [
        "▁all",
        -8.717913627624512
      ],
      [
        "▁От",
        -8.718287467956543
      ],
      [
        "из",
        -8.718470573425293
      ],
      [
        "▁жизнь",
        -8.720318794250488
      ],
      [
        "ма",
        -8.725433349609375
      ],
      [
        "ник",
        -8.72567081451416
      ],
      [
        "ре",
        -8.732386589050293
      ],
      [
        "ец",
        -8.733144760131836
      ],
      [
        "▁города",
        -8.733895301818848
      ],
      [
        "ив",
        -8.734440803527832
      ],
      [
        "▁W",
        -8.735233306884766
      ],
      [
        "▁люди",
        -8.735817909240723
      ],
      [
        "вы",
        -8.73592472076416
      ],
      [
        "са",
        -8.737338066101074
      ],
      [
        "ст",
        -8.737625122070312
      ],
      [
        "▁около",
        -8.739175796508789
      ],
      [
        "ва",
        -8.73956298828125
      ],
      [
        "ским",
        -8.739957809448242
      ],
      [
        "до",
        -8.740482330322266
      ],
      [
        "▁До",
        -8.742683410644531
      ],
      [
        "▁затем",
        -8.743301391601562
      ],
      [
        "ар",
        -8.74567699432373
      ],
      [
        "st",
        -8.751228332519531
      ],
      [
        "▁имеет",
        -8.751860618591309
      ],
      [
        "▁м",
        -8.75243854522705
      ],
      [
        "ar",
        -8.753095626831055
      ],
      [
        "▁надо",
        -8.757601737976074
      ],
      [
        "on",
        -8.757905960083008
      ],
      [
        "Н",
        -8.758381843566895
      ],
      [
        "▁out",
        -8.758842468261719
      ],
      [
        "▁would",
        -8.759064674377441
      ],
      [
        "▁должны",
        -8.759278297424316
      ],
      [
        "[",
        -8.759279251098633
      ],
      [
        "▁п",
        -8.759966850280762
      ],
      [
        "▁потом",
        -8.761617660522461
      ],
      [
        "ты",
        -8.765084266662598
      ],
      [
        "▁N",
        -8.766356468200684
      ],
      [
        "x",
        -8.766547203063965
      ],
      [
        "▁должен",
        -8.766992568969727
      ],
      [
        "али",
        -8.768348693847656
      ],
      [
        "ясь",
        -8.771272659301758
      ],
      [
        "▁другие",
        -8.774216651916504
      ],
      [
        "▁over",
        -8.774867057800293
      ],
      [
        "ня",
        -8.77672004699707
      ],
      [
        "le",
        -8.779156684875488
      ],
      [
        "ось",
        -8.779521942138672
      ],
      [
        "▁Ш",
        -8.780281066894531
      ],
      [
        "овых",
        -8.780673027038574
      ],
      [
        "ор",
        -8.78111457824707
      ],
      [
        "▁ничего",
        -8.781572341918945
      ],
      [
        "▁into",
        -8.781654357910156
      ],
      [
        "us",
        -8.783007621765137
      ],
      [
        "▁одно",
        -8.783613204956055
      ],
      [
        "▁after",
        -8.784305572509766
      ],
      [
        "▁Что",
        -8.784754753112793
      ],
      [
        "▁she",
        -8.788969039916992
      ],
      [
        "▁It",
        -8.789155960083008
      ],
      [
        "▁time",
        -8.789717674255371
      ],
      [
        "▁чего",
        -8.79156494140625
      ],
      [
        "▁other",
        -8.792071342468262
      ],
      [
        "тер",
        -8.794342994689941
      ],
      [
        "D",
        -8.796744346618652
      ],
      [
        "ic",
        -8.798653602600098
      ],
      [
        "ья",
        -8.799788475036621
      ],
      [
        "И",
        -8.801780700683594
      ],
      [
        "▁ко",
        -8.805771827697754
      ],
      [
        "ман",
        -8.806526184082031
      ],
      [
        "ками",
        -8.80736255645752
      ],
      [
        "▁другой",
        -8.807612419128418
      ],
      [
        "T",
        -8.809075355529785
      ],
      [
        "У",
        -8.809096336364746
      ],
      [
        "▁p",
        -8.80964183807373
      ],
      [
        "▁тоже",
        -8.813026428222656
      ],
      [
        "▁T",
        -8.81412410736084
      ],
      [
        "ту",
        -8.81644344329834
      ],
      [
        ");",
        -8.817230224609375
      ],
      [
        "▁пре",
        -8.817843437194824
      ],
      [
        "▁up",
        -8.818913459777832
      ],
      [
        "ца",
        -8.818964004516602
      ],
      [
        "▁M",
        -8.819628715515137
      ],
      [
        "ра",
        -8.821671485900879
      ],
      [
        "z",
        -8.822015762329102
      ],
      [
        "▁пока",
        -8.82615852355957
      ],
      [
        "▁ней",
        -8.827452659606934
      ],
      [
        "▁теперь",
        -8.82810115814209
      ],
      [
        "▁состав",
        -8.8336181640625
      ],
      [
        "ина",
        -8.835488319396973
      ],
      [
        "▁которое",
        -8.843576431274414
      ],
      [
        "ства",
        -8.84373664855957
      ],
      [
        "Т",
        -8.846278190612793
      ],
      [
        "▁качестве",
        -8.84636116027832
      ],
      [
        "▁вас",
        -8.84765338897705
      ],
      [
        "▁R",
        -8.84859848022461
      ],
      [
        "▁дело",
        -8.85010814666748
      ],
      [
        "ист",
        -8.85073471069336
      ],
      [
        "▁K",
        -8.852827072143555
      ],
      [
        "▁одного",
        -8.854681968688965
      ],
      [
        "▁конце",
        -8.854972839355469
      ],
      [
        "▁свой",
        -8.85516357421875
      ],
      [
        "ша",
        -8.855950355529785
      ],
      [
        "A",
        -8.858148574829102
      ],
      [
        "▁H",
        -8.859268188476562
      ],
      [
        "▁период",
        -8.860018730163574
      ],
      [
        "де",
        -8.862879753112793
      ],
      [
        "▁вам",
        -8.86477279663086
      ],
      [
        "про",
        -8.866388320922852
      ],
      [
        "ри",
        -8.86759090423584
      ],
      [
        "▁часто",
        -8.867658615112305
      ],
      [
        "▁связи",
        -8.873481750488281
      ],
      [
        "▁/",
        -8.875709533691406
      ],
      [
        "el",
        -8.879450798034668
      ],
      [
        "▁more",
        -8.880314826965332
      ],
      [
        "ием",
        -8.881019592285156
      ],
      [
        "иться",
        -8.883039474487305
      ],
      [
        "▁однако",
        -8.88608169555664
      ],
      [
        "цев",
        -8.887178421020508
      ],
      [
        "▁будут",
        -8.887859344482422
      ],
      [
        "ости",
        -8.888141632080078
      ],
      [
        "▁менее",
        -8.889986038208008
      ],
      [
        "▁истории",
        -8.890220642089844
      ],
      [
        "мен",
        -8.890893936157227
      ],
      [
        "▁Она",
        -8.892731666564941
      ],
      [
        "овые",
        -8.8955078125
      ],
      [
        "▁=",
        -8.89653491973877
      ],
      [
        "▁гор",
        -8.896622657775879
      ],
      [
        "▁кон",
        -8.896805763244629
      ],
      [
        "▁him",
        -8.897729873657227
      ],
      [
        "▁века",
        -8.899554252624512
      ],
      [
        "▁Х",
        -8.9010009765625
      ],
      [
        "Ф",
        -8.90418815612793
      ],
      [
        "▁when",
        -8.904980659484863
      ],
      [
        "▁др",
        -8.90707778930664
      ],
      [
        "▁само",
        -8.907224655151367
      ],
      [
        "▁can",
        -8.908709526062012
      ],
      [
        "ис",
        -8.908917427062988
      ],
      [
        "вин",
        -8.909144401550293
      ],
      [
        "▁среди",
        -8.910799980163574
      ],
      [
        "▁момент",
        -8.914067268371582
      ],
      [
        "об",
        -8.914311408996582
      ],
      [
        "▁город",
        -8.914623260498047
      ],
      [
        "id",
        -8.915448188781738
      ],
      [
        "▁Э",
        -8.916895866394043
      ],
      [
        "че",
        -8.917170524597168
      ],
      [
        "▁э",
        -8.917276382446289
      ],
      [
        "во",
        -8.917641639709473
      ],
      [
        "▁всем",
        -8.92342472076416
      ],
      [
        "ск",
        -8.924538612365723
      ],
      [
        "▁пор",
        -8.927715301513672
      ],
      [
        "▁годы",
        -8.929497718811035
      ],
      [
        "▁стали",
        -8.936324119567871
      ],
      [
        "при",
        -8.936620712280273
      ],
      [
        "▁например",
        -8.937324523925781
      ],
      [
        "▁свое",
        -8.937495231628418
      ],
      [
        "▁мог",
        -8.938201904296875
      ],
      [
        "▁тому",
        -8.940305709838867
      ],
      [
        "ость",
        -8.941154479980469
      ],
      [
        "▁вопрос",
        -8.941848754882812
      ],
      [
        "Я",
        -8.942669868469238
      ],
      [
        "at",
        -8.94355583190918
      ],
      [
        "ду",
        -8.946121215820312
      ],
      [
        "man",
        -8.94697093963623
      ],
      [
        "▁лучше",
        -8.947564125061035
      ],
      [
        "ос",
        -8.948646545410156
      ],
      [
        "▁ре",
        -8.952263832092285
      ],
      [
        "▁new",
        -8.953262329101562
      ],
      [
        "ических",
        -8.955059051513672
      ],
      [
        "▁Со",
        -8.95809555053711
      ],
      [
        "▁тут",
        -8.9592924118042
      ],
      [
        "▁этим",
        -8.959665298461914
      ],
      [
        "▁эта",
        -8.961624145507812
      ],
      [
        "H",
        -8.962003707885742
      ],
      [
        "▁котором",
        -8.96401596069336
      ],
      [
        "▁прав",
        -8.964607238769531
      ],
      [
        "it",
        -8.964661598205566
      ],
      [
        "▁эту",
        -8.965598106384277
      ],
      [
        "▁всё",
        -8.969558715820312
      ],
      [
        "is",
        -8.970654487609863
      ],
      [
        "▁Под",
        -8.970887184143066
      ],
      [
        "▁Его",
        -8.97282600402832
      ],
      [
        "▁какой",
        -8.979851722717285
      ],
      [
        "▁своим",
        -8.980203628540039
      ],
      [
        "▁км",
        -8.983174324035645
      ],
      [
        "▁хорошо",
        -8.986883163452148
      ],
      [
        "ической",
        -8.987478256225586
      ],
      [
        "▁слова",
        -8.990979194641113
      ],
      [
        "▁Вот",
        -8.993309020996094
      ],
      [
        "ча",
        -8.994985580444336
      ],
      [
        "ик",
        -8.996665000915527
      ],
      [
        "ут",
        -8.99916934967041
      ],
      [
        "▁сейчас",
        -9.000154495239258
      ],
      [
        "▁системы",
        -9.00062370300293
      ],
      [
        "▁род",
        -9.002163887023926
      ],
      [
        "G",
        -9.004923820495605
      ],
      [
        "тор",
        -9.005658149719238
      ],
      [
        "▁On",
        -9.006893157958984
      ],
      [
        "▁течение",
        -9.008198738098145
      ],
      [
        "▁страны",
        -9.00900936126709
      ],
      [
        "нее",
        -9.01089859008789
      ],
      [
        "F",
        -9.012640953063965
      ],
      [
        "▁ещё",
        -9.014575958251953
      ],
      [
        ">",
        -9.019081115722656
      ],
      [
        "ится",
        -9.020630836486816
      ],
      [
        "▁тысяч",
        -9.022627830505371
      ],
      [
        "▁L",
        -9.024755477905273
      ],
      [
        "▁свет",
        -9.02640151977539
      ],
      [
        "▁первый",
        -9.02780818939209
      ],
      [
        "▁друг",
        -9.028311729431152
      ],
      [
        "▁сделать",
        -9.02963924407959
      ],
      [
        "to",
        -9.029842376708984
      ],
      [
        "▁таких",
        -9.03416919708252
      ],
      [
        "▁числе",
        -9.034441947937012
      ],
      [
        "▁особенно",
        -9.035589218139648
      ],
      [
        "ба",
        -9.035816192626953
      ],
      [
        "па",
        -9.039185523986816
      ],
      [
        "il",
        -9.043595314025879
      ],
      [
        "ите",
        -9.044085502624512
      ],
      [
        "ia",
        -9.044647216796875
      ],
      [
        "▁получил",
        -9.045242309570312
      ],
      [
        "ировать",
        -9.046720504760742
      ],
      [
        "ель",
        -9.047041893005371
      ],
      [
        "▁результате",
        -9.050137519836426
      ],
      [
        "w",
        -9.050593376159668
      ],
      [
        "ат",
        -9.052992820739746
      ],
      [
        "ился",
        -9.05443000793457
      ],
      [
        "▁власти",
        -9.054547309875488
      ],
      [
        "P",
        -9.054709434509277
      ],
      [
        "▁Е",
        -9.059715270996094
      ],
      [
        "ум",
        -9.06195068359375
      ],
      [
        "▁армии",
        -9.063725471496582
      ],
      [
        "ус",
        -9.063872337341309
      ],
      [
        "code",
        -9.065814971923828
      ],
      [
        "▁воз",
        -9.066370010375977
      ],
      [
        "прав",
        -9.071231842041016
      ],
      [
        "▁две",
        -9.072280883789062
      ],
      [
        "ги",
        -9.073780059814453
      ],
      [
        "ive",
        -9.075082778930664
      ],
      [
        "▁c",
        -9.077238082885742
      ],
      [
        "▁оно",
        -9.077594757080078
      ],
      [
        "▁only",
        -9.08021354675293
      ],
      [
        "би",
        -9.080214500427246
      ],
      [
        "▁сразу",
        -9.082589149475098
      ],
      [
        "▁поэтому",
        -9.082878112792969
      ],
      [
        "▁которую",
        -9.084890365600586
      ],
      [
        "ne",
        -9.086697578430176
      ],
      [
        "▁U",
        -9.087235450744629
      ],
      [
        "же",
        -9.087671279907227
      ],
      [
        "ней",
        -9.089937210083008
      ],
      [
        "▁То",
        -9.095474243164062
      ],
      [
        "▁New",
        -9.096060752868652
      ],
      [
        "▁II",
        -9.096281051635742
      ],
      [
        "мет",
        -9.09646224975586
      ],
      [
        "▁no",
        -9.096515655517578
      ],
      [
        "ющих",
        -9.097994804382324
      ],
      [
        "мы",
        -9.09802532196045
      ],
      [
        "▁помощью",
        -9.098209381103516
      ],
      [
        "▁необходимо",
        -9.099950790405273
      ],
      [
        "лен",
        -9.100790977478027
      ],
      [
        "▁about",
        -9.10161304473877
      ],
      [
        "ity",
        -9.103049278259277
      ],
      [
        "▁достаточно",
        -9.105334281921387
      ],
      [
        "▁такие",
        -9.105536460876465
      ],
      [
        "▁стран",
        -9.1056547164917
      ],
      [
        "▁виде",
        -9.106108665466309
      ],
      [
        "се",
        -9.106667518615723
      ],
      [
        "Л",
        -9.106709480285645
      ],
      [
        "▁where",
        -9.10796070098877
      ],
      [
        "▁сказать",
        -9.108141899108887
      ],
      [
        "нов",
        -9.10925006866455
      ],
      [
        "▁никогда",
        -9.109500885009766
      ],
      [
        "▁следует",
        -9.110620498657227
      ],
      [
        "ому",
        -9.110983848571777
      ],
      [
        "ников",
        -9.11126708984375
      ],
      [
        "▁years",
        -9.114165306091309
      ],
      [
        "et",
        -9.114432334899902
      ],
      [
        "▁This",
        -9.115485191345215
      ],
      [
        "▁Ре",
        -9.116080284118652
      ],
      [
        "нибудь",
        -9.11646556854248
      ],
      [
        "▁f",
        -9.117011070251465
      ],
      [
        "ist",
        -9.118189811706543
      ],
      [
        "▁говорит",
        -9.120749473571777
      ],
      [
        "▁O",
        -9.121057510375977
      ],
      [
        "ации",
        -9.125816345214844
      ],
      [
        "▁характер",
        -9.126248359680176
      ],
      [
        "▁ж",
        -9.12871265411377
      ],
      [
        "▁б",
        -9.129796981811523
      ],
      [
        "▁дома",
        -9.130257606506348
      ],
      [
        "чи",
        -9.132851600646973
      ],
      [
        "N",
        -9.133459091186523
      ],
      [
        "▁сил",
        -9.133955001831055
      ],
      [
        "▁территории",
        -9.136552810668945
      ],
      [
        "▁быстро",
        -9.137441635131836
      ],
      [
        "ические",
        -9.138900756835938
      ],
      [
        "▁совершенно",
        -9.139383316040039
      ],
      [
        "▁than",
        -9.140317916870117
      ],
      [
        "ье",
        -9.140460968017578
      ],
      [
        "ry",
        -9.143695831298828
      ],
      [
        "▁$",
        -9.144765853881836
      ],
      [
        "ан",
        -9.146749496459961
      ],
      [
        "ний",
        -9.149334907531738
      ],
      [
        "L",
        -9.149974822998047
      ],
      [
        "▁дня",
        -9.152849197387695
      ],
      [
        "▁начале",
        -9.153759956359863
      ],
      [
        "▁возможность",
        -9.156563758850098
      ],
      [
        "▁there",
        -9.158935546875
      ],
      [
        "▁мало",
        -9.159156799316406
      ],
      [
        "▁начала",
        -9.159172058105469
      ],
      [
        "▁Ж",
        -9.160693168640137
      ],
      [
        "▁under",
        -9.161513328552246
      ],
      [
        "▁Re",
        -9.166701316833496
      ],
      [
        "M",
        -9.167648315429688
      ],
      [
        "раз",
        -9.167699813842773
      ],
      [
        "▁роль",
        -9.169255256652832
      ],
      [
        "▁конечно",
        -9.169673919677734
      ],
      [
        "▁Ю",
        -9.172484397888184
      ],
      [
        "▁второй",
        -9.174903869628906
      ],
      [
        "▁самом",
        -9.175057411193848
      ],
      [
        "ает",
        -9.175891876220703
      ],
      [
        "I",
        -9.1763334274292
      ],
      [
        "▁дела",
        -9.177929878234863
      ],
      [
        "▁ей",
        -9.179104804992676
      ],
      [
        "▁работу",
        -9.181102752685547
      ],
      [
        "вид",
        -9.181509971618652
      ],
      [
        "▁начал",
        -9.18155574798584
      ],
      [
        "Э",
        -9.183775901794434
      ],
      [
        "▁каждый",
        -9.183943748474121
      ],
      [
        "▁таким",
        -9.18447208404541
      ],
      [
        "вод",
        -9.184648513793945
      ],
      [
        "ment",
        -9.184927940368652
      ],
      [
        "ового",
        -9.185258865356445
      ],
      [
        "▁V",
        -9.185266494750977
      ],
      [
        "▁вообще",
        -9.186033248901367
      ],
      [
        "W",
        -9.188639640808105
      ],
      [
        "▁одна",
        -9.188942909240723
      ],
      [
        "▁them",
        -9.189248085021973
      ],
      [
        "▁право",
        -9.189359664916992
      ],
      [
        "▁поскольку",
        -9.192534446716309
      ],
      [
        "ического",
        -9.192588806152344
      ],
      [
        "▁З",
        -9.194926261901855
      ],
      [
        "▁р",
        -9.195463180541992
      ],
      [
        "ton",
        -9.195487022399902
      ],
      [
        "си",
        -9.195743560791016
      ],
      [
        "▁then",
        -9.197094917297363
      ],
      [
        "▁районе",
        -9.197250366210938
      ],
      [
        "▁имени",
        -9.197881698608398
      ],
      [
        "▁some",
        -9.198307991027832
      ],
      [
        "▁развития",
        -9.198735237121582
      ],
      [
        "▁либо",
        -9.19996166229248
      ],
      [
        "▁группы",
        -9.200800895690918
      ],
      [
        "ющий",
        -9.201767921447754
      ],
      [
        "ent",
        -9.20224666595459
      ],
      [
        "▁made",
        -9.202535629272461
      ],
      [
        "ика",
        -9.202570915222168
      ],
      [
        "▁such",
        -9.203289985656738
      ],
      [
        "na",
        -9.203333854675293
      ],
      [
        "▁Поэтому",
        -9.2042818069458
      ],
      [
        "▁during",
        -9.204668045043945
      ],
      [
        "!\"",
        -9.205986976623535
      ],
      [
        "гу",
        -9.206595420837402
      ],
      [
        "li",
        -9.208041191101074
      ],
      [
        "Р",
        -9.209029197692871
      ],
      [
        "▁мая",
        -9.210077285766602
      ],
      [
        "ur",
        -9.21099853515625
      ],
      [
        "▁РФ",
        -9.211319923400879
      ],
      [
        "ический",
        -9.213150024414062
      ],
      [
        "▁so",
        -9.213155746459961
      ],
      [
        "▁J",
        -9.215049743652344
      ],
      [
        "чин",
        -9.21524715423584
      ],
      [
        "ры",
        -9.21536922454834
      ],
      [
        "▁возможно",
        -9.215877532958984
      ],
      [
        "ate",
        -9.216002464294434
      ],
      [
        "▁такое",
        -9.217572212219238
      ],
      [
        "].",
        -9.217597961425781
      ],
      [
        "▁стало",
        -9.217686653137207
      ],
      [
        "▁внимание",
        -9.2191162109375
      ],
      [
        "ились",
        -9.221203804016113
      ],
      [
        "te",
        -9.221271514892578
      ],
      [
        "▁находится",
        -9.221529960632324
      ],
      [
        "ir",
        -9.224607467651367
      ],
      [
        "v",
        -9.225109100341797
      ],
      [
        "▁Александр",
        -9.225677490234375
      ],
      [
        "су",
        -9.225839614868164
      ],
      [
        "ian",
        -9.226258277893066
      ],
      [
        "▁(\"",
        -9.227740287780762
      ],
      [
        "▁between",
        -9.230156898498535
      ],
      [
        "По",
        -9.23073673248291
      ],
      [
        "нии",
        -9.231653213500977
      ],
      [
        "son",
        -9.231846809387207
      ],
      [
        "ши",
        -9.231983184814453
      ],
      [
        "▁детей",
        -9.232872009277344
      ],
      [
        "▁стала",
        -9.233352661132812
      ],
      [
        "se",
        -9.234519958496094
      ],
      [
        "▁одним",
        -9.235870361328125
      ],
      [
        "вар",
        -9.235981941223145
      ],
      [
        "▁многие",
        -9.236492156982422
      ],
      [
        "ович",
        -9.237578392028809
      ],
      [
        "лож",
        -9.237789154052734
      ],
      [
        "▁деятельности",
        -9.23925495147705
      ],
      [
        "ация",
        -9.239684104919434
      ],
      [
        "▁обычно",
        -9.24008846282959
      ],
      [
        "am",
        -9.240097045898438
      ],
      [
        "▁Кроме",
        -9.241376876831055
      ],
      [
        "ян",
        -9.241713523864746
      ],
      [
        "▁месте",
        -9.242352485656738
      ],
      [
        "ве",
        -9.242436408996582
      ],
      [
        "▁компании",
        -9.243196487426758
      ],
      [
        "либо",
        -9.244451522827148
      ],
      [
        "▁действия",
        -9.250641822814941
      ],
      [
        "▁бес",
        -9.253035545349121
      ],
      [
        "▁смерти",
        -9.253199577331543
      ],
      [
        "э",
        -9.255331993103027
      ],
      [
        "▁ведь",
        -9.255946159362793
      ],
      [
        "▁снова",
        -9.256662368774414
      ],
      [
        "▁этому",
        -9.258403778076172
      ],
      [
        "▁многих",
        -9.258964538574219
      ],
      [
        "▁деле",
        -9.25961685180664
      ],
      [
        "▁июля",
        -9.2606782913208
      ],
      [
        "лю",
        -9.264183044433594
      ],
      [
        "лад",
        -9.264423370361328
      ],
      [
        "ro",
        -9.26480770111084
      ],
      [
        "▁самого",
        -9.266889572143555
      ],
      [
        "овать",
        -9.267251968383789
      ],
      [
        "▁Ну",
        -9.267942428588867
      ],
      [
        "▁most",
        -9.268089294433594
      ],
      [
        "ро",
        -9.268610000610352
      ],
      [
        "Е",
        -9.268816947937012
      ],
      [
        "▁used",
        -9.269134521484375
      ],
      [
        "▁работа",
        -9.270096778869629
      ],
      [
        "ией",
        -9.270692825317383
      ],
      [
        "▁класс",
        -9.270978927612305
      ],
      [
        "▁наиболее",
        -9.271868705749512
      ],
      [
        "R",
        -9.271982192993164
      ],
      [
        "▁всей",
        -9.272963523864746
      ],
      [
        "ющие",
        -9.275043487548828
      ],
      [
        "ie",
        -9.275467872619629
      ],
      [
        "K",
        -9.27603816986084
      ],
      [
        "ine",
        -9.277172088623047
      ],
      [
        "=",
        -9.2774019241333
      ],
      [
        "▁un",
        -9.278844833374023
      ],
      [
        "ики",
        -9.279125213623047
      ],
      [
        "▁сентября",
        -9.280760765075684
      ],
      [
        "ta",
        -9.282135009765625
      ],
      [
        "▁могли",
        -9.282150268554688
      ],
      [
        "ше",
        -9.282739639282227
      ],
      [
        "скому",
        -9.28345775604248
      ],
      [
        "▁later",
        -9.286046028137207
      ],
      [
        "▁опыт",
        -9.287490844726562
      ],
      [
        "▁должно",
        -9.287588119506836
      ],
      [
        "▁организации",
        -9.288368225097656
      ],
      [
        "ках",
        -9.289874076843262
      ],
      [
        "▁количество",
        -9.29196548461914
      ],
      [
        "▁июня",
        -9.292492866516113
      ],
      [
        "V",
        -9.292524337768555
      ],
      [
        "ью",
        -9.292576789855957
      ],
      [
        "▁августа",
        -9.292983055114746
      ],
      [
        "ул",
        -9.293880462646484
      ],
      [
        "ила",
        -9.293997764587402
      ],
      [
        "ter",
        -9.294403076171875
      ],
      [
        "стр",
        -9.295543670654297
      ],
      [
        "ическая",
        -9.29609489440918
      ],
      [
        "▁выше",
        -9.298822402954102
      ],
      [
        "▁пар",
        -9.299185752868652
      ],
      [
        "иль",
        -9.30066967010498
      ],
      [
        "E",
        -9.300702095031738
      ],
      [
        "кон",
        -9.301337242126465
      ],
      [
        "▁являются",
        -9.303450584411621
      ],
      [
        "▁part",
        -9.303569793701172
      ],
      [
        "дер",
        -9.304105758666992
      ],
      [
        "▁генерал",
        -9.304340362548828
      ],
      [
        "▁делать",
        -9.304961204528809
      ],
      [
        "▁марта",
        -9.305277824401855
      ],
      [
        "▁дней",
        -9.306463241577148
      ],
      [
        "▁Ар",
        -9.306967735290527
      ],
      [
        "▁совсем",
        -9.307019233703613
      ],
      [
        "це",
        -9.307414054870605
      ],
      [
        "▁октября",
        -9.307891845703125
      ],
      [
        "▁степени",
        -9.308297157287598
      ],
      [
        "▁нем",
        -9.308893203735352
      ],
      [
        "▁января",
        -9.30970573425293
      ],
      [
        "▁нашей",
        -9.310433387756348
      ],
      [
        "ста",
        -9.311477661132812
      ],
      [
        "▁которым",
        -9.311573028564453
      ],
      [
        "▁почему",
        -9.313436508178711
      ],
      [
        "able",
        -9.3136568069458
      ],
      [
        "лин",
        -9.314011573791504
      ],
      [
        "бер",
        -9.314977645874023
      ],
      [
        "Ч",
        -9.315827369689941
      ],
      [
        "▁three",
        -9.317095756530762
      ],
      [
        "▁ответ",
        -9.317252159118652
      ],
      [
        "▁As",
        -9.318877220153809
      ],
      [
        "▁дел",
        -9.320821762084961
      ],
      [
        "ран",
        -9.323071479797363
      ],
      [
        "со",
        -9.323416709899902
      ],
      [
        "▁составе",
        -9.323533058166504
      ],
      [
        "▁She",
        -9.323629379272461
      ],
      [
        "оз",
        -9.324135780334473
      ],
      [
        "Ш",
        -9.326482772827148
      ],
      [
        "▁вид",
        -9.327497482299805
      ],
      [
        "ешь",
        -9.329644203186035
      ],
      [
        "▁being",
        -9.330480575561523
      ],
      [
        "мо",
        -9.331385612487793
      ],
      [
        "ники",
        -9.332704544067383
      ],
      [
        "▁силы",
        -9.332791328430176
      ],
      [
        "Х",
        -9.333128929138184
      ],
      [
        "▁прежде",
        -9.333317756652832
      ],
      [
        "▁назад",
        -9.333770751953125
      ],
      [
        "лы",
        -9.334256172180176
      ],
      [
        "лу",
        -9.336795806884766
      ],
      [
        "▁должна",
        -9.337950706481934
      ],
      [
        "▁годах",
        -9.339679718017578
      ],
      [
        "▁некоторые",
        -9.340883255004883
      ],
      [
        "ary",
        -9.342426300048828
      ],
      [
        "▁участие",
        -9.344072341918945
      ],
      [
        "▁декабря",
        -9.344660758972168
      ],
      [
        "de",
        -9.345175743103027
      ],
      [
        "ход",
        -9.34538459777832
      ],
      [
        "йте",
        -9.346898078918457
      ],
      [
        "▁годов",
        -9.350456237792969
      ],
      [
        "▁та",
        -9.350903511047363
      ],
      [
        "▁сегодня",
        -9.351603507995605
      ],
      [
        "ён",
        -9.352651596069336
      ],
      [
        "▁Ли",
        -9.3536376953125
      ],
      [
        "▁решение",
        -9.354719161987305
      ],
      [
        "▁мире",
        -9.35609245300293
      ],
      [
        "▁района",
        -9.35635757446289
      ],
      [
        "▁пол",
        -9.357026100158691
      ],
      [
        "▁St",
        -9.357725143432617
      ],
      [
        "▁большой",
        -9.360445022583008
      ],
      [
        "▁стоит",
        -9.36102294921875
      ],
      [
        "ха",
        -9.362156867980957
      ],
      [
        "▁места",
        -9.364686012268066
      ],
      [
        "▁управления",
        -9.366165161132812
      ],
      [
        "пер",
        -9.366495132446289
      ],
      [
        "З",
        -9.367362022399902
      ],
      [
        "▁полностью",
        -9.367518424987793
      ],
      [
        "ич",
        -9.367607116699219
      ],
      [
        "овым",
        -9.368000984191895
      ],
      [
        "▁легко",
        -9.369625091552734
      ],
      [
        "▁апреля",
        -9.370511054992676
      ],
      [
        "▁well",
        -9.371485710144043
      ],
      [
        "as",
        -9.37176513671875
      ],
      [
        "▁той",
        -9.37193775177002
      ],
      [
        "▁интерес",
        -9.372132301330566
      ],
      [
        "▁суд",
        -9.373848915100098
      ],
      [
        "age",
        -9.373865127563477
      ],
      [
        "▁you",
        -9.374062538146973
      ],
      [
        "▁права",
        -9.376949310302734
      ],
      [
        "▁данных",
        -9.376989364624023
      ],
      [
        "▁слишком",
        -9.378244400024414
      ],
      [
        "▁всю",
        -9.378278732299805
      ],
      [
        "ant",
        -9.378975868225098
      ],
      [
        "▁значение",
        -9.379597663879395
      ],
      [
        "co",
        -9.3797025680542
      ],
      [
        "?\"",
        -9.380661964416504
      ],
      [
        "▁происходит",
        -9.38208293914795
      ],
      [
        "ника",
        -9.38284969329834
      ],
      [
        "▁мере",
        -9.382974624633789
      ],
      [
        "▁центр",
        -9.383415222167969
      ],
      [
        "ант",
        -9.385246276855469
      ],
      [
        "▁through",
        -9.38693618774414
      ],
      [
        "▁действительно",
        -9.38768482208252
      ],
      [
        "▁гг",
        -9.388504028320312
      ],
      [
        "▁цвет",
        -9.390569686889648
      ],
      [
        "ve",
        -9.391295433044434
      ],
      [
        "▁использовать",
        -9.392109870910645
      ],
      [
        "овая",
        -9.393156051635742
      ],
      [
        "▁пути",
        -9.395394325256348
      ],
      [
        "▁прямо",
        -9.395859718322754
      ],
      [
        "▁такого",
        -9.398122787475586
      ],
      [
        "▁became",
        -9.399971961975098
      ],
      [
        "▁against",
        -9.40004825592041
      ],
      [
        "уз",
        -9.400720596313477
      ],
      [
        "▁первой",
        -9.400778770446777
      ],
      [
        "▁ноября",
        -9.401721000671387
      ],
      [
        "▁ф",
        -9.401742935180664
      ],
      [
        "ек",
        -9.402132034301758
      ],
      [
        "▁ряд",
        -9.40356159210205
      ],
      [
        "▁many",
        -9.404223442077637
      ],
      [
        "ическое",
        -9.40511417388916
      ],
      [
        "▁народ",
        -9.405304908752441
      ],
      [
        "под",
        -9.405537605285645
      ],
      [
        "▁ними",
        -9.407835960388184
      ],
      [
        "▁воды",
        -9.408150672912598
      ],
      [
        "▁типа",
        -9.409102439880371
      ],
      [
        "▁while",
        -9.412282943725586
      ],
      [
        "▁нельзя",
        -9.412818908691406
      ],
      [
        "▁общества",
        -9.41436767578125
      ],
      [
        "ch",
        -9.417243003845215
      ],
      [
        "▁процесс",
        -9.419013023376465
      ],
      [
        "▁will",
        -9.419809341430664
      ],
      [
        "▁минут",
        -9.420523643493652
      ],
      [
        "▁государства",
        -9.420621871948242
      ],
      [
        "▁движения",
        -9.423148155212402
      ],
      [
        "▁тебя",
        -9.423988342285156
      ],
      [
        "енный",
        -9.425825119018555
      ],
      [
        "▁Ч",
        -9.426539421081543
      ],
      [
        "ид",
        -9.427210807800293
      ],
      [
        "▁work",
        -9.429998397827148
      ],
      [
        "▁имя",
        -9.433051109313965
      ],
      [
        "▁полу",
        -9.43347454071045
      ],
      [
        "▁удалось",
        -9.433485984802246
      ],
      [
        "▁равно",
        -9.434009552001953
      ],
      [
        "▁войск",
        -9.434488296508789
      ],
      [
        "лей",
        -9.435632705688477
      ],
      [
        "▁тыс",
        -9.435848236083984
      ],
      [
        "▁Раз",
        -9.436250686645508
      ],
      [
        "ают",
        -9.437535285949707
      ],
      [
        "▁Ко",
        -9.438129425048828
      ],
      [
        "▁La",
        -9.438153266906738
      ],
      [
        "▁year",
        -9.44000244140625
      ],
      [
        "▁before",
        -9.440919876098633
      ],
      [
        "▁руки",
        -9.441718101501465
      ],
      [
        "▁people",
        -9.442143440246582
      ],
      [
        "лов",
        -9.442727088928223
      ],
      [
        "▁населения",
        -9.443575859069824
      ],
      [
        "▁дом",
        -9.444878578186035
      ],
      [
        "ница",
        -9.444879531860352
      ],
      [
        "ско",
        -9.44504451751709
      ],
      [
        "альные",
        -9.445204734802246
      ],
      [
        "▁Co",
        -9.445724487304688
      ],
      [
        "ски",
        -9.446407318115234
      ],
      [
        "▁часов",
        -9.448375701904297
      ],
      [
        "um",
        -9.44839096069336
      ],
      [
        "the",
        -9.44873046875
      ],
      [
        "▁иногда",
        -9.451804161071777
      ],
      [
        "ол",
        -9.452258110046387
      ],
      [
        "est",
        -9.45305061340332
      ],
      [
        "▁отношения",
        -9.454090118408203
      ],
      [
        "стью",
        -9.456681251525879
      ],
      [
        "▁различных",
        -9.458075523376465
      ],
      [
        "ала",
        -9.458589553833008
      ],
      [
        "▁пер",
        -9.458806991577148
      ],
      [
        "▁партии",
        -9.459566116333008
      ],
      [
        "▁ту",
        -9.460247039794922
      ],
      [
        "▁название",
        -9.462448120117188
      ],
      [
        "▁автор",
        -9.464372634887695
      ],
      [
        "род",
        -9.46622085571289
      ],
      [
        "be",
        -9.466558456420898
      ],
      [
        "ге",
        -9.467134475708008
      ],
      [
        "▁труд",
        -9.467921257019043
      ],
      [
        "▁мой",
        -9.468337059020996
      ],
      [
        "▁do",
        -9.470516204833984
      ],
      [
        "бо",
        -9.471126556396484
      ],
      [
        "▁Кон",
        -9.471355438232422
      ],
      [
        "▁end",
        -9.471805572509766
      ],
      [
        "▁постоянно",
        -9.472752571105957
      ],
      [
        "▁новые",
        -9.473599433898926
      ],
      [
        "▁самых",
        -9.4741792678833
      ],
      [
        "образ",
        -9.474736213684082
      ],
      [
        "рис",
        -9.475530624389648
      ],
      [
        "▁городе",
        -9.476231575012207
      ],
      [
        "▁весьма",
        -9.478988647460938
      ],
      [
        "▁февраля",
        -9.479172706604004
      ],
      [
        "▁своем",
        -9.479949951171875
      ],
      [
        "▁весь",
        -9.480569839477539
      ],
      [
        "▁if",
        -9.480839729309082
      ],
      [
        "▁вполне",
        -9.481882095336914
      ],
      [
        "кам",
        -9.482247352600098
      ],
      [
        "▁становится",
        -9.482431411743164
      ],
      [
        "▁said",
        -9.482667922973633
      ],
      [
        "▁Вер",
        -9.482711791992188
      ],
      [
        "ma",
        -9.48298168182373
      ],
      [
        "▁анти",
        -9.483697891235352
      ],
      [
        "стро",
        -9.483741760253906
      ],
      [
        "бу",
        -9.48386001586914
      ],
      [
        "▁Москве",
        -9.486401557922363
      ],
      [
        "ера",
        -9.488340377807617
      ],
      [
        "▁работе",
        -9.4898042678833
      ],
      [
        "O",
        -9.490842819213867
      ],
      [
        "▁некоторых",
        -9.490945816040039
      ],
      [
        "▁какие",
        -9.492547988891602
      ],
      [
        "▁новых",
        -9.493636131286621
      ],
      [
        "▁известно",
        -9.495137214660645
      ],
      [
        "▁After",
        -9.495506286621094
      ],
      [
        "▁ст",
        -9.495723724365234
      ],
      [
        "стер",
        -9.495792388916016
      ],
      [
        "вший",
        -9.496509552001953
      ],
      [
        "дан",
        -9.49695873260498
      ],
      [
        "ви",
        -9.4977445602417
      ],
      [
        "▁имеют",
        -9.498059272766113
      ],
      [
        "рон",
        -9.49857234954834
      ],
      [
        "▁проект",
        -9.49909782409668
      ],
      [
        "ним",
        -9.501081466674805
      ],
      [
        "▁Тем",
        -9.501151084899902
      ],
      [
        "▁could",
        -9.50124454498291
      ],
      [
        "▁season",
        -9.502975463867188
      ],
      [
        "шей",
        -9.503301620483398
      ],
      [
        "ении",
        -9.5037202835083
      ],
      [
        "▁>",
        -9.503729820251465
      ],
      [
        "▁довольно",
        -9.503883361816406
      ],
      [
        "сь",
        -9.503994941711426
      ],
      [
        "цион",
        -9.50428581237793
      ],
      [
        "▁практически",
        -9.504679679870605
      ],
      [
        "ies",
        -9.505524635314941
      ],
      [
        "сон",
        -9.506277084350586
      ],
      [
        "тон",
        -9.506346702575684
      ],
      [
        "lo",
        -9.50677490234375
      ],
      [
        "▁система",
        -9.50744915008545
      ],
      [
        "▁second",
        -9.508040428161621
      ],
      [
        "пис",
        -9.508170127868652
      ],
      [
        "▁куда",
        -9.508337020874023
      ],
      [
        "За",
        -9.5091552734375
      ],
      [
        "альный",
        -9.509610176086426
      ],
      [
        "од",
        -9.509765625
      ],
      [
        "▁реки",
        -9.509897232055664
      ],
      [
        "ели",
        -9.510156631469727
      ],
      [
        "▁писал",
        -9.51048469543457
      ],
      [
        "▁возможности",
        -9.510644912719727
      ],
      [
        "▁ди",
        -9.511518478393555
      ],
      [
        "▁вновь",
        -9.5115327835083
      ],
      [
        "▁информации",
        -9.512357711791992
      ],
      [
        "илась",
        -9.512670516967773
      ],
      [
        "▁Кар",
        -9.513530731201172
      ],
      [
        "▁кроме",
        -9.514409065246582
      ],
      [
        "▁Ни",
        -9.514519691467285
      ],
      [
        "▁трех",
        -9.514664649963379
      ],
      [
        "▁Этот",
        -9.514890670776367
      ],
      [
        "▁долго",
        -9.515667915344238
      ],
      [
        "▁Кор",
        -9.51659107208252
      ],
      [
        "ance",
        -9.517071723937988
      ],
      [
        "зем",
        -9.517699241638184
      ],
      [
        "▁самым",
        -9.519680976867676
      ],
      [
        "▁конца",
        -9.520670890808105
      ],
      [
        "▁разных",
        -9.520771026611328
      ],
      [
        "▁кор",
        -9.522095680236816
      ],
      [
        "▁both",
        -9.522275924682617
      ],
      [
        "▁co",
        -9.52565860748291
      ],
      [
        "енные",
        -9.526227951049805
      ],
      [
        "▁Российской",
        -9.52624225616455
      ],
      [
        "аль",
        -9.52721118927002
      ],
      [
        "ру",
        -9.530261039733887
      ],
      [
        "ul",
        -9.530313491821289
      ],
      [
        "▁back",
        -9.531670570373535
      ],
      [
        "ак",
        -9.53183650970459
      ],
      [
        "ri",
        -9.532417297363281
      ],
      [
        "ях",
        -9.534333229064941
      ],
      [
        "▁зрения",
        -9.535475730895996
      ],
      [
        "▁одном",
        -9.535903930664062
      ],
      [
        "ел",
        -9.537212371826172
      ],
      [
        "▁Владимир",
        -9.537786483764648
      ],
      [
        "На",
        -9.539103507995605
      ],
      [
        "up",
        -9.53933048248291
      ],
      [
        "кин",
        -9.540398597717285
      ],
      [
        "▁основе",
        -9.540656089782715
      ],
      [
        "жа",
        -9.540793418884277
      ],
      [
        "▁dis",
        -9.541621208190918
      ],
      [
        "ент",
        -9.541672706604004
      ],
      [
        "▁including",
        -9.543758392333984
      ],
      [
        "жи",
        -9.545944213867188
      ],
      [
        "▁кого",
        -9.545950889587402
      ],
      [
        "▁меньше",
        -9.546408653259277
      ],
      [
        "▁культуры",
        -9.54645824432373
      ],
      [
        "U",
        -9.547199249267578
      ],
      [
        "ден",
        -9.548075675964355
      ],
      [
        "▁нового",
        -9.548315048217773
      ],
      [
        "ями",
        -9.548809051513672
      ],
      [
        "▁четыре",
        -9.549068450927734
      ],
      [
        "ra",
        -9.549108505249023
      ],
      [
        "лет",
        -9.55102825164795
      ],
      [
        "▁тебе",
        -9.551717758178711
      ],
      [
        "▁*",
        -9.551875114440918
      ],
      [
        "▁рода",
        -9.55276107788086
      ],
      [
        "▁//",
        -9.553675651550293
      ],
      [
        "▁решения",
        -9.55518913269043
      ],
      [
        "ров",
        -9.555351257324219
      ],
      [
        "▁b",
        -9.556151390075684
      ],
      [
        "▁Таким",
        -9.556707382202148
      ],
      [
        "▁De",
        -9.557003021240234
      ],
      [
        "▁деньги",
        -9.558608055114746
      ],
      [
        "▁па",
        -9.558692932128906
      ],
      [
        "▁новый",
        -9.559798240661621
      ],
      [
        "▁самой",
        -9.560508728027344
      ],
      [
        "она",
        -9.561121940612793
      ],
      [
        "воз",
        -9.56233024597168
      ],
      [
        "▁книги",
        -9.563044548034668
      ],
      [
        "▁Эти",
        -9.563663482666016
      ],
      [
        "▁Ма",
        -9.564001083374023
      ],
      [
        "▁помощи",
        -9.564007759094238
      ],
      [
        "енко",
        -9.5640230178833
      ],
      [
        "▁ч",
        -9.564920425415039
      ],
      [
        "ated",
        -9.564974784851074
      ],
      [
        "...\"",
        -9.56549072265625
      ],
      [
        "▁\\-",
        -9.565520286560059
      ],
      [
        "▁точно",
        -9.565763473510742
      ],
      [
        "▁нескольких",
        -9.566550254821777
      ],
      [
        "▁con",
        -9.566816329956055
      ],
      [
        "кая",
        -9.568146705627441
      ],
      [
        "▁we",
        -9.568192481994629
      ],
      [
        "▁точки",
        -9.56839656829834
      ],
      [
        "▁способ",
        -9.568888664245605
      ],
      [
        "`",
        -9.569384574890137
      ],
      [
        "итель",
        -9.569744110107422
      ],
      [
        "ступ",
        -9.572063446044922
      ],
      [
        "▁Теперь",
        -9.572785377502441
      ],
      [
        "▁значит",
        -9.572888374328613
      ],
      [
        "▁удар",
        -9.573311805725098
      ],
      [
        "▁закон",
        -9.573652267456055
      ],
      [
        "▁мысли",
        -9.574190139770508
      ],
      [
        "▁никто",
        -9.576101303100586
      ],
      [
        "▁вокруг",
        -9.576160430908203
      ],
      [
        "▁At",
        -9.577127456665039
      ],
      [
        "▁образ",
        -9.57890510559082
      ],
      [
        "▁найти",
        -9.580314636230469
      ],
      [
        "▁Здесь",
        -9.580374717712402
      ],
      [
        "▁Украины",
        -9.580498695373535
      ],
      [
        "▁наши",
        -9.580768585205078
      ],
      [
        "▁язык",
        -9.58105754852295
      ],
      [
        "ющей",
        -9.581127166748047
      ],
      [
        "▁film",
        -9.581271171569824
      ],
      [
        "▁условиях",
        -9.581503868103027
      ],
      [
        "изм",
        -9.581846237182617
      ],
      [
        "▁t",
        -9.583064079284668
      ],
      [
        "изма",
        -9.583873748779297
      ],
      [
        "go",
        -9.584040641784668
      ],
      [
        "▁идет",
        -9.585265159606934
      ],
      [
        "▁счет",
        -9.585582733154297
      ],
      [
        "▁Су",
        -9.586065292358398
      ],
      [
        "min",
        -9.586272239685059
      ],
      [
        "▁сторону",
        -9.586724281311035
      ],
      [
        "▁очередь",
        -9.586743354797363
      ],
      [
        "▁готов",
        -9.586881637573242
      ],
      [
        "▁Ла",
        -9.587140083312988
      ],
      [
        "▁одну",
        -9.58767318725586
      ],
      [
        "▁X",
        -9.58858585357666
      ],
      [
        "▁план",
        -9.589252471923828
      ],
      [
        "▁pre",
        -9.589932441711426
      ],
      [
        "▁тела",
        -9.590607643127441
      ],
      [
        "▁работать",
        -9.591154098510742
      ],
      [
        "▁средств",
        -9.593027114868164
      ],
      [
        "нет",
        -9.593618392944336
      ],
      [
        "▁решил",
        -9.59446907043457
      ],
      [
        "▁Al",
        -9.594586372375488
      ],
      [
        "▁Ц",
        -9.595306396484375
      ],
      [
        "▁these",
        -9.59661865234375
      ],
      [
        "▁Те",
        -9.597466468811035
      ],
      [
        "ющим",
        -9.597678184509277
      ],
      [
        "▁электро",
        -9.59833812713623
      ],
      [
        "▁стар",
        -9.59887409210205
      ],
      [
        "▁цен",
        -9.599081039428711
      ],
      [
        "pe",
        -9.599122047424316
      ],
      [
        "▁st",
        -9.599455833435059
      ],
      [
        "▁сильно",
        -9.599885940551758
      ],
      [
        "юсь",
        -9.600707054138184
      ],
      [
        "▁наших",
        -9.60216999053955
      ],
      [
        "ска",
        -9.602790832519531
      ],
      [
        "бор",
        -9.602837562561035
      ],
      [
        "X",
        -9.602934837341309
      ],
      [
        "▁число",
        -9.603025436401367
      ],
      [
        "ad",
        -9.60454273223877
      ],
      [
        "тся",
        -9.605496406555176
      ],
      [
        "▁'",
        -9.605613708496094
      ],
      [
        "▁первого",
        -9.60612964630127
      ],
      [
        "чен",
        -9.606393814086914
      ],
      [
        "чат",
        -9.606800079345703
      ],
      [
        "▁положение",
        -9.607177734375
      ],
      [
        "▁United",
        -9.60733699798584
      ],
      [
        "нуть",
        -9.610079765319824
      ],
      [
        "▁ум",
        -9.610182762145996
      ],
      [
        "▁Затем",
        -9.610334396362305
      ],
      [
        "▁me",
        -9.610993385314941
      ],
      [
        "▁работал",
        -9.611845016479492
      ],
      [
        "▁внутри",
        -9.611984252929688
      ],
      [
        "▁стать",
        -9.612256050109863
      ],
      [
        "▁слово",
        -9.612465858459473
      ],
      [
        "▁d",
        -9.614023208618164
      ],
      [
        "▁впервые",
        -9.614521980285645
      ],
      [
        "▁глаза",
        -9.615968704223633
      ],
      [
        "▁н",
        -9.616455078125
      ],
      [
        "▁путь",
        -9.616973876953125
      ],
      [
        "▁наук",
        -9.618569374084473
      ],
      [
        "im",
        -9.621129989624023
      ],
      [
        "▁пять",
        -9.621310234069824
      ],
      [
        "▁ходе",
        -9.622408866882324
      ],
      [
        "▁столь",
        -9.622488021850586
      ],
      [
        "мин",
        -9.62253189086914
      ],
      [
        "оп",
        -9.623143196105957
      ],
      [
        "▁рядом",
        -9.62394905090332
      ],
      [
        "▁кино",
        -9.624540328979492
      ],
      [
        "ева",
        -9.624661445617676
      ],
      [
        "▁данным",
        -9.624771118164062
      ],
      [
        "▁Например",
        -9.62559986114502
      ],
      [
        "▁уж",
        -9.627046585083008
      ],
      [
        "▁American",
        -9.627145767211914
      ],
      [
        "▁немного",
        -9.6276273727417
      ],
      [
        "▁частности",
        -9.627857208251953
      ],
      [
        "▁самое",
        -9.629317283630371
      ],
      [
        "▁пост",
        -9.6294584274292
      ],
      [
        "ga",
        -9.629596710205078
      ],
      [
        "вал",
        -9.631570816040039
      ],
      [
        "▁ш",
        -9.631851196289062
      ],
      [
        "me",
        -9.632787704467773
      ],
      [
        "ды",
        -9.633979797363281
      ],
      [
        "ill",
        -9.634882926940918
      ],
      [
        "no",
        -9.636441230773926
      ],
      [
        "ce",
        -9.63725471496582
      ],
      [
        "лом",
        -9.638322830200195
      ],
      [
        "▁War",
        -9.638500213623047
      ],
      [
        "▁назначен",
        -9.638884544372559
      ],
      [
        "альных",
        -9.639924049377441
      ],
      [
        "▁земли",
        -9.640497207641602
      ],
      [
        "j",
        -9.640636444091797
      ],
      [
        "▁млн",
        -9.64095687866211
      ],
      [
        "▁Пере",
        -9.642374992370605
      ],
      [
        "▁Также",
        -9.642784118652344
      ],
      [
        "ическую",
        -9.64365005493164
      ],
      [
        "▁team",
        -9.644177436828613
      ],
      [
        "лан",
        -9.644746780395508
      ],
      [
        "▁Германии",
        -9.645102500915527
      ],
      [
        "ём",
        -9.645401000976562
      ],
      [
        "▁отношении",
        -9.645501136779785
      ],
      [
        "▁своими",
        -9.6460599899292
      ],
      [
        "ism",
        -9.647377967834473
      ],
      [
        "▁радио",
        -9.64748764038086
      ],
      [
        "▁any",
        -9.647690773010254
      ],
      [
        "ун",
        -9.648093223571777
      ],
      [
        "ty",
        -9.648137092590332
      ],
      [
        "▁словам",
        -9.64828109741211
      ],
      [
        "ut",
        -9.64887809753418
      ],
      [
        "▁until",
        -9.64896297454834
      ],
      [
        "▁m",
        -9.649415969848633
      ],
      [
        "▁могу",
        -9.649663925170898
      ],
      [
        "ni",
        -9.650799751281738
      ],
      [
        "▁район",
        -9.651572227478027
      ],
      [
        "▁проблемы",
        -9.651585578918457
      ],
      [
        "land",
        -9.65162467956543
      ],
      [
        "▁Мар",
        -9.65221118927002
      ],
      [
        "ёр",
        -9.652543067932129
      ],
      [
        "инг",
        -9.653229713439941
      ],
      [
        "▁рублей",
        -9.654276847839355
      ],
      [
        "люб",
        -9.655120849609375
      ],
      [
        "▁Франции",
        -9.655895233154297
      ],
      [
        "▁бед",
        -9.65609073638916
      ],
      [
        "▁море",
        -9.65626335144043
      ],
      [
        "▁друга",
        -9.657509803771973
      ],
      [
        "▁Эта",
        -9.65755844116211
      ],
      [
        "▁благодаря",
        -9.65835189819336
      ],
      [
        "▁Мо",
        -9.659488677978516
      ],
      [
        "▁пе",
        -9.660273551940918
      ],
      [
        "▁same",
        -9.661182403564453
      ],
      [
        "▁Ру",
        -9.66263484954834
      ],
      [
        "sh",
        -9.662782669067383
      ],
      [
        "▁составляет",
        -9.66286563873291
      ],
      [
        "нь",
        -9.662956237792969
      ],
      [
        "кий",
        -9.663867950439453
      ],
      [
        "▁получить",
        -9.665047645568848
      ],
      [
        "▁говорить",
        -9.666536331176758
      ],
      [
        "енных",
        -9.667461395263672
      ],
      [
        "▁примерно",
        -9.667485237121582
      ],
      [
        "▁сделал",
        -9.66750431060791
      ],
      [
        "▁вер",
        -9.667779922485352
      ],
      [
        "▁поэт",
        -9.668601989746094
      ],
      [
        "▁number",
        -9.668818473815918
      ],
      [
        "след",
        -9.669570922851562
      ],
      [
        "ря",
        -9.670740127563477
      ],
      [
        "ol",
        -9.670870780944824
      ],
      [
        "хо",
        -9.672725677490234
      ],
      [
        "уд",
        -9.673282623291016
      ],
      [
        "▁матери",
        -9.6743745803833
      ],
      [
        "▁кол",
        -9.674774169921875
      ],
      [
        "un",
        -9.675058364868164
      ],
      [
        "лив",
        -9.675626754760742
      ],
      [
        "▁own",
        -9.675628662109375
      ],
      [
        "▁знаю",
        -9.67690372467041
      ],
      [
        "▁граждан",
        -9.677492141723633
      ],
      [
        "▁стране",
        -9.678099632263184
      ],
      [
        "ган",
        -9.678220748901367
      ],
      [
        "os",
        -9.678298950195312
      ],
      [
        "▁Федерации",
        -9.678351402282715
      ],
      [
        "▁use",
        -9.678986549377441
      ],
      [
        "la",
        -9.679658889770508
      ],
      [
        "▁иметь",
        -9.6796875
      ],
      [
        "сто",
        -9.680291175842285
      ],
      [
        "нес",
        -9.680336952209473
      ],
      [
        "скими",
        -9.681025505065918
      ],
      [
        "ha",
        -9.682762145996094
      ],
      [
        "мат",
        -9.68286418914795
      ],
      [
        "The",
        -9.683199882507324
      ],
      [
        "ав",
        -9.683669090270996
      ],
      [
        "▁Там",
        -9.684764862060547
      ],
      [
        "▁одновременно",
        -9.686144828796387
      ],
      [
        "ции",
        -9.686948776245117
      ],
      [
        "овый",
        -9.6871919631958
      ],
      [
        "альная",
        -9.687393188476562
      ],
      [
        "▁наш",
        -9.687596321105957
      ],
      [
        "▁заявил",
        -9.68871021270752
      ],
      [
        "▁Пол",
        -9.688718795776367
      ],
      [
        "тель",
        -9.68891716003418
      ],
      [
        "▁говорил",
        -9.689536094665527
      ],
      [
        "▁противника",
        -9.690540313720703
      ],
      [
        "рен",
        -9.690740585327148
      ],
      [
        "эн",
        -9.691023826599121
      ],
      [
        "куп",
        -9.692201614379883
      ],
      [
        "▁выход",
        -9.69249439239502
      ],
      [
        "▁called",
        -9.692520141601562
      ],
      [
        "▁did",
        -9.692825317382812
      ],
      [
        "ост",
        -9.692974090576172
      ],
      [
        "▁сколько",
        -9.694961547851562
      ],
      [
        "▁сын",
        -9.695351600646973
      ],
      [
        "▁known",
        -9.695714950561523
      ],
      [
        "▁like",
        -9.696854591369629
      ],
      [
        "▁сами",
        -9.698140144348145
      ],
      [
        "▁солдат",
        -9.699169158935547
      ],
      [
        "▁Ты",
        -9.7009859085083
      ],
      [
        "▁факт",
        -9.701391220092773
      ],
      [
        "истов",
        -9.701452255249023
      ],
      [
        "ющего",
        -9.702478408813477
      ],
      [
        "▁будто",
        -9.702719688415527
      ],
      [
        "▁другим",
        -9.703750610351562
      ],
      [
        "зы",
        -9.7048978805542
      ],
      [
        "▁поле",
        -9.705470085144043
      ],
      [
        "▁мол",
        -9.707277297973633
      ],
      [
        "▁работ",
        -9.707895278930664
      ],
      [
        "▁речь",
        -9.708722114562988
      ],
      [
        "пи",
        -9.70998764038086
      ],
      [
        "▁средства",
        -9.710034370422363
      ],
      [
        "его",
        -9.710287094116211
      ],
      [
        "▁исследования",
        -9.711312294006348
      ],
      [
        "▁public",
        -9.711343765258789
      ],
      [
        "and",
        -9.71163558959961
      ],
      [
        "Ж",
        -9.712101936340332
      ],
      [
        "▁лица",
        -9.712345123291016
      ],
      [
        "▁may",
        -9.71300983428955
      ],
      [
        "▁кажется",
        -9.713164329528809
      ],
      [
        "▁`",
        -9.714397430419922
      ],
      [
        "▁found",
        -9.71463680267334
      ],
      [
        "▁Тогда",
        -9.715972900390625
      ],
      [
        "ству",
        -9.716490745544434
      ],
      [
        "кова",
        -9.716917991638184
      ],
      [
        "▁каждого",
        -9.717021942138672
      ],
      [
        "▁жил",
        -9.717277526855469
      ],
      [
        "▁мест",
        -9.717612266540527
      ],
      [
        "▁нему",
        -9.718087196350098
      ],
      [
        "гре",
        -9.719390869140625
      ],
      [
        "▁They",
        -9.720507621765137
      ],
      [
        "тан",
        -9.721314430236816
      ],
      [
        "▁Га",
        -9.722229957580566
      ],
      [
        "▁новой",
        -9.722643852233887
      ],
      [
        "▁улица",
        -9.72339916229248
      ],
      [
        "da",
        -9.724127769470215
      ],
      [
        "▁May",
        -9.724748611450195
      ],
      [
        "ван",
        -9.725336074829102
      ],
      [
        "ины",
        -9.726092338562012
      ],
      [
        "сов",
        -9.726113319396973
      ],
      [
        "▁слов",
        -9.726247787475586
      ],
      [
        "таки",
        -9.726325035095215
      ],
      [
        "▁ген",
        -9.726546287536621
      ],
      [
        "́",
        -9.726690292358398
      ],
      [
        "▁другими",
        -9.727621078491211
      ],
      [
        "▁school",
        -9.727767944335938
      ],
      [
        "жен",
        -9.72803783416748
      ],
      [
        "вшие",
        -9.728042602539062
      ],
      [
        "▁силу",
        -9.728047370910645
      ],
      [
        "▁имел",
        -9.728413581848145
      ],
      [
        "▁home",
        -9.728729248046875
      ],
      [
        "▁позволяет",
        -9.72875690460205
      ],
      [
        "▁изменения",
        -9.729547500610352
      ],
      [
        "▁основном",
        -9.73017406463623
      ],
      [
        "фа",
        -9.730245590209961
      ],
      [
        "▁церкви",
        -9.730876922607422
      ],
      [
        "▁вместо",
        -9.731087684631348
      ],
      [
        "▁народа",
        -9.731484413146973
      ],
      [
        "▁нашего",
        -9.731493949890137
      ],
      [
        "ция",
        -9.73186206817627
      ],
      [
        "гор",
        -9.732878684997559
      ],
      [
        "ирование",
        -9.734057426452637
      ],
      [
        "овал",
        -9.734174728393555
      ],
      [
        "▁name",
        -9.734503746032715
      ],
      [
        "▁Ле",
        -9.734663009643555
      ],
      [
        "J",
        -9.735061645507812
      ],
      [
        "▁клуб",
        -9.73591136932373
      ],
      [
        "▁целью",
        -9.736738204956055
      ],
      [
        "▁принял",
        -9.736937522888184
      ],
      [
        "▁Чтобы",
        -9.738876342773438
      ],
      [
        "▁войска",
        -9.740941047668457
      ],
      [
        "▁set",
        -9.741198539733887
      ],
      [
        "com",
        -9.74156665802002
      ],
      [
        "▁Z",
        -9.7426118850708
      ],
      [
        "▁первых",
        -9.7439603805542
      ],
      [
        "▁ранее",
        -9.743964195251465
      ],
      [
        "▁early",
        -9.744650840759277
      ],
      [
        "▁отдел",
        -9.74518871307373
      ],
      [
        "mo",
        -9.746365547180176
      ],
      [
        "поль",
        -9.746541976928711
      ],
      [
        "ot",
        -9.746567726135254
      ],
      [
        "▁University",
        -9.746903419494629
      ],
      [
        "▁began",
        -9.747316360473633
      ],
      [
        "вит",
        -9.747380256652832
      ],
      [
        "▁производства",
        -9.747407913208008
      ],
      [
        "бы",
        -9.747478485107422
      ],
      [
        "зна",
        -9.74797248840332
      ],
      [
        "om",
        -9.748104095458984
      ],
      [
        "ca",
        -9.748379707336426
      ],
      [
        "ший",
        -9.748425483703613
      ],
      [
        "дел",
        -9.748852729797363
      ],
      [
        "ща",
        -9.748981475830078
      ],
      [
        "▁команды",
        -9.750057220458984
      ],
      [
        "▁Ме",
        -9.751206398010254
      ],
      [
        "▁безопасности",
        -9.751744270324707
      ],
      [
        "фер",
        -9.751900672912598
      ],
      [
        "ru",
        -9.752302169799805
      ],
      [
        "▁наконец",
        -9.752752304077148
      ],
      [
        "▁фильм",
        -9.752775192260742
      ],
      [
        "▁правило",
        -9.75293254852295
      ],
      [
        "▁действий",
        -9.753349304199219
      ],
      [
        "ир",
        -9.753442764282227
      ],
      [
        "▁Ma",
        -9.753561019897461
      ],
      [
        "▁существует",
        -9.754207611083984
      ],
      [
        "▁игры",
        -9.75437068939209
      ],
      [
        "тов",
        -9.755043029785156
      ],
      [
        "пре",
        -9.755233764648438
      ],
      [
        "год",
        -9.755378723144531
      ],
      [
        "▁what",
        -9.755809783935547
      ],
      [
        "ll",
        -9.756481170654297
      ],
      [
        "мир",
        -9.756503105163574
      ],
      [
        "▁Мне",
        -9.756783485412598
      ],
      [
        "зи",
        -9.756972312927246
      ],
      [
        "вших",
        -9.757317543029785
      ],
      [
        "ложен",
        -9.757474899291992
      ],
      [
        "ее",
        -9.75774097442627
      ],
      [
        "пор",
        -9.757864952087402
      ],
      [
        "▁ком",
        -9.757890701293945
      ],
      [
        "кор",
        -9.758064270019531
      ],
      [
        "нер",
        -9.758400917053223
      ],
      [
        "▁случай",
        -9.758522987365723
      ],
      [
        "▁дальше",
        -9.758735656738281
      ],
      [
        "▁данные",
        -9.758980751037598
      ],
      [
        "▁цели",
        -9.759225845336914
      ],
      [
        "▁Нет",
        -9.75926399230957
      ],
      [
        "▁роли",
        -9.759679794311523
      ],
      [
        "нос",
        -9.75995922088623
      ],
      [
        "гер",
        -9.760534286499023
      ],
      [
        "▁пресс",
        -9.760649681091309
      ],
      [
        "▁роман",
        -9.761542320251465
      ],
      [
        "▁состоянии",
        -9.762060165405273
      ],
      [
        "▁Le",
        -9.762382507324219
      ],
      [
        "▁Только",
        -9.762452125549316
      ],
      [
        "sa",
        -9.763079643249512
      ],
      [
        "дж",
        -9.763728141784668
      ],
      [
        "▁состояние",
        -9.765372276306152
      ],
      [
        "▁Бо",
        -9.766556739807129
      ],
      [
        "▁Европы",
        -9.768407821655273
      ],
      [
        "▁смысл",
        -9.768417358398438
      ],
      [
        "тро",
        -9.768610000610352
      ],
      [
        "том",
        -9.768799781799316
      ],
      [
        "▁For",
        -9.770783424377441
      ],
      [
        "▁формы",
        -9.771638870239258
      ],
      [
        "ge",
        -9.77213191986084
      ],
      [
        "▁To",
        -9.77306842803955
      ],
      [
        "ous",
        -9.774728775024414
      ],
      [
        "▁four",
        -9.776360511779785
      ],
      [
        "Не",
        -9.776742935180664
      ],
      [
        "▁нее",
        -9.776749610900879
      ],
      [
        "вен",
        -9.776976585388184
      ],
      [
        "ющая",
        -9.77701473236084
      ],
      [
        "▁government",
        -9.777300834655762
      ],
      [
        "ена",
        -9.777481079101562
      ],
      [
        "стан",
        -9.778764724731445
      ],
      [
        "▁Бар",
        -9.778828620910645
      ],
      [
        "▁представляет",
        -9.778968811035156
      ],
      [
        "жал",
        -9.779149055480957
      ],
      [
        "ting",
        -9.780426979064941
      ],
      [
        "▁An",
        -9.783489227294922
      ],
      [
        "▁см",
        -9.783945083618164
      ],
      [
        "ацию",
        -9.78404426574707
      ],
      [
        "Ц",
        -9.784124374389648
      ],
      [
        "шего",
        -9.78416919708252
      ],
      [
        "▁мнению",
        -9.785173416137695
      ],
      [
        "зе",
        -9.785415649414062
      ],
      [
        "ению",
        -9.787008285522461
      ],
      [
        "цов",
        -9.78816032409668
      ],
      [
        "▁самый",
        -9.788509368896484
      ],
      [
        "▁моря",
        -9.788605690002441
      ],
      [
        "he",
        -9.78897762298584
      ],
      [
        "▁several",
        -9.789183616638184
      ],
      [
        "чер",
        -9.789396286010742
      ],
      [
        "▁раньше",
        -9.789539337158203
      ],
      [
        "▁Де",
        -9.790032386779785
      ],
      [
        "атор",
        -9.79007339477539
      ],
      [
        "дар",
        -9.7904691696167
      ],
      [
        "op",
        -9.79189395904541
      ],
      [
        "▁Ка",
        -9.792021751403809
      ],
      [
        "▁Ro",
        -9.792881965637207
      ],
      [
        "лон",
        -9.793106079101562
      ],
      [
        "шие",
        -9.793562889099121
      ],
      [
        "ang",
        -9.794093132019043
      ],
      [
        "▁языка",
        -9.794124603271484
      ],
      [
        "▁Се",
        -9.795079231262207
      ],
      [
        "ими",
        -9.795122146606445
      ],
      [
        "▁Ал",
        -9.795607566833496
      ],
      [
        "пад",
        -9.79578971862793
      ],
      [
        "▁президент",
        -9.79583740234375
      ],
      [
        "бе",
        -9.796092987060547
      ],
      [
        "ё",
        -9.796232223510742
      ],
      [
        "▁вес",
        -9.796978950500488
      ],
      [
        "стве",
        -9.797063827514648
      ],
      [
        "тен",
        -9.798140525817871
      ],
      [
        "см",
        -9.798445701599121
      ],
      [
        "▁состоит",
        -9.798474311828613
      ],
      [
        "▁Примечания",
        -9.798660278320312
      ],
      [
        "кан",
        -9.798920631408691
      ],
      [
        "do",
        -9.798931121826172
      ],
      [
        "▁#",
        -9.798993110656738
      ],
      [
        "ража",
        -9.799339294433594
      ],
      [
        "ще",
        -9.79936408996582
      ],
      [
        "▁главным",
        -9.799492835998535
      ],
      [
        "▁машин",
        -9.800287246704102
      ],
      [
        "▁далеко",
        -9.80030632019043
      ],
      [
        "пере",
        -9.80217170715332
      ],
      [
        "▁off",
        -9.802785873413086
      ],
      [
        "▁мировой",
        -9.803062438964844
      ],
      [
        "▁York",
        -9.803085327148438
      ],
      [
        "▁Бер",
        -9.80348014831543
      ],
      [
        "ление",
        -9.804319381713867
      ],
      [
        "▁целом",
        -9.804372787475586
      ],
      [
        "▁любой",
        -9.804828643798828
      ],
      [
        "▁давно",
        -9.805890083312988
      ],
      [
        "ted",
        -9.806079864501953
      ],
      [
        "▁Ан",
        -9.806238174438477
      ],
      [
        "мор",
        -9.806901931762695
      ],
      [
        "▁мин",
        -9.807238578796387
      ],
      [
        "ание",
        -9.80742073059082
      ],
      [
        "▁вопросы",
        -9.807478904724121
      ],
      [
        "▁тип",
        -9.808202743530273
      ],
      [
        "▁образования",
        -9.808863639831543
      ],
      [
        "гар",
        -9.80900764465332
      ],
      [
        "▁линии",
        -9.809061050415039
      ],
      [
        "▁вз",
        -9.809090614318848
      ],
      [
        "ину",
        -9.810972213745117
      ],
      [
        "▁понять",
        -9.811375617980957
      ],
      [
        "лер",
        -9.811408996582031
      ],
      [
        "▁другом",
        -9.81157112121582
      ],
      [
        "▁бо",
        -9.811812400817871
      ],
      [
        "▁city",
        -9.812203407287598
      ],
      [
        "▁хотел",
        -9.812370300292969
      ],
      [
        "Y",
        -9.812417030334473
      ],
      [
        "▁ибо",
        -9.813355445861816
      ],
      [
        "▁пришлось",
        -9.813825607299805
      ],
      [
        "▁лиц",
        -9.814128875732422
      ],
      [
        "▁труда",
        -9.815139770507812
      ],
      [
        "▁группа",
        -9.815797805786133
      ],
      [
        "▁Са",
        -9.81645393371582
      ],
      [
        "▁<",
        -9.816610336303711
      ],
      [
        "▁John",
        -9.816657066345215
      ],
      [
        "▁Мал",
        -9.816798210144043
      ],
      [
        "▁area",
        -9.816828727722168
      ],
      [
        "ностью",
        -9.8175048828125
      ],
      [
        "раж",
        -9.81773853302002
      ],
      [
        "▁случаях",
        -9.819727897644043
      ],
      [
        "\")",
        -9.820322036743164
      ],
      [
        "ланд",
        -9.820651054382324
      ],
      [
        "▁Иван",
        -9.820733070373535
      ],
      [
        "▁развитие",
        -9.821940422058105
      ],
      [
        "▁Та",
        -9.82197093963623
      ],
      [
        "▁множество",
        -9.822471618652344
      ],
      [
        "пол",
        -9.82319164276123
      ],
      [
        "▁because",
        -9.823836326599121
      ],
      [
        "per",
        -9.823869705200195
      ],
      [
        "вест",
        -9.824411392211914
      ],
      [
        "▁школы",
        -9.824542045593262
      ],
      [
        "▁трудно",
        -9.824769973754883
      ],
      [
        "един",
        -9.824917793273926
      ],
      [
        "▁след",
        -9.82542610168457
      ],
      [
        "▁down",
        -9.827202796936035
      ],
      [
        "ятся",
        -9.827229499816895
      ],
      [
        "▁своему",
        -9.827866554260254
      ],
      [
        "▁которому",
        -9.828018188476562
      ],
      [
        "▁женщин",
        -9.828043937683105
      ],
      [
        "▁говоря",
        -9.828715324401855
      ],
      [
        "▁относительно",
        -9.82899284362793
      ],
      [
        "ирует",
        -9.829636573791504
      ],
      [
        "ших",
        -9.830431938171387
      ],
      [
        "▁World",
        -9.832236289978027
      ],
      [
        "der",
        -9.832542419433594
      ],
      [
        "▁настоящее",
        -9.833126068115234
      ],
      [
        "ницы",
        -9.833351135253906
      ],
      [
        "▁муж",
        -9.833905220031738
      ],
      [
        "▁state",
        -9.834269523620605
      ],
      [
        "▁л",
        -9.836867332458496
      ],
      [
        "▁работает",
        -9.837005615234375
      ],
      [
        "твор",
        -9.838831901550293
      ],
      [
        "▁брат",
        -9.839062690734863
      ],
      [
        "рас",
        -9.839226722717285
      ],
      [
        "▁первые",
        -9.839837074279785
      ],
      [
        "▁деятельность",
        -9.839949607849121
      ],
      [
        "▁long",
        -9.840166091918945
      ],
      [
        "ировал",
        -9.840742111206055
      ],
      [
        "▁man",
        -9.840898513793945
      ],
      [
        "сен",
        -9.840998649597168
      ],
      [
        "▁совет",
        -9.841056823730469
      ],
      [
        "▁искусства",
        -9.841317176818848
      ],
      [
        "▁Mar",
        -9.842123031616211
      ],
      [
        "иков",
        -9.844635963439941
      ],
      [
        "▁власть",
        -9.844998359680176
      ],
      [
        "чик",
        -9.845071792602539
      ],
      [
        "рат",
        -9.845871925354004
      ],
      [
        "▁ситуации",
        -9.84609317779541
      ],
      [
        "яв",
        -9.84762954711914
      ],
      [
        "▁мед",
        -9.84768009185791
      ],
      [
        "▁скоро",
        -9.847972869873047
      ],
      [
        "▁систем",
        -9.847975730895996
      ],
      [
        "▁актив",
        -9.848908424377441
      ],
      [
        "▁умер",
        -9.849244117736816
      ],
      [
        "ень",
        -9.849359512329102
      ],
      [
        "ирования",
        -9.850226402282715
      ],
      [
        "▁Через",
        -9.850993156433105
      ],
      [
        "▁создан",
        -9.851750373840332
      ],
      [
        "▁Ха",
        -9.852957725524902
      ],
      [
        "луч",
        -9.853179931640625
      ],
      [
        "▁Con",
        -9.853279113769531
      ],
      [
        "▁лес",
        -9.853560447692871
      ],
      [
        "▁игр",
        -9.854191780090332
      ],
      [
        "▁написал",
        -9.854256629943848
      ],
      [
        "▁правительства",
        -9.854769706726074
      ],
      [
        "▁However",
        -9.854903221130371
      ],
      [
        "▁ин",
        -9.85586929321289
      ],
      [
        "▁life",
        -9.856388092041016
      ],
      [
        "▁pro",
        -9.857000350952148
      ],
      [
        "▁war",
        -9.857050895690918
      ],
      [
        "▁per",
        -9.857192993164062
      ],
      [
        "▁Кол",
        -9.857198715209961
      ],
      [
        "▁скорее",
        -9.85738754272461
      ],
      [
        "▁Еще",
        -9.857625007629395
      ],
      [
        "▁благо",
        -9.8578519821167
      ],
      [
        "▁первую",
        -9.857942581176758
      ],
      [
        "▁метров",
        -9.858508110046387
      ],
      [
        "▁стол",
        -9.859092712402344
      ],
      [
        "ген",
        -9.859272956848145
      ],
      [
        "▁His",
        -9.860820770263672
      ],
      [
        "▁Именно",
        -9.862302780151367
      ],
      [
        "les",
        -9.86234188079834
      ],
      [
        "▁соответствии",
        -9.862444877624512
      ],
      [
        "рез",
        -9.86355972290039
      ],
      [
        "▁вод",
        -9.863812446594238
      ],
      [
        "▁моей",
        -9.863893508911133
      ],
      [
        "▁значительно",
        -9.863914489746094
      ],
      [
        "ley",
        -9.86446762084961
      ],
      [
        "вед",
        -9.86464786529541
      ],
      [
        "▁пишет",
        -9.865189552307129
      ],
      [
        "#",
        -9.86594009399414
      ],
      [
        "▁took",
        -9.866947174072266
      ],
      [
        "▁опять",
        -9.86718463897705
      ],
      [
        "▁ясно",
        -9.867643356323242
      ],
      [
        "▁There",
        -9.868780136108398
      ],
      [
        "▁невозможно",
        -9.869057655334473
      ],
      [
        "▁e",
        -9.869606971740723
      ],
      [
        "▁Хотя",
        -9.869791984558105
      ],
      [
        "▁непосредственно",
        -9.870138168334961
      ],
      [
        "кс",
        -9.870439529418945
      ],
      [
        "▁чуть",
        -9.871737480163574
      ],
      [
        "дов",
        -9.871780395507812
      ],
      [
        "▁деревня",
        -9.872332572937012
      ],
      [
        "▁срок",
        -9.873504638671875
      ],
      [
        "▁философ",
        -9.873939514160156
      ],
      [
        "▁комплекс",
        -9.87394905090332
      ],
      [
        "▁сад",
        -9.874273300170898
      ],
      [
        "▁первым",
        -9.87482738494873
      ],
      [
        "▁пяти",
        -9.874913215637207
      ],
      [
        "сел",
        -9.875212669372559
      ],
      [
        "рей",
        -9.875602722167969
      ],
      [
        "▁game",
        -9.876166343688965
      ],
      [
        "ac",
        -9.877533912658691
      ],
      [
        "▁текст",
        -9.878307342529297
      ],
      [
        "▁член",
        -9.87846851348877
      ],
      [
        "▁III",
        -9.87859058380127
      ],
      [
        "чь",
        -9.879508018493652
      ],
      [
        "▁family",
        -9.879785537719727
      ],
      [
        "Ю",
        -9.880388259887695
      ],
      [
        "ическом",
        -9.880581855773926
      ],
      [
        "*",
        -9.880703926086426
      ],
      [
        "▁вдруг",
        -9.8809814453125
      ],
      [
        "▁метод",
        -9.881217002868652
      ],
      [
        "▁Be",
        -9.881505966186523
      ],
      [
        "▁взгляд",
        -9.881794929504395
      ],
      [
        "▁Ra",
        -9.882022857666016
      ],
      [
        "▁времен",
        -9.8824462890625
      ],
      [
        "▁земле",
        -9.882818222045898
      ],
      [
        "▁большинство",
        -9.883249282836914
      ],
      [
        "ling",
        -9.883642196655273
      ],
      [
        "▁рамках",
        -9.88417911529541
      ],
      [
        "▁двумя",
        -9.884254455566406
      ],
      [
        "форм",
        -9.885746955871582
      ],
      [
        "ard",
        -9.886445999145508
      ],
      [
        "ило",
        -9.886502265930176
      ],
      [
        "▁сайте",
        -9.886515617370605
      ],
      [
        "▁руб",
        -9.886665344238281
      ],
      [
        "ence",
        -9.886902809143066
      ],
      [
        "ци",
        -9.888303756713867
      ],
      [
        "▁правильно",
        -9.888646125793457
      ],
      [
        "▁уровня",
        -9.88881778717041
      ],
      [
        "три",
        -9.889012336730957
      ],
      [
        "пар",
        -9.88936710357666
      ],
      [
        "▁доступ",
        -9.889484405517578
      ],
      [
        "▁Рас",
        -9.889616012573242
      ],
      [
        "говор",
        -9.889863014221191
      ],
      [
        "▁приказ",
        -9.890196800231934
      ],
      [
        "▁форме",
        -9.890373229980469
      ],
      [
        "▁коп",
        -9.890432357788086
      ],
      [
        "▁Хо",
        -9.890961647033691
      ],
      [
        "▁знал",
        -9.891279220581055
      ],
      [
        "▁жить",
        -9.891350746154785
      ],
      [
        "▁now",
        -9.892035484313965
      ],
      [
        "▁high",
        -9.893231391906738
      ],
      [
        "▁Пред",
        -9.89339828491211
      ],
      [
        "▁жителей",
        -9.894011497497559
      ],
      [
        "▁несмотря",
        -9.89413070678711
      ],
      [
        "▁Pa",
        -9.894402503967285
      ],
      [
        "мент",
        -9.894551277160645
      ],
      [
        "дав",
        -9.894790649414062
      ],
      [
        "ания",
        -9.895722389221191
      ],
      [
        "работ",
        -9.895748138427734
      ],
      [
        "лит",
        -9.897332191467285
      ],
      [
        "ler",
        -9.897693634033203
      ],
      [
        "▁гораздо",
        -9.898673057556152
      ],
      [
        "емых",
        -9.899084091186523
      ],
      [
        "▁States",
        -9.899582862854004
      ],
      [
        "нем",
        -9.899653434753418
      ],
      [
        "▁символ",
        -9.899709701538086
      ],
      [
        "▁союз",
        -9.90003490447998
      ],
      [
        "руч",
        -9.900070190429688
      ],
      [
        "▁Один",
        -9.901457786560059
      ],
      [
        "▁проекта",
        -9.90155029296875
      ],
      [
        "▁делает",
        -9.902202606201172
      ],
      [
        "щ",
        -9.902767181396484
      ],
      [
        "▁такая",
        -9.903138160705566
      ],
      [
        "▁другого",
        -9.903263092041016
      ],
      [
        "▁ради",
        -9.903814315795898
      ],
      [
        "▁создания",
        -9.90386962890625
      ],
      [
        "▁эффект",
        -9.904014587402344
      ],
      [
        "пут",
        -9.904145240783691
      ],
      [
        "▁Сам",
        -9.904380798339844
      ],
      [
        "▁Совета",
        -9.904821395874023
      ],
      [
        "▁place",
        -9.905046463012695
      ],
      [
        "исты",
        -9.905782699584961
      ],
      [
        "▁each",
        -9.906161308288574
      ],
      [
        "▁позже",
        -9.906251907348633
      ],
      [
        "вол",
        -9.906311988830566
      ],
      [
        "▁Ку",
        -9.906468391418457
      ],
      [
        "▁тело",
        -9.906716346740723
      ],
      [
        "▁знает",
        -9.907476425170898
      ],
      [
        "вшись",
        -9.907586097717285
      ],
      [
        "▁говорят",
        -9.907916069030762
      ],
      [
        "ite",
        -9.90799331665039
      ],
      [
        "▁group",
        -9.908052444458008
      ],
      [
        "▁главе",
        -9.90821647644043
      ],
      [
        "▁недо",
        -9.908306121826172
      ],
      [
        "изации",
        -9.909273147583008
      ],
      [
        "▁голову",
        -9.909568786621094
      ],
      [
        "▁Ведь",
        -9.909605026245117
      ],
      [
        "▁театр",
        -9.909677505493164
      ],
      [
        "ow",
        -9.909839630126953
      ],
      [
        "▁компьютер",
        -9.91054630279541
      ],
      [
        "созна",
        -9.911237716674805
      ],
      [
        "▁around",
        -9.911955833435059
      ],
      [
        "▁теле",
        -9.912089347839355
      ],
      [
        "вой",
        -9.9136381149292
      ],
      [
        "▁Ha",
        -9.913896560668945
      ],
      [
        "рабатыва",
        -9.916117668151855
      ],
      [
        "out",
        -9.916387557983398
      ],
      [
        "▁Ис",
        -9.916436195373535
      ],
      [
        "ts",
        -9.916923522949219
      ],
      [
        "▁помощь",
        -9.916925430297852
      ],
      [
        "эр",
        -9.916991233825684
      ],
      [
        "▁g",
        -9.91800594329834
      ],
      [
        "ti",
        -9.918697357177734
      ],
      [
        "▁сама",
        -9.919111251831055
      ],
      [
        "▁уровне",
        -9.919228553771973
      ],
      [
        "▁отличие",
        -9.919334411621094
      ],
      [
        "▁код",
        -9.919708251953125
      ],
      [
        "ана",
        -9.919897079467773
      ],
      [
        "ете",
        -9.919981956481934
      ],
      [
        "кол",
        -9.920147895812988
      ],
      [
        "▁system",
        -9.920256614685059
      ],
      [
        "di",
        -9.920735359191895
      ],
      [
        "▁local",
        -9.922014236450195
      ],
      [
        "▁ниже",
        -9.922318458557129
      ],
      [
        "rs",
        -9.922553062438965
      ],
      [
        "▁Ра",
        -9.922895431518555
      ],
      [
        "▁форм",
        -9.923652648925781
      ],
      [
        "▁последние",
        -9.924578666687012
      ],
      [
        "овский",
        -9.924636840820312
      ],
      [
        "чка",
        -9.925228118896484
      ],
      [
        "телей",
        -9.925312042236328
      ],
      [
        "бит",
        -9.925434112548828
      ],
      [
        "▁since",
        -9.925676345825195
      ],
      [
        "▁направлен",
        -9.925742149353027
      ],
      [
        "кар",
        -9.926065444946289
      ],
      [
        "▁договор",
        -9.926443099975586
      ],
      [
        "овое",
        -9.92664909362793
      ],
      [
        "▁обо",
        -9.926743507385254
      ],
      [
        "▁series",
        -9.927789688110352
      ],
      [
        "цеп",
        -9.928483963012695
      ],
      [
        "рус",
        -9.928857803344727
      ],
      [
        "рам",
        -9.929197311401367
      ],
      [
        "стоя",
        -9.929351806640625
      ],
      [
        "бр",
        -9.929487228393555
      ],
      [
        "▁Мин",
        -9.929893493652344
      ],
      [
        "▁v",
        -9.93014144897461
      ],
      [
        "▁долларов",
        -9.930200576782227
      ],
      [
        "альной",
        -9.930627822875977
      ],
      [
        "▁di",
        -9.931297302246094
      ],
      [
        "▁Ту",
        -9.931482315063477
      ],
      [
        "▁движение",
        -9.93174934387207
      ],
      [
        "▁сторон",
        -9.9321870803833
      ],
      [
        "▁day",
        -9.932662963867188
      ],
      [
        "емся",
        -9.932923316955566
      ],
      [
        "▁Их",
        -9.933013916015625
      ],
      [
        "▁left",
        -9.93351936340332
      ],
      [
        "▁порт",
        -9.933544158935547
      ],
      [
        "ур",
        -9.933883666992188
      ],
      [
        "▁Союза",
        -9.934036254882812
      ],
      [
        "лез",
        -9.935077667236328
      ],
      [
        "▁теории",
        -9.935291290283203
      ],
      [
        "▁значения",
        -9.935293197631836
      ],
      [
        "▁ма",
        -9.936100959777832
      ],
      [
        "хи",
        -9.936909675598145
      ],
      [
        "▁сначала",
        -9.936912536621094
      ],
      [
        "▁каким",
        -9.937159538269043
      ],
      [
        "ice",
        -9.937568664550781
      ],
      [
        "енной",
        -9.937602043151855
      ],
      [
        "▁Гор",
        -9.938286781311035
      ],
      [
        "цию",
        -9.939301490783691
      ],
      [
        "гран",
        -9.939409255981445
      ],
      [
        "▁русской",
        -9.93942642211914
      ],
      [
        "▁анализ",
        -9.939430236816406
      ],
      [
        "сы",
        -9.939838409423828
      ],
      [
        "▁компания",
        -9.94017505645752
      ],
      [
        "▁программы",
        -9.941011428833008
      ],
      [
        "ьных",
        -9.942161560058594
      ],
      [
        "вести",
        -9.942373275756836
      ],
      [
        "ёт",
        -9.943326950073242
      ],
      [
        "▁начали",
        -9.944235801696777
      ],
      [
        "ню",
        -9.944340705871582
      ],
      [
        "▁дороги",
        -9.94454574584961
      ],
      [
        "▁история",
        -9.945352554321289
      ],
      [
        "ою",
        -9.9454927444458
      ],
      [
        "нул",
        -9.945629119873047
      ],
      [
        "лич",
        -9.945748329162598
      ],
      [
        "▁глаз",
        -9.946283340454102
      ],
      [
        "▁Москвы",
        -9.947026252746582
      ],
      [
        "▁команд",
        -9.947291374206543
      ],
      [
        "▁[/",
        -9.947525024414062
      ],
      [
        "ющихся",
        -9.947559356689453
      ],
      [
        "hi",
        -9.94817066192627
      ],
      [
        "▁дни",
        -9.94840145111084
      ],
      [
        "▁переход",
        -9.94878101348877
      ],
      [
        "▁операции",
        -9.949405670166016
      ],
      [
        "▁групп",
        -9.950108528137207
      ],
      [
        "мест",
        -9.950482368469238
      ],
      [
        "▁Мор",
        -9.951918601989746
      ],
      [
        "▁make",
        -9.95214557647705
      ],
      [
        "▁проблем",
        -9.95267105102539
      ],
      [
        "▁животных",
        -9.952997207641602
      ],
      [
        "va",
        -9.953259468078613
      ],
      [
        "нию",
        -9.95377254486084
      ],
      [
        "▁Li",
        -9.953801155090332
      ],
      [
        "фи",
        -9.953956604003906
      ],
      [
        "▁круг",
        -9.954570770263672
      ],
      [
        "▁самые",
        -9.955018997192383
      ],
      [
        "теля",
        -9.95585823059082
      ],
      [
        "▁причин",
        -9.956113815307617
      ],
      [
        "▁дать",
        -9.956252098083496
      ],
      [
        "фе",
        -9.956604957580566
      ],
      [
        "▁вскоре",
        -9.956886291503906
      ],
      [
        "ka",
        -9.957470893859863
      ],
      [
        "▁плат",
        -9.958721160888672
      ],
      [
        "▁very",
        -9.958976745605469
      ],
      [
        "▁Россия",
        -9.95902156829834
      ],
      [
        "▁отец",
        -9.960134506225586
      ],
      [
        "▁женщины",
        -9.960217475891113
      ],
      [
        "▁телефон",
        -9.960343360900879
      ],
      [
        "▁месяцев",
        -9.96097469329834
      ],
      [
        "▁денег",
        -9.961073875427246
      ],
      [
        "▁университета",
        -9.961353302001953
      ],
      [
        "▁транспорт",
        -9.961442947387695
      ],
      [
        "▁August",
        -9.9615478515625
      ],
      [
        "▁my",
        -9.96251392364502
      ],
      [
        "▁расположен",
        -9.962541580200195
      ],
      [
        "▁Согласно",
        -9.962700843811035
      ],
      [
        "овую",
        -9.96270751953125
      ],
      [
        "кро",
        -9.96299934387207
      ],
      [
        "цами",
        -9.963316917419434
      ],
      [
        "▁кур",
        -9.963858604431152
      ],
      [
        "▁ночь",
        -9.964296340942383
      ],
      [
        "▁Па",
        -9.96551513671875
      ],
      [
        "▁инженер",
        -9.965742111206055
      ],
      [
        "ap",
        -9.966249465942383
      ],
      [
        "▁высоко",
        -9.966498374938965
      ],
      [
        "▁исход",
        -9.967207908630371
      ],
      [
        "▁честь",
        -9.9682035446167
      ],
      [
        "▁released",
        -9.968345642089844
      ],
      [
        "▁сообщил",
        -9.969943046569824
      ],
      [
        "ления",
        -9.970006942749023
      ],
      [
        "▁раздел",
        -9.970756530761719
      ],
      [
        "▁отца",
        -9.971240043640137
      ],
      [
        "езд",
        -9.971909523010254
      ],
      [
        "▁могла",
        -9.97242259979248
      ],
      [
        "▁хоть",
        -9.972661972045898
      ],
      [
        "▁граф",
        -9.973479270935059
      ],
      [
        "▁иначе",
        -9.973479270935059
      ],
      [
        "строен",
        -9.973546028137207
      ],
      [
        "ig",
        -9.973650932312012
      ],
      [
        "нич",
        -9.97398567199707
      ],
      [
        "▁начало",
        -9.974075317382812
      ],
      [
        "сер",
        -9.974623680114746
      ],
      [
        "ud",
        -9.97523307800293
      ],
      [
        "сад",
        -9.975990295410156
      ],
      [
        "fe",
        -9.976158142089844
      ],
      [
        "дор",
        -9.976205825805664
      ],
      [
        "став",
        -9.976263999938965
      ],
      [
        "▁суда",
        -9.97662353515625
      ],
      [
        "▁still",
        -9.977063179016113
      ],
      [
        "▁Европе",
        -9.977396011352539
      ],
      [
        "вес",
        -9.977794647216797
      ],
      [
        "▁революции",
        -9.977975845336914
      ],
      [
        "▁last",
        -9.978154182434082
      ],
      [
        "▁означает",
        -9.9782133102417
      ],
      [
        "▁русских",
        -9.978903770446777
      ],
      [
        "con",
        -9.97900390625
      ],
      [
        "▁согласно",
        -9.97944164276123
      ],
      [
        "▁общем",
        -9.97947883605957
      ],
      [
        "▁ответил",
        -9.97958755493164
      ],
      [
        "▁чаще",
        -9.979878425598145
      ],
      [
        "▁семьи",
        -9.980168342590332
      ],
      [
        "оль",
        -9.980367660522461
      ],
      [
        "▁South",
        -9.98082447052002
      ],
      [
        "стра",
        -9.980963706970215
      ],
      [
        "чу",
        -9.981115341186523
      ],
      [
        "▁September",
        -9.98154354095459
      ],
      [
        "ther",
        -9.982044219970703
      ],
      [
        "▁Me",
        -9.982161521911621
      ],
      [
        "ющее",
        -9.982617378234863
      ],
      [
        "▁фон",
        -9.983469009399414
      ],
      [
        "▁just",
        -9.98404598236084
      ],
      [
        "ань",
        -9.984143257141113
      ],
      [
        "▁плен",
        -9.984289169311523
      ],
      [
        "ед",
        -9.984306335449219
      ],
      [
        "вшего",
        -9.984663009643555
      ],
      [
        "▁National",
        -9.985424995422363
      ],
      [
        "▁женщина",
        -9.985838890075684
      ],
      [
        "тра",
        -9.986149787902832
      ],
      [
        "кие",
        -9.986161231994629
      ],
      [
        "▁языке",
        -9.986257553100586
      ],
      [
        "▁полка",
        -9.98696231842041
      ],
      [
        "ьные",
        -9.987510681152344
      ],
      [
        "ally",
        -9.987512588500977
      ],
      [
        "▁March",
        -9.987871170043945
      ],
      [
        "▁June",
        -9.987920761108398
      ],
      [
        "аж",
        -9.988218307495117
      ],
      [
        "▁Ди",
        -9.988387107849121
      ],
      [
        "▁лицо",
        -9.988460540771484
      ],
      [
        "▁семье",
        -9.989038467407227
      ],
      [
        "быт",
        -9.98922348022461
      ],
      [
        "▁дивизии",
        -9.989768028259277
      ],
      [
        "▁head",
        -9.989774703979492
      ],
      [
        "ness",
        -9.990083694458008
      ],
      [
        "▁мер",
        -9.990203857421875
      ],
      [
        "▁любви",
        -9.990511894226074
      ],
      [
        "ьная",
        -9.990534782409668
      ],
      [
        "▁зависимости",
        -9.990735054016113
      ],
      [
        "ключ",
        -9.991419792175293
      ],
      [
        "▁Конечно",
        -9.991978645324707
      ],
      [
        "▁смысле",
        -9.992133140563965
      ],
      [
        "шая",
        -9.992401123046875
      ],
      [
        "▁назван",
        -9.993032455444336
      ],
      [
        "▁числа",
        -9.993072509765625
      ],
      [
        "дал",
        -9.993343353271484
      ],
      [
        "▁бур",
        -9.993488311767578
      ],
      [
        "▁берегу",
        -9.993779182434082
      ],
      [
        "▁фронта",
        -9.994640350341797
      ],
      [
        "▁погиб",
        -9.994928359985352
      ],
      [
        "▁Бог",
        -9.995136260986328
      ],
      [
        "ест",
        -9.996521949768066
      ],
      [
        "бин",
        -9.996746063232422
      ],
      [
        "▁выбор",
        -9.99697494506836
      ],
      [
        "▁видел",
        -9.99704360961914
      ],
      [
        "\\",
        -9.997047424316406
      ],
      [
        "▁стандарт",
        -9.997368812561035
      ],
      [
        "шим",
        -9.99750804901123
      ],
      [
        "ует",
        -9.998135566711426
      ],
      [
        "дель",
        -9.998644828796387
      ],
      [
        "▁видов",
        -9.999285697937012
      ],
      [
        "▁систему",
        -9.9994478225708
      ],
      [
        "▁Sa",
        -9.99980640411377
      ],
      [
        "▁черт",
        -9.99986457824707
      ],
      [
        "▁постепенно",
        -10.000242233276367
      ],
      [
        "зер",
        -10.00094223022461
      ],
      [
        "mon",
        -10.00139045715332
      ],
      [
        "▁час",
        -10.002462387084961
      ],
      [
        "one",
        -10.002534866333008
      ],
      [
        "▁пункт",
        -10.00290584564209
      ],
      [
        "ово",
        -10.003162384033203
      ],
      [
        "▁туда",
        -10.00348949432373
      ],
      [
        "▁доме",
        -10.00385570526123
      ],
      [
        "тив",
        -10.004029273986816
      ],
      [
        "▁сих",
        -10.004191398620605
      ],
      [
        "▁важно",
        -10.00433349609375
      ],
      [
        "коп",
        -10.00446891784668
      ],
      [
        "▁album",
        -10.004908561706543
      ],
      [
        "▁установлен",
        -10.005036354064941
      ],
      [
        "ec",
        -10.005475997924805
      ],
      [
        "▁поля",
        -10.005997657775879
      ],
      [
        "ез",
        -10.007257461547852
      ],
      [
        "ряд",
        -10.007339477539062
      ],
      [
        "кер",
        -10.007728576660156
      ],
      [
        "▁October",
        -10.007944107055664
      ],
      [
        "▁мужчин",
        -10.007957458496094
      ],
      [
        "▁бу",
        -10.007978439331055
      ],
      [
        "nd",
        -10.00817584991455
      ],
      [
        "▁гол",
        -10.0087251663208
      ],
      [
        "▁those",
        -10.008993148803711
      ],
      [
        "end",
        -10.009089469909668
      ],
      [
        "▁мор",
        -10.009112358093262
      ],
      [
        "▁памяти",
        -10.00911808013916
      ],
      [
        "▁результат",
        -10.00926685333252
      ],
      [
        "▁никак",
        -10.009541511535645
      ],
      [
        "▁ста",
        -10.009636878967285
      ],
      [
        "ster",
        -10.009966850280762
      ],
      [
        "щие",
        -10.010504722595215
      ],
      [
        "io",
        -10.010698318481445
      ],
      [
        "Й",
        -10.010714530944824
      ],
      [
        "▁частью",
        -10.010797500610352
      ],
      [
        "▁world",
        -10.012168884277344
      ],
      [
        "олог",
        -10.012969017028809
      ],
      [
        "зов",
        -10.013091087341309
      ],
      [
        "ip",
        -10.01325798034668
      ],
      [
        "tra",
        -10.013640403747559
      ],
      [
        "ало",
        -10.013787269592285
      ],
      [
        "вел",
        -10.013802528381348
      ],
      [
        "шу",
        -10.014108657836914
      ],
      [
        "цией",
        -10.014242172241211
      ],
      [
        "▁line",
        -10.015203475952148
      ],
      [
        "оф",
        -10.015413284301758
      ],
      [
        "ak",
        -10.015593528747559
      ],
      [
        "▁основан",
        -10.015904426574707
      ],
      [
        "▁времена",
        -10.016768455505371
      ],
      [
        "▁завод",
        -10.016987800598145
      ],
      [
        "▁Среди",
        -10.017284393310547
      ],
      [
        "▁return",
        -10.018058776855469
      ],
      [
        "щий",
        -10.018138885498047
      ],
      [
        "▁первом",
        -10.01822280883789
      ],
      [
        "▁Mo",
        -10.019444465637207
      ],
      [
        "тели",
        -10.019659996032715
      ],
      [
        "тин",
        -10.019818305969238
      ],
      [
        "ized",
        -10.021178245544434
      ],
      [
        "буд",
        -10.021581649780273
      ],
      [
        "▁каждой",
        -10.022455215454102
      ],
      [
        "▁Man",
        -10.022636413574219
      ],
      [
        "▁уровень",
        -10.022910118103027
      ],
      [
        "▁Даже",
        -10.023130416870117
      ],
      [
        "▁произошло",
        -10.023331642150879
      ],
      [
        "▁перемен",
        -10.023838996887207
      ],
      [
        "ex",
        -10.023965835571289
      ],
      [
        "▁науки",
        -10.024455070495605
      ],
      [
        "▁another",
        -10.025527954101562
      ],
      [
        "▁можем",
        -10.02556324005127
      ],
      [
        "▁XIX",
        -10.025938034057617
      ],
      [
        "зор",
        -10.026040077209473
      ],
      [
        "▁оказался",
        -10.026579856872559
      ],
      [
        "емые",
        -10.026830673217773
      ],
      [
        "ож",
        -10.027681350708008
      ],
      [
        "ишь",
        -10.028115272521973
      ],
      [
        "ям",
        -10.029010772705078
      ],
      [
        "ата",
        -10.029152870178223
      ],
      [
        "еть",
        -10.029563903808594
      ],
      [
        "зд",
        -10.029715538024902
      ],
      [
        "▁подход",
        -10.029796600341797
      ],
      [
        "▁избран",
        -10.030133247375488
      ],
      [
        "▁show",
        -10.030535697937012
      ],
      [
        "▁Есть",
        -10.031386375427246
      ],
      [
        "ub",
        -10.031523704528809
      ],
      [
        "▁way",
        -10.031672477722168
      ],
      [
        "▁Кур",
        -10.031676292419434
      ],
      [
        "▁дети",
        -10.032259941101074
      ],
      [
        "▁мысль",
        -10.032387733459473
      ],
      [
        "чки",
        -10.032549858093262
      ],
      [
        "▁стен",
        -10.032563209533691
      ],
      [
        "▁термин",
        -10.03332233428955
      ],
      [
        "▁влияние",
        -10.0333251953125
      ],
      [
        "▁July",
        -10.033370018005371
      ],
      [
        "▁сердце",
        -10.033957481384277
      ],
      [
        "▁резко",
        -10.034468650817871
      ],
      [
        "▁мм",
        -10.03486156463623
      ],
      [
        "▁Ar",
        -10.034915924072266
      ],
      [
        "нием",
        -10.035429954528809
      ],
      [
        "▁British",
        -10.035645484924316
      ],
      [
        "▁никаких",
        -10.035736083984375
      ],
      [
        "▁крест",
        -10.035820960998535
      ],
      [
        "▁спор",
        -10.036059379577637
      ],
      [
        "▁Bo",
        -10.036270141601562
      ],
      [
        "▁какое",
        -10.036304473876953
      ],
      [
        "▁January",
        -10.036961555480957
      ],
      [
        "▁обязательно",
        -10.037528991699219
      ],
      [
        "▁During",
        -10.037908554077148
      ],
      [
        "ас",
        -10.03844165802002
      ],
      [
        "▁much",
        -10.039923667907715
      ],
      [
        "▁знаком",
        -10.040447235107422
      ],
      [
        "▁итоге",
        -10.040824890136719
      ],
      [
        "▁вечер",
        -10.041776657104492
      ],
      [
        "▁en",
        -10.042757034301758
      ],
      [
        "▁вышел",
        -10.044053077697754
      ],
      [
        "▁оп",
        -10.044075012207031
      ],
      [
        "▁настолько",
        -10.044456481933594
      ],
      [
        "реш",
        -10.044509887695312
      ],
      [
        "клад",
        -10.044940948486328
      ],
      [
        "▁службы",
        -10.04509449005127
      ],
      [
        "▁программ",
        -10.045433044433594
      ],
      [
        "▁различные",
        -10.046300888061523
      ],
      [
        "▁северо",
        -10.046794891357422
      ],
      [
        "▁Можно",
        -10.046958923339844
      ],
      [
        "▁following",
        -10.047779083251953
      ],
      [
        "▁центра",
        -10.048118591308594
      ],
      [
        "очка",
        -10.0484037399292
      ],
      [
        "▁нос",
        -10.048537254333496
      ],
      [
        "▁water",
        -10.048828125
      ],
      [
        "▁дает",
        -10.048846244812012
      ],
      [
        "дет",
        -10.048864364624023
      ],
      [
        "▁голос",
        -10.048948287963867
      ],
      [
        "▁Кто",
        -10.04923152923584
      ],
      [
        "tic",
        -10.049237251281738
      ],
      [
        "tor",
        -10.049367904663086
      ],
      [
        "▁April",
        -10.049585342407227
      ],
      [
        "res",
        -10.049742698669434
      ],
      [
        "▁School",
        -10.050690650939941
      ],
      [
        "щих",
        -10.050751686096191
      ],
      [
        "▁функции",
        -10.050963401794434
      ],
      [
        "▁месяц",
        -10.05200481414795
      ],
      [
        "▁создать",
        -10.052165031433105
      ],
      [
        "▁коллектив",
        -10.052168846130371
      ],
      [
        "ish",
        -10.052183151245117
      ],
      [
        "ять",
        -10.05290412902832
      ],
      [
        "др",
        -10.053406715393066
      ],
      [
        "▁When",
        -10.054020881652832
      ],
      [
        "уют",
        -10.054372787475586
      ],
      [
        "▁Николай",
        -10.054498672485352
      ],
      [
        "▁получили",
        -10.054668426513672
      ],
      [
        "ическим",
        -10.054788589477539
      ],
      [
        "▁духов",
        -10.054793357849121
      ],
      [
        "▁due",
        -10.054884910583496
      ],
      [
        "▁следующий",
        -10.055500984191895
      ],
      [
        "▁won",
        -10.056511878967285
      ],
      [
        "▁вещи",
        -10.056920051574707
      ],
      [
        "ован",
        -10.057157516479492
      ],
      [
        "▁ракет",
        -10.057300567626953
      ],
      [
        "▁правительство",
        -10.057616233825684
      ],
      [
        "▁село",
        -10.057766914367676
      ],
      [
        "▁large",
        -10.057769775390625
      ],
      [
        "ating",
        -10.058008193969727
      ],
      [
        "▁начинает",
        -10.058087348937988
      ],
      [
        "телем",
        -10.05948257446289
      ],
      [
        "рос",
        -10.059531211853027
      ],
      [
        "▁корпус",
        -10.059675216674805
      ],
      [
        "чит",
        -10.05998706817627
      ],
      [
        "▁ребенка",
        -10.060054779052734
      ],
      [
        "щу",
        -10.060328483581543
      ],
      [
        "way",
        -10.060503959655762
      ],
      [
        "▁хочет",
        -10.061440467834473
      ],
      [
        "▁мои",
        -10.061483383178711
      ],
      [
        "▁Na",
        -10.061833381652832
      ],
      [
        "▁войне",
        -10.062237739562988
      ],
      [
        "ci",
        -10.062358856201172
      ],
      [
        "чет",
        -10.062420845031738
      ],
      [
        "▁плохо",
        -10.062435150146484
      ],
      [
        "▁%",
        -10.062475204467773
      ],
      [
        "енного",
        -10.063507080078125
      ],
      [
        "▁пример",
        -10.063594818115234
      ],
      [
        "▁XX",
        -10.063822746276855
      ],
      [
        "▁начальник",
        -10.06389045715332
      ],
      [
        "▁машины",
        -10.063944816589355
      ],
      [
        "▁материал",
        -10.06409740447998
      ],
      [
        "вшихся",
        -10.064146995544434
      ],
      [
        "▁отношение",
        -10.064225196838379
      ],
      [
        "▁связь",
        -10.064358711242676
      ],
      [
        "▁шаг",
        -10.064608573913574
      ],
      [
        "den",
        -10.065343856811523
      ],
      [
        "▁всеми",
        -10.06551456451416
      ],
      [
        "плат",
        -10.065658569335938
      ],
      [
        "▁Виктор",
        -10.065747261047363
      ],
      [
        "овского",
        -10.065764427185059
      ],
      [
        "▁событий",
        -10.066136360168457
      ],
      [
        "▁ужас",
        -10.066486358642578
      ],
      [
        "▁крас",
        -10.067059516906738
      ],
      [
        "▁нужны",
        -10.06826114654541
      ],
      [
        "▁большое",
        -10.069668769836426
      ],
      [
        "вор",
        -10.070114135742188
      ],
      [
        "▁million",
        -10.070267677307129
      ],
      [
        "▁военных",
        -10.070777893066406
      ],
      [
        "▁раза",
        -10.070818901062012
      ],
      [
        "▁можете",
        -10.071244239807129
      ],
      [
        "▁цель",
        -10.071550369262695
      ],
      [
        "▁even",
        -10.071707725524902
      ],
      [
        "▁каких",
        -10.071764945983887
      ],
      [
        "▁мной",
        -10.071858406066895
      ],
      [
        "▁вида",
        -10.07258129119873
      ],
      [
        "▁письмо",
        -10.073222160339355
      ],
      [
        "▁чисто",
        -10.073298454284668
      ],
      [
        "que",
        -10.073335647583008
      ],
      [
        "▁события",
        -10.073497772216797
      ],
      [
        "▁жив",
        -10.073543548583984
      ],
      [
        "ke",
        -10.074197769165039
      ],
      [
        "аться",
        -10.074394226074219
      ],
      [
        "▁Ho",
        -10.074723243713379
      ],
      [
        "▁order",
        -10.074817657470703
      ],
      [
        "цу",
        -10.07489013671875
      ],
      [
        "▁часа",
        -10.076375007629395
      ],
      [
        "ТАСС",
        -10.076475143432617
      ],
      [
        "▁спросил",
        -10.077384948730469
      ],
      [
        "▁путем",
        -10.077752113342285
      ],
      [
        "ред",
        -10.0778226852417
      ],
      [
        "▁видео",
        -10.077895164489746
      ],
      [
        "mer",
        -10.07809829711914
      ],
      [
        "стей",
        -10.07857894897461
      ],
      [
        "▁along",
        -10.079055786132812
      ],
      [
        "()",
        -10.07938003540039
      ],
      [
        "дон",
        -10.079404830932617
      ],
      [
        "em",
        -10.080038070678711
      ],
      [
        "ure",
        -10.08052921295166
      ],
      [
        "ah",
        -10.08121109008789
      ],
      [
        "▁Би",
        -10.081464767456055
      ],
      [
        "ack",
        -10.081480979919434
      ],
      [
        "line",
        -10.081502914428711
      ],
      [
        "▁company",
        -10.083208084106445
      ],
      [
        "ring",
        -10.083486557006836
      ],
      [
        "▁Сергей",
        -10.083517074584961
      ],
      [
        "▁полк",
        -10.084267616271973
      ],
      [
        "▁Сталин",
        -10.084304809570312
      ],
      [
        "▁членов",
        -10.084585189819336
      ],
      [
        "by",
        -10.08504581451416
      ],
      [
        "щая",
        -10.085204124450684
      ],
      [
        "▁книге",
        -10.085867881774902
      ],
      [
        "юр",
        -10.085881233215332
      ],
      [
        "▁историю",
        -10.086536407470703
      ],
      [
        "▁документ",
        -10.086569786071777
      ],
      [
        "▁процесса",
        -10.086891174316406
      ],
      [
        "▁опер",
        -10.08705997467041
      ],
      [
        "▁людьми",
        -10.087270736694336
      ],
      [
        "▁дис",
        -10.087281227111816
      ],
      [
        "▁использования",
        -10.087441444396973
      ],
      [
        "▁рост",
        -10.088766098022461
      ],
      [
        "ад",
        -10.088866233825684
      ],
      [
        "▁Петр",
        -10.089157104492188
      ],
      [
        "▁почт",
        -10.089462280273438
      ],
      [
        "▁again",
        -10.09073543548584
      ],
      [
        "▁Михаил",
        -10.090837478637695
      ],
      [
        "жу",
        -10.090901374816895
      ],
      [
        "▁поводу",
        -10.090953826904297
      ],
      [
        "▁сто",
        -10.090973854064941
      ],
      [
        "▁русского",
        -10.091819763183594
      ],
      [
        "▁support",
        -10.09205436706543
      ],
      [
        "▁side",
        -10.09216022491455
      ],
      [
        "▁условия",
        -10.093392372131348
      ],
      [
        "ьный",
        -10.09361743927002
      ],
      [
        "▁которыми",
        -10.093642234802246
      ],
      [
        "▁самолет",
        -10.09499454498291
      ],
      [
        "▁блок",
        -10.095036506652832
      ],
      [
        "▁смог",
        -10.09528923034668
      ],
      [
        "▁main",
        -10.09540843963623
      ],
      [
        "▁вовсе",
        -10.095507621765137
      ],
      [
        "▁крестьян",
        -10.095765113830566
      ],
      [
        "▁борьбы",
        -10.095911979675293
      ],
      [
        "▁спустя",
        -10.096012115478516
      ],
      [
        "▁фото",
        -10.096229553222656
      ],
      [
        "▁правил",
        -10.096321105957031
      ],
      [
        "▁статьи",
        -10.096611976623535
      ],
      [
        "ck",
        -10.096915245056152
      ],
      [
        "▁объем",
        -10.097125053405762
      ],
      [
        "эт",
        -10.097308158874512
      ],
      [
        "крас",
        -10.097649574279785
      ],
      [
        "▁November",
        -10.09787368774414
      ],
      [
        "▁Ло",
        -10.09801197052002
      ],
      [
        "▁Гер",
        -10.098065376281738
      ],
      [
        "▁разные",
        -10.098320007324219
      ],
      [
        "ial",
        -10.0983304977417
      ],
      [
        "▁ру",
        -10.098372459411621
      ],
      [
        "▁отношений",
        -10.098373413085938
      ],
      [
        "▁класса",
        -10.099003791809082
      ],
      [
        "▁позиции",
        -10.099255561828613
      ],
      [
        "au",
        -10.09941291809082
      ],
      [
        "шин",
        -10.100170135498047
      ],
      [
        "▁music",
        -10.10048770904541
      ],
      [
        "▁разговор",
        -10.100552558898926
      ],
      [
        "▁человеком",
        -10.100589752197266
      ],
      [
        "lin",
        -10.100940704345703
      ],
      [
        "▁имели",
        -10.101188659667969
      ],
      [
        "▁станет",
        -10.101298332214355
      ],
      [
        "▁men",
        -10.101387023925781
      ],
      [
        "сп",
        -10.101705551147461
      ],
      [
        "<",
        -10.102012634277344
      ],
      [
        "▁другое",
        -10.10221004486084
      ],
      [
        "▁принять",
        -10.102234840393066
      ],
      [
        "▁Пер",
        -10.102372169494629
      ],
      [
        "очки",
        -10.102924346923828
      ],
      [
        "▁виду",
        -10.102959632873535
      ],
      [
        "▁l",
        -10.103297233581543
      ],
      [
        "time",
        -10.103377342224121
      ],
      [
        "▁сосед",
        -10.104228973388672
      ],
      [
        "кал",
        -10.10443115234375
      ],
      [
        "▁людям",
        -10.104448318481445
      ],
      [
        "▁вариант",
        -10.105561256408691
      ],
      [
        "▁North",
        -10.10593032836914
      ],
      [
        "▁Совет",
        -10.106269836425781
      ],
      [
        "▁мать",
        -10.10661792755127
      ],
      [
        "▁процессе",
        -10.106766700744629
      ],
      [
        "лага",
        -10.107465744018555
      ],
      [
        "▁пят",
        -10.107917785644531
      ],
      [
        "бан",
        -10.107990264892578
      ],
      [
        "▁power",
        -10.108044624328613
      ],
      [
        "▁утра",
        -10.10845947265625
      ],
      [
        "▁посвящен",
        -10.108545303344727
      ],
      [
        "▁century",
        -10.108752250671387
      ],
      [
        "▁лично",
        -10.109014511108398
      ],
      [
        "▁обороны",
        -10.109119415283203
      ],
      [
        "▁системе",
        -10.10935115814209
      ],
      [
        "▁буду",
        -10.10940170288086
      ],
      [
        "▁December",
        -10.109945297241211
      ],
      [
        "ившись",
        -10.111083984375
      ],
      [
        "▁моя",
        -10.111215591430664
      ],
      [
        "▁Че",
        -10.11133861541748
      ],
      [
        "▁знать",
        -10.112168312072754
      ],
      [
        "▁Люб",
        -10.112192153930664
      ],
      [
        "sk",
        -10.11236572265625
      ],
      [
        "▁президента",
        -10.113186836242676
      ],
      [
        "част",
        -10.114062309265137
      ],
      [
        "▁станции",
        -10.114216804504395
      ],
      [
        "руж",
        -10.114344596862793
      ],
      [
        "▁столько",
        -10.114777565002441
      ],
      [
        "▁кому",
        -10.115283966064453
      ],
      [
        "▁номер",
        -10.115303993225098
      ],
      [
        "▁Car",
        -10.115336418151855
      ],
      [
        "▁band",
        -10.115577697753906
      ],
      [
        "▁последний",
        -10.11593246459961
      ],
      [
        "▁временем",
        -10.116077423095703
      ],
      [
        "▁form",
        -10.116178512573242
      ],
      [
        "▁Se",
        -10.116374015808105
      ],
      [
        "ук",
        -10.116612434387207
      ],
      [
        "чей",
        -10.116705894470215
      ],
      [
        "▁приводит",
        -10.1168851852417
      ],
      [
        "▁came",
        -10.116944313049316
      ],
      [
        "▁Республики",
        -10.117108345031738
      ],
      [
        "▁Почему",
        -10.117270469665527
      ],
      [
        "▁car",
        -10.118314743041992
      ],
      [
        "▁перевод",
        -10.118550300598145
      ],
      [
        "▁причем",
        -10.118707656860352
      ],
      [
        "▁Потом",
        -10.11876106262207
      ],
      [
        "▁age",
        -10.118765830993652
      ],
      [
        "▁всему",
        -10.118823051452637
      ],
      [
        "лиз",
        -10.118873596191406
      ],
      [
        "▁death",
        -10.118999481201172
      ],
      [
        "брос",
        -10.119184494018555
      ],
      [
        "▁Ka",
        -10.119341850280762
      ],
      [
        "▁остается",
        -10.120190620422363
      ],
      [
        "эй",
        -10.120235443115234
      ],
      [
        "енная",
        -10.120243072509766
      ],
      [
        "▁Po",
        -10.120862007141113
      ],
      [
        "зу",
        -10.121323585510254
      ],
      [
        "▁лист",
        -10.121471405029297
      ],
      [
        "▁get",
        -10.121586799621582
      ],
      [
        "крат",
        -10.121920585632324
      ],
      [
        "▁вероятно",
        -10.122387886047363
      ],
      [
        "▁задачи",
        -10.122624397277832
      ],
      [
        "▁взял",
        -10.123106002807617
      ],
      [
        "▁Pro",
        -10.123255729675293
      ],
      [
        "▁small",
        -10.12380313873291
      ],
      [
        "▁Великой",
        -10.123878479003906
      ],
      [
        "▁война",
        -10.124202728271484
      ],
      [
        "▁увидел",
        -10.124323844909668
      ],
      [
        "▁held",
        -10.124409675598145
      ],
      [
        "ается",
        -10.12490463256836
      ],
      [
        "▁Может",
        -10.126043319702148
      ],
      [
        "▁вне",
        -10.126349449157715
      ],
      [
        "▁авто",
        -10.126626968383789
      ],
      [
        "▁вроде",
        -10.127265930175781
      ],
      [
        "▁большую",
        -10.127320289611816
      ],
      [
        "▁отметил",
        -10.128009796142578
      ],
      [
        "▁пользу",
        -10.12812328338623
      ],
      [
        "▁селе",
        -10.128252983093262
      ],
      [
        "▁town",
        -10.128462791442871
      ],
      [
        "инского",
        -10.130622863769531
      ],
      [
        "пы",
        -10.130667686462402
      ],
      [
        "▁зло",
        -10.130744934082031
      ],
      [
        "▁different",
        -10.130776405334473
      ],
      [
        "мал",
        -10.131143569946289
      ],
      [
        "▁single",
        -10.131184577941895
      ],
      [
        "▁энергии",
        -10.1312894821167
      ],
      [
        "▁land",
        -10.131443977355957
      ],
      [
        "▁месяца",
        -10.131722450256348
      ],
      [
        "ион",
        -10.13183307647705
      ],
      [
        "инский",
        -10.132698059082031
      ],
      [
        "▁final",
        -10.13344955444336
      ],
      [
        "как",
        -10.13412094116211
      ],
      [
        "что",
        -10.134210586547852
      ],
      [
        "ical",
        -10.13433837890625
      ],
      [
        "ино",
        -10.134432792663574
      ],
      [
        "▁информацию",
        -10.134468078613281
      ],
      [
        "готов",
        -10.134515762329102
      ],
      [
        "▁вести",
        -10.135817527770996
      ],
      [
        "ions",
        -10.136509895324707
      ],
      [
        "вшийся",
        -10.136849403381348
      ],
      [
        "▁рассказал",
        -10.137472152709961
      ],
      [
        "▁понял",
        -10.137969970703125
      ],
      [
        "▁цвета",
        -10.138113021850586
      ],
      [
        "ений",
        -10.138229370117188
      ],
      [
        "полн",
        -10.138426780700684
      ],
      [
        "енным",
        -10.138492584228516
      ],
      [
        "▁будем",
        -10.138626098632812
      ],
      [
        "▁улице",
        -10.138845443725586
      ],
      [
        "пр",
        -10.138980865478516
      ],
      [
        "▁ран",
        -10.139127731323242
      ],
      [
        "▁Y",
        -10.139204025268555
      ],
      [
        "ху",
        -10.140214920043945
      ],
      [
        "▁received",
        -10.140433311462402
      ],
      [
        "men",
        -10.140686988830566
      ],
      [
        "▁церковь",
        -10.140999794006348
      ],
      [
        "ner",
        -10.14120864868164
      ],
      [
        "▁добро",
        -10.141279220581055
      ],
      [
        "▁крайне",
        -10.141793251037598
      ],
      [
        "▁вернулся",
        -10.141907691955566
      ],
      [
        "▁вывод",
        -10.142369270324707
      ],
      [
        "▁считает",
        -10.142439842224121
      ],
      [
        "▁края",
        -10.142565727233887
      ],
      [
        "жив",
        -10.142921447753906
      ],
      [
        "▁ну",
        -10.142965316772461
      ],
      [
        "мысл",
        -10.143074989318848
      ],
      [
        "ide",
        -10.14317512512207
      ],
      [
        "▁исключительно",
        -10.144051551818848
      ],
      [
        "ct",
        -10.144525527954102
      ],
      [
        "▁Лит",
        -10.145480155944824
      ],
      [
        "тар",
        -10.14558219909668
      ],
      [
        "▁империи",
        -10.146568298339844
      ],
      [
        "▁торгов",
        -10.14660358428955
      ],
      [
        "▁дал",
        -10.146647453308105
      ],
      [
        "▁сына",
        -10.146947860717773
      ],
      [
        "▁...",
        -10.14695930480957
      ],
      [
        "▁played",
        -10.147679328918457
      ],
      [
        "▁Пре",
        -10.148032188415527
      ],
      [
        "▁необходимости",
        -10.148398399353027
      ],
      [
        "▁сбор",
        -10.14844036102295
      ],
      [
        "▁Лу",
        -10.1485013961792
      ],
      [
        "▁писатель",
        -10.14856243133545
      ],
      [
        "хот",
        -10.148706436157227
      ],
      [
        "ship",
        -10.149085998535156
      ],
      [
        "▁общей",
        -10.149100303649902
      ],
      [
        "город",
        -10.14923095703125
      ],
      [
        "▁Второй",
        -10.14930534362793
      ],
      [
        "▁округа",
        -10.149561882019043
      ],
      [
        "▁поверхности",
        -10.149653434753418
      ],
      [
        "ham",
        -10.149765968322754
      ],
      [
        "еж",
        -10.149789810180664
      ],
      [
        "▁Первый",
        -10.150979042053223
      ],
      [
        "казан",
        -10.151070594787598
      ],
      [
        "▁Ор",
        -10.15111255645752
      ],
      [
        "our",
        -10.151562690734863
      ],
      [
        "кую",
        -10.152210235595703
      ],
      [
        "дра",
        -10.153284072875977
      ],
      [
        "▁модели",
        -10.15349292755127
      ],
      [
        "мар",
        -10.153555870056152
      ],
      [
        "лем",
        -10.153860092163086
      ],
      [
        "▁баз",
        -10.154085159301758
      ],
      [
        "бил",
        -10.154118537902832
      ],
      [
        "less",
        -10.154291152954102
      ],
      [
        "vi",
        -10.154388427734375
      ],
      [
        "уль",
        -10.155281066894531
      ],
      [
        "▁Некоторые",
        -10.155732154846191
      ],
      [
        "▁City",
        -10.155885696411133
      ],
      [
        "▁Lo",
        -10.15617847442627
      ],
      [
        "▁Ми",
        -10.156347274780273
      ],
      [
        "all",
        -10.156540870666504
      ],
      [
        "▁Между",
        -10.157205581665039
      ],
      [
        "▁специально",
        -10.15723991394043
      ],
      [
        "▁сети",
        -10.15747356414795
      ],
      [
        "груз",
        -10.157505989074707
      ],
      [
        "▁успешно",
        -10.157692909240723
      ],
      [
        "ors",
        -10.158025741577148
      ],
      [
        "▁холод",
        -10.158222198486328
      ],
      [
        "ора",
        -10.158239364624023
      ],
      [
        "▁органов",
        -10.158316612243652
      ],
      [
        "▁область",
        -10.15870189666748
      ],
      [
        "▁мастер",
        -10.15939998626709
      ],
      [
        "▁секрет",
        -10.159523963928223
      ],
      [
        "▁нес",
        -10.160672187805176
      ],
      [
        "▁фильма",
        -10.161112785339355
      ],
      [
        "▁используется",
        -10.161551475524902
      ],
      [
        "▁Отечественной",
        -10.162164688110352
      ],
      [
        "▁природы",
        -10.16261100769043
      ],
      [
        "▁руку",
        -10.16266918182373
      ],
      [
        "▁север",
        -10.162947654724121
      ],
      [
        "▁Ри",
        -10.163039207458496
      ],
      [
        "ву",
        -10.163274765014648
      ],
      [
        "▁Ин",
        -10.163514137268066
      ],
      [
        "▁крови",
        -10.163922309875488
      ],
      [
        "рев",
        -10.164213180541992
      ],
      [
        "▁командир",
        -10.16427993774414
      ],
      [
        "▁направлении",
        -10.164566993713379
      ],
      [
        "▁христиан",
        -10.164630889892578
      ],
      [
        "▁Мир",
        -10.164904594421387
      ],
      [
        "▁взять",
        -10.164994239807129
      ],
      [
        "▁сборной",
        -10.166661262512207
      ],
      [
        "душ",
        -10.16668701171875
      ],
      [
        "▁художник",
        -10.166765213012695
      ],
      [
        "нные",
        -10.16679859161377
      ],
      [
        "▁руках",
        -10.16727066040039
      ],
      [
        "бра",
        -10.168079376220703
      ],
      [
        "▁Сан",
        -10.16808795928955
      ],
      [
        "▁w",
        -10.168350219726562
      ],
      [
        "▁рад",
        -10.168421745300293
      ],
      [
        "▁включая",
        -10.168502807617188
      ],
      [
        "▁Do",
        -10.169163703918457
      ],
      [
        "рик",
        -10.169169425964355
      ],
      [
        "▁Ман",
        -10.169366836547852
      ],
      [
        "▁домой",
        -10.169403076171875
      ],
      [
        "пу",
        -10.16963005065918
      ],
      [
        "▁ограничен",
        -10.170053482055664
      ],
      [
        "▁знак",
        -10.170100212097168
      ],
      [
        "▁внимания",
        -10.170486450195312
      ],
      [
        "▁личности",
        -10.170825004577637
      ],
      [
        "▁members",
        -10.170923233032227
      ],
      [
        "▁относится",
        -10.171518325805664
      ],
      [
        "ций",
        -10.172304153442383
      ],
      [
        "▁идеи",
        -10.172502517700195
      ],
      [
        "ким",
        -10.172825813293457
      ],
      [
        "▁игра",
        -10.173480987548828
      ],
      [
        "bo",
        -10.173656463623047
      ],
      [
        "▁авиа",
        -10.17410945892334
      ],
      [
        "▁любовь",
        -10.17418098449707
      ],
      [
        "▁книг",
        -10.174344062805176
      ],
      [
        "ющиеся",
        -10.17506217956543
      ],
      [
        "▁хочу",
        -10.175215721130371
      ],
      [
        "▁состояния",
        -10.175850868225098
      ],
      [
        "▁within",
        -10.175914764404297
      ],
      [
        "аз",
        -10.176196098327637
      ],
      [
        "▁находятся",
        -10.176236152648926
      ],
      [
        "▁касается",
        -10.177042007446289
      ],
      [
        "wa",
        -10.177159309387207
      ],
      [
        "▁большим",
        -10.177206039428711
      ],
      [
        "▁странах",
        -10.178547859191895
      ],
      [
        "▁землю",
        -10.178793907165527
      ],
      [
        "▁разум",
        -10.178875923156738
      ],
      [
        "▁сообщает",
        -10.178956031799316
      ],
      [
        "▁US",
        -10.178962707519531
      ],
      [
        "ver",
        -10.179062843322754
      ],
      [
        "▁children",
        -10.179512977600098
      ],
      [
        "▁приходится",
        -10.179547309875488
      ],
      [
        "int",
        -10.180315017700195
      ],
      [
        "▁вперед",
        -10.180315017700195
      ],
      [
        "▁нами",
        -10.180350303649902
      ],
      [
        "▁сайт",
        -10.180705070495605
      ],
      [
        "▁named",
        -10.181097984313965
      ],
      [
        "нут",
        -10.181337356567383
      ],
      [
        "▁Нью",
        -10.181394577026367
      ],
      [
        "цен",
        -10.182106971740723
      ],
      [
        "▁Санкт",
        -10.182315826416016
      ],
      [
        "▁Несмотря",
        -10.182639122009277
      ],
      [
        "▁написан",
        -10.183343887329102
      ],
      [
        "▁души",
        -10.183359146118164
      ],
      [
        "▁Мон",
        -10.183402061462402
      ],
      [
        "▁Сейчас",
        -10.183979988098145
      ],
      [
        "▁словами",
        -10.183993339538574
      ],
      [
        "▁русский",
        -10.184186935424805
      ],
      [
        "шка",
        -10.184758186340332
      ],
      [
        "мед",
        -10.184860229492188
      ],
      [
        "▁By",
        -10.184874534606934
      ],
      [
        "▁предприятия",
        -10.185198783874512
      ],
      [
        "▁Дж",
        -10.185205459594727
      ],
      [
        "):",
        -10.1859130859375
      ],
      [
        "▁k",
        -10.186389923095703
      ],
      [
        "vo",
        -10.187090873718262
      ],
      [
        "мон",
        -10.187210083007812
      ],
      [
        "ением",
        -10.188675880432129
      ],
      [
        "▁Александра",
        -10.188861846923828
      ],
      [
        "▁take",
        -10.188894271850586
      ],
      [
        "илось",
        -10.189070701599121
      ],
      [
        "▁боль",
        -10.189334869384766
      ],
      [
        "▁письма",
        -10.190210342407227
      ],
      [
        "▁порядке",
        -10.190223693847656
      ],
      [
        "▁таком",
        -10.190526008605957
      ],
      [
        "▁air",
        -10.190635681152344
      ],
      [
        "▁El",
        -10.191105842590332
      ],
      [
        "▁com",
        -10.191248893737793
      ],
      [
        "si",
        -10.19127082824707
      ],
      [
        "▁середине",
        -10.191557884216309
      ],
      [
        "▁речи",
        -10.191740989685059
      ],
      [
        "▁запас",
        -10.19206714630127
      ],
      [
        "▁Англии",
        -10.192418098449707
      ],
      [
        "▁карт",
        -10.193123817443848
      ],
      [
        "оч",
        -10.193757057189941
      ],
      [
        "▁often",
        -10.194013595581055
      ],
      [
        "▁страх",
        -10.194169998168945
      ],
      [
        "щего",
        -10.194610595703125
      ],
      [
        "▁Иванович",
        -10.194840431213379
      ],
      [
        "▁семей",
        -10.195160865783691
      ],
      [
        "▁протяжении",
        -10.195601463317871
      ],
      [
        "▁император",
        -10.195631980895996
      ],
      [
        "▁юго",
        -10.196695327758789
      ],
      [
        "▁прием",
        -10.196931838989258
      ],
      [
        "ват",
        -10.19713306427002
      ],
      [
        "▁университет",
        -10.197429656982422
      ],
      [
        "▁названием",
        -10.197501182556152
      ],
      [
        "▁фигур",
        -10.197820663452148
      ],
      [
        "пас",
        -10.197867393493652
      ],
      [
        "▁role",
        -10.19821548461914
      ],
      [
        "сом",
        -10.19827938079834
      ],
      [
        "▁широко",
        -10.198338508605957
      ],
      [
        "▁действие",
        -10.19890022277832
      ],
      [
        "▁участвовал",
        -10.199065208435059
      ],
      [
        "ach",
        -10.199283599853516
      ],
      [
        "▁опубликован",
        -10.199317932128906
      ],
      [
        "▁норм",
        -10.200002670288086
      ],
      [
        "креп",
        -10.200447082519531
      ],
      [
        "▁возник",
        -10.200953483581543
      ],
      [
        "▁далее",
        -10.201017379760742
      ],
      [
        "руш",
        -10.20143985748291
      ],
      [
        "ального",
        -10.202115058898926
      ],
      [
        "▁sub",
        -10.20218276977539
      ],
      [
        "▁шесть",
        -10.202516555786133
      ],
      [
        "▁Сер",
        -10.20263957977295
      ],
      [
        "▁построен",
        -10.20317554473877
      ],
      [
        "▁находился",
        -10.203255653381348
      ],
      [
        "енд",
        -10.20338249206543
      ],
      [
        "▁прекрасно",
        -10.20359992980957
      ],
      [
        "вшей",
        -10.203728675842285
      ],
      [
        "ations",
        -10.203804016113281
      ],
      [
        "▁масштаб",
        -10.204197883605957
      ],
      [
        "\":",
        -10.204596519470215
      ],
      [
        "▁стороне",
        -10.204785346984863
      ],
      [
        "▁зависит",
        -10.204829216003418
      ],
      [
        "▁Бел",
        -10.20600700378418
      ],
      [
        "▁курс",
        -10.20641803741455
      ],
      [
        "▁видеть",
        -10.206620216369629
      ],
      [
        "▁указан",
        -10.207229614257812
      ],
      [
        "▁рез",
        -10.207316398620605
      ],
      [
        "▁новое",
        -10.207437515258789
      ],
      [
        "▁period",
        -10.207453727722168
      ],
      [
        "▁тепл",
        -10.20773983001709
      ],
      [
        "▁контракт",
        -10.208014488220215
      ],
      [
        "ёл",
        -10.208173751831055
      ],
      [
        "▁бывает",
        -10.20817756652832
      ],
      [
        "ике",
        -10.208345413208008
      ],
      [
        "▁концов",
        -10.208440780639648
      ],
      [
        "▁мнение",
        -10.208765983581543
      ],
      [
        "▁встреча",
        -10.209059715270996
      ],
      [
        "▁качества",
        -10.209174156188965
      ],
      [
        "▁built",
        -10.209768295288086
      ],
      [
        "▁голов",
        -10.210260391235352
      ],
      [
        "щей",
        -10.210381507873535
      ],
      [
        "▁задач",
        -10.210457801818848
      ],
      [
        "▁открыл",
        -10.211018562316895
      ],
      [
        "▁Ба",
        -10.211204528808594
      ],
      [
        "▁связан",
        -10.211357116699219
      ],
      [
        "▁тепло",
        -10.2113676071167
      ],
      [
        "ium",
        -10.211381912231445
      ],
      [
        "▁штаб",
        -10.211799621582031
      ],
      [
        "▁five",
        -10.211944580078125
      ],
      [
        "▁went",
        -10.212138175964355
      ],
      [
        "▁рабочих",
        -10.212623596191406
      ],
      [
        "▁sp",
        -10.212984085083008
      ],
      [
        "ходит",
        -10.213172912597656
      ],
      [
        "▁included",
        -10.213322639465332
      ],
      [
        "▁post",
        -10.214363098144531
      ],
      [
        "net",
        -10.214506149291992
      ],
      [
        "▁All",
        -10.21470832824707
      ],
      [
        "▁Или",
        -10.214874267578125
      ],
      [
        "▁возрасте",
        -10.215106010437012
      ],
      [
        "ток",
        -10.215133666992188
      ],
      [
        "ура",
        -10.215523719787598
      ],
      [
        "▁Ba",
        -10.21557331085205
      ],
      [
        "днев",
        -10.215654373168945
      ],
      [
        "▁Многие",
        -10.215703010559082
      ],
      [
        "▁произведения",
        -10.215723991394043
      ],
      [
        "гин",
        -10.215896606445312
      ],
      [
        "▁миллионов",
        -10.215912818908691
      ],
      [
        "▁абсолютно",
        -10.216740608215332
      ],
      [
        "▁явно",
        -10.217226028442383
      ],
      [
        "ально",
        -10.217735290527344
      ],
      [
        "▁Ново",
        -10.21790885925293
      ],
      [
        "▁версии",
        -10.218186378479004
      ],
      [
        "q",
        -10.218667984008789
      ],
      [
        "▁Марк",
        -10.219006538391113
      ],
      [
        "ложить",
        -10.219039916992188
      ],
      [
        "▁чувств",
        -10.219108581542969
      ],
      [
        "▁правда",
        -10.21912670135498
      ],
      [
        "▁идеал",
        -10.219401359558105
      ],
      [
        "▁принцип",
        -10.219658851623535
      ],
      [
        "вр",
        -10.219829559326172
      ],
      [
        "\\.",
        -10.219913482666016
      ],
      [
        "▁трёх",
        -10.220032691955566
      ],
      [
        "▁Перед",
        -10.220503807067871
      ],
      [
        "▁родился",
        -10.220853805541992
      ],
      [
        "▁оказалось",
        -10.220924377441406
      ],
      [
        "▁late",
        -10.22142505645752
      ],
      [
        "ог",
        -10.221529006958008
      ],
      [
        "Ка",
        -10.221918106079102
      ],
      [
        "▁ключ",
        -10.222073554992676
      ],
      [
        "▁должность",
        -10.222078323364258
      ],
      [
        "▁воду",
        -10.222323417663574
      ],
      [
        "▁став",
        -10.222566604614258
      ],
      [
        "▁центре",
        -10.2228364944458
      ],
      [
        "▁вкус",
        -10.222872734069824
      ],
      [
        "▁отдельных",
        -10.222938537597656
      ],
      [
        "▁вынужден",
        -10.222940444946289
      ],
      [
        "▁led",
        -10.223119735717773
      ],
      [
        "▁корпуса",
        -10.223811149597168
      ],
      [
        "▁San",
        -10.223989486694336
      ],
      [
        "▁поход",
        -10.22422981262207
      ],
      [
        "▁German",
        -10.224246978759766
      ],
      [
        "▁Три",
        -10.224780082702637
      ],
      [
        "▁положения",
        -10.225010871887207
      ],
      [
        "▁литературы",
        -10.22507095336914
      ],
      [
        "▁объект",
        -10.225350379943848
      ],
      [
        "ирован",
        -10.225369453430176
      ],
      [
        "пт",
        -10.225408554077148
      ],
      [
        "▁получила",
        -10.225629806518555
      ],
      [
        "▁проблема",
        -10.22602653503418
      ],
      [
        "воль",
        -10.227275848388672
      ],
      [
        "щим",
        -10.227442741394043
      ],
      [
        "еп",
        -10.228797912597656
      ],
      [
        "▁Бу",
        -10.228903770446777
      ],
      [
        "pa",
        -10.229077339172363
      ],
      [
        "▁моего",
        -10.2294282913208
      ],
      [
        "ai",
        -10.229475021362305
      ],
      [
        "▁принято",
        -10.22957706451416
      ],
      [
        "log",
        -10.229645729064941
      ],
      [
        "рад",
        -10.230080604553223
      ],
      [
        "▁February",
        -10.230143547058105
      ],
      [
        "▁научно",
        -10.230427742004395
      ],
      [
        "▁общего",
        -10.230610847473145
      ],
      [
        "▁большие",
        -10.231553077697754
      ],
      [
        "▁Бр",
        -10.23172378540039
      ],
      [
        "▁next",
        -10.231820106506348
      ],
      [
        "▁фронт",
        -10.23189640045166
      ],
      [
        "▁совета",
        -10.23189926147461
      ],
      [
        "▁мар",
        -10.23205280303955
      ],
      [
        "тр",
        -10.232250213623047
      ],
      [
        "▁воин",
        -10.23244571685791
      ],
      [
        "▁former",
        -10.232471466064453
      ],
      [
        "бел",
        -10.232966423034668
      ],
      [
        "▁building",
        -10.233017921447754
      ],
      [
        "▁впоследствии",
        -10.233182907104492
      ],
      [
        "▁Her",
        -10.23355770111084
      ],
      [
        "▁адрес",
        -10.233596801757812
      ],
      [
        "▁основных",
        -10.23363208770752
      ],
      [
        "▁маг",
        -10.234551429748535
      ],
      [
        "▁аппарат",
        -10.23475456237793
      ],
      [
        "▁производство",
        -10.23538589477539
      ],
      [
        "\").",
        -10.235489845275879
      ],
      [
        "▁Ге",
        -10.236187934875488
      ],
      [
        "▁Возможно",
        -10.236353874206543
      ],
      [
        "▁кг",
        -10.236496925354004
      ],
      [
        "▁окончил",
        -10.23678207397461
      ],
      [
        "▁считать",
        -10.23678970336914
      ],
      [
        "▁защиты",
        -10.237051010131836
      ],
      [
        "▁металл",
        -10.237119674682617
      ],
      [
        "чив",
        -10.237236976623535
      ],
      [
        "ари",
        -10.237567901611328
      ],
      [
        "▁бизнес",
        -10.237727165222168
      ],
      [
        "▁веке",
        -10.238032341003418
      ],
      [
        "▁неудач",
        -10.23837947845459
      ],
      [
        "дом",
        -10.238595962524414
      ],
      [
        "ning",
        -10.239252090454102
      ],
      [
        "▁among",
        -10.239344596862793
      ],
      [
        "▁волн",
        -10.239465713500977
      ],
      [
        "лог",
        -10.23974609375
      ],
      [
        "ителя",
        -10.239912986755371
      ],
      [
        "▁институт",
        -10.239938735961914
      ],
      [
        "▁рис",
        -10.240119934082031
      ],
      [
        "▁поступил",
        -10.240483283996582
      ],
      [
        "▁сыграл",
        -10.241124153137207
      ],
      [
        "лег",
        -10.241194725036621
      ],
      [
        "ue",
        -10.242060661315918
      ],
      [
        "▁One",
        -10.242064476013184
      ],
      [
        "тай",
        -10.242700576782227
      ],
      [
        "еров",
        -10.242843627929688
      ],
      [
        "▁реклам",
        -10.24331283569336
      ],
      [
        "▁формул",
        -10.243727684020996
      ],
      [
        "▁шум",
        -10.243947982788086
      ],
      [
        "вшиеся",
        -10.244329452514648
      ],
      [
        "▁народов",
        -10.244349479675293
      ],
      [
        "ющую",
        -10.244549751281738
      ],
      [
        "we",
        -10.244847297668457
      ],
      [
        "ица",
        -10.244935989379883
      ],
      [
        "▁получен",
        -10.24494457244873
      ],
      [
        "центр",
        -10.245281219482422
      ],
      [
        "▁few",
        -10.245352745056152
      ],
      [
        "▁son",
        -10.245463371276855
      ],
      [
        "сим",
        -10.245884895324707
      ],
      [
        "уш",
        -10.246058464050293
      ],
      [
        "▁склон",
        -10.246174812316895
      ],
      [
        "tro",
        -10.246192932128906
      ],
      [
        "▁population",
        -10.246463775634766
      ],
      [
        "▁пришел",
        -10.246870994567871
      ],
      [
        "вшая",
        -10.24728775024414
      ],
      [
        "▁Мак",
        -10.24743366241455
      ],
      [
        "пе",
        -10.24824047088623
      ],
      [
        "▁могло",
        -10.248550415039062
      ],
      [
        "▁частей",
        -10.248641967773438
      ],
      [
        "▁политики",
        -10.248762130737305
      ],
      [
        "▁список",
        -10.248966217041016
      ],
      [
        "ier",
        -10.249106407165527
      ],
      [
        "▁чемпионата",
        -10.249489784240723
      ],
      [
        "▁представитель",
        -10.249871253967285
      ],
      [
        "▁Ta",
        -10.250003814697266
      ],
      [
        "▁противо",
        -10.250268936157227
      ],
      [
        "od",
        -10.250484466552734
      ],
      [
        "▁раствор",
        -10.25085735321045
      ],
      [
        "▁команда",
        -10.251352310180664
      ],
      [
        "ell",
        -10.251460075378418
      ],
      [
        "▁жена",
        -10.251716613769531
      ],
      [
        "▁чувства",
        -10.251975059509277
      ],
      [
        "▁казалось",
        -10.252218246459961
      ],
      [
        "▁самостоятельно",
        -10.252313613891602
      ],
      [
        "▁бар",
        -10.25267505645752
      ],
      [
        "ители",
        -10.253374099731445
      ],
      [
        "▁камен",
        -10.253557205200195
      ],
      [
        "▁результаты",
        -10.253664016723633
      ],
      [
        "▁называется",
        -10.254227638244629
      ],
      [
        "▁major",
        -10.254293441772461
      ],
      [
        "бл",
        -10.254322052001953
      ],
      [
        "▁советский",
        -10.254364013671875
      ],
      [
        "▁предложил",
        -10.254777908325195
      ],
      [
        "▁book",
        -10.255759239196777
      ],
      [
        "▁club",
        -10.255788803100586
      ],
      [
        "▁тысячи",
        -10.255924224853516
      ],
      [
        "▁Эр",
        -10.256081581115723
      ],
      [
        "ведение",
        -10.256397247314453
      ],
      [
        "▁should",
        -10.257089614868164
      ],
      [
        "▁Бор",
        -10.257120132446289
      ],
      [
        "▁знания",
        -10.25722885131836
      ],
      [
        "\"[",
        -10.257306098937988
      ],
      [
        "▁главное",
        -10.25806999206543
      ],
      [
        "Да",
        -10.258316040039062
      ],
      [
        "▁bo",
        -10.25861644744873
      ],
      [
        "▁Более",
        -10.258912086486816
      ],
      [
        "анию",
        -10.259142875671387
      ],
      [
        "▁глава",
        -10.259407043457031
      ],
      [
        "▁al",
        -10.25993537902832
      ],
      [
        "▁play",
        -10.260584831237793
      ],
      [
        "▁света",
        -10.260796546936035
      ],
      [
        "▁память",
        -10.261134147644043
      ],
      [
        "▁продолжал",
        -10.26119327545166
      ],
      [
        "государственного",
        -10.261473655700684
      ],
      [
        "порт",
        -10.261584281921387
      ],
      [
        "ались",
        -10.26159954071045
      ],
      [
        "▁набор",
        -10.2617769241333
      ],
      [
        "▁премьер",
        -10.261863708496094
      ],
      [
        "ick",
[...]
