{
  "version": "1.0",
  "truncation": null,
  "padding": null,
  "added_tokens": [
    {
      "id": 0,
      "content": "<unk>",
      "single_word": false,
      "lstrip": false,
      "rstrip": false,
      "normalized": false,
      "special": true
    },
    {
      "id": 1,
      "content": "<s>",
      "single_word": false,
      "lstrip": false,
      "rstrip": false,
      "normalized": false,
      "special": true
    },
    {
      "id": 2,
      "content": "</s>",
      "single_word": false,
      "lstrip": false,
      "rstrip": false,
      "normalized": false,
      "special": true
    }
  ],
  "normalizer": {
    "type": "Sequence",
    "normalizers": [
      {
        "type": "Prepend",
        "prepend": "▁"
      },
      {
        "type": "Replace",
        "pattern": {
          "String": " "
        },
        "content": "▁"
      }
    ]
  },
  "pre_tokenizer": null,
  "post_processor": {
    "type": "TemplateProcessing",
    "single": [
      {
        "SpecialToken": {
          "id": "<s>",
          "type_id": 0
        }
      },
      {
        "Sequence": {
          "id": "A",
          "type_id": 0
        }
      }
    ],
    "pair": [
      {
        "SpecialToken": {
          "id": "<s>",
          "type_id": 0
        }
      },
      {
        "Sequence": {
          "id": "A",
          "type_id": 0
        }
      },
      {
        "SpecialToken": {
          "id": "<s>",
          "type_id": 1
        }
      },
      {
        "Sequence": {
          "id": "B",
          "type_id": 1
        }
      }
    ],
    "special_tokens": {
      "<s>": {
        "id": "<s>",
        "ids": [
          1
        ],
        "tokens": [
          "<s>"
        ]
      }
    }
  },
  "decoder": {
    "type": "Sequence",
    "decoders": [
      {
        "type": "Replace",
        "pattern": {
          "String": "▁"
        },
        "content": " "
      },
      {
        "type": "ByteFallback"
      },
      {
        "type": "Fuse"
      },
      {
        "type": "Strip",
        "content": " ",
        "start": 1,
        "stop": 0
      }
    ]
  },
  "model": {
    "type": "Unigram",
    "unk_id": 0,
    "vocab": [
      [
        "<unk>",
        0.0
      ],
      [
        "<s>",
        0.0
      ],
      [
        "</s>",
        0.0
      ],
      [
        "<0x00>",
        0.0
      ],
      [
        "<0x01>",
        0.0
      ],
      [
        "<0x02>",
        0.0
      ],
      [
        "<0x03>",
        0.0
      ],
      [
        "<0x04>",
        0.0
      ],
      [
        "<0x05>",
        0.0
      ],
      [
        "<0x06>",
        0.0
      ],
      [
        "<0x07>",
        0.0
      ],
      [
        "<0x08>",
        0.0
      ],
      [
        "<0x09>",
        0.0
      ],
      [
        "<0x0A>",
        0.0
      ],
      [
        "<0x0B>",
        0.0
      ],
      [
        "<0x0C>",
        0.0
      ],
      [
        "<0x0D>",
        0.0
      ],
      [
        "<0x0E>",
        0.0
      ],
      [
        "<0x0F>",
        0.0
      ],
      [
        "<0x10>",
        0.0
      ],
      [
        "<0x11>",
        0.0
      ],
      [
        "<0x12>",
        0.0
      ],
      [
        "<0x13>",
        0.0
      ],
      [
        "<0x14>",
        0.0
      ],
      [
        "<0x15>",
        0.0
      ],
      [
        "<0x16>",
        0.0
      ],
      [
        "<0x17>",
        0.0
      ],
      [
        "<0x18>",
        0.0
      ],
      [
        "<0x19>",
        0.0
      ],
      [
        "<0x1A>",
        0.0
      ],
      [
        "<0x1B>",
        0.0
      ],
      [
        "<0x1C>",
        0.0
      ],
      [
        "<0x1D>",
        0.0
      ],
      [
        "<0x1E>",
        0.0
      ],
      [
        "<0x1F>",
        0.0
      ],
      [
        "<0x20>",
        0.0
      ],
      [
        "<0x21>",
        0.0
      ],
      [
        "<0x22>",
        0.0
      ],
      [
        "<0x23>",
        0.0
      ],
      [
        "<0x24>",
        0.0
      ],
      [
        "<0x25>",
        0.0
      ],
      [
        "<0x26>",
        0.0
      ],
      [
        "<0x27>",
        0.0
      ],
      [
        "<0x28>",
        0.0
      ],
      [
        "<0x29>",
        0.0
      ],
      [
        "<0x2A>",
        0.0
      ],
      [
        "<0x2B>",
        0.0
      ],
      [
        "<0x2C>",
        0.0
      ],
      [
        "<0x2D>",
        0.0
      ],
      [
        "<0x2E>",
        0.0
      ],
      [
        "<0x2F>",
        0.0
      ],
      [
        "<0x30>",
        0.0
      ],
      [
        "<0x31>",
        0.0
      ],
      [
        "<0x32>",
        0.0
      ],
      [
        "<0x33>",
        0.0
      ],
      [
        "<0x34>",
        0.0
      ],
      [
        "<0x35>",
        0.0
      ],
      [
        "<0x36>",
        0.0
      ],
      [
        "<0x37>",
        0.0
      ],
      [
        "<0x38>",
        0.0
      ],
      [
        "<0x39>",
        0.0
      ],
      [
        "<0x3A>",
        0.0
      ],
      [
        "<0x3B>",
        0.0
      ],
      [
        "<0x3C>",
        0.0
      ],
      [
        "<0x3D>",
        0.0
      ],
      [
        "<0x3E>",
        0.0
      ],
      [
        "<0x3F>",
        0.0
      ],
      [
        "<0x40>",
        0.0
      ],
      [
        "<0x41>",
        0.0
      ],
      [
        "<0x42>",
        0.0
      ],
      [
        "<0x43>",
        0.0
      ],
      [
        "<0x44>",
        0.0
      ],
      [
        "<0x45>",
        0.0
      ],
      [
        "<0x46>",
        0.0
      ],
      [
        "<0x47>",
        0.0
      ],
      [
        "<0x48>",
        0.0
      ],
      [
        "<0x49>",
        0.0
      ],
      [
        "<0x4A>",
        0.0
      ],
      [
        "<0x4B>",
        0.0
      ],
      [
        "<0x4C>",
        0.0
      ],
      [
        "<0x4D>",
        0.0
      ],
      [
        "<0x4E>",
        0.0
      ],
      [
        "<0x4F>",
        0.0
      ],
      [
        "<0x50>",
        0.0
      ],
      [
        "<0x51>",
        0.0
      ],
      [
        "<0x52>",
        0.0
      ],
      [
        "<0x53>",
        0.0
      ],
      [
        "<0x54>",
        0.0
      ],
      [
        "<0x55>",
        0.0
      ],
      [
        "<0x56>",
        0.0
      ],
      [
        "<0x57>",
        0.0
      ],
      [
        "<0x58>",
        0.0
      ],
      [
        "<0x59>",
        0.0
      ],
      [
        "<0x5A>",
        0.0
      ],
      [
        "<0x5B>",
        0.0
      ],
      [
        "<0x5C>",
        0.0
      ],
      [
        "<0x5D>",
        0.0
      ],
      [
        "<0x5E>",
        0.0
      ],
      [
        "<0x5F>",
        0.0
      ],
      [
        "<0x60>",
        0.0
      ],
      [
        "<0x61>",
        0.0
      ],
      [
        "<0x62>",
        0.0
      ],
      [
        "<0x63>",
        0.0
      ],
      [
        "<0x64>",
        0.0
      ],
      [
        "<0x65>",
        0.0
      ],
      [
        "<0x66>",
        0.0
      ],
      [
        "<0x67>",
        0.0
      ],
      [
        "<0x68>",
        0.0
      ],
      [
        "<0x69>",
        0.0
      ],
      [
        "<0x6A>",
        0.0
      ],
      [
        "<0x6B>",
        0.0
      ],
      [
        "<0x6C>",
        0.0
      ],
      [
        "<0x6D>",
        0.0
      ],
      [
        "<0x6E>",
        0.0
      ],
      [
        "<0x6F>",
        0.0
      ],
      [
        "<0x70>",
        0.0
      ],
      [
        "<0x71>",
        0.0
      ],
      [
        "<0x72>",
        0.0
      ],
      [
        "<0x73>",
        0.0
      ],
      [
        "<0x74>",
        0.0
      ],
      [
        "<0x75>",
        0.0
      ],
      [
        "<0x76>",
        0.0
      ],
      [
        "<0x77>",
        0.0
      ],
      [
        "<0x78>",
        0.0
      ],
      [
        "<0x79>",
        0.0
      ],
      [
        "<0x7A>",
        0.0
      ],
      [
        "<0x7B>",
        0.0
      ],
      [
        "<0x7C>",
        0.0
      ],
      [
        "<0x7D>",
        0.0
      ],
      [
        "<0x7E>",
        0.0
      ],
      [
        "<0x7F>",
        0.0
      ],
      [
        "<0x80>",
        0.0
      ],
      [
        "<0x81>",
        0.0
      ],
      [
        "<0x82>",
        0.0
      ],
      [
        "<0x83>",
        0.0
      ],
      [
        "<0x84>",
        0.0
      ],
      [
        "<0x85>",
        0.0
      ],
      [
        "<0x86>",
        0.0
      ],
      [
        "<0x87>",
        0.0
      ],
      [
        "<0x88>",
        0.0
      ],
      [
        "<0x89>",
        0.0
      ],
      [
        "<0x8A>",
        0.0
      ],
      [
        "<0x8B>",
        0.0
      ],
      [
        "<0x8C>",
        0.0
      ],
      [
        "<0x8D>",
        0.0
      ],
      [
        "<0x8E>",
        0.0
      ],
      [
        "<0x8F>",
        0.0
      ],
      [
        "<0x90>",
        0.0
      ],
      [
        "<0x91>",
        0.0
      ],
      [
        "<0x92>",
        0.0
      ],
      [
        "<0x93>",
        0.0
      ],
      [
        "<0x94>",
        0.0
      ],
      [
        "<0x95>",
        0.0
      ],
      [
        "<0x96>",
        0.0
      ],
      [
        "<0x97>",
        0.0
      ],
      [
        "<0x98>",
        0.0
      ],
      [
        "<0x99>",
        0.0
      ],
      [
        "<0x9A>",
        0.0
      ],
      [
        "<0x9B>",
        0.0
      ],
      [
        "<0x9C>",
        0.0
      ],
      [
        "<0x9D>",
        0.0
      ],
      [
        "<0x9E>",
        0.0
      ],
      [
        "<0x9F>",
        0.0
      ],
      [
        "<0xA0>",
        0.0
      ],
      [
        "<0xA1>",
        0.0
      ],
      [
        "<0xA2>",
        0.0
      ],
      [
        "<0xA3>",
        0.0
      ],
      [
        "<0xA4>",
        0.0
      ],
      [
        "<0xA5>",
        0.0
      ],
      [
        "<0xA6>",
        0.0
      ],
      [
        "<0xA7>",
        0.0
      ],
      [
        "<0xA8>",
        0.0
      ],
      [
        "<0xA9>",
        0.0
      ],
      [
        "<0xAA>",
        0.0
      ],
      [
        "<0xAB>",
        0.0
      ],
      [
        "<0xAC>",
        0.0
      ],
      [
        "<0xAD>",
        0.0
      ],
      [
        "<0xAE>",
        0.0
      ],
      [
        "<0xAF>",
        0.0
      ],
      [
        "<0xB0>",
        0.0
      ],
      [
        "<0xB1>",
        0.0
      ],
      [
        "<0xB2>",
        0.0
      ],
      [
        "<0xB3>",
        0.0
      ],
      [
        "<0xB4>",
        0.0
      ],
      [
        "<0xB5>",
        0.0
      ],
      [
        "<0xB6>",
        0.0
      ],
      [
        "<0xB7>",
        0.0
      ],
      [
        "<0xB8>",
        0.0
      ],
      [
        "<0xB9>",
        0.0
      ],
      [
        "<0xBA>",
        0.0
      ],
      [
        "<0xBB>",
        0.0
      ],
      [
        "<0xBC>",
        0.0
      ],
      [
        "<0xBD>",
        0.0
      ],
      [
        "<0xBE>",
        0.0
      ],
      [
        "<0xBF>",
        0.0
      ],
      [
        "<0xC0>",
        0.0
      ],
      [
        "<0xC1>",
        0.0
      ],
      [
        "<0xC2>",
        0.0
      ],
      [
        "<0xC3>",
        0.0
      ],
      [
        "<0xC4>",
        0.0
      ],
      [
        "<0xC5>",
        0.0
      ],
      [
        "<0xC6>",
        0.0
      ],
      [
        "<0xC7>",
        0.0
      ],
      [
        "<0xC8>",
        0.0
      ],
      [
        "<0xC9>",
        0.0
      ],
      [
        "<0xCA>",
        0.0
      ],
      [
        "<0xCB>",
        0.0
      ],
      [
        "<0xCC>",
        0.0
      ],
      [
        "<0xCD>",
        0.0
      ],
      [
        "<0xCE>",
        0.0
      ],
      [
        "<0xCF>",
        0.0
      ],
      [
        "<0xD0>",
        0.0
      ],
      [
        "<0xD1>",
        0.0
      ],
      [
        "<0xD2>",
        0.0
      ],
      [
        "<0xD3>",
        0.0
      ],
      [
        "<0xD4>",
        0.0
      ],
      [
        "<0xD5>",
        0.0
      ],
      [
        "<0xD6>",
        0.0
      ],
      [
        "<0xD7>",
        0.0
      ],
      [
        "<0xD8>",
        0.0
      ],
      [
        "<0xD9>",
        0.0
      ],
      [
        "<0xDA>",
        0.0
      ],
      [
        "<0xDB>",
        0.0
      ],
      [
        "<0xDC>",
        0.0
      ],
      [
        "<0xDD>",
        0.0
      ],
      [
        "<0xDE>",
        0.0
      ],
      [
        "<0xDF>",
        0.0
      ],
      [
        "<0xE0>",
        0.0
      ],
      [
        "<0xE1>",
        0.0
      ],
      [
        "<0xE2>",
        0.0
      ],
      [
        "<0xE3>",
        0.0
      ],
      [
        "<0xE4>",
        0.0
      ],
      [
        "<0xE5>",
        0.0
      ],
      [
        "<0xE6>",
        0.0
      ],
      [
        "<0xE7>",
        0.0
      ],
      [
        "<0xE8>",
        0.0
      ],
      [
        "<0xE9>",
        0.0
      ],
      [
        "<0xEA>",
        0.0
      ],
      [
        "<0xEB>",
        0.0
      ],
      [
        "<0xEC>",
        0.0
      ],
      [
        "<0xED>",
        0.0
      ],
      [
        "<0xEE>",
        0.0
      ],
      [
        "<0xEF>",
        0.0
      ],
      [
        "<0xF0>",
        0.0
      ],
      [
        "<0xF1>",
        0.0
      ],
      [
        "<0xF2>",
        0.0
      ],
      [
        "<0xF3>",
        0.0
      ],
      [
        "<0xF4>",
        0.0
      ],
      [
        "<0xF5>",
        0.0
      ],
      [
        "<0xF6>",
        0.0
      ],
      [
        "<0xF7>",
        0.0
      ],
      [
        "<0xF8>",
        0.0
      ],
      [
        "<0xF9>",
        0.0
      ],
      [
        "<0xFA>",
        0.0
      ],
      [
        "<0xFB>",
        0.0
      ],
      [
        "<0xFC>",
        0.0
      ],
      [
        "<0xFD>",
        0.0
      ],
      [
        "<0xFE>",
        0.0
      ],
      [
        "<0xFF>",
        0.0
      ],
      [
        ",",
        -2.973977565765381
      ],
      [
        ".",
        -3.2476613521575928
      ],
      [
        "▁",
        -3.4401795864105225
      ],
      [
        "▁в",
        -4.087862014770508
      ],
      [
        "▁и",
        -4.1693830490112305
      ],
      [
        "1",
        -4.522435665130615
      ],
      [
        "а",
        -4.732554912567139
      ],
      [
        "-",
        -4.8226118087768555
      ],
      [
        "▁на",
        -4.869441032409668
      ],
      [
        "0",
        -4.879236698150635
      ],
      [
        "▁the",
        -4.936968803405762
      ],
      [
        "▁с",
        -5.04235315322876
      ],
      [
        "2",
        -5.076874732971191
      ],
      [
        "▁не",
        -5.103733539581299
      ],
      [
        "9",
        -5.209804058074951
      ],
      [
        "е",
        -5.221883296966553
      ],
      [
        "s",
        -5.27048397064209
      ],
      [
        "▁-",
        -5.329052448272705
      ],
      [
        "▁\"",
        -5.341629981994629
      ],
      [
        "и",
        -5.4053955078125
      ],
      [
        "▁что",
        -5.504108428955078
      ],
      [
        "▁по",
        -5.5408430099487305
      ],
      [
        "▁of",
        -5.572776794433594
      ],
      [
        "▁(",
        -5.645733833312988
      ],
      [
        "▁В",
        -5.69200325012207
      ],
      [
        "▁and",
        -5.698183536529541
      ],
      [
        "3",
        -5.7047505378723145
      ],
      [
        "у",
        -5.708401679992676
      ],
      [
        "ы",
        -5.712732791900635
      ],
      [
        "5",
        -5.727492809295654
      ],
      [
        ":",
        -5.747357368469238
      ],
      [
        "м",
        -5.75913667678833
      ],
      [
        "8",
        -5.768804550170898
      ],
      [
        "4",
        -5.781132698059082
      ],
      [
        "\"",
        -5.825145244598389
      ],
      [
        "▁in",
        -5.87913703918457
      ],
      [
        "▁to",
        -5.909356117248535
      ],
      [
        "▁к",
        -5.910240173339844
      ],
      [
        "6",
        -5.930429935455322
      ],
      [
        "▁из",
        -5.9565300941467285
      ],
      [
        "7",
        -5.962141513824463
      ],
      [
        "ом",
        -6.0126423835754395
      ],
      [
        "▁за",
        -6.0362372398376465
      ],
      [
        "▁от",
        -6.041112422943115
      ],
      [
        "▁a",
        -6.041862964630127
      ],
      [
        "о",
        -6.069092750549316
      ],
      [
        "▁как",
        -6.086609840393066
      ],
      [
        "ов",
        -6.153210163116455
      ],
      [
        ")",
        -6.168285369873047
      ],
      [
        "▁о",
        -6.238747596740723
      ],
      [
        "▁—",
        -6.261721611022949
      ],
      [
        "▁«",
        -6.2867631912231445
      ],
      [
        "▁а",
        -6.300959587097168
      ],
      [
        "▁его",
        -6.306222438812256
      ],
      [
        "▁для",
        -6.326748847961426
      ],
      [
        "й",
        -6.326759338378906
      ],
      [
        "х",
        -6.350765228271484
      ],
      [
        "▁у",
        -6.405783176422119
      ],
      [
        ";",
        -6.426083564758301
      ],
      [
        "▁он",
        -6.438242435455322
      ],
      [
        "я",
        -6.531003952026367
      ],
      [
        "▁при",
        -6.552045822143555
      ],
      [
        "'",
        -6.5615410804748535
      ],
      [
        "▁это",
        -6.563039302825928
      ],
      [
        "▁до",
        -6.587923049926758
      ],
      [
        "▁was",
        -6.60459041595459
      ],
      [
        "ой",
        -6.645517826080322
      ],
      [
        "▁года",
        -6.652337551116943
      ],
      [
        "▁но",
        -6.674572467803955
      ],
      [
        "▁или",
        -6.697575569152832
      ],
      [
        "▁был",
        -6.724818706512451
      ],
      [
        "▁же",
        -6.735495090484619
      ],
      [
        "▁С",
        -6.735919952392578
      ],
      [
        "▁я",
        -6.7429518699646
      ],
      [
        "ных",
        -6.775058269500732
      ],
      [
        "ся",
        -6.799324989318848
      ],
      [
        "▁все",
        -6.8026018142700195
      ],
      [
        "▁то",
        -6.80464506149292
      ],
      [
        "ми",
        -6.814630508422852
      ],
      [
        "ные",
        -6.81670618057251
      ],
      [
        "ный",
        -6.816728591918945
      ],
      [
        "▁А",
        -6.840409755706787
      ],
      [
        "▁The",
        -6.854642868041992
      ],
      [
        "▁И",
        -6.861832141876221
      ],
      [
        "ной",
        -6.865728855133057
      ],
      [
        "?",
        -6.8658342361450195
      ],
      [
        "ами",
        -6.874608993530273
      ],
      [
        "▁было",
        -6.885946750640869
      ],
      [
        "▁под",
        -6.9140448570251465
      ],
      [
        "»",
        -6.917275905609131
      ],
      [
        "▁for",
        -6.923191070556641
      ],
      [
        "го",
        -6.941734790802002
      ],
      [
        "\".",
        -6.950217247009277
      ],
      [
        "▁так",
        -6.955018043518066
      ],
      [
        "ю",
        -6.959039688110352
      ],
      [
        "▁вы",
        -6.96843957901001
      ],
      [
        "▁их",
        -6.982686996459961
      ],
      [
        "▁году",
        -7.0038981437683105
      ],
      [
        "то",
        -7.010036468505859
      ],
      [
        ").",
        -7.012142658233643
      ],
      [
        "▁as",
        -7.043517112731934
      ],
      [
        "\",",
        -7.0600762367248535
      ],
      [
        "▁on",
        -7.068676948547363
      ],
      [
        "ного",
        -7.071853160858154
      ],
      [
        "▁with",
        -7.07225227355957
      ],
      [
        "▁that",
        -7.079703330993652
      ],
      [
        "▁is",
        -7.104428291320801
      ],
      [
        "▁только",
        -7.107116222381592
      ],
      [
        "ка",
        -7.116204261779785
      ],
      [
        "ed",
        -7.120011329650879
      ],
      [
        "ная",
        -7.172204494476318
      ],
      [
        "ки",
        -7.172253608703613
      ],
      [
        "ing",
        -7.178081512451172
      ],
      [
        "▁На",
        -7.185019016265869
      ],
      [
        "с",
        -7.192612648010254
      ],
      [
        "▁by",
        -7.19679594039917
      ],
      [
        "!",
        -7.198123455047607
      ],
      [
        "но",
        -7.206197738647461
      ],
      [
        "▁время",
        -7.206202030181885
      ],
      [
        "▁бы",
        -7.217010974884033
      ],
      [
        "),",
        -7.2261576652526855
      ],
      [
        "▁мы",
        -7.231203556060791
      ],
      [
        "▁со",
        -7.239559650421143
      ],
      [
        "▁По",
        -7.243609428405762
      ],
      [
        "ет",
        -7.260683536529541
      ],
      [
        "▁они",
        -7.2638983726501465
      ],
      [
        "▁Но",
        -7.276208877563477
      ],
      [
        "▁были",
        -7.2777838706970215
      ],
      [
        "ли",
        -7.286960601806641
      ],
      [
        "▁во",
        -7.300333023071289
      ],
      [
        "ным",
        -7.310461521148682
      ],
      [
        "▁раз",
        -7.310748100280762
      ],
      [
        "▁чтобы",
        -7.337175369262695
      ],
      [
        "ого",
        -7.3398518562316895
      ],
      [
        "ах",
        -7.344931125640869
      ],
      [
        "▁г",
        -7.345259666442871
      ],
      [
        "...",
        -7.345645427703857
      ],
      [
        "▁про",
        -7.360654354095459
      ],
      [
        "в",
        -7.373878002166748
      ],
      [
        "ая",
        -7.379256725311279
      ],
      [
        "▁уже",
        -7.393244743347168
      ],
      [
        "▁также",
        -7.399458885192871
      ],
      [
        "▁когда",
        -7.413145065307617
      ],
      [
        "на",
        -7.413575172424316
      ],
      [
        "/",
        -7.415847301483154
      ],
      [
        "▁была",
        -7.426032543182373
      ],
      [
        "л",
        -7.441327095031738
      ],
      [
        "▁his",
        -7.446577548980713
      ],
      [
        "▁Я",
        -7.452594757080078
      ],
      [
        "▁которые",
        -7.461065769195557
      ],
      [
        "▁at",
        -7.467648506164551
      ],
      [
        "▁К",
        -7.467921257019043
      ],
      [
        "▁того",
        -7.478357315063477
      ],
      [
        "▁from",
        -7.481766700744629
      ],
      [
        "ия",
        -7.4827446937561035
      ],
      [
        "▁об",
        -7.48520040512085
      ],
      [
        "▁ее",
        -7.487234115600586
      ],
      [
        "ть",
        -7.487889766693115
      ],
      [
        "▁может",
        -7.506584644317627
      ],
      [
        "ий",
        -7.524300575256348
      ],
      [
        "ых",
        -7.527352809906006
      ],
      [
        "▁том",
        -7.527547836303711
      ],
      [
        "ное",
        -7.528339862823486
      ],
      [
        "т",
        -7.533102512359619
      ],
      [
        "▁этом",
        -7.533875465393066
      ],
      [
        "d",
        -7.535219669342041
      ],
      [
        "▁более",
        -7.541905879974365
      ],
      [
        "ную",
        -7.5572614669799805
      ],
      [
        "▁она",
        -7.560238361358643
      ],
      [
        "▁In",
        -7.561650276184082
      ],
      [
        "▁еще",
        -7.561849117279053
      ],
      [
        "▁если",
        -7.565731525421143
      ],
      [
        "▁после",
        -7.573470592498779
      ],
      [
        "▁he",
        -7.602108955383301
      ],
      [
        "ые",
        -7.60444974899292
      ],
      [
        "▁У",
        -7.60649299621582
      ],
      [
        "▁быть",
        -7.607613563537598
      ],
      [
        "▁этого",
        -7.622209072113037
      ],
      [
        "».",
        -7.622533798217773
      ],
      [
        "ского",
        -7.625167369842529
      ],
      [
        "▁который",
        -7.633274555206299
      ],
      [
        "▁можно",
        -7.63553524017334
      ],
      [
        "ие",
        -7.637548923492432
      ],
      [
        "за",
        -7.63853645324707
      ],
      [
        "▁есть",
        -7.65303897857666
      ],
      [
        "ый",
        -7.656522274017334
      ],
      [
        "e",
        -7.6696457862854
      ],
      [
        "▁М",
        -7.671842098236084
      ],
      [
        "▁где",
        -7.673341751098633
      ],
      [
        "ей",
        -7.673733234405518
      ],
      [
        "ем",
        -7.676681995391846
      ],
      [
        "ской",
        -7.678065776824951
      ],
      [
        "▁Он",
        -7.682606220245361
      ],
      [
        "ам",
        -7.683466911315918
      ],
      [
        "ский",
        -7.685466766357422
      ],
      [
        "▁чем",
        -7.687661170959473
      ],
      [
        "ии",
        -7.697643280029297
      ],
      [
        "ку",
        -7.698207378387451
      ],
      [
        "▁ни",
        -7.711524963378906
      ],
      [
        "▁без",
        -7.7179341316223145
      ],
      [
        "▁будет",
        -7.724401950836182
      ],
      [
        "▁were",
        -7.7278642654418945
      ],
      [
        "t",
        -7.7326765060424805
      ],
      [
        "ь",
        -7.736602783203125
      ],
      [
        "▁лет",
        -7.751030921936035
      ],
      [
        "▁Это",
        -7.766973495483398
      ],
      [
        "er",
        -7.767977237701416
      ],
      [
        "▁an",
        -7.779255390167236
      ],
      [
        "▁пере",
        -7.791537761688232
      ],
      [
        "▁даже",
        -7.810451030731201
      ],
      [
        "▁Не",
        -7.812662124633789
      ],
      [
        "▁При",
        -7.815176963806152
      ],
      [
        "▁ли",
        -7.819155216217041
      ],
      [
        "▁it",
        -7.824034214019775
      ],
      [
        "▁меня",
        -7.825182914733887
      ],
      [
        "▁очень",
        -7.828375816345215
      ],
      [
        "▁тем",
        -7.828988552093506
      ],
      [
        "▁себя",
        -7.8531036376953125
      ],
      [
        "]",
        -7.855563163757324
      ],
      [
        "ном",
        -7.8654632568359375
      ],
      [
        "▁ему",
        -7.867010593414307
      ],
      [
        "▁be",
        -7.867887020111084
      ],
      [
        "»,",
        -7.869356155395508
      ],
      [
        "ым",
        -7.871912479400635
      ],
      [
        "▁О",
        -7.872868061065674
      ],
      [
        "▁мне",
        -7.882339000701904
      ],
      [
        "▁них",
        -7.88284158706665
      ],
      [
        "ly",
        -7.8921284675598145
      ],
      [
        "▁т",
        -7.895586967468262
      ],
      [
        "▁A",
        -7.897380828857422
      ],
      [
        "ла",
        -7.8986334800720215
      ],
      [
        "н",
        -7.8996171951293945
      ],
      [
        "a",
        -7.903660297393799
      ],
      [
        "ными",
        -7.905223846435547
      ],
      [
        "ок",
        -7.906696796417236
      ],
      [
        "n",
        -7.910083770751953
      ],
      [
        "▁За",
        -7.91249418258667
      ],
      [
        "▁I",
        -7.912745475769043
      ],
      [
        "▁had",
        -7.915306568145752
      ],
      [
        "ую",
        -7.9197998046875
      ],
      [
        "не",
        -7.928637504577637
      ],
      [
        "к",
        -7.937277317047119
      ],
      [
        "▁which",
        -7.945707321166992
      ],
      [
        "ию",
        -7.946321964263916
      ],
      [
        "ют",
        -7.959916591644287
      ],
      [
        "y",
        -7.9676513671875
      ],
      [
        "▁между",
        -7.972162246704102
      ],
      [
        "▁человек",
        -7.976071834564209
      ],
      [
        "В",
        -7.990115642547607
      ],
      [
        "▁всех",
        -7.994102478027344
      ],
      [
        "▁are",
        -7.997420787811279
      ],
      [
        "ется",
        -8.00496768951416
      ],
      [
        "ке",
        -8.011969566345215
      ],
      [
        "▁всего",
        -8.020541191101074
      ],
      [
        "▁России",
        -8.027958869934082
      ],
      [
        "▁один",
        -8.032729148864746
      ],
      [
        "д",
        -8.037315368652344
      ],
      [
        "▁жизни",
        -8.04334545135498
      ],
      [
        "▁Если",
        -8.054277420043945
      ],
      [
        "▁П",
        -8.060437202453613
      ],
      [
        "▁через",
        -8.064453125
      ],
      [
        "▁этой",
        -8.067655563354492
      ],
      [
        "ить",
        -8.07082462310791
      ],
      [
        "▁Как",
        -8.084770202636719
      ],
      [
        "▁этот",
        -8.089838981628418
      ],
      [
        "им",
        -8.09608268737793
      ],
      [
        "▁нас",
        -8.106806755065918
      ],
      [
        "▁Г",
        -8.10787296295166
      ],
      [
        "▁является",
        -8.124859809875488
      ],
      [
        "▁него",
        -8.12732982635498
      ],
      [
        "i",
        -8.129993438720703
      ],
      [
        "▁or",
        -8.131168365478516
      ],
      [
        "▁своей",
        -8.132594108581543
      ],
      [
        "▁несколько",
        -8.136995315551758
      ],
      [
        "му",
        -8.138819694519043
      ],
      [
        "ое",
        -8.144944190979004
      ],
      [
        "▁He",
        -8.158849716186523
      ],
      [
        "_",
        -8.160815238952637
      ],
      [
        "▁S",
        -8.165397644042969
      ],
      [
        "%",
        -8.172611236572266
      ],
      [
        "▁которых",
        -8.176480293273926
      ],
      [
        "лись",
        -8.182896614074707
      ],
      [
        "▁n",
        -8.186917304992676
      ],
      [
        "▁нет",
        -8.187088966369629
      ],
      [
        "▁not",
        -8.19189739227295
      ],
      [
        "ит",
        -8.194583892822266
      ],
      [
        "al",
        -8.195324897766113
      ],
      [
        "▁над",
        -8.197218894958496
      ],
      [
        "▁им",
        -8.19749641418457
      ],
      [
        "p",
        -8.197690963745117
      ],
      [
        "сти",
        -8.199556350708008
      ],
      [
        "▁себе",
        -8.202841758728027
      ],
      [
        "▁больше",
        -8.209321022033691
      ],
      [
        "▁кто",
        -8.209671020507812
      ],
      [
        "▁эти",
        -8.215267181396484
      ],
      [
        "es",
        -8.22965145111084
      ],
      [
        "▁много",
        -8.231301307678223
      ],
      [
        "▁[",
        -8.237287521362305
      ],
      [
        "▁their",
        -8.240129470825195
      ],
      [
        "ская",
        -8.241556167602539
      ],
      [
        "th",
        -8.24239730834961
      ],
      [
        "▁лишь",
        -8.24343204498291
      ],
      [
        "их",
        -8.27210807800293
      ],
      [
        "▁also",
        -8.272385597229004
      ],
      [
        "▁которая",
        -8.28015422821045
      ],
      [
        "▁просто",
        -8.281978607177734
      ],
      [
        "(",
        -8.284186363220215
      ],
      [
        "▁времени",
        -8.28468132019043
      ],
      [
        "▁стал",
        -8.291841506958008
      ],
      [
        "по",
        -8.299683570861816
      ],
      [
        "▁После",
        -8.300817489624023
      ],
      [
        "▁человека",
        -8.301340103149414
      ],
      [
        "С",
        -8.30165958404541
      ],
      [
        "▁but",
        -8.303476333618164
      ],
      [
        "ло",
        -8.308130264282227
      ],
      [
        "o",
        -8.309637069702148
      ],
      [
        "ен",
        -8.311786651611328
      ],
      [
        "▁her",
        -8.318924903869629
      ],
      [
        "▁свою",
        -8.321493148803711
      ],
      [
        "▁которой",
        -8.327893257141113
      ],
      [
        "▁Так",
        -8.328653335571289
      ],
      [
        "▁людей",
        -8.331131935119629
      ],
      [
        "▁других",
        -8.332118034362793
      ],
      [
        "▁против",
        -8.335738182067871
      ],
      [
        "▁области",
        -8.33637809753418
      ],
      [
        "▁has",
        -8.337026596069336
      ],
      [
        "▁have",
        -8.337725639343262
      ],
      [
        "▁перед",
        -8.338545799255371
      ],
      [
        "ском",
        -8.343568801879883
      ],
      [
        "▁first",
        -8.354082107543945
      ],
      [
        "▁своих",
        -8.354488372802734
      ],
      [
        "ны",
        -8.357471466064453
      ],
      [
        "ться",
        -8.359082221984863
      ],
      [
        "▁два",
        -8.362442970275879
      ],
      [
        "п",
        -8.37307357788086
      ],
      [
        "▁this",
        -8.377556800842285
      ],
      [
        "▁там",
        -8.381035804748535
      ],
      [
        "▁образом",
        -8.38263988494873
      ],
      [
        "▁Однако",
        -8.384288787841797
      ],
      [
        "та",
        -8.385643005371094
      ],
      [
        "р",
        -8.387528419494629
      ],
      [
        "▁Б",
        -8.38955020904541
      ],
      [
        "лся",
        -8.394293785095215
      ],
      [
        "от",
        -8.3959321975708
      ],
      [
        "ских",
        -8.398755073547363
      ],
      [
        "▁могут",
        -8.40290355682373
      ],
      [
        "▁Д",
        -8.403825759887695
      ],
      [
        "▁Н",
        -8.406155586242676
      ],
      [
        "in",
        -8.406660079956055
      ],
      [
        "ность",
        -8.408801078796387
      ],
      [
        "б",
        -8.412459373474121
      ],
      [
        "ются",
        -8.41376781463623
      ],
      [
        "▁день",
        -8.41654109954834
      ],
      [
        "▁год",
        -8.423871040344238
      ],
      [
        "ни",
        -8.42496109008789
      ],
      [
        "▁Для",
        -8.42516040802002
      ],
      [
        "▁one",
        -8.438272476196289
      ],
      [
        "А",
        -8.438456535339355
      ],
      [
        "▁этих",
        -8.438546180725098
      ],
      [
        "▁случае",
        -8.441704750061035
      ],
      [
        "или",
        -8.442420959472656
      ],
      [
        "▁Вы",
        -8.445394515991211
      ],
      [
        "▁who",
        -8.447020530700684
      ],
      [
        "▁своего",
        -8.451684951782227
      ],
      [
        "ские",
        -8.469707489013672
      ],
      [
        "▁Т",
        -8.473651885986328
      ],
      [
        "ин",
        -8.480147361755371
      ],
      [
        "▁No",
        -8.49055290222168
      ],
      [
        "▁войны",
        -8.496525764465332
      ],
      [
        "ъ",
        -8.498854637145996
      ],
      [
        "▁ты",
        -8.500161170959473
      ],
      [
        "▁Ф",
        -8.50422191619873
      ],
      [
        "▁its",
        -8.504727363586426
      ],
      [
        "▁свои",
        -8.507027626037598
      ],
      [
        "▁двух",
        -8.511245727539062
      ],
      [
        "сть",
        -8.512752532958984
      ],
      [
        "▁части",
        -8.516509056091309
      ],
      [
        "ности",
        -8.516571998596191
      ],
      [
        "▁рас",
        -8.517313957214355
      ],
      [
        "▁Все",
        -8.520625114440918
      ],
      [
        "кой",
        -8.522239685058594
      ],
      [
        "S",
        -8.523771286010742
      ],
      [
        "▁её",
        -8.52460765838623
      ],
      [
        "▁всегда",
        -8.525934219360352
      ],
      [
        "лась",
        -8.530024528503418
      ],
      [
        "▁сам",
        -8.532423973083496
      ],
      [
        "▁потому",
        -8.532562255859375
      ],
      [
        "▁been",
        -8.537032127380371
      ],
      [
        "▁they",
        -8.542710304260254
      ],
      [
        "▁работы",
        -8.543582916259766
      ],
      [
        "▁часть",
        -8.544853210449219
      ],
      [
        "▁место",
        -8.545815467834473
      ],
      [
        "г",
        -8.551179885864258
      ],
      [
        "▁которого",
        -8.553399085998535
      ],
      [
        "▁тот",
        -8.557129859924316
      ],
      [
        "▁здесь",
        -8.558184623718262
      ],
      [
        "▁тогда",
        -8.558587074279785
      ],
      [
        "▁Мы",
        -8.561930656433105
      ],
      [
        "r",
        -8.563764572143555
      ],
      [
        "▁вот",
        -8.570005416870117
      ],
      [
        "▁P",
        -8.57431697845459
      ],
      [
        "▁–",
        -8.577082633972168
      ],
      [
        "▁три",
        -8.577727317810059
      ],
      [
        "▁C",
        -8.58163070678711
      ],
      [
        "▁нужно",
        -8.583147048950195
      ],
      [
        "ков",
        -8.583420753479004
      ],
      [
        "▁Л",
        -8.58696174621582
      ],
      [
        "ш",
        -8.588521957397461
      ],
      [
        "ят",
        -8.596900939941406
      ],
      [
        "▁собой",
        -8.597553253173828
      ],
      [
        "ния",
        -8.60201358795166
      ],
      [
        "ко",
        -8.602869033813477
      ],
      [
        "ил",
        -8.603963851928711
      ],
      [
        "ись",
        -8.606167793273926
      ],
      [
        "▁СССР",
        -8.607993125915527
      ],
      [
        "▁тех",
        -8.60838508605957
      ],
      [
        "▁Когда",
        -8.612557411193848
      ],
      [
        "▁нам",
        -8.6203031539917
      ],
      [
        "ч",
        -8.621112823486328
      ],
      [
        "▁мира",
        -8.621919631958008
      ],
      [
        "▁Во",
        -8.623139381408691
      ],
      [
        "▁именно",
        -8.623502731323242
      ],
      [
        "▁two",
        -8.625337600708008
      ],
      [
        "▁одной",
        -8.627805709838867
      ],
      [
        "▁те",
        -8.634438514709473
      ],
      [
        "▁хотя",
        -8.636224746704102
      ],
      [
        "▁Они",
        -8.641050338745117
      ],
      [
        "▁США",
        -8.643836975097656
      ],
      [
        "—",
        -8.647956848144531
      ],
      [
        "▁ним",
        -8.650188446044922
      ],
      [
        "▁сказал",
        -8.650370597839355
      ],
      [
        "▁стороны",
        -8.6536226272583
      ],
      [
        "m",
        -8.654167175292969
      ],
      [
        "он",
        -8.654434204101562
      ],
      [
        "▁B",
        -8.655259132385254
      ],
      [
        "▁почти",
        -8.65865707397461
      ],
      [
        "▁вместе",
        -8.658990859985352
      ],
      [
        "▁такой",
        -8.663386344909668
      ],
      [
        "▁Да",
        -8.667047500610352
      ],
      [
        "▁жизнь",
        -8.66746997833252
      ],
      [
        "▁Из",
        -8.669538497924805
      ],
      [
        "b",
        -8.670110702514648
      ],
      [
        "О",
        -8.677250862121582
      ],
      [
        "ние",
        -8.678032875061035
      ],
      [
        "▁re",
        -8.678350448608398
      ],
      [
        "▁all",
        -8.679022789001465
      ],
      [
        "or",
        -8.680971145629883
      ],
      [
        "▁люди",
        -8.683195114135742
      ],
      [
        "▁около",
        -8.685746192932129
      ],
      [
        "те",
        -8.68662166595459
      ],
      [
        "да",
        -8.687966346740723
      ],
      [
        "ыми",
        -8.689894676208496
      ],
      [
        "▁затем",
        -8.689946174621582
      ],
      [
        "▁города",
        -8.69128704071045
      ],
      [
        "c",
        -8.695917129516602
      ],
      [
        "▁имеет",
        -8.69876480102539
      ],
      [
        "▁would",
        -8.705780982971191
      ],
      [
        "▁должны",
        -8.705988883972168
      ],
      [
        "▁должен",
        -8.714099884033203
      ],
      [
        "ское",
        -8.716123580932617
      ],
      [
        "▁надо",
        -8.717500686645508
      ],
      [
        "ев",
        -8.720081329345703
      ],
      [
        "▁другие",
        -8.720843315124512
      ],
      [
        "М",
        -8.720995903015137
      ],
      [
        "▁да",
        -8.722506523132324
      ],
      [
        "▁into",
        -8.728682518005371
      ],
      [
        "▁ничего",
        -8.728796005249023
      ],
      [
        "▁after",
        -8.731673240661621
      ],
      [
        "[",
        -8.732049942016602
      ],
      [
        "▁time",
        -8.735625267028809
      ],
      [
        "вер",
        -8.7373685836792
      ],
      [
        "▁чего",
        -8.737560272216797
      ],
      [
        "▁other",
        -8.740411758422852
      ],
      [
        "К",
        -8.74746036529541
      ],
      [
        "▁she",
        -8.749025344848633
      ],
      [
        "▁другой",
        -8.754205703735352
      ],
      [
        "▁out",
        -8.75793170928955
      ],
      [
        "▁тоже",
        -8.759527206420898
      ],
      [
        "▁Про",
        -8.761933326721191
      ],
      [
        "▁Что",
        -8.762685775756836
      ],
      [
        "ком",
        -8.762961387634277
      ],
      [
        "▁ней",
        -8.76435375213623
      ],
      [
        "▁теперь",
        -8.775209426879883
      ],
      [
        "▁de",
        -8.775458335876465
      ],
      [
        ");",
        -8.775494575500488
      ],
      [
        "▁пока",
        -8.776671409606934
      ],
      [
        "▁over",
        -8.776742935180664
      ],
      [
        "▁качестве",
        -8.789778709411621
      ],
      [
        "▁которое",
        -8.790600776672363
      ],
      [
        "▁потом",
        -8.79098892211914
      ],
      [
        "▁F",
        -8.793783187866211
      ],
      [
        "▁вас",
        -8.794816017150879
      ],
      [
        "▁It",
        -8.79686450958252
      ],
      [
        "▁E",
        -8.797889709472656
      ],
      [
        "▁п",
        -8.798280715942383
      ],
      [
        "k",
        -8.799311637878418
      ],
      [
        "▁д",
        -8.801247596740723
      ],
      [
        "▁одного",
        -8.801361083984375
      ],
      [
        "▁свой",
        -8.802762031555176
      ],
      [
        "▁одно",
        -8.803914070129395
      ],
      [
        "▁дело",
        -8.805362701416016
      ],
      [
        "▁/",
        -8.809327125549316
      ],
      [
        "▁связи",
        -8.81931209564209
      ],
      [
        "скую",
        -8.819779396057129
      ],
      [
        "▁м",
        -8.820058822631836
      ],
      [
        "▁часто",
        -8.822237014770508
      ],
      [
        "▁де",
        -8.82239818572998
      ],
      [
        "▁more",
        -8.826567649841309
      ],
      [
        "▁up",
        -8.829246520996094
      ],
      [
        "x",
        -8.829432487487793
      ],
      [
        "▁вам",
        -8.831305503845215
      ],
      [
        "C",
        -8.831809043884277
      ],
      [
        "▁однако",
        -8.83275318145752
      ],
      [
        "▁Она",
        -8.833072662353516
      ],
      [
        "ному",
        -8.834334373474121
      ],
      [
        "▁будут",
        -8.834517478942871
      ],
      [
        "▁истории",
        -8.836938858032227
      ],
      [
        "▁менее",
        -8.83759593963623
      ],
      [
        "▁=",
        -8.839914321899414
      ],
      [
        "▁конце",
        -8.840250015258789
      ],
      [
        "▁мир",
        -8.84054946899414
      ],
      [
        "▁От",
        -8.844353675842285
      ],
      [
        "▁him",
        -8.84443473815918
      ],
      [
        "▁состав",
        -8.846306800842285
      ],
      [
        "▁Р",
        -8.846851348876953
      ],
      [
        "▁R",
        -8.847234725952148
      ],
      [
        "ля",
        -8.848722457885742
      ],
      [
        "ль",
        -8.849662780761719
      ],
      [
        "ц",
        -8.851521492004395
      ],
      [
        "▁when",
        -8.851693153381348
      ],
      [
        "ство",
        -8.85265827178955
      ],
      [
        "f",
        -8.855169296264648
      ],
      [
        "▁До",
        -8.85584545135498
      ],
      [
        "▁среди",
        -8.857439994812012
      ],
      [
        "ф",
        -8.85982894897461
      ],
      [
        "лось",
        -8.860233306884766
      ],
      [
        "ers",
        -8.861605644226074
      ],
      [
        "▁период",
        -8.862489700317383
      ],
      [
        "ось",
        -8.863499641418457
      ],
      [
        "▁D",
        -8.866680145263672
      ],
      [
        "ion",
        -8.868354797363281
      ],
      [
        "▁всем",
        -8.868551254272461
      ],
      [
        "u",
        -8.87083625793457
      ],
      [
        "И",
        -8.871294975280762
      ],
      [
        "re",
        -8.872512817382812
      ],
      [
        "▁Об",
        -8.87309741973877
      ],
      [
        "▁годы",
        -8.875362396240234
      ],
      [
        "▁T",
        -8.880253791809082
      ],
      [
        "▁например",
        -8.883708953857422
      ],
      [
        "ник",
        -8.883995056152344
      ],
      [
        "▁века",
        -8.88444995880127
      ],
      [
        "▁тому",
        -8.884566307067871
      ],
      [
        "ским",
        -8.888297080993652
      ],
      [
        "▁стали",
        -8.890299797058105
      ],
      [
        "▁мог",
        -8.891301155090332
      ],
      [
        "П",
        -8.893501281738281
      ],
      [
        "овой",
        -8.894960403442383
      ],
      [
        "ась",
        -8.895806312561035
      ],
      [
        "▁new",
        -8.900219917297363
      ],
      [
        "▁свое",
        -8.904487609863281
      ],
      [
        "Г",
        -8.90552043914795
      ],
      [
        "▁can",
        -8.906084060668945
      ],
      [
        "▁этим",
        -8.906332015991211
      ],
      [
        "▁тут",
        -8.90751838684082
      ],
      [
        "ение",
        -8.907751083374023
      ],
      [
        "▁котором",
        -8.911226272583008
      ],
      [
        "ясь",
        -8.911565780639648
      ],
      [
        "▁эту",
        -8.912222862243652
      ],
      [
        "ж",
        -8.912351608276367
      ],
      [
        "ец",
        -8.913773536682129
      ],
      [
        "us",
        -8.917614936828613
      ],
      [
        "до",
        -8.917680740356445
      ],
      [
        "▁км",
        -8.919682502746582
      ],
      [
        "▁пор",
        -8.92092514038086
      ],
      [
        "▁какой",
        -8.923930168151855
      ],
      [
        "▁Его",
        -8.926939964294434
      ],
      [
        "▁своим",
        -8.927083015441895
      ],
      [
        "з",
        -8.927351951599121
      ],
      [
        "▁момент",
        -8.9291410446167
      ],
      [
        "▁N",
        -8.932880401611328
      ],
      [
        "ic",
        -8.934356689453125
      ],
      [
        "▁хорошо",
        -8.934708595275879
      ],
      [
        "l",
        -8.934720993041992
      ],
      [
        "из",
        -8.937088966369629
      ],
      [
        "▁Вот",
        -8.937649726867676
      ],
      [
        "▁M",
        -8.937687873840332
      ],
      [
        "D",
        -8.938692092895508
      ],
      [
        "▁G",
        -8.939745903015137
      ],
      [
        "A",
        -8.940042495727539
      ],
      [
        "h",
        -8.940152168273926
      ],
      [
        "Я",
        -8.942886352539062
      ],
      [
        "ения",
        -8.943346977233887
      ],
      [
        "g",
        -8.943877220153809
      ],
      [
        "Б",
        -8.947366714477539
      ],
      [
        "▁сейчас",
        -8.947405815124512
      ],
      [
        "▁системы",
        -8.948054313659668
      ],
      [
        "▁эта",
        -8.948198318481445
      ],
      [
        "Н",
        -8.94882869720459
      ],
      [
        "ман",
        -8.949471473693848
      ],
      [
        "ать",
        -8.950735092163086
      ],
      [
        "▁Под",
        -8.952349662780762
      ],
      [
        "▁вопрос",
        -8.953009605407715
      ],
      [
        "▁On",
        -8.953012466430664
      ],
      [
        "▁страны",
        -8.95475959777832
      ],
      [
        "on",
        -8.955975532531738
      ],
      [
        "ова",
        -8.956267356872559
      ],
      [
        "en",
        -8.958988189697266
      ],
      [
        "▁W",
        -8.959214210510254
      ],
      [
        "ер",
        -8.960524559020996
      ],
      [
        "▁ещё",
        -8.96129035949707
      ],
      [
        "ив",
        -8.96291446685791
      ],
      [
        "▁др",
        -8.963709831237793
      ],
      [
        "man",
        -8.965635299682617
      ],
      [
        "▁Ш",
        -8.966567993164062
      ],
      [
        "▁всё",
        -8.968572616577148
      ],
      [
        "▁слова",
        -8.969965934753418
      ],
      [
        "ле",
        -8.970621109008789
      ],
      [
        "▁первый",
        -8.975034713745117
      ],
      [
        "▁ко",
        -8.975154876708984
      ],
      [
        "▁сделать",
        -8.976310729980469
      ],
      [
        "▁друг",
        -8.9771089553833
      ],
      [
        "ди",
        -8.980224609375
      ],
      [
        "▁таких",
        -8.980600357055664
      ],
      [
        "га",
        -8.982254028320312
      ],
      [
        "ва",
        -8.98676872253418
      ],
      [
        "▁числе",
        -8.987099647521973
      ],
      [
        "Д",
        -8.994860649108887
      ],
      [
        "▁результате",
        -8.996356010437012
      ],
      [
        "вы",
        -8.99651050567627
      ],
      [
        "▁течение",
        -9.000892639160156
      ],
      [
        "У",
        -9.000995635986328
      ],
      [
        "▁власти",
        -9.00121021270752
      ],
      [
        "▁особенно",
        -9.005578994750977
      ],
      [
        "B",
        -9.008321762084961
      ],
      [
        "▁армии",
        -9.010407447814941
      ],
      [
        "мер",
        -9.01120662689209
      ],
      [
        "▁оно",
        -9.011880874633789
      ],
      [
        "code",
        -9.012381553649902
      ],
      [
        "цы",
        -9.014906883239746
      ],
      [
        "Ф",
        -9.01683521270752
      ],
      [
        "▁Э",
        -9.017050743103027
      ],
      [
        "са",
        -9.021759986877441
      ],
      [
        "ну",
        -9.02530288696289
      ],
      [
        "▁only",
        -9.026286125183105
      ],
      [
        "▁сразу",
        -9.029295921325684
      ],
      [
        "z",
        -9.029522895812988
      ],
      [
        "▁поэтому",
        -9.029706954956055
      ],
      [
        "▁которую",
        -9.031606674194336
      ],
      [
        "ра",
        -9.036128044128418
      ],
      [
        "ти",
        -9.039606094360352
      ],
      [
        "▁II",
        -9.0416259765625
      ],
      [
        "▁тысяч",
        -9.044530868530273
      ],
      [
        "▁помощью",
        -9.044855117797852
      ],
      [
        "де",
        -9.045504570007324
      ],
      [
        "ость",
        -9.047740936279297
      ],
      [
        "ты",
        -9.048476219177246
      ],
      [
        "▁K",
        -9.04909896850586
      ],
      [
        "▁about",
        -9.049162864685059
      ],
      [
        "▁New",
        -9.050912857055664
      ],
      [
        "▁такие",
        -9.051107406616211
      ],
      [
        "ре",
        -9.054265022277832
      ],
      [
        "▁сказать",
        -9.054779052734375
      ],
      [
        "▁следует",
        -9.055681228637695
      ],
      [
        "▁никогда",
        -9.056218147277832
      ],
      [
        "▁город",
        -9.058853149414062
      ],
      [
        "▁years",
        -9.060370445251465
      ],
      [
        "овых",
        -9.06052303314209
      ],
      [
        "▁получил",
        -9.060567855834961
      ],
      [
        "▁This",
        -9.062227249145508
      ],
      [
        "ства",
        -9.062860488891602
      ],
      [
        "нибудь",
        -9.06318187713623
      ],
      [
        "▁само",
        -9.063608169555664
      ],
      [
        "▁виде",
        -9.065592765808105
      ],
      [
        "при",
        -9.069722175598145
      ],
      [
        "ости",
        -9.069845199584961
      ],
      [
        "ма",
        -9.070389747619629
      ],
      [
        "ту",
        -9.073049545288086
      ],
      [
        "▁дома",
        -9.073385238647461
      ],
      [
        "ша",
        -9.073844909667969
      ],
      [
        "▁пред",
        -9.078815460205078
      ],
      [
        "овые",
        -9.079673767089844
      ],
      [
        "▁совершенно",
        -9.07983112335205
      ],
      [
        "▁две",
        -9.08092212677002
      ],
      [
        "▁территории",
        -9.083268165588379
      ],
      [
        "▁быстро",
        -9.083636283874512
      ],
      [
        "тер",
        -9.084486961364746
      ],
      [
        ">",
        -9.085679054260254
      ],
      [
        "▁where",
        -9.086947441101074
      ],
      [
        "▁ей",
        -9.087267875671387
      ],
      [
        "ал",
        -9.087668418884277
      ],
      [
        "▁Е",
        -9.08814525604248
      ],
      [
        "an",
        -9.08991527557373
      ],
      [
        "▁$",
        -9.090795516967773
      ],
      [
        "ина",
        -9.090907096862793
      ],
      [
        "▁H",
        -9.093476295471191
      ],
      [
        "▁достаточно",
        -9.096965789794922
      ],
      [
        "▁начале",
        -9.099162101745605
      ],
      [
        "ца",
        -9.09951114654541
      ],
      [
        "▁начала",
        -9.102448463439941
      ],
      [
        "▁возможность",
        -9.103389739990234
      ],
      [
        "▁То",
        -9.106341361999512
      ],
      [
        "▁лучше",
        -9.109321594238281
      ],
      [
        "▁than",
        -9.114529609680176
      ],
      [
        "▁роль",
        -9.116973876953125
      ],
      [
        "▁самом",
        -9.120645523071289
      ],
      [
        "▁второй",
        -9.122148513793945
      ],
      [
        "▁работу",
        -9.127338409423828
      ],
      [
        "ня",
        -9.12868881225586
      ],
      [
        "▁there",
        -9.12881851196289
      ],
      [
        "T",
        -9.129232406616211
      ],
      [
        "▁говорит",
        -9.129833221435547
      ],
      [
        "▁каждый",
        -9.130660057067871
      ],
      [
        "▁таким",
        -9.131246566772461
      ],
      [
        "▁вообще",
        -9.132736206054688
      ],
      [
        "▁no",
        -9.13464641571045
      ],
      [
        "▁одна",
        -9.135711669921875
      ],
      [
        "▁мало",
        -9.136889457702637
      ],
      [
        "▁then",
        -9.13869571685791
      ],
      [
        "ками",
        -9.138967514038086
      ],
      [
        "▁поскольку",
        -9.1392183303833
      ],
      [
        "▁them",
        -9.140535354614258
      ],
      [
        "H",
        -9.141923904418945
      ],
      [
        "▁L",
        -9.143446922302246
      ],
      [
        "▁районе",
        -9.143457412719727
      ],
      [
        "▁либо",
        -9.144242286682129
      ],
      [
        "▁some",
        -9.144548416137695
      ],
      [
        "▁имени",
        -9.144852638244629
      ],
      [
        "▁развития",
        -9.145451545715332
      ],
      [
        "▁свет",
        -9.146143913269043
      ],
      [
        "▁группы",
        -9.146639823913574
      ],
      [
        "▁made",
        -9.150381088256836
      ],
      [
        "▁Поэтому",
        -9.15099811553955
      ],
      [
        "▁during",
        -9.151373863220215
      ],
      [
        "▁such",
        -9.151456832885742
      ],
      [
        "!\"",
        -9.153266906738281
      ],
      [
        "▁конечно",
        -9.153522491455078
      ],
      [
        "▁дня",
        -9.154415130615234
      ],
      [
        "▁мая",
        -9.155927658081055
      ],
      [
        "st",
        -9.15743350982666
      ],
      [
        "▁РФ",
        -9.15832805633545
      ],
      [
        "ировать",
        -9.16007137298584
      ],
      [
        "▁стало",
        -9.162847518920898
      ],
      [
        "▁такое",
        -9.164144515991211
      ],
      [
        "▁U",
        -9.164607048034668
      ],
      [
        "про",
        -9.16594123840332
      ],
      [
        "▁находится",
        -9.168191909790039
      ],
      [
        "].",
        -9.168766975402832
      ],
      [
        "▁p",
        -9.172460556030273
      ],
      [
        "ation",
        -9.173969268798828
      ],
      [
        "to",
        -9.175741195678711
      ],
      [
        "▁стала",
        -9.176387786865234
      ],
      [
        "▁between",
        -9.177124977111816
      ],
      [
        "▁V",
        -9.177729606628418
      ],
      [
        "id",
        -9.177910804748535
      ],
      [
        "▁(\"",
        -9.178204536437988
      ],
      [
        "▁детей",
        -9.179566383361816
      ],
      [
        "▁одним",
        -9.182695388793945
      ],
      [
        "▁многие",
        -9.183802604675293
      ],
      [
        "▁деятельности",
        -9.18594741821289
      ],
      [
        "▁обычно",
        -9.187061309814453
      ],
      [
        "▁Кроме",
        -9.187969207763672
      ],
      [
        "▁компании",
        -9.189677238464355
      ],
      [
        "либо",
        -9.193095207214355
      ],
      [
        "али",
        -9.19320011138916
      ],
      [
        "F",
        -9.193309783935547
      ],
      [
        "▁Х",
        -9.193737983703613
      ],
      [
        "▁э",
        -9.194009780883789
      ],
      [
        "ому",
        -9.199398040771484
      ],
      [
        "▁смерти",
        -9.199501991271973
      ],
      [
        "▁р",
        -9.200360298156738
      ],
      [
        "▁этому",
        -9.201902389526367
      ],
      [
        "▁under",
        -9.201964378356934
      ],
      [
        "▁снова",
        -9.202662467956543
      ],
      [
        "ри",
        -9.203886985778809
      ],
      [
        "▁многих",
        -9.205690383911133
      ],
      [
        "▁пре",
        -9.206448554992676
      ],
      [
        "▁ведь",
        -9.207046508789062
      ],
      [
        "▁июля",
        -9.207362174987793
      ],
      [
        "▁самого",
        -9.212958335876465
      ],
      [
        "Т",
        -9.214140892028809
      ],
      [
        "ис",
        -9.214226722717285
      ],
      [
        "▁most",
        -9.214662551879883
      ],
      [
        "▁внимание",
        -9.214943885803223
      ],
      [
        "би",
        -9.215108871459961
      ],
      [
        "▁Со",
        -9.215727806091309
      ],
      [
        "▁право",
        -9.215888023376465
      ],
      [
        "▁всей",
        -9.216562271118164
      ],
      [
        "▁used",
        -9.217700958251953
      ],
      [
        "▁наиболее",
        -9.218584060668945
      ],
      [
        "во",
        -9.219921112060547
      ],
      [
        "ар",
        -9.219952583312988
      ],
      [
        "G",
        -9.221397399902344
      ],
      [
        "мен",
        -9.222705841064453
      ],
      [
        "P",
        -9.226208686828613
      ],
      [
        "▁сентября",
        -9.227477073669434
      ],
      [
        "▁могли",
        -9.228604316711426
      ],
      [
        "▁so",
        -9.2296781539917
      ],
      [
        "об",
        -9.230822563171387
      ],
      [
        "ик",
        -9.231788635253906
      ],
      [
        "ился",
        -9.233124732971191
      ],
      [
        "▁необходимо",
        -9.233675003051758
      ],
      [
        "▁сил",
        -9.234017372131348
      ],
      [
        "▁later",
        -9.234259605407715
      ],
      [
        "▁организации",
        -9.235077857971191
      ],
      [
        "▁месте",
        -9.235575675964355
      ],
      [
        "ст",
        -9.23619556427002
      ],
      [
        "▁деле",
        -9.23842716217041
      ],
      [
        "▁Ну",
        -9.238595008850098
      ],
      [
        "▁количество",
        -9.239045143127441
      ],
      [
        "▁июня",
        -9.239182472229004
      ],
      [
        "▁августа",
        -9.239580154418945
      ],
      [
        "ист",
        -9.239791870117188
      ],
      [
        "▁начал",
        -9.240272521972656
      ],
      [
        "ель",
        -9.240973472595215
      ],
      [
        "▁являются",
        -9.25011920928955
      ],
      [
        "▁делать",
        -9.250555992126465
      ],
      [
        "ar",
        -9.251485824584961
      ],
      [
        "ится",
        -9.25167179107666
      ],
      [
        "▁марта",
        -9.252608299255371
      ],
      [
        "▁совсем",
        -9.253735542297363
      ],
      [
        "▁стран",
        -9.254077911376953
      ],
      [
        "▁дней",
        -9.254424095153809
      ],
      [
        "▁октября",
        -9.254608154296875
      ],
      [
        "▁степени",
        -9.255013465881348
      ],
      [
        "▁нашей",
        -9.255570411682129
      ],
      [
        "▁января",
        -9.25642204284668
      ],
      [
        "ических",
        -9.258537292480469
      ],
      [
        "▁которым",
        -9.258909225463867
      ],
      [
        "По",
        -9.25954818725586
      ],
      [
        "вин",
        -9.259567260742188
      ],
      [
        "▁почему",
        -9.260149955749512
      ],
      [
        "ием",
        -9.26075553894043
      ],
      [
        "че",
        -9.261574745178223
      ],
      [
        "le",
        -9.262614250183105
      ],
      [
        "▁three",
        -9.263811111450195
      ],
      [
        "▁действия",
        -9.265172958374023
      ],
      [
        "▁нем",
        -9.265901565551758
      ],
      [
        "нее",
        -9.267570495605469
      ],
      [
        "ья",
        -9.26812744140625
      ],
      [
        "▁составе",
        -9.268438339233398
      ],
      [
        "▁дела",
        -9.269103050231934
      ],
      [
        "▁должно",
        -9.271060943603516
      ],
      [
        "▁Ю",
        -9.275300025939941
      ],
      [
        "▁being",
        -9.275954246520996
      ],
      [
        "I",
        -9.276077270507812
      ],
      [
        "▁силы",
        -9.278322219848633
      ],
      [
        "▁As",
        -9.27987003326416
      ],
      [
        "▁назад",
        -9.28048038482666
      ],
      [
        "▁ж",
        -9.282350540161133
      ],
      [
        "▁годах",
        -9.283257484436035
      ],
      [
        "ические",
        -9.283661842346191
      ],
      [
        "▁выше",
        -9.284200668334961
      ],
      [
        "▁должна",
        -9.28466510772705
      ],
      [
        "▁некоторые",
        -9.28760814666748
      ],
      [
        "▁участие",
        -9.291374206542969
      ],
      [
        "▁декабря",
        -9.291377067565918
      ],
      [
        "▁O",
        -9.29561710357666
      ],
      [
        "▁б",
        -9.296507835388184
      ],
      [
        "▁Александр",
        -9.298954963684082
      ],
      [
        "it",
        -9.29908561706543
      ],
      [
        "▁мире",
        -9.2993745803833
      ],
      [
        "▁района",
        -9.30112361907959
      ],
      [
        "▁решение",
        -9.30179214477539
      ],
      [
        "цев",
        -9.30345630645752
      ],
      [
        "▁стоит",
        -9.305914878845215
      ],
      [
        "▁большой",
        -9.307039260864258
      ],
      [
        "▁места",
        -9.307344436645508
      ],
      [
        "=",
        -9.308857917785645
      ],
      [
        "ической",
        -9.31004810333252
      ],
      [
        "▁годов",
        -9.310189247131348
      ],
      [
        "▁той",
        -9.310833930969238
      ],
      [
        "ist",
        -9.31091594696045
      ],
      [
        "ос",
        -9.31140422821045
      ],
      [
        "▁З",
        -9.313246726989746
      ],
      [
        "▁управления",
        -9.31369686126709
      ],
      [
        "▁полностью",
        -9.314203262329102
      ],
      [
        "▁прав",
        -9.315515518188477
      ],
      [
        "▁well",
        -9.31710433959961
      ],
      [
        "▁апреля",
        -9.317228317260742
      ],
      [
        "ан",
        -9.319375991821289
      ],
      [
        "▁слишком",
        -9.32541561126709
      ],
      [
        "▁you",
        -9.32599925994873
      ],
      [
        "▁данных",
        -9.326248168945312
      ],
      [
        "▁всю",
        -9.326309204101562
      ],
      [
        "ум",
        -9.327033996582031
      ],
      [
        "Х",
        -9.327996253967285
      ],
      [
        "▁мере",
        -9.328008651733398
      ],
      [
        "?\"",
        -9.328712463378906
      ],
      [
        "▁происходит",
        -9.328902244567871
      ],
      [
        "▁права",
        -9.33127498626709
      ],
      [
        "▁возможно",
        -9.33314037322998
      ],
      [
        "▁She",
        -9.333463668823242
      ],
      [
        "▁прежде",
        -9.333495140075684
      ],
      [
        "▁through",
        -9.33366870880127
      ],
      [
        "▁гг",
        -9.333856582641602
      ],
      [
        "▁гор",
        -9.335256576538086
      ],
      [
        "▁действительно",
        -9.335573196411133
      ],
      [
        "el",
        -9.33694839477539
      ],
      [
        "ive",
        -9.33748722076416
      ],
      [
        "▁использовать",
        -9.338997840881348
      ],
      [
        "ск",
        -9.340041160583496
      ],
      [
        "▁пути",
        -9.341933250427246
      ],
      [
        "мы",
        -9.342284202575684
      ],
      [
        "v",
        -9.342363357543945
      ],
      [
        "ton",
        -9.343062400817871
      ],
      [
        "▁такого",
        -9.344452857971191
      ],
      [
        "ите",
        -9.344508171081543
      ],
      [
        "ба",
        -9.344647407531738
      ],
      [
        "ового",
        -9.345244407653809
      ],
      [
        "▁became",
        -9.346688270568848
      ],
      [
        "▁against",
        -9.3467378616333
      ],
      [
        "▁первой",
        -9.347341537475586
      ],
      [
        "▁ноября",
        -9.34843635559082
      ],
      [
        "▁типа",
        -9.350494384765625
      ],
      [
        "нии",
        -9.350728988647461
      ],
      [
        "▁many",
        -9.350790977478027
      ],
      [
        "▁сегодня",
        -9.352639198303223
      ],
      [
        "▁ними",
        -9.352822303771973
      ],
      [
        "ус",
        -9.353079795837402
      ],
      [
        "прав",
        -9.3532133102417
      ],
      [
        "▁Re",
        -9.353272438049316
      ],
      [
        "▁воды",
        -9.353287696838379
      ],
      [
        "ду",
        -9.357813835144043
      ],
      [
        "▁while",
        -9.35892105102539
      ],
      [
        "па",
        -9.359009742736816
      ],
      [
        "▁нельзя",
        -9.360111236572266
      ],
      [
        "▁ре",
        -9.362980842590332
      ],
      [
        "▁общества",
        -9.363164901733398
      ],
      [
        "▁part",
        -9.36441421508789
      ],
      [
        "ta",
        -9.365915298461914
      ],
      [
        "▁дел",
        -9.366462707519531
      ],
      [
        "able",
        -9.36701488494873
      ],
      [
        "▁движения",
        -9.369856834411621
      ],
      [
        "ье",
        -9.369986534118652
      ],
      [
        "▁тебя",
        -9.37070369720459
      ],
      [
        "ча",
        -9.371969223022461
      ],
      [
        "ity",
        -9.373306274414062
      ],
      [
        "▁характер",
        -9.373437881469727
      ],
      [
        "▁work",
        -9.374443054199219
      ],
      [
        "▁имя",
        -9.377335548400879
      ],
      [
        "▁генерал",
        -9.378612518310547
      ],
      [
        "ились",
        -9.378853797912598
      ],
      [
        "▁удалось",
        -9.38020133972168
      ],
      [
        "▁ответ",
        -9.38140869140625
      ],
      [
        "▁тыс",
        -9.381975173950195
      ],
      [
        "ика",
        -9.382096290588379
      ],
      [
        "▁значение",
        -9.383435249328613
      ],
      [
        "is",
        -9.38398551940918
      ],
      [
        "w",
        -9.384278297424316
      ],
      [
        "▁year",
        -9.386704444885254
      ],
      [
        "K",
        -9.387089729309082
      ],
      [
        "▁before",
        -9.387636184692383
      ],
      [
        "▁руки",
        -9.38776683807373
      ],
      [
        "▁J",
        -9.3884916305542
      ],
      [
        "▁people",
        -9.389424324035645
      ],
      [
        "▁населения",
        -9.390288352966309
      ],
      [
        "ющие",
        -9.392091751098633
      ],
      [
        "▁часов",
        -9.39283275604248
      ],
      [
        "▁кон",
        -9.393362045288086
      ],
      [
        "▁un",
        -9.393586158752441
      ],
      [
        "ический",
        -9.394754409790039
      ],
      [
        "иться",
        -9.395236015319824
      ],
      [
        "ут",
        -9.39558219909668
      ],
      [
        "il",
        -9.397296905517578
      ],
      [
        "▁иногда",
        -9.3984375
      ],
      [
        "ическая",
        -9.399029731750488
      ],
      [
        "ia",
        -9.399495124816895
      ],
      [
        "▁отношения",
        -9.40091609954834
      ],
      [
        "ор",
        -9.401494979858398
      ],
      [
        "M",
        -9.40179443359375
      ],
      [
        "скому",
        -9.404635429382324
      ],
      [
        "▁различных",
        -9.404775619506836
      ],
      [
        "ью",
        -9.406256675720215
      ],
      [
        "▁партии",
        -9.406318664550781
      ],
      [
        "▁войск",
        -9.407662391662598
      ],
      [
        "Ш",
        -9.409031867980957
      ],
      [
        "▁название",
        -9.40933895111084
      ],
      [
        "▁государства",
        -9.40992546081543
      ],
      [
        "раз",
        -9.410614967346191
      ],
      [
        "ги",
        -9.411661148071289
      ],
      [
        "▁will",
        -9.412550926208496
      ],
      [
        "ат",
        -9.414522171020508
      ],
      [
        "▁c",
        -9.416048049926758
      ],
      [
        "ющих",
        -9.416926383972168
      ],
      [
        "▁род",
        -9.418084144592285
      ],
      [
        "ики",
        -9.41873550415039
      ],
      [
        "▁мой",
        -9.418844223022461
      ],
      [
        "▁городе",
        -9.419947624206543
      ],
      [
        "ши",
        -9.420106887817383
      ],
      [
        "▁новые",
        -9.420221328735352
      ],
      [
        "▁самых",
        -9.420714378356934
      ],
      [
        "ний",
        -9.422030448913574
      ],
      [
        "▁if",
        -9.423208236694336
      ],
      [
        "си",
        -9.424627304077148
      ],
      [
        "се",
        -9.424680709838867
      ],
      [
        "▁дом",
        -9.425490379333496
      ],
      [
        "▁весьма",
        -9.425651550292969
      ],
      [
        "▁весь",
        -9.425798416137695
      ],
      [
        "▁февраля",
        -9.425889015197754
      ],
      [
        "ович",
        -9.426416397094727
      ],
      [
        "▁своем",
        -9.426534652709961
      ],
      [
        "▁вполне",
        -9.428570747375488
      ],
      [
        "▁становится",
        -9.429154396057129
      ],
      [
        "ющий",
        -9.429203033447266
      ],
      [
        "▁said",
        -9.429400444030762
      ],
      [
        "▁Ар",
        -9.42953109741211
      ],
      [
        "▁Москве",
        -9.433109283447266
      ],
      [
        "ников",
        -9.434138298034668
      ],
      [
        "▁легко",
        -9.43463134765625
      ],
      [
        "▁работе",
        -9.435515403747559
      ],
      [
        "ie",
        -9.436277389526367
      ],
      [
        "▁бес",
        -9.437010765075684
      ],
      [
        "▁некоторых",
        -9.437776565551758
      ],
      [
        "▁какие",
        -9.437808990478516
      ],
      [
        "▁>",
        -9.44157600402832
      ],
      [
        "▁новых",
        -9.44227123260498
      ],
      [
        "▁After",
        -9.442692756652832
      ],
      [
        "ment",
        -9.443678855895996
      ],
      [
        "тор",
        -9.444622993469238
      ],
      [
        "▁работа",
        -9.4447660446167
      ],
      [
        "▁имеют",
        -9.44489574432373
      ],
      [
        "▁Тем",
        -9.445028305053711
      ],
      [
        "▁минут",
        -9.44720458984375
      ],
      [
        "▁довольно",
        -9.450685501098633
      ],
      [
        "▁куда",
        -9.45181655883789
      ],
      [
        "N",
        -9.453478813171387
      ],
      [
        "▁second",
        -9.454683303833008
      ],
      [
        "▁реки",
        -9.45496940612793
      ],
      [
        "▁возможности",
        -9.457218170166016
      ],
      [
        "чи",
        -9.458134651184082
      ],
      [
        "▁вновь",
        -9.458243370056152
      ],
      [
        "co",
        -9.459063529968262
      ],
      [
        "▁информации",
        -9.459073066711426
      ],
      [
        "et",
        -9.459626197814941
      ],
      [
        "▁Этот",
        -9.461895942687988
      ],
      [
        "Л",
        -9.462576866149902
      ],
      [
        "Е",
        -9.462695121765137
      ],
      [
        "▁кроме",
        -9.46295166015625
      ],
      [
        "ne",
        -9.463618278503418
      ],
      [
        "▁разных",
        -9.463643074035645
      ],
      [
        "ического",
        -9.464399337768555
      ],
      [
        "▁конца",
        -9.46612548828125
      ],
      [
        "ках",
        -9.466679573059082
      ],
      [
        "▁самым",
        -9.466856956481934
      ],
      [
        "нов",
        -9.467616081237793
      ],
      [
        "▁both",
        -9.468582153320312
      ],
      [
        "▁трех",
        -9.470057487487793
      ],
      [
        "су",
        -9.470717430114746
      ],
      [
        "▁вид",
        -9.471719741821289
      ],
      [
        "▁Российской",
        -9.472954750061035
      ],
      [
        "W",
        -9.474258422851562
      ],
      [
        "ян",
        -9.474364280700684
      ],
      [
        "ация",
        -9.476616859436035
      ],
      [
        "▁back",
        -9.476658821105957
      ],
      [
        "ией",
        -9.477579116821289
      ],
      [
        "▁суд",
        -9.477694511413574
      ],
      [
        "ила",
        -9.478909492492676
      ],
      [
        "овая",
        -9.478934288024902
      ],
      [
        "ше",
        -9.479645729064941
      ],
      [
        "це",
        -9.479729652404785
      ],
      [
        "▁одном",
        -9.4812593460083
      ],
      [
        "▁зрения",
        -9.483835220336914
      ],
      [
        "▁рода",
        -9.485052108764648
      ],
      [
        "▁основе",
        -9.487837791442871
      ],
      [
        "▁кого",
        -9.487914085388184
      ],
      [
        "▁including",
        -9.490310668945312
      ],
      [
        "▁Ко",
        -9.490818977355957
      ],
      [
        "▁полу",
        -9.49105453491211
      ],
      [
        "▁культуры",
        -9.49247932434082
      ],
      [
        "▁система",
        -9.492490768432617
      ],
      [
        "▁меньше",
        -9.493268966674805
      ],
      [
        "▁нового",
        -9.493927955627441
      ],
      [
        "▁ряд",
        -9.494487762451172
      ],
      [
        "at",
        -9.494854927062988
      ],
      [
        "под",
        -9.495094299316406
      ],
      [
        "▁Ре",
        -9.49571418762207
      ],
      [
        "▁четыре",
        -9.495774269104004
      ],
      [
        "дер",
        -9.496572494506836
      ],
      [
        "йте",
        -9.496732711791992
      ],
      [
        "▁*",
        -9.497151374816895
      ],
      [
        "со",
        -9.498125076293945
      ],
      [
        "▁тебе",
        -9.498372077941895
      ],
      [
        "▁could",
        -9.500802993774414
      ],
      [
        "▁do",
        -9.501022338867188
      ],
      [
        "Э",
        -9.501096725463867
      ],
      [
        "▁решения",
        -9.501813888549805
      ],
      [
        "▁Таким",
        -9.503341674804688
      ],
      [
        "сь",
        -9.50356674194336
      ],
      [
        "э",
        -9.503640174865723
      ],
      [
        "ве",
        -9.503929138183594
      ],
      [
        "▁//",
        -9.504101753234863
      ],
      [
        "▁деньги",
        -9.505229949951172
      ],
      [
        "▁самой",
        -9.505486488342285
      ],
      [
        "▁н",
        -9.50621509552002
      ],
      [
        "▁процесс",
        -9.506973266601562
      ],
      [
        "ry",
        -9.50719165802002
      ],
      [
        "ры",
        -9.507791519165039
      ],
      [
        "▁постоянно",
        -9.507963180541992
      ],
      [
        "▁новый",
        -9.508092880249023
      ],
      [
        "na",
        -9.50862979888916
      ],
      [
        "гу",
        -9.508645057678223
      ],
      [
        "ешь",
        -9.508718490600586
      ],
      [
        "▁книги",
        -9.509258270263672
      ],
      [
        "▁практически",
        -9.509600639343262
      ],
      [
        "▁Эти",
        -9.510470390319824
      ],
      [
        "▁помощи",
        -9.510719299316406
      ],
      [
        "▁'",
        -9.510825157165527
      ],
      [
        "бер",
        -9.511573791503906
      ],
      [
        "▁известно",
        -9.512399673461914
      ],
      [
        "▁точно",
        -9.512899398803711
      ],
      [
        "▁нескольких",
        -9.513266563415527
      ],
      [
        "▁\\-",
        -9.513768196105957
      ],
      [
        "...\"",
        -9.513847351074219
      ],
      [
        "▁прямо",
        -9.515313148498535
      ],
      [
        "вид",
        -9.515865325927734
      ],
      [
        "▁точки",
        -9.516251564025879
      ],
      [
        "the",
        -9.516997337341309
      ],
      [
        "▁Теперь",
        -9.519404411315918
      ],
      [
        "лю",
        -9.519793510437012
      ],
      [
        "▁значит",
        -9.522390365600586
      ],
      [
        "▁никто",
        -9.52279281616211
      ],
      [
        "▁вокруг",
        -9.522819519042969
      ],
      [
        "E",
        -9.523971557617188
      ],
      [
        "вар",
        -9.525252342224121
      ],
      [
        "▁найти",
        -9.525991439819336
      ],
      [
        "Р",
        -9.526596069335938
      ],
      [
        "▁Здесь",
        -9.526982307434082
      ],
      [
        "▁Украины",
        -9.527203559875488
      ],
      [
        "▁идет",
        -9.528034210205078
      ],
      [
        "▁условиях",
        -9.528092384338379
      ],
      [
        "▁равно",
        -9.529438018798828
      ],
      [
        "▁наши",
        -9.529489517211914
      ],
      [
        "▁сторону",
        -9.532485008239746
      ],
      [
        "▁ст",
        -9.532943725585938
      ],
      [
        "▁работать",
        -9.533026695251465
      ],
      [
        "ней",
        -9.533307075500488
      ],
      [
        "▁очередь",
        -9.533458709716797
      ],
      [
        "▁одну",
        -9.534384727478027
      ],
      [
        "ent",
        -9.535022735595703
      ],
      [
        "▁тела",
        -9.535882949829102
      ],
      [
        "▁these",
        -9.540055274963379
      ],
      [
        "▁St",
        -9.54111385345459
      ],
      [
        "ско",
        -9.54114818572998
      ],
      [
        "▁season",
        -9.542547225952148
      ],
      [
        "стью",
        -9.542876243591309
      ],
      [
        "ации",
        -9.54369068145752
      ],
      [
        "▁Раз",
        -9.543822288513184
      ],
      [
        "▁долго",
        -9.545145034790039
      ],
      [
        "▁наших",
        -9.547452926635742
      ],
      [
        "▁число",
        -9.54829216003418
      ],
      [
        "ian",
        -9.549100875854492
      ],
      [
        "На",
        -9.551669120788574
      ],
      [
        "▁первого",
        -9.552740097045898
      ],
      [
        "лен",
        -9.55305004119873
      ],
      [
        "L",
        -9.553478240966797
      ],
      [
        "▁United",
        -9.55405044555664
      ],
      [
        "▁работал",
        -9.554935455322266
      ],
      [
        "▁Затем",
        -9.55702018737793
      ],
      [
        "▁сильно",
        -9.557262420654297
      ],
      [
        "ate",
        -9.55869197845459
      ],
      [
        "ника",
        -9.559707641601562
      ],
      [
        "▁глаза",
        -9.560477256774902
      ],
      [
        "`",
        -9.560758590698242
      ],
      [
        "▁впервые",
        -9.561238288879395
      ],
      [
        "▁средств",
        -9.56216049194336
      ],
      [
        "▁путь",
        -9.563512802124023
      ],
      [
        "▁писал",
        -9.563581466674805
      ],
      [
        "рис",
        -9.564393043518066
      ],
      [
        "▁слово",
        -9.564441680908203
      ],
      [
        "▁end",
        -9.564840316772461
      ],
      [
        "овым",
        -9.565384864807129
      ],
      [
        "ники",
        -9.566526412963867
      ],
      [
        "▁та",
        -9.5667085647583
      ],
      [
        "▁столь",
        -9.566974639892578
      ],
      [
        "age",
        -9.567172050476074
      ],
      [
        "▁закон",
        -9.567303657531738
      ],
      [
        "▁уж",
        -9.567395210266113
      ],
      [
        "▁цвет",
        -9.567455291748047
      ],
      [
        "▁At",
        -9.567487716674805
      ],
      [
        "ическое",
        -9.567619323730469
      ],
      [
        "▁ходе",
        -9.56863784790039
      ],
      [
        "ста",
        -9.56960678100586
      ],
      [
        "▁Владимир",
        -9.56973934173584
      ],
      [
        "▁рядом",
        -9.569863319396973
      ],
      [
        "лу",
        -9.570845603942871
      ],
      [
        "as",
        -9.571174621582031
      ],
      [
        "▁данным",
        -9.572142601013184
      ],
      [
        "▁Например",
        -9.57235050201416
      ],
      [
        "▁самое",
        -9.572481155395508
      ],
      [
        "um",
        -9.572858810424805
      ],
      [
        "▁автор",
        -9.573356628417969
      ],
      [
        "V",
        -9.573553085327148
      ],
      [
        "▁центр",
        -9.574186325073242
      ],
      [
        "▁частности",
        -9.57458782196045
      ],
      [
        "ро",
        -9.575233459472656
      ],
      [
        "же",
        -9.575242042541504
      ],
      [
        "ro",
        -9.576140403747559
      ],
      [
        "te",
        -9.577617645263672
      ],
      [
        "▁мысли",
        -9.577810287475586
      ],
      [
        "▁Кон",
        -9.579198837280273
      ],
      [
        "▁film",
        -9.580770492553711
      ],
      [
        "▁стать",
        -9.584464073181152
      ],
      [
        "▁млн",
        -9.587647438049316
      ],
      [
        "son",
        -9.588218688964844
      ],
      [
        "▁земли",
        -9.588587760925293
      ],
      [
        "лин",
        -9.588624954223633
      ],
      [
        "▁внутри",
        -9.590173721313477
      ],
      [
        "▁Также",
        -9.590489387512207
      ],
      [
        "▁своими",
        -9.591432571411133
      ],
      [
        "▁Германии",
        -9.591773986816406
      ],
      [
        "За",
        -9.591838836669922
      ],
      [
        "▁ту",
        -9.591900825500488
      ],
      [
        "▁отношении",
        -9.592217445373535
      ],
      [
        "▁словам",
        -9.594573020935059
      ],
      [
        "▁until",
        -9.595678329467773
      ],
      [
        "▁могу",
        -9.5974702835083
      ],
      [
        "▁проблемы",
        -9.597879409790039
      ],
      [
        "овать",
        -9.597916603088379
      ],
      [
        "▁немного",
        -9.60029125213623
      ],
      [
        "▁рублей",
        -9.600967407226562
      ],
      [
        "▁друга",
        -9.60124683380127
      ],
      [
        "ch",
        -9.601862907409668
      ],
      [
        "▁Франции",
        -9.602585792541504
      ],
      [
        "▁район",
        -9.604842185974121
      ],
      [
        "▁Эта",
        -9.604901313781738
      ],
      [
        "▁благодаря",
        -9.60506820678711
      ],
      [
        "de",
        -9.605461120605469
      ],
      [
        "▁same",
        -9.607892990112305
      ],
      [
        "▁составляет",
        -9.609463691711426
      ],
      [
        "▁пар",
        -9.609973907470703
      ],
      [
        "▁получить",
        -9.61182689666748
      ],
      [
        "род",
        -9.611865043640137
      ],
      [
        "ек",
        -9.612011909484863
      ],
      [
        "▁труд",
        -9.61215877532959
      ],
      [
        "▁говорить",
        -9.612845420837402
      ],
      [
        "▁примерно",
        -9.615178108215332
      ],
      [
        "кин",
        -9.615215301513672
      ],
      [
        "▁сами",
        -9.615565299987793
      ],
      [
        "▁number",
        -9.616089820861816
      ],
      [
        "▁стране",
        -9.621617317199707
      ],
      [
        "▁знаю",
        -9.621866226196289
      ],
      [
        "▁Федерации",
        -9.625053405761719
      ],
      [
        "▁any",
        -9.625382423400879
      ],
      [
        "ница",
        -9.62713623046875
      ],
      [
        "▁иметь",
        -9.627197265625
      ],
      [
        "▁X",
        -9.627598762512207
      ],
      [
        "▁use",
        -9.628893852233887
      ],
      [
        "▁нее",
        -9.629644393920898
      ],
      [
        "ич",
        -9.630441665649414
      ],
      [
        "▁противника",
        -9.63101577758789
      ],
      [
        "ид",
        -9.631124496459961
      ],
      [
        "▁решил",
        -9.63164234161377
      ],
      [
        "▁одновременно",
        -9.63287353515625
      ],
      [
        "▁опыт",
        -9.633237838745117
      ],
      [
        "▁Пере",
        -9.634527206420898
      ],
      [
        "▁m",
        -9.634550094604492
      ],
      [
        "▁говорил",
        -9.635562896728516
      ],
      [
        "чин",
        -9.635802268981934
      ],
      [
        "▁пол",
        -9.636539459228516
      ],
      [
        "▁Ж",
        -9.6365966796875
      ],
      [
        "▁Там",
        -9.637130737304688
      ],
      [
        "▁заявил",
        -9.637721061706543
      ],
      [
        "▁called",
        -9.63852310180664
      ],
      [
        "▁анти",
        -9.638993263244629
      ],
      [
        "пер",
        -9.639165878295898
      ],
      [
        "▁did",
        -9.639307022094727
      ],
      [
        "▁team",
        -9.639812469482422
      ],
      [
        "ющей",
        -9.641378402709961
      ],
      [
        "▁сколько",
        -9.641477584838867
      ],
      [
        "▁known",
        -9.642107009887695
      ],
      [
        "▁ф",
        -9.64296817779541
      ],
      [
        "▁like",
        -9.64316463470459
      ],
      [
        "▁f",
        -9.643620491027832
      ],
      [
        "▁кино",
        -9.644797325134277
      ],
      [
        "ает",
        -9.645245552062988
      ],
      [
        "▁сын",
        -9.64598274230957
      ],
      [
        "▁Ни",
        -9.646403312683105
      ],
      [
        "▁проект",
        -9.647272109985352
      ],
      [
        "▁класс",
        -9.648305892944336
      ],
      [
        "ски",
        -9.64848804473877
      ],
      [
        "▁положение",
        -9.648988723754883
      ],
      [
        "▁будто",
        -9.649423599243164
      ],
      [
        "▁другим",
        -9.650992393493652
      ],
      [
        "▁способ",
        -9.654304504394531
      ],
      [
        "▁лица",
        -9.65603256225586
      ],
      [
        "▁`",
        -9.656505584716797
      ],
      [
        "▁нему",
        -9.658918380737305
      ],
      [
        "se",
        -9.659872055053711
      ],
      [
        "▁кажется",
        -9.659875869750977
      ],
      [
        "▁пять",
        -9.65999698638916
      ],
      [
        "▁may",
        -9.661216735839844
      ],
      [
        "▁Тогда",
        -9.663507461547852
      ],
      [
        "▁каждого",
        -9.663738250732422
      ],
      [
        "его",
        -9.663848876953125
      ],
      [
        "▁They",
        -9.664862632751465
      ],
      [
        "енко",
        -9.666446685791016
      ],
      [
        "изм",
        -9.667191505432129
      ],
      [
        "ран",
        -9.668550491333008
      ],
      [
        "таки",
        -9.671041488647461
      ],
      [
        "▁b",
        -9.671407699584961
      ],
      [
        "▁Ты",
        -9.672179222106934
      ],
      [
        "▁новой",
        -9.672561645507812
      ],
      [
        "▁язык",
        -9.672739028930664
      ],
      [
        "▁силу",
        -9.67284107208252
      ],
      [
        "▁другими",
        -9.67370891571045
      ],
      [
        "лы",
        -9.67410945892334
      ],
      [
        "енный",
        -9.674354553222656
      ],
      [
        "▁school",
        -9.675084114074707
      ],
      [
        "▁позволяет",
        -9.6754732131958
      ],
      [
        "▁нашего",
        -9.67590618133545
      ],
      [
        "▁основном",
        -9.677091598510742
      ],
      [
        "▁церкви",
        -9.677593231201172
      ],
      [
        "▁вместо",
        -9.677787780761719
      ],
      [
        "▁пост",
        -9.678732872009277
      ],
      [
        "ur",
        -9.679853439331055
      ],
      [
        "▁name",
        -9.681036949157715
      ],
      [
        "▁Ли",
        -9.681170463562012
      ],
      [
        "▁целью",
        -9.683310508728027
      ],
      [
        "The",
        -9.683780670166016
      ],
      [
        "вший",
        -9.684508323669434
      ],
      [
        "ve",
        -9.685308456420898
      ],
      [
        "▁Чтобы",
        -9.68581485748291
      ],
      [
        "▁воз",
        -9.686598777770996
      ],
      [
        "▁American",
        -9.686777114868164
      ],
      [
        "▁первых",
        -9.689491271972656
      ],
      [
        "ющего",
        -9.690095901489258
      ],
      [
        "▁ранее",
        -9.69063949584961
      ],
      [
        "ход",
        -9.691176414489746
      ],
      [
        "▁early",
        -9.691364288330078
      ],
      [
        "be",
        -9.692119598388672
      ],
      [
        "ism",
        -9.69219970703125
      ],
      [
        "▁De",
        -9.693367958068848
      ],
      [
        "▁University",
        -9.693618774414062
      ],
      [
        "▁производства",
        -9.693860054016113
      ],
      [
        "▁began",
        -9.693975448608398
      ],
      [
        "вод",
        -9.69476318359375
      ],
      [
        "З",
        -9.694847106933594
      ],
      [
        "▁команды",
        -9.695780754089355
      ],
      [
        "▁правило",
        -9.697688102722168
      ],
      [
        "▁безопасности",
        -9.698471069335938
      ],
      [
        "▁цели",
        -9.698485374450684
      ],
      [
        "▁народа",
        -9.699191093444824
      ],
      [
        "▁действий",
        -9.699915885925293
      ],
      [
        "▁наконец",
        -9.699941635131836
      ],
      [
        "кон",
        -9.700146675109863
      ],
      [
        "стер",
        -9.700265884399414
      ],
      [
        "ant",
        -9.700519561767578
      ],
      [
        "▁Мне",
        -9.700586318969727
      ],
      [
        "▁Al",
        -9.700657844543457
      ],
      [
        "▁поле",
        -9.700740814208984
      ],
      [
        "▁существует",
        -9.700749397277832
      ],
      [
        "ви",
        -9.70085620880127
      ],
      [
        "▁игры",
        -9.701765060424805
      ],
      [
        "▁наш",
        -9.702347755432129
      ],
      [
        "▁Нет",
        -9.702709197998047
      ],
      [
        "▁фильм",
        -9.70278549194336
      ],
      [
        "ями",
        -9.704501152038574
      ],
      [
        "ими",
        -9.704646110534668
      ],
      [
        "тон",
        -9.704667091369629
      ],
      [
        "ант",
        -9.704852104187012
      ],
      [
        "▁данные",
        -9.705437660217285
      ],
      [
        "▁дальше",
        -9.705451011657715
      ],
      [
        "▁матери",
        -9.7056884765625
      ],
      [
        "▁роли",
        -9.705804824829102
      ],
      [
        "▁см",
        -9.706140518188477
      ],
      [
        "▁War",
        -9.706167221069336
      ],
      [
        "up",
        -9.706894874572754
      ],
      [
        "▁средства",
        -9.707527160644531
      ],
      [
        "ary",
        -9.70843505859375
      ],
      [
        "▁состоянии",
        -9.708775520324707
      ],
      [
        "▁Только",
        -9.709053039550781
      ],
      [
        "R",
        -9.709444046020508
      ],
      [
        "ir",
        -9.710644721984863
      ],
      [
        "▁имел",
        -9.711212158203125
      ],
      [
        "ала",
        -9.711339950561523
      ],
      [
        "▁Ч",
        -9.711585998535156
      ],
      [
        "▁Европы",
        -9.715127944946289
      ],
      [
        "ден",
        -9.715169906616211
      ],
      [
        "енные",
        -9.715357780456543
      ],
      [
        "▁For",
        -9.717121124267578
      ],
      [
        "▁формы",
        -9.717582702636719
      ],
      [
        "▁dis",
        -9.719133377075195
      ],
      [
        "жи",
        -9.7196044921875
      ],
      [
        "▁public",
        -9.71965503692627
      ],
      [
        "шей",
        -9.72139835357666
      ],
      [
        "ine",
        -9.722261428833008
      ],
      [
        "бо",
        -9.722845077514648
      ],
      [
        "▁речь",
        -9.723859786987305
      ],
      [
        "▁government",
        -9.723919868469238
      ],
      [
        "ies",
        -9.724321365356445
      ],
      [
        "▁представляет",
        -9.725836753845215
      ],
      [
        "▁me",
        -9.728004455566406
      ],
      [
        "O",
        -9.728233337402344
      ],
      [
        "▁назначен",
        -9.72854995727539
      ],
      [
        "▁Кор",
        -9.730473518371582
      ],
      [
        "▁мнению",
        -9.73187255859375
      ],
      [
        "▁работ",
        -9.73377799987793
      ],
      [
        "▁самый",
        -9.735095024108887
      ],
      [
        "она",
        -9.73561954498291
      ],
      [
        "▁several",
        -9.735899925231934
      ],
      [
        "образ",
        -9.736130714416504
      ],
      [
        "▁раньше",
        -9.736255645751953
      ],
      [
        "▁May",
        -9.736651420593262
      ],
      [
        "оз",
        -9.73711109161377
      ],
      [
        "▁#",
        -9.737324714660645
      ],
      [
        "▁далеко",
        -9.739934921264648
      ],
      [
        "сон",
        -9.741132736206055
      ],
      [
        "ее",
        -9.7413330078125
      ],
      [
        "▁Co",
        -9.742048263549805
      ],
      [
        "изма",
        -9.742532730102539
      ],
      [
        "▁found",
        -9.74300479888916
      ],
      [
        "▁состоит",
        -9.745361328125
      ],
      [
        "▁Примечания",
        -9.745376586914062
      ],
      [
        "▁главным",
        -9.746140480041504
      ],
      [
        "Ч",
        -9.746451377868652
      ],
      [
        "▁наук",
        -9.747485160827637
      ],
      [
        "▁факт",
        -9.748857498168945
      ],
      [
        "▁what",
        -9.748906135559082
      ],
      [
        "см",
        -9.749648094177246
      ],
      [
        "▁мировой",
        -9.749690055847168
      ],
      [
        "лом",
        -9.749698638916016
      ],
      [
        "▁войска",
        -9.749930381774902
      ],
      [
        "▁труда",
        -9.750290870666504
      ],
      [
        "▁сделал",
        -9.751049995422363
      ],
      [
        "▁любой",
        -9.751521110534668
      ],
      [
        "ге",
        -9.752100944519043
      ],
      [
        "▁вопросы",
        -9.752644538879395
      ],
      [
        "ели",
        -9.752822875976562
      ],
      [
        "▁исследования",
        -9.753045082092285
      ],
      [
        "▁La",
        -9.753201484680176
      ],
      [
        "альные",
        -9.754586219787598
      ],
      [
        "▁ибо",
        -9.754964828491211
      ],
      [
        "▁народ",
        -9.755019187927246
      ],
      [
        "▁линии",
        -9.755589485168457
      ],
      [
        "▁изменения",
        -9.755904197692871
      ],
      [
        "▁ч",
        -9.75687026977539
      ],
      [
        "▁образования",
        -9.757444381713867
      ],
      [
        "ter",
        -9.757733345031738
      ],
      [
        "▁понять",
        -9.757805824279785
      ],
      [
        "▁другом",
        -9.758131980895996
      ],
      [
        "▁образ",
        -9.759060859680176
      ],
      [
        "▁цен",
        -9.760404586791992
      ],
      [
        "▁пришлось",
        -9.760541915893555
      ],
      [
        "▁city",
        -9.761350631713867
      ],
      [
        "▁хотел",
        -9.761384963989258
      ],
      [
        "▁трудно",
        -9.763287544250488
      ],
      [
        "▁<",
        -9.763608932495117
      ],
      [
        "ак",
        -9.763944625854492
      ],
      [
        "▁area",
        -9.764049530029297
      ],
      [
        "лож",
        -9.764817237854004
      ],
      [
        "▁целом",
        -9.764836311340332
      ],
      [
        "▁план",
        -9.764945030212402
      ],
      [
        "▁счет",
        -9.765064239501953
      ],
      [
        "▁случаях",
        -9.766390800476074
      ],
      [
        "ra",
        -9.767501831054688
      ],
      [
        "▁языка",
        -9.767638206481934
      ],
      [
        "X",
        -9.767891883850098
      ],
      [
        "▁four",
        -9.768244743347168
      ],
      [
        "▁развитие",
        -9.76903247833252
      ],
      [
        "\")",
        -9.769855499267578
      ],
      [
        "am",
        -9.770076751708984
      ],
      [
        "▁because",
        -9.770552635192871
      ],
      [
        "▁школы",
        -9.770585060119629
      ],
      [
        "▁Иван",
        -9.771512985229492
      ],
      [
        "▁Ц",
        -9.77191162109375
      ],
      [
        "▁улица",
        -9.772140502929688
      ],
      [
        "тель",
        -9.772721290588379
      ],
      [
        "▁своему",
        -9.773459434509277
      ],
      [
        "▁которому",
        -9.773564338684082
      ],
      [
        "▁говоря",
        -9.775402069091797
      ],
      [
        "▁home",
        -9.775474548339844
      ],
      [
        "▁относительно",
        -9.776392936706543
      ],
      [
        "ическую",
        -9.77711009979248
      ],
      [
        "▁кор",
        -9.77711296081543
      ],
      [
        "стр",
        -9.778807640075684
      ],
      [
        "▁World",
        -9.778844833374023
      ],
      [
        "▁настоящее",
        -9.779842376708984
      ],
      [
        "▁state",
        -9.780562400817871
      ],
      [
        "Не",
        -9.780611038208008
      ],
      [
        "▁we",
        -9.7822904586792
      ],
      [
        "▁Ла",
        -9.78238582611084
      ],
      [
        "▁работает",
        -9.784847259521484
      ],
      [
        "▁искусства",
        -9.78488540649414
      ],
      [
        "▁первые",
        -9.786538124084473
      ],
      [
        "▁деятельность",
        -9.786809921264648
      ],
      [
        "▁York",
        -9.786827087402344
      ],
      [
        "ха",
        -9.787138938903809
      ],
      [
        "ший",
        -9.790277481079102
      ],
      [
        "альный",
        -9.790568351745605
      ],
      [
        "▁пер",
        -9.79111099243164
      ],
      [
        "зем",
        -9.79172134399414
      ],
      [
        "▁власть",
        -9.791860580444336
      ],
      [
        "▁ситуации",
        -9.79280948638916
      ],
      [
        "un",
        -9.794384956359863
      ],
      [
        "▁моря",
        -9.794655799865723
      ],
      [
        "com",
        -9.79470157623291
      ],
      [
        "▁To",
        -9.796435356140137
      ],
      [
        "▁слов",
        -9.79650592803955
      ],
      [
        "▁Через",
        -9.797677040100098
      ],
      [
        "▁удар",
        -9.798772811889648
      ],
      [
        "вших",
        -9.798834800720215
      ],
      [
        "ают",
        -9.799250602722168
      ],
      [
        "▁co",
        -9.79928970336914
      ],
      [
        "нет",
        -9.800140380859375
      ],
      [
        "мин",
        -9.800315856933594
      ],
      [
        "лей",
        -9.800862312316895
      ],
      [
        "▁правительства",
        -9.801193237304688
      ],
      [
        "▁лиц",
        -9.801447868347168
      ],
      [
        "▁However",
        -9.801618576049805
      ],
      [
        "вшие",
        -9.80208969116211
      ],
      [
        "▁давно",
        -9.802326202392578
      ],
      [
        "ty",
        -9.802617073059082
      ],
      [
        "▁скорее",
        -9.80410385131836
      ],
      [
        "▁первую",
        -9.804657936096191
      ],
      [
        "ющим",
        -9.805051803588867
      ],
      [
        "▁метров",
        -9.805524826049805
      ],
      [
        "▁Еще",
        -9.805657386779785
      ],
      [
        "▁радио",
        -9.806952476501465
      ],
      [
        "▁Именно",
        -9.8089599609375
      ],
      [
        "▁соответствии",
        -9.809161186218262
      ],
      [
        "ел",
        -9.809353828430176
      ],
      [
        "иль",
        -9.810094833374023
      ],
      [
        "▁моей",
        -9.810419082641602
      ],
      [
        "▁случай",
        -9.810776710510254
      ],
      [
        "▁пишет",
        -9.811671257019043
      ],
      [
        "▁ясно",
        -9.812402725219727
      ],
      [
        "▁смысл",
        -9.812907218933105
      ],
      [
        "▁группа",
        -9.81301212310791
      ],
      [
        "мет",
        -9.81363582611084
      ],
      [
        "▁took",
        -9.813653945922852
      ],
      [
        "▁опять",
        -9.813855171203613
      ],
      [
        "▁море",
        -9.814434051513672
      ],
      [
        "▁невозможно",
        -9.81523609161377
      ],
      [
        "▁pre",
        -9.816325187683105
      ],
      [
        "▁There",
        -9.816554069519043
      ],
      [
        "▁непосредственно",
        -9.816853523254395
      ],
      [
        "нес",
        -9.817081451416016
      ],
      [
        "▁Хотя",
        -9.817702293395996
      ],
      [
        "▁чуть",
        -9.818047523498535
      ],
      [
        "▁деревня",
        -9.819048881530762
      ],
      [
        "▁John",
        -9.819666862487793
      ],
      [
        "ент",
        -9.82017993927002
      ],
      [
        "ru",
        -9.821681022644043
      ],
      [
        "ева",
        -9.821972846984863
      ],
      [
        "▁первым",
        -9.82217025756836
      ],
      [
        "▁III",
        -9.822205543518066
      ],
      [
        "▁состояние",
        -9.822494506835938
      ],
      [
        "▁выход",
        -9.822885513305664
      ],
      [
        "▁game",
        -9.82339096069336
      ],
      [
        "▁His",
        -9.823715209960938
      ],
      [
        "▁Кар",
        -9.823768615722656
      ],
      [
        "▁поэт",
        -9.826725006103516
      ],
      [
        "▁down",
        -9.826794624328613
      ],
      [
        "лет",
        -9.82713794708252
      ],
      [
        "▁family",
        -9.827308654785156
      ],
      [
        "▁вдруг",
        -9.827404975891113
      ],
      [
        "ении",
        -9.828184127807617
      ],
      [
        "*",
        -9.829976081848145
      ],
      [
        "▁рамках",
        -9.830894470214844
      ],
      [
        "▁двумя",
        -9.830934524536133
      ],
      [
        "▁сайте",
        -9.831128120422363
      ],
      [
        "▁off",
        -9.83138656616211
      ],
      [
        "▁пяти",
        -9.831620216369629
      ],
      [
        "▁Вер",
        -9.831735610961914
      ],
      [
        "li",
        -9.832170486450195
      ],
      [
        "▁па",
        -9.8333101272583
      ],
      [
        "▁own",
        -9.83344554901123
      ],
      [
        "▁взгляд",
        -9.833620071411133
      ],
      [
        "▁жить",
        -9.834002494812012
      ],
      [
        "▁now",
        -9.834543228149414
      ],
      [
        "▁ум",
        -9.834856986999512
      ],
      [
        "▁форме",
        -9.834922790527344
      ],
      [
        "▁систем",
        -9.836886405944824
      ],
      [
        "▁long",
        -9.837679862976074
      ],
      [
        "мо",
        -9.838155746459961
      ],
      [
        "ён",
        -9.83869457244873
      ],
      [
        "илась",
        -9.838873863220215
      ],
      [
        "▁high",
        -9.840044021606445
      ],
      [
        "▁знал",
        -9.840238571166992
      ],
      [
        "дел",
        -9.840578079223633
      ],
      [
        "▁жителей",
        -9.840703964233398
      ],
      [
        "▁несмотря",
        -9.840846061706543
      ],
      [
        "▁Мар",
        -9.84093952178955
      ],
      [
        "▁роман",
        -9.840980529785156
      ],
      [
        "юсь",
        -9.841114044189453
      ],
      [
        "est",
        -9.84399127960205
      ],
      [
        "ём",
        -9.844677925109863
      ],
      [
        "гор",
        -9.845067977905273
      ],
      [
        "▁гораздо",
        -9.845389366149902
      ],
      [
        "▁States",
        -9.845839500427246
      ],
      [
        "J",
        -9.846209526062012
      ],
      [
        "▁Совета",
        -9.847177505493164
      ],
      [
        "▁делает",
        -9.847967147827148
      ],
      [
        "▁Те",
        -9.848784446716309
      ],
      [
        "▁такая",
        -9.849398612976074
      ],
      [
        "▁создания",
        -9.849835395812988
      ],
      [
        "▁Один",
        -9.849924087524414
      ],
      [
        "▁другого",
        -9.849947929382324
      ],
      [
        "▁place",
        -9.850550651550293
      ],
      [
        "▁set",
        -9.851420402526855
      ],
      [
        "▁each",
        -9.851648330688477
      ],
      [
        "▁позже",
        -9.85296630859375
      ],
      [
        "▁сама",
        -9.854143142700195
      ],
      [
        "▁говорят",
        -9.854430198669434
      ],
      [
        "▁знает",
        -9.854930877685547
      ],
      [
        "лов",
        -9.855159759521484
      ],
      [
        "▁group",
        -9.855204582214355
      ],
      [
        "▁голову",
        -9.855340003967285
      ],
      [
        "▁женщин",
        -9.855854034423828
      ],
      [
        "ях",
        -9.856033325195312
      ],
      [
        "▁Ведь",
        -9.857718467712402
      ],
      [
        "▁around",
        -9.858430862426758
      ],
      [
        "▁мин",
        -9.859029769897461
      ],
      [
        "▁тело",
        -9.859743118286133
      ],
      [
        "инг",
        -9.861295700073242
      ],
      [
        "ды",
        -9.861432075500488
      ],
      [
        "жа",
        -9.861502647399902
      ],
      [
        "ated",
        -9.862527847290039
      ],
      [
        "итель",
        -9.863105773925781
      ],
      [
        "скими",
        -9.863423347473145
      ],
      [
        "оп",
        -9.863744735717773
      ],
      [
        "ley",
        -9.864103317260742
      ],
      [
        "▁земле",
        -9.864242553710938
      ],
      [
        "▁помощь",
        -9.86451244354248
      ],
      [
        "ска",
        -9.865256309509277
      ],
      [
        "эн",
        -9.865450859069824
      ],
      [
        "▁уровне",
        -9.865683555603027
      ],
      [
        "▁отличие",
        -9.865839004516602
      ],
      [
        "▁л",
        -9.867846488952637
      ],
      [
        "▁Le",
        -9.870760917663574
      ],
      [
        "▁последние",
        -9.871293067932129
      ],
      [
        "▁ниже",
        -9.871570587158203
      ],
      [
        "▁Пол",
        -9.871963500976562
      ],
      [
        "▁множество",
        -9.872185707092285
      ],
      [
        "▁since",
        -9.872415542602539
      ],
      [
        "lo",
        -9.872843742370605
      ],
      [
        "бор",
        -9.87354564666748
      ],
      [
        "▁Их",
        -9.874528884887695
      ],
      [
        "́",
        -9.87523078918457
      ],
      [
        "▁series",
        -9.875786781311035
      ],
      [
        "▁долларов",
        -9.876236915588379
      ],
      [
        "▁day",
        -9.876483917236328
      ],
      [
        "▁Бо",
        -9.877066612243652
      ],
      [
        "▁local",
        -9.877106666564941
      ],
      [
        "▁Союза",
        -9.878617286682129
      ],
      [
        "▁код",
        -9.878867149353027
      ],
      [
        "ma",
        -9.879146575927734
      ],
      [
        "ступ",
        -9.879405975341797
      ],
      [
        "ним",
        -9.879473686218262
      ],
      [
        "воз",
        -9.880219459533691
      ],
      [
        "no",
        -9.880878448486328
      ],
      [
        "вал",
        -9.880951881408691
      ],
      [
        "енных",
        -9.880996704101562
      ],
      [
        "▁умер",
        -9.881314277648926
      ],
      [
        "▁движение",
        -9.881346702575684
      ],
      [
        "▁left",
        -9.881711959838867
      ],
      [
        "▁значения",
        -9.88195514678955
      ],
      [
        "ance",
        -9.881998062133789
      ],
      [
        "▁теории",
        -9.882006645202637
      ],
      [
        "▁член",
        -9.882058143615723
      ],
      [
        "▁каким",
        -9.882311820983887
      ],
      [
        "▁life",
        -9.883363723754883
      ],
      [
        "▁сначала",
        -9.883617401123047
      ],
      [
        "▁значительно",
        -9.883797645568848
      ],
      [
        "ру",
        -9.885539054870605
      ],
      [
        "▁программы",
        -9.886959075927734
      ],
      [
        "▁готов",
        -9.887484550476074
      ],
      [
        "▁русской",
        -9.888402938842773
      ],
      [
        "▁начали",
        -9.888572692871094
      ],
      [
        "▁мед",
        -9.889139175415039
      ],
      [
        "▁солдат",
        -9.889470100402832
      ],
      [
        "▁дать",
        -9.890400886535645
      ],
      [
        "кам",
        -9.891081809997559
      ],
      [
        "▁метод",
        -9.891318321228027
      ],
      [
        "▁история",
        -9.892054557800293
      ],
      [
        "▁проекта",
        -9.892264366149902
      ],
      [
        "▁дни",
        -9.892797470092773
      ],
      [
        "▁Москвы",
        -9.893720626831055
      ],
      [
        "▁[/",
        -9.894311904907227
      ],
      [
        "▁главе",
        -9.895952224731445
      ],
      [
        "▁операции",
        -9.896073341369629
      ],
      [
        "▁мол",
        -9.897553443908691
      ],
      [
        "sh",
        -9.898768424987793
      ],
      [
        "▁животных",
        -9.899428367614746
      ],
      [
        "мир",
        -9.900650978088379
      ],
      [
        "▁самые",
        -9.901580810546875
      ],
      [
        "лив",
        -9.902039527893066
      ],
      [
        "▁Та",
        -9.902926445007324
      ],
      [
        "Ж",
        -9.903308868408203
      ],
      [
        "▁университета",
        -9.90346908569336
      ],
      [
        "▁вскоре",
        -9.903585433959961
      ],
      [
        "▁Бар",
        -9.903711318969727
      ],
      [
        "ul",
        -9.903945922851562
      ],
      [
        "▁system",
        -9.903998374938965
      ],
      [
        "альных",
        -9.90427303314209
      ],
      [
        "овый",
        -9.904595375061035
      ],
      [
        "▁Россия",
        -9.905007362365723
      ],
      [
        "▁отец",
        -9.90524959564209
      ],
      [
        "▁жил",
        -9.905272483825684
      ],
      [
        "▁клуб",
        -9.905284881591797
      ],
      [
        "▁женщины",
        -9.906118392944336
      ],
      [
        "land",
        -9.906808853149414
      ],
      [
        "альная",
        -9.906896591186523
      ],
      [
        "▁месяцев",
        -9.907724380493164
      ],
      [
        "▁денег",
        -9.90778923034668
      ],
      [
        "▁very",
        -9.908413887023926
      ],
      [
        "ера",
        -9.908769607543945
      ],
      [
        "▁con",
        -9.908905029296875
      ],
      [
        "▁August",
        -9.9089937210083
      ],
      [
        "▁Согласно",
        -9.909259796142578
      ],
      [
        "ri",
        -9.909295082092285
      ],
      [
        "▁Ру",
        -9.910195350646973
      ],
      [
        "ган",
        -9.910197257995605
      ],
      [
        "ad",
        -9.910511016845703
      ],
      [
        "▁ночь",
        -9.91054916381836
      ],
      [
        "▁t",
        -9.911426544189453
      ],
      [
        "стве",
        -9.912117004394531
      ],
      [
        "▁теле",
        -9.912548065185547
      ],
      [
        "ав",
        -9.912734985351562
      ],
      [
        "▁честь",
        -9.914214134216309
      ],
      [
        "▁электро",
        -9.914329528808594
      ],
      [
        "тся",
        -9.914690017700195
      ],
      [
        "▁отца",
        -9.914709091186523
      ],
      [
        "▁released",
        -9.914999961853027
      ],
      [
        "▁пресс",
        -9.917581558227539
      ],
      [
        "ятся",
        -9.91832447052002
      ],
      [
        "▁могла",
        -9.918835639953613
      ],
      [
        "▁сообщил",
        -9.918970108032227
      ],
      [
        "▁хоть",
        -9.919461250305176
      ],
      [
        "▁начало",
        -9.919477462768555
      ],
      [
        "ров",
        -9.919715881347656
      ],
      [
        "▁иначе",
        -9.920170783996582
      ],
      [
        "нию",
        -9.920214653015137
      ],
      [
        "ству",
        -9.921042442321777
      ],
      [
        "▁большинство",
        -9.922164916992188
      ],
      [
        "рен",
        -9.922493934631348
      ],
      [
        "▁still",
        -9.923702239990234
      ],
      [
        "▁революции",
        -9.924689292907715
      ],
      [
        "os",
        -9.924734115600586
      ],
      [
        "▁означает",
        -9.924915313720703
      ],
      [
        "▁русских",
        -9.925566673278809
      ],
      [
        "▁чаще",
        -9.92604923248291
      ],
      [
        "▁согласно",
        -9.926084518432617
      ],
      [
        "▁семьи",
        -9.926533699035645
      ],
      [
        "▁Ка",
        -9.92724609375
      ],
      [
        "▁президент",
        -9.927377700805664
      ],
      [
        "▁полка",
        -9.927382469177246
      ],
      [
        "▁September",
        -9.928852081298828
      ],
      [
        "▁war",
        -9.929314613342285
      ],
      [
        "j",
        -9.930173873901367
      ],
      [
        "▁Сам",
        -9.930669784545898
      ],
      [
        "▁языке",
        -9.930878639221191
      ],
      [
        "▁Гор",
        -9.932350158691406
      ],
      [
        "▁just",
        -9.933055877685547
      ],
      [
        "▁National",
        -9.933168411254883
      ],
      [
        "▁Ма",
        -9.933990478515625
      ],
      [
        "▁March",
        -9.9342679977417
      ],
      [
        "▁June",
        -9.934572219848633
      ],
      [
        "▁лицо",
        -9.934727668762207
      ],
      [
        "▁семье",
        -9.935541152954102
      ],
      [
        "▁поля",
        -9.936064720153809
      ],
      [
        "▁проблем",
        -9.93619441986084
      ],
      [
        "▁дивизии",
        -9.936478614807129
      ],
      [
        "Y",
        -9.937124252319336
      ],
      [
        "▁смысле",
        -9.93720817565918
      ],
      [
        "▁любви",
        -9.937226295471191
      ],
      [
        "▁зависимости",
        -9.937440872192383
      ],
      [
        "▁Конечно",
        -9.938559532165527
      ],
      [
        "ющая",
        -9.939315795898438
      ],
      [
        "▁числа",
        -9.93939208984375
      ],
      [
        "ению",
        -9.93980884552002
      ],
      [
        "▁берегу",
        -9.940184593200684
      ],
      [
        "▁видов",
        -9.941671371459961
      ],
      [
        "▁уровня",
        -9.943015098571777
      ],
      [
        "▁союз",
        -9.943290710449219
      ],
      [
        "▁принял",
        -9.943367958068848
      ],
      [
        "рон",
        -9.94397258758545
      ],
      [
        "▁сих",
        -9.944014549255371
      ],
      [
        "▁видел",
        -9.944438934326172
      ],
      [
        "▁систему",
        -9.945426940917969
      ],
      [
        "люб",
        -9.946281433105469
      ],
      [
        "me",
        -9.946337699890137
      ],
      [
        "▁постепенно",
        -9.9469575881958
      ],
      [
        "▁выбор",
        -9.948590278625488
      ],
      [
        "▁тип",
        -9.94908332824707
      ],
      [
        "▁Де",
        -9.949104309082031
      ],
      [
        "пол",
        -9.949176788330078
      ],
      [
        "▁доме",
        -9.949458122253418
      ],
      [
        "пре",
        -9.949676513671875
      ],
      [
        "ген",
        -9.949929237365723
      ],
      [
        "▁туда",
        -9.950011253356934
      ],
      [
        "▁бур",
        -9.950480461120605
      ],
      [
        "▁причин",
        -9.951013565063477
      ],
      [
        "ce",
        -9.951034545898438
      ],
      [
        "▁album",
        -9.951624870300293
      ],
      [
        "▁ради",
        -9.95181655883789
      ],
      [
        "ща",
        -9.952180862426758
      ],
      [
        "▁Z",
        -9.952428817749023
      ],
      [
        "▁line",
        -9.952857971191406
      ],
      [
        "ёр",
        -9.953632354736328
      ],
      [
        "ление",
        -9.953665733337402
      ],
      [
        "▁An",
        -9.954463005065918
      ],
      [
        "▁October",
        -9.955265998840332
      ],
      [
        "▁those",
        -9.955708503723145
      ],
      [
        "▁памяти",
        -9.95582103729248
      ],
      [
        "ена",
        -9.955890655517578
      ],
      [
        "▁частью",
        -9.956847190856934
      ],
      [
        "говор",
        -9.957456588745117
      ],
      [
        "▁world",
        -9.958598136901855
      ],
      [
        "▁форм",
        -9.961325645446777
      ],
      [
        "▁брат",
        -9.963238716125488
      ],
      [
        "пере",
        -9.963661193847656
      ],
      [
        "▁первом",
        -9.964130401611328
      ],
      [
        "▁компания",
        -9.964576721191406
      ],
      [
        "▁my",
        -9.964622497558594
      ],
      [
        "сов",
        -9.966191291809082
      ],
      [
        "нос",
        -9.966552734375
      ],
      [
        "ван",
        -9.966962814331055
      ],
      [
        "стро",
        -9.96729850769043
      ],
      [
        "сен",
        -9.968032836914062
      ],
      [
        "▁суда",
        -9.968568801879883
      ],
      [
        "▁науки",
        -9.968914985656738
      ],
      [
        "▁каждой",
        -9.969171524047852
      ],
      [
        "▁уровень",
        -9.969625473022461
      ],
      [
        "▁Даже",
        -9.969630241394043
      ],
      [
        "▁произошло",
        -9.970047950744629
      ],
      [
        "▁граф",
        -9.970511436462402
      ],
      [
        "вен",
        -9.970710754394531
      ],
      [
        "аль",
        -9.971207618713379
      ],
      [
        "▁можем",
        -9.972277641296387
      ],
      [
        "▁another",
        -9.972286224365234
      ],
      [
        "▁оказался",
        -9.973097801208496
      ],
      [
        "фа",
        -9.973146438598633
      ],
      [
        "▁раза",
        -9.973535537719727
      ],
      [
        "▁интерес",
        -9.974292755126953
      ],
      [
        "▁XIX",
        -9.974456787109375
      ],
      [
        "ous",
        -9.975306510925293
      ],
      [
        "ланд",
        -9.975775718688965
      ],
      [
        "▁мм",
        -9.975837707519531
      ],
      [
        "истов",
        -9.97595500946045
      ],
      [
        "▁make",
        -9.975955963134766
      ],
      [
        "▁Con",
        -9.976800918579102
      ],
      [
        "▁дети",
        -9.978118896484375
      ],
      [
        "▁резко",
        -9.978154182434082
      ],
      [
        "▁show",
        -9.97848892211914
      ],
      [
        "▁July",
        -9.979992866516113
      ],
      [
        "▁Есть",
        -9.980337142944336
      ],
      [
        "▁влияние",
        -9.980419158935547
      ],
      [
        "ностью",
        -9.980704307556152
      ],
      [
        "▁мест",
        -9.981462478637695
      ],
      [
        "▁дает",
        -9.982266426086426
      ],
      [
        "▁никаких",
        -9.98239803314209
      ],
      [
        "▁машин",
        -9.982465744018555
      ],
      [
        "ted",
        -9.98257827758789
      ],
      [
        "▁какое",
        -9.982742309570312
      ],
      [
        "▁центра",
        -9.982906341552734
      ],
      [
        "▁British",
        -9.98306655883789
      ],
      [
        "▁игр",
        -9.983097076416016
      ],
      [
        "▁January",
        -9.983677864074707
      ],
      [
        "▁обязательно",
        -9.984046936035156
      ],
      [
        "▁During",
        -9.984567642211914
      ],
      [
        "▁Европе",
        -9.985984802246094
      ],
      [
        "U",
        -9.98617172241211
      ],
      [
        "▁much",
        -9.986623764038086
      ],
      [
        "▁итоге",
        -9.987313270568848
      ],
      [
        "яв",
        -9.988525390625
      ],
      [
        "▁%",
        -9.989431381225586
      ],
      [
        "▁вышел",
        -9.990147590637207
      ],
      [
        "▁настолько",
        -9.991172790527344
      ],
      [
        "▁службы",
        -9.99118709564209
      ],
      [
        "▁северо",
        -9.991595268249512
      ],
      [
        "der",
        -9.991722106933594
      ],
      [
        "▁различные",
        -9.99287223815918
      ],
      [
        "▁Кто",
        -9.993242263793945
      ],
      [
        "▁following",
        -9.994281768798828
      ],
      [
        "▁Можно",
        -9.994871139526367
      ],
      [
        "▁water",
        -9.995070457458496
      ],
      [
        "▁дороги",
        -9.995305061340332
      ],
      [
        "ция",
        -9.996294975280762
      ],
      [
        "▁April",
        -9.996301651000977
      ],
      [
        "▁Среди",
        -9.996718406677246
      ],
      [
        "▁School",
        -9.997407913208008
      ],
      [
        "овое",
        -9.997492790222168
      ],
      [
        "▁due",
        -9.998170852661133
      ],
      [
        "▁функции",
        -9.998422622680664
      ],
      [
        "ою",
        -9.998443603515625
      ],
      [
        "▁создать",
        -9.99850082397461
      ],
      [
        "▁получили",
        -9.998507499694824
      ],
      [
        "▁South",
        -9.999275207519531
      ],
      [
        "лер",
        -9.999585151672363
      ],
      [
        "пор",
        -10.000418663024902
      ],
      [
        "овал",
        -10.00078296661377
      ],
      [
        "▁село",
        -10.00125503540039
      ],
      [
        "▁Николай",
        -10.001437187194824
      ],
      [
        "▁завод",
        -10.001629829406738
      ],
      [
        "▁Ан",
        -10.001656532287598
      ],
      [
        "▁Ле",
        -10.001885414123535
      ],
      [
        "▁глаз",
        -10.001985549926758
      ],
      [
        "▁следующий",
        -10.002222061157227
      ],
      [
        "▁When",
        -10.002666473388672
      ],
      [
        "вит",
        -10.0030517578125
      ],
      [
        "▁won",
        -10.003134727478027
      ],
      [
        "▁вещи",
        -10.003436088562012
      ],
      [
        "▁начинает",
        -10.004380226135254
      ],
      [
        "▁правительство",
        -10.00465202331543
      ],
      [
        "нуть",
        -10.005109786987305
      ],
      [
        "▁скоро",
        -10.005563735961914
      ],
      [
        "ол",
        -10.005735397338867
      ],
      [
        "▁ш",
        -10.005891799926758
      ],
      [
        "бе",
        -10.005960464477539
      ],
      [
        "ness",
        -10.006001472473145
      ],
      [
        "pe",
        -10.006096839904785
      ],
      [
        "▁large",
        -10.006243705749512
      ],
      [
        "▁ребенка",
        -10.006771087646484
      ],
      [
        "бу",
        -10.00699520111084
      ],
      [
        "ha",
        -10.008295059204102
      ],
      [
        "▁хочет",
        -10.008338928222656
      ],
      [
        "▁войне",
        -10.008635520935059
      ],
      [
        "▁можете",
        -10.008803367614746
      ],
      [
        "▁машины",
        -10.00922679901123
      ],
      [
        "▁всеми",
        -10.009954452514648
      ],
      [
        "▁per",
        -10.009968757629395
      ],
      [
        "пар",
        -10.010347366333008
      ],
      [
        "▁Мал",
        -10.010564804077148
      ],
      [
        "▁отношение",
        -10.010634422302246
      ],
      [
        "ll",
        -10.011000633239746
      ],
      [
        "▁связь",
        -10.012146949768066
      ],
      [
        "▁час",
        -10.012521743774414
      ],
      [
        "ё",
        -10.012687683105469
      ],
      [
        "▁событий",
        -10.01285171508789
      ],
      [
        "ул",
        -10.013883590698242
      ],
      [
        "уз",
        -10.014182090759277
      ],
      [
        "▁last",
        -10.014629364013672
      ],
      [
        "▁v",
        -10.01480770111084
      ],
      [
        "▁Су",
        -10.015104293823242
      ],
      [
        "ling",
        -10.015547752380371
      ],
      [
        "▁лес",
        -10.015547752380371
      ],
      [
        "▁XX",
        -10.01572322845459
      ],
      [
        "▁мной",
        -10.016122817993164
      ],
      [
        "▁большое",
        -10.016385078430176
      ],
      [
        "▁пример",
        -10.016716003417969
      ],
      [
        "▁million",
        -10.01705551147461
      ],
      [
        "▁каких",
        -10.017121315002441
      ],
      [
        "▁военных",
        -10.017252922058105
      ],
      [
        "лад",
        -10.017765998840332
      ],
      [
        "▁голос",
        -10.017864227294922
      ],
      [
        "овский",
        -10.018064498901367
      ],
      [
        "▁even",
        -10.018227577209473
      ],
      [
        "кая",
        -10.01830005645752
      ],
      [
        "▁события",
        -10.020524978637695
      ],
      [
        "кова",
        -10.020764350891113
      ],
      [
        "▁Ха",
        -10.02078628540039
      ],
      [
        "ших",
        -10.020841598510742
      ],
      [
        "▁класса",
        -10.021422386169434
      ],
      [
        "чат",
        -10.021490097045898
      ],
      [
        "▁Бог",
        -10.021905899047852
      ],
      [
        "la",
        -10.02194881439209
      ],
      [
        "▁написал",
        -10.021987915039062
      ],
      [
        "тов",
        -10.023366928100586
      ],
      [
        "▁путем",
        -10.024445533752441
      ],
      [
        "чик",
        -10.02487564086914
      ],
      [
        "▁срок",
        -10.025202751159668
      ],
      [
        "ТАСС",
        -10.025627136230469
      ],
      [
        "▁along",
        -10.025672912597656
      ],
      [
        "▁фронта",
        -10.02692699432373
      ],
      [
        "▁важно",
        -10.02754020690918
      ],
      [
        "▁d",
        -10.02762222290039
      ],
      [
        "one",
        -10.028008460998535
      ],
      [
        "go",
        -10.02820873260498
      ],
      [
        "мор",
        -10.029154777526855
      ],
      [
        "▁company",
        -10.029926300048828
      ],
      [
        "чер",
        -10.030086517333984
      ],
      [
        "▁Сергей",
        -10.030162811279297
      ],
      [
        "ост",
        -10.030255317687988
      ],
      [
        "од",
        -10.030312538146973
      ],
      [
        "▁комплекс",
        -10.030403137207031
      ],
      [
        "▁членов",
        -10.030572891235352
      ],
      [
        "▁книге",
        -10.031547546386719
      ],
      [
        "▁благо",
        -10.032061576843262
      ],
      [
        "ирование",
        -10.032941818237305
      ],
      [
        "▁историю",
        -10.033249855041504
      ],
      [
        "▁цель",
        -10.033541679382324
      ],
      [
        "▁людьми",
        -10.033987045288086
      ],
      [
        "▁использования",
        -10.034051895141602
      ],
      [
        "лан",
        -10.035783767700195
      ],
      [
        "▁поводу",
        -10.037066459655762
      ],
      [
        "▁again",
        -10.03750228881836
      ],
      [
        "im",
        -10.037725448608398
      ],
      [
        "▁муж",
        -10.038267135620117
      ],
      [
        "▁way",
        -10.038703918457031
      ],
      [
        "▁разные",
        -10.038871765136719
      ],
      [
        "▁которыми",
        -10.039005279541016
      ],
      [
        "▁Михаил",
        -10.040122032165527
      ],
      [
        "кор",
        -10.040260314941406
      ],
      [
        "▁support",
        -10.040322303771973
      ],
      [
        "овую",
        -10.040566444396973
      ],
      [
        "▁условия",
        -10.040620803833008
      ],
      [
        "▁русского",
        -10.041115760803223
      ],
      [
        "▁статьи",
        -10.042043685913086
      ],
      [
        "▁вовсе",
        -10.042068481445312
      ],
      [
        "▁Ту",
        -10.042243003845215
      ],
      [
        "▁head",
        -10.042400360107422
      ],
      [
        "▁борьбы",
        -10.042628288269043
      ],
      [
        "том",
        -10.042745590209961
      ],
      [
        "▁мои",
        -10.043004035949707
      ],
      [
        "▁спустя",
        -10.043452262878418
      ],
      [
        "▁человеком",
        -10.044268608093262
      ],
      [
        "▁станет",
        -10.044489860534668
      ],
      [
        "▁November",
        -10.04458999633789
      ],
      [
        "and",
        -10.044747352600098
      ],
      [
        "▁отношений",
        -10.045089721679688
      ],
      [
        "▁позиции",
        -10.045971870422363
      ],
      [
        "изации",
        -10.046026229858398
      ],
      [
        "▁имели",
        -10.046407699584961
      ],
      [
        "▁переход",
        -10.04649543762207
      ],
      [
        "шие",
        -10.046889305114746
      ],
      [
        "▁виду",
        -10.047168731689453
      ],
      [
        "▁общем",
        -10.048095703125
      ],
      [
        "▁принять",
        -10.048704147338867
      ],
      [
        "▁другое",
        -10.048910140991211
      ],
      [
        "▁избран",
        -10.04967212677002
      ],
      [
        "#",
        -10.04969596862793
      ],
      [
        "▁руб",
        -10.0498628616333
      ],
      [
        "▁man",
        -10.049875259399414
      ],
      [
        "▁процессе",
        -10.050642967224121
      ],
      [
        "▁людям",
        -10.051161766052246
      ],
      [
        "▁мать",
        -10.052123069763184
      ],
      [
        "вшись",
        -10.053050994873047
      ],
      [
        "ard",
        -10.054048538208008
      ],
      [
        "▁системе",
        -10.054784774780273
      ],
      [
        "▁президента",
        -10.054802894592285
      ],
      [
        "▁century",
        -10.055109977722168
      ],
      [
        "ca",
        -10.055168151855469
      ],
      [
        "▁обороны",
        -10.055806159973145
      ],
      [
        "▁плен",
        -10.05602741241455
      ],
      [
        "▁Sa",
        -10.056199073791504
      ],
      [
        "рас",
        -10.056333541870117
      ],
      [
        "▁буду",
        -10.056396484375
      ],
      [
        "▁Рас",
        -10.056901931762695
      ],
      [
        "▁...",
        -10.057165145874023
      ],
      [
        "▁December",
        -10.05727767944336
      ],
      [
        "▁моя",
        -10.057674407958984
      ],
      [
        "▁кому",
        -10.057703971862793
      ],
      [
        "▁age",
        -10.057892799377441
      ],
      [
        "▁результат",
        -10.05794620513916
      ],
      [
        "ции",
        -10.058144569396973
      ],
      [
        "▁знать",
        -10.058589935302734
      ],
      [
        "▁фото",
        -10.058886528015137
      ],
      [
        "▁вести",
        -10.059065818786621
      ],
      [
        "ирования",
        -10.06015396118164
      ],
      [
        "ины",
        -10.060260772705078
      ],
      [
        "ni",
        -10.060436248779297
      ],
      [
        "сто",
        -10.06049633026123
      ],
      [
        "▁столько",
        -10.061352729797363
      ],
      [
        "▁никак",
        -10.06163215637207
      ],
      [
        "▁временем",
        -10.062421798706055
      ],
      [
        "▁всему",
        -10.062721252441406
      ],
      [
        "▁станции",
        -10.063177108764648
      ],
      [
        "▁came",
        -10.063638687133789
      ],
      [
        "▁последний",
        -10.06367301940918
      ],
      [
        "▁Почему",
        -10.063698768615723
      ],
      [
        "▁Республики",
        -10.063824653625488
      ],
      [
        "чу",
        -10.064519882202148
      ],
      [
        "телей",
        -10.064874649047852
      ],
      [
        "▁причем",
        -10.065173149108887
      ],
      [
        "▁Потом",
        -10.065605163574219
      ],
      [
        "▁Ал",
        -10.065657615661621
      ],
      [
        "▁death",
        -10.065678596496582
      ],
      [
        "▁символ",
        -10.066312789916992
      ],
      [
        "▁остается",
        -10.066774368286133
      ],
      [
        "▁полк",
        -10.06692886352539
      ],
      [
        "▁фон",
        -10.06745433807373
      ],
      [
        "▁граждан",
        -10.068428993225098
      ],
      [
        "ti",
        -10.068498611450195
      ],
      [
        "▁задачи",
        -10.0685396194458
      ],
      [
        "▁война",
        -10.069164276123047
      ],
      [
        "▁small",
        -10.070629119873047
      ],
      [
        "do",
        -10.070659637451172
      ],
      [
        "▁Великой",
        -10.07079792022705
      ],
      [
        "▁месяца",
        -10.071614265441895
      ],
      [
        "▁Может",
        -10.07262897491455
      ],
      [
        "▁гол",
        -10.072881698608398
      ],
      [
        "тен",
        -10.072954177856445
      ],
      [
        "▁held",
        -10.073287010192871
      ],
      [
        "▁вроде",
        -10.07392692565918
      ],
      [
        "▁большую",
        -10.074024200439453
      ],
      [
        "▁часа",
        -10.074179649353027
      ],
      [
        "три",
        -10.074761390686035
      ],
      [
        "▁men",
        -10.075019836425781
      ],
      [
        "ol",
        -10.075751304626465
      ],
      [
        "da",
        -10.0758056640625
      ],
      [
        "ts",
        -10.0758056640625
      ],
      [
        "▁пользу",
        -10.077140808105469
      ],
      [
        "гер",
        -10.077502250671387
      ],
      [
        "бы",
        -10.077899932861328
      ],
      [
        "▁энергии",
        -10.078001022338867
      ],
      [
        "▁single",
        -10.078072547912598
      ],
      [
        "▁pro",
        -10.079041481018066
      ],
      [
        "rs",
        -10.079058647155762
      ],
      [
        "▁вероятно",
        -10.079172134399414
      ],
      [
        "ря",
        -10.079377174377441
      ],
      [
        "▁final",
        -10.079638481140137
      ],
      [
        "▁информацию",
        -10.081183433532715
      ],
      [
        "▁Кол",
        -10.081522941589355
      ],
      [
        "▁Мор",
        -10.082171440124512
      ],
      [
        "▁дал",
        -10.08324146270752
      ],
      [
        "ировал",
        -10.083765029907227
      ],
      [
        "ite",
        -10.083765983581543
      ],
      [
        "▁return",
        -10.084153175354004
      ],
      [
        "▁текст",
        -10.084522247314453
      ],
      [
        "ac",
        -10.084878921508789
      ],
      [
        "шу",
        -10.085220336914062
      ],
      [
        "▁будем",
        -10.085314750671387
      ],
      [
        "les",
        -10.085774421691895
      ],
      [
        "щ",
        -10.086066246032715
      ],
      [
        "Ю",
        -10.086406707763672
      ],
      [
        "▁received",
        -10.087076187133789
      ],
      [
        "▁времена",
        -10.087087631225586
      ],
      [
        "нер",
        -10.087960243225098
      ],
      [
        "▁телефон",
        -10.0881929397583
      ],
      [
        "Ц",
        -10.088319778442383
      ],
      [
        "▁вернулся",
        -10.088557243347168
      ],
      [
        "▁крайне",
        -10.088961601257324
      ],
      [
        "▁края",
        -10.08906078338623
      ],
      [
        "▁считает",
        -10.089088439941406
      ],
      [
        "как",
        -10.089493751525879
      ],
      [
        "▁Li",
        -10.089570999145508
      ],
      [
        "▁сына",
        -10.090514183044434
      ],
      [
        "▁исключительно",
        -10.090767860412598
      ],
      [
        "▁империи",
        -10.093282699584961
      ],
      [
        "▁плохо",
        -10.093705177307129
      ],
      [
        "пи",
        -10.094148635864258
      ],
      [
        "зи",
        -10.094159126281738
      ],
      [
        "▁played",
        -10.094193458557129
      ],
      [
        "▁округа",
        -10.094493865966797
      ],
      [
        "▁необходимости",
        -10.094795227050781
      ],
      [
        "▁общей",
        -10.095263481140137
      ],
      [
        "▁сбор",
        -10.09569263458252
      ],
      [
        "▁Второй",
        -10.096016883850098
      ],
      [
        "▁поверхности",
        -10.096358299255371
      ],
      [
        "▁мысль",
        -10.097715377807617
      ],
      [
        "бр",
        -10.099638938903809
      ],
      [
        "▁Первый",
        -10.09982681274414
      ],
      [
        "▁main",
        -10.099930763244629
      ],
      [
        "овского",
        -10.100105285644531
      ],
      [
        "▁e",
        -10.100130081176758
      ],
      [
        "ово",
        -10.10068130493164
      ],
      [
        "нием",
        -10.101080894470215
      ],
      [
        "▁Mo",
        -10.101475715637207
      ],
      [
        "дов",
        -10.1015625
      ],
      [
        "▁City",
        -10.102360725402832
      ],
      [
        "▁Некоторые",
        -10.102444648742676
      ],
      [
        "зы",
        -10.102741241455078
      ],
      [
        "▁модели",
        -10.102917671203613
      ],
      [
        "▁Га",
        -10.10303020477295
      ],
      [
        "▁фильма",
        -10.104114532470703
      ],
      [
        "▁органов",
        -10.10427188873291
      ],
      [
        "▁договор",
        -10.105111122131348
      ],
      [
        "инского",
        -10.105222702026367
      ],
      [
        "▁different",
        -10.105445861816406
      ],
      [
        "▁music",
        -10.10584545135498
      ],
      [
        "▁сети",
        -10.107417106628418
      ],
      [
        "▁вариант",
        -10.107972145080566
      ],
      [
        "▁используется",
        -10.10818099975586
      ],
      [
        "▁нами",
        -10.10838794708252
      ],
      [
        "▁руку",
        -10.108473777770996
      ],
      [
        "▁Отечественной",
        -10.108880996704102
      ],
      [
        "▁природы",
        -10.109323501586914
      ],
      [
        "▁ну",
        -10.109640121459961
      ],
      [
        "цу",
        -10.11002254486084
      ],
      [
        "▁крови",
        -10.11058235168457
      ],
      [
        "▁направлении",
        -10.110753059387207
      ],
      [
        "▁взять",
        -10.1110200881958
      ],
      [
        "зна",
        -10.111221313476562
      ],
      [
        "▁вне",
        -10.111736297607422
      ],
      [
        "▁Bo",
        -10.111795425415039
      ],
      [
        "▁женщина",
        -10.1119966506958
      ],
      [
        "▁Ди",
        -10.112475395202637
      ],
      [
        "▁сборной",
        -10.113152503967285
      ],
      [
        "ям",
        -10.113363265991211
      ],
      [
        "цион",
        -10.113662719726562
      ],
      [
        "ишь",
        -10.113709449768066
      ],
      [
        "▁руках",
        -10.113723754882812
      ],
      [
        "▁стар",
        -10.114349365234375
      ],
      [
        "▁включая",
        -10.114957809448242
      ],
      [
        "кол",
        -10.115317344665527
      ],
      [
        "min",
        -10.115691184997559
      ],
      [
        "ge",
        -10.115702629089355
      ],
      [
        "▁домой",
        -10.116103172302246
      ],
      [
        "▁мор",
        -10.116518020629883
      ],
      [
        "▁members",
        -10.117091178894043
      ],
      [
        "▁внимания",
        -10.11720085144043
      ],
      [
        "▁цвета",
        -10.11721420288086
      ],
      [
        "▁личности",
        -10.117409706115723
      ],
      [
        "▁относится",
        -10.118168830871582
      ],
      [
        "ще",
        -10.11884880065918
      ],
      [
        "▁идеи",
        -10.119115829467773
      ],
      [
        "▁North",
        -10.1196928024292
      ],
      [
        "ga",
        -10.119943618774414
      ],
      [
        "▁Мин",
        -10.120203018188477
      ],
      [
        "▁вз",
        -10.120328903198242
      ],
      [
        "▁Пред",
        -10.120808601379395
      ],
      [
        "▁любовь",
        -10.121053695678711
      ],
      [
        "▁within",
        -10.121452331542969
      ],
      [
        "▁хочу",
        -10.121943473815918
      ],
      [
        "▁письмо",
        -10.122163772583008
      ],
      [
        "▁программ",
        -10.122342109680176
      ],
      [
        "▁состояния",
        -10.1226167678833
      ],
      [
        "▁находятся",
        -10.122913360595703
      ],
      [
        "▁игра",
        -10.123237609863281
      ],
      [
        "ун",
        -10.123380661010742
      ],
      [
        "▁касается",
        -10.123618125915527
      ],
      [
        "ющее",
        -10.123724937438965
      ],
      [
        "con",
        -10.124101638793945
      ],
      [
        "▁процесса",
        -10.124251365661621
      ],
      [
        "▁странах",
        -10.124350547790527
      ],
      [
        "▁большим",
        -10.124524116516113
      ],
      [
        "▁Be",
        -10.125404357910156
      ],
      [
        "▁землю",
        -10.125506401062012
      ],
      [
        "▁сообщает",
        -10.125736236572266
      ],
      [
        "▁приходится",
        -10.12610149383545
      ],
      [
        "▁вес",
        -10.126171112060547
      ],
      [
        "▁children",
        -10.126225471496582
      ],
      [
        "way",
        -10.126405715942383
      ],
      [
        "▁разум",
        -10.12652587890625
      ],
      [
        "ическом",
        -10.126771926879883
      ],
      [
        "▁вперед",
        -10.127227783203125
      ],
      [
        "▁named",
        -10.127660751342773
      ],
      [
        "ацию",
        -10.128046989440918
      ],
      [
        "▁Сан",
        -10.12816047668457
      ],
      [
        "▁таком",
        -10.128514289855957
      ],
      [
        "▁Александра",
        -10.128602981567383
      ],
      [
        "▁словами",
        -10.128913879394531
      ],
      [
        "he",
        -10.128994941711426
      ],
      [
        "▁командир",
        -10.129057884216309
      ],
      [
        "дан",
        -10.129776000976562
      ],
      [
        "▁Несмотря",
        -10.130343437194824
      ],
      [
        "▁Сейчас",
        -10.130468368530273
      ],
      [
        "▁Санкт",
        -10.130473136901855
      ],
      [
        "va",
        -10.131063461303711
      ],
      [
        "▁ракет",
        -10.131732940673828
      ],
      [
        "гар",
        -10.132439613342285
      ],
      [
        "▁доступ",
        -10.133259773254395
      ],
      [
        "▁By",
        -10.133291244506836
      ],
      [
        "▁сердце",
        -10.133341789245605
      ],
      [
        "▁сто",
        -10.133414268493652
      ],
      [
        "▁русский",
        -10.134431838989258
      ],
      [
        "▁take",
        -10.134580612182617
      ],
      [
        "▁театр",
        -10.134760856628418
      ],
      [
        "▁крестьян",
        -10.134976387023926
      ],
      [
        "▁обо",
        -10.135035514831543
      ],
      [
        "▁кур",
        -10.136448860168457
      ],
      [
        "▁l",
        -10.13676929473877
      ],
      [
        "▁порядке",
        -10.136937141418457
      ],
      [
        "енной",
        -10.137481689453125
      ],
      [
        "ирует",
        -10.137656211853027
      ],
      [
        "men",
        -10.137829780578613
      ],
      [
        "▁середине",
        -10.138270378112793
      ],
      [
        "▁высоко",
        -10.138714790344238
      ],
      [
        "▁Англии",
        -10.139135360717773
      ],
      [
        "▁действие",
        -10.139561653137207
      ],
      [
        "хи",
        -10.13968276977539
      ],
      [
        "нь",
        -10.139803886413574
      ],
      [
        "жен",
        -10.140262603759766
      ],
      [
        "▁often",
        -10.140401840209961
      ],
      [
        "шего",
        -10.140679359436035
      ],
      [
        "город",
        -10.140752792358398
      ],
      [
        "иков",
        -10.14076042175293
      ],
      [
        "▁Me",
        -10.141341209411621
      ],
      [
        "▁юго",
        -10.141533851623535
      ],
      [
        "зов",
        -10.141581535339355
      ],
      [
        "рат",
        -10.141871452331543
      ],
      [
        "▁речи",
        -10.14224910736084
      ],
      [
        "▁протяжении",
        -10.142317771911621
      ],
      [
        "▁Ман",
        -10.142518997192383
      ],
      [
        "▁Между",
        -10.143128395080566
      ],
      [
        "▁названием",
        -10.143326759338379
      ],
      [
        "▁Mar",
        -10.144146919250488
      ],
      [
        "▁месяц",
        -10.144292831420898
      ],
      [
        "):",
        -10.144359588623047
      ],
      [
        "ню",
        -10.147372245788574
      ],
      [
        "кро",
        -10.147414207458496
      ],
      [
        "▁души",
        -10.148179054260254
      ],
      [
        "▁Ор",
        -10.14822006225586
      ],
      [
        "que",
        -10.148305892944336
      ],
      [
        "ow",
        -10.148571014404297
      ],
      [
        "▁шесть",
        -10.148672103881836
      ],
      [
        "▁стороне",
        -10.148740768432617
      ],
      [
        "▁далее",
        -10.149650573730469
      ],
      [
        "▁находился",
        -10.150140762329102
      ],
      [
        "em",
        -10.15018081665039
      ],
      [
        "▁групп",
        -10.15022087097168
      ],
      [
        "▁команд",
        -10.151031494140625
      ],
      [
        "рез",
        -10.151192665100098
      ],
      [
        "ap",
        -10.151510238647461
      ],
      [
        "▁зависит",
        -10.151537895202637
      ],
      [
        "вой",
        -10.151952743530273
      ],
      [
        "▁бывает",
        -10.151995658874512
      ],
      [
        "▁видеть",
        -10.152071952819824
      ],
      [
        "кан",
        -10.153149604797363
      ],
      [
        "▁новое",
        -10.153582572937012
      ],
      [
        "▁built",
        -10.153753280639648
      ],
      [
        "бин",
        -10.154105186462402
      ],
      [
        "▁period",
        -10.154170036315918
      ],
      [
        "ание",
        -10.155020713806152
      ],
      [
        "▁концов",
        -10.155020713806152
      ],
      [
        "дон",
        -10.155771255493164
      ],
      [
        "▁Или",
        -10.15638542175293
      ],
      [
        "▁Петр",
        -10.157315254211426
      ],
      [
        "▁возрасте",
        -10.157929420471191
      ],
      [
        "▁широко",
        -10.157951354980469
      ],
      [
        "nd",
        -10.158282279968262
      ],
      [
        "▁five",
        -10.15849494934082
      ],
      [
        "▁went",
        -10.158766746520996
      ],
      [
        "▁рабочих",
        -10.159339904785156
      ],
      [
        "шим",
        -10.159382820129395
      ],
      [
        "▁All",
        -10.159390449523926
      ],
      [
        "▁Ha",
        -10.159444808959961
      ],
      [
        "▁included",
        -10.159929275512695
      ],
      [
        "дар",
        -10.160110473632812
      ],
      [
        "цами",
        -10.160633087158203
      ],
      [
        "▁корпуса",
        -10.16080093383789
      ],
      [
        "сад",
        -10.16097640991211
      ],
      [
        "Й",
        -10.161484718322754
      ],
      [
        "▁совета",
        -10.161484718322754
      ],
      [
        "\\.",
        -10.161839485168457
      ],
      [
        "mer",
        -10.161860466003418
      ],
      [
        "▁произведения",
        -10.161893844604492
      ],
      [
        "▁led",
        -10.16202449798584
      ],
      [
        "▁миллионов",
        -10.162322998046875
      ],
      [
        "▁Многие",
        -10.162418365478516
      ],
      [
        "▁явно",
        -10.162530899047852
      ],
      [
        "\":",
        -10.162593841552734
      ],
      [
        "▁Нью",
        -10.163025856018066
      ],
      [
        "q",
        -10.163352012634277
      ],
      [
        "емых",
        -10.163494110107422
      ],
      [
        "▁правда",
        -10.16353988647461
      ],
      [
        "▁писатель",
        -10.164106369018555
      ],
      [
        "фер",
        -10.164151191711426
      ],
      [
        "▁воду",
        -10.164834022521973
      ],
      [
        "▁версии",
        -10.164899826049805
      ],
      [
        "▁центре",
        -10.165169715881348
      ],
      [
        "▁ди",
        -10.165445327758789
      ],
      [
        "▁принято",
        -10.165505409240723
      ],
      [
        "исты",
        -10.165815353393555
      ],
      [
        "ницы",
        -10.166019439697266
      ],
      [
        "▁вида",
        -10.16641616821289
      ],
      [
        "▁родился",
        -10.167374610900879
      ],
      [
        "▁оказалось",
        -10.167588233947754
      ],
      [
        "стан",
        -10.168018341064453
      ],
      [
        "что",
        -10.168341636657715
      ],
      [
        "▁Бер",
        -10.1685209274292
      ],
      [
        "▁должность",
        -10.16879940032959
      ],
      [
        "▁отдельных",
        -10.169602394104004
      ],
      [
        "mo",
        -10.169891357421875
      ],
      [
        "▁приводит",
        -10.170018196105957
      ],
      [
        "ющихся",
        -10.170385360717773
      ],
      [
        "ler",
        -10.170459747314453
      ],
      [
        "▁положения",
        -10.170652389526367
      ],
      [
        "▁German",
        -10.170954704284668
      ],
      [
        "ёт",
        -10.171356201171875
      ],
      [
        "луч",
        -10.171468734741211
      ],
      [
        "▁литературы",
        -10.171771049499512
      ],
      [
        "▁коллектив",
        -10.172012329101562
      ],
      [
        "▁Перед",
        -10.172574996948242
      ],
      [
        "mon",
        -10.172907829284668
      ],
      [
        "мент",
        -10.173867225646973
      ],
      [
        "чет",
        -10.174142837524414
      ],
      [
        "▁Мо",
        -10.174403190612793
      ],
      [
        "▁моего",
        -10.176023483276367
      ],
      [
        "▁получила",
        -10.176301002502441
      ],
      [
        "▁общего",
        -10.17661190032959
      ],
      [
        "▁February",
        -10.177417755126953
      ],
      [
        "▁улице",
        -10.17747688293457
      ],
      [
        "дель",
        -10.177536010742188
      ],
      [
        "вшихся",
        -10.177635192871094
      ],
      [
        "теля",
        -10.177701950073242
      ],
      [
        "брос",
        -10.177884101867676
      ],
      [
        "▁большие",
        -10.178241729736328
      ],
      [
        "▁вер",
        -10.178338050842285
      ],
      [
        "▁next",
        -10.17853832244873
      ],
      [
        "▁former",
        -10.179153442382812
      ],
      [
        "▁впоследствии",
        -10.179824829101562
      ],
      [
        "▁кг",
        -10.179997444152832
      ],
      [
        "▁сторон",
        -10.180107116699219
      ],
      [
        "▁основных",
        -10.180542945861816
      ],
      [
        "▁ком",
        -10.18077278137207
      ],
      [
        "▁считать",
        -10.181506156921387
      ],
      [
        "▁Ин",
        -10.182069778442383
      ],
      [
        "▁вечер",
        -10.18242359161377
      ],
      [
        "▁building",
        -10.182568550109863
      ],
      [
        "▁окончил",
        -10.182951927185059
      ],
      [
        "sa",
        -10.183032035827637
      ],
      [
        "▁веке",
        -10.183333396911621
      ],
      [
        "▁защиты",
        -10.18373966217041
      ],
      [
        "▁Ar",
        -10.184186935424805
      ],
      [
        "▁аппарат",
        -10.184822082519531
      ],
      [
        "ете",
        -10.185833930969238
      ],
      [
        "▁ужас",
        -10.185903549194336
      ],
      [
        "▁бизнес",
        -10.186123847961426
      ],
      [
        "уд",
        -10.186192512512207
      ],
      [
        "емся",
        -10.1869478225708
      ],
      [
        "ана",
        -10.187049865722656
      ],
      [
        "▁народов",
        -10.18740463256836
      ],
      [
        "\").",
        -10.188257217407227
      ],
      [
        "ak",
        -10.188680648803711
      ],
      [
        "▁order",
        -10.188870429992676
      ],
      [
        "▁селе",
        -10.188883781433105
      ],
      [
        "ило",
        -10.189033508300781
      ],
      [
        "▁Па",
        -10.19015884399414
      ],
      [
        "▁Man",
        -10.190447807312012
      ],
      [
        "▁band",
        -10.19055461883545
      ],
      [
        "▁трёх",
        -10.190624237060547
      ],
      [
        "▁One",
        -10.191384315490723
      ],
      [
        "▁few",
        -10.192011833190918
      ],
      [
        "▁смог",
        -10.192329406738281
      ],
      [
        "мест",
        -10.192590713500977
      ],
      [
        "ед",
        -10.192646980285645
      ],
      [
        "▁population",
        -10.193159103393555
      ],
      [
        "▁Se",
        -10.19420337677002
      ],
      [
        "time",
        -10.194231986999512
      ],
      [
        "▁самолет",
        -10.194267272949219
      ],
      [
        "▁могло",
        -10.195000648498535
      ],
      [
        "▁политики",
        -10.19526481628418
      ],
      [
        "▁частей",
        -10.195338249206543
      ],
      [
        "▁Пер",
        -10.19546127319336
      ],
      [
        "▁список",
        -10.19567584991455
      ],
      [
        "▁form",
        -10.196369171142578
      ],
      [
        "▁света",
        -10.196374893188477
      ],
      [
        "▁книг",
        -10.196911811828613
      ],
      [
        "мат",
        -10.196972846984863
      ],
      [
        "▁круг",
        -10.197286605834961
      ],
      [
        "пад",
        -10.197344779968262
      ],
      [
        "ень",
        -10.197805404663086
      ],
      [
        "▁казалось",
        -10.198932647705078
      ],
      [
        "▁рост",
        -10.199355125427246
      ],
      [
        "▁результаты",
        -10.199381828308105
      ],
      [
        "▁тысячи",
        -10.199420928955078
      ],
      [
        "тан",
        -10.199793815612793
      ],
      [
        "▁область",
        -10.199850082397461
      ],
      [
        "ас",
        -10.200752258300781
      ],
      [
        "ур",
        -10.200810432434082
      ],
      [
        "▁называется",
        -10.200814247131348
      ],
      [
        "▁советский",
        -10.200825691223145
      ],
      [
        "▁major",
        -10.201038360595703
      ],
      [
        "▁ответил",
        -10.201608657836914
      ],
      [
        "▁Ro",
        -10.201619148254395
      ],
      [
        "▁недо",
        -10.201794624328613
      ],
      [
        "▁book",
        -10.201873779296875
      ],
      [
        "ания",
        -10.201891899108887
      ],
      [
        "▁предложил",
        -10.20206356048584
      ],
      [
        "▁бед",
        -10.202398300170898
      ],
      [
        "ци",
        -10.20245361328125
      ],
      [
        "▁глава",
        -10.202662467956543
      ],
      [
        "▁перевод",
        -10.203686714172363
      ],
      [
        "▁жена",
        -10.203761100769043
      ],
      [
        "▁видео",
        -10.204041481018066
      ],
      [
        "▁утра",
        -10.204325675964355
      ],
      [
        "▁главное",
        -10.204747200012207
      ],
      [
        "▁волн",
        -10.205259323120117
      ],
      [
        "▁Более",
        -10.205612182617188
      ],
      [
        "▁совет",
        -10.205827713012695
      ],
      [
        "▁play",
        -10.20590591430664
      ],
      [
        "государственного",
        -10.20590877532959
      ],
      [
        "вес",
        -10.205913543701172
      ],
      [
        "юр",
        -10.206069946289062
      ],
      [
        "\"[",
        -10.206321716308594
      ],
      [
        "▁get",
        -10.206801414489746
      ],
      [
        "den",
        -10.20763874053955
      ],
      [
        "ред",
        -10.208614349365234
      ],
      [
        "ившись",
        -10.208954811096191
      ],
      [
        "▁отметил",
        -10.209066390991211
      ],
      [
        "▁исход",
        -10.209094047546387
      ],
      [
        "▁US",
        -10.209328651428223
      ],
      [
        "▁команда",
        -10.209722518920898
      ],
      [
        "▁side",
        -10.20973014831543
      ],
      [
        "ез",
        -10.210443496704102
      ],
      [
        "()",
        -10.210735321044922
      ],
      [
        "▁Итак",
        -10.210740089416504
      ],
      [
        "год",
        -10.211363792419434
      ],
      [
        "форм",
        -10.212172508239746
      ],
      [
        "ическим",
        -10.21254825592041
      ],
      [
        "▁словно",
        -10.213006019592285
      ],
      [
        "▁местах",
        -10.213257789611816
      ],
      [
        "▁Уже",
        -10.214155197143555
      ],
      [
        "▁форму",
        -10.214789390563965
      ],
      [
        "▁начальник",
        -10.214982986450195
      ],
      [
        "▁команду",
        -10.21512508392334
      ],
      [
        "▁задач",
        -10.215336799621582
      ],
      [
        "▁правил",
        -10.215642929077148
      ],
      [
        "вест",
        -10.215707778930664
      ],
      [
        "▁Ку",
        -10.216134071350098
      ],
      [
        "▁оружия",
        -10.216292381286621
      ],
      [
        "▁военной",
        -10.216349601745605
      ],
      [
        "▁клуба",
        -10.21666431427002
      ],
      [
        "▁театра",
        -10.217218399047852
      ],
      [
        "твор",
        -10.217327117919922
      ],
      [
        "▁курс",
        -10.21767520904541
      ],
      [
        "▁отдел",
        -10.217757225036621
      ],
      [
        "▁раздел",
        -10.217804908752441
      ],
      [
        "▁Лит",
        -10.218050003051758
      ],
      [
        "вел",
        -10.218344688415527
      ],
      [
        "енная",
        -10.218435287475586
      ],
      [
        "кий",
        -10.218812942504883
      ],
      [
        "ka",
        -10.218978881835938
      ],
      [
        "▁второго",
        -10.219149589538574
      ],
      [
        "бит",
        -10.219564437866211
      ],
      [
        "▁сад",
        -10.219766616821289
      ],
      [
        "▁видно",
        -10.220043182373047
      ],
      [
        "ления",
        -10.22038459777832
      ],
      [
        "▁церковь",
        -10.221590995788574
      ],
      [
        "io",
        -10.222079277038574
      ],
      [
        "▁объем",
        -10.222542762756348
      ],
      [
        "▁рис",
        -10.222722053527832
      ],
      [
        "▁секрет",
        -10.222846031188965
      ],
      [
        "ang",
        -10.223604202270508
      ],
      [
        "▁Советского",
        -10.223998069763184
      ],
      [
        "▁авто",
        -10.224458694458008
      ],
      [
        "готов",
        -10.224499702453613
      ],
      [
        "▁новую",
        -10.224993705749512
      ],
      [
        "▁father",
        -10.224994659423828
      ],
      [
        "▁шаг",
        -10.22521686553955
      ],
      [
        "▁power",
        -10.225274085998535
      ],
      [
        "▁Pro",
        -10.2255220413208
      ],
      [
        "▁El",
        -10.225603103637695
      ],
      [
        "\\",
        -10.225606918334961
      ],
      [
        "▁скорость",
        -10.225752830505371
      ],
      [
        "▁острова",
        -10.22627067565918
      ],
      [
        "ющиеся",
        -10.22659683227539
      ],
      [
        "▁борьбе",
        -10.227069854736328
      ],
      [
        "▁села",
        -10.22906494140625
      ],
      [
        "▁контроль",
        -10.229386329650879
      ],
      [
        "▁большая",
        -10.22961139678955
      ],
      [
        "▁тепло",
        -10.229787826538086
      ],
      [
        "рам",
        -10.22990608215332
      ],
      [
        "▁Бел",
        -10.230210304260254
      ],
      [
        "▁качества",
        -10.23027229309082
      ],
      [
        "▁актив",
        -10.230616569519043
      ],
      [
        "▁сезона",
        -10.230722427368164
      ],
      [
        "▁late",
        -10.231151580810547
      ],
      [
        "цеп",
        -10.231412887573242
      ],
      [
        "▁такую",
        -10.23181438446045
      ],
      [
        "▁больших",
        -10.232072830200195
      ],
      [
        "▁успешно",
        -10.233506202697754
      ],
      [
        "<",
        -10.234143257141113
      ],
      [
        "▁армия",
        -10.234283447265625
      ],
      [
        "вшийся",
        -10.234540939331055
      ],
      [
        "▁чувство",
        -10.234589576721191
      ],
      [
        "▁пе",
        -10.234621047973633
      ],
      [
        "▁service",
        -10.235245704650879
      ],
      [
        "ah",
        -10.235987663269043
      ],
      [
        "рос",
        -10.23615550994873
      ],
      [
        "▁короля",
        -10.236798286437988
      ],
      [
        "▁обратно",
        -10.237096786499023
      ],
      [
        "▁вся",
        -10.2371826171875
      ],
      [
        "▁чувства",
        -10.237414360046387
      ],
      [
        "▁десять",
        -10.237998962402344
      ],
      [
        "аж",
        -10.238389015197754
      ],
      [
        "si",
        -10.238720893859863
      ],
      [
        "▁London",
        -10.238739013671875
      ],
      [
        "▁режим",
        -10.238869667053223
      ],
      [
        "▁based",
        -10.2393217086792
      ],
      [
        "хо",
        -10.239359855651855
      ],
      [
        "альной",
        -10.239697456359863
      ],
      [
        "▁Москву",
        -10.23988151550293
      ],
      [
        "рей",
        -10.240233421325684
      ],
      [
        "▁большей",
        -10.241352081298828
      ],
      [
        "▁школе",
        -10.242304801940918
      ],
      [
        "телем",
        -10.242704391479492
      ],
      [
        "▁профессор",
        -10.242745399475098
      ],
      [
        "▁become",
        -10.24276351928711
      ],
      [
        "кар",
        -10.243199348449707
      ],
      [
        "▁четырех",
        -10.243207931518555
      ],
      [
        "▁руководством",
        -10.243453025817871
      ],
      [
        "▁техники",
        -10.243558883666992
      ],
      [
        "▁Ра",
        -10.243651390075684
      ],
      [
        "▁редко",
        -10.244268417358398
      ],
      [
        "▁women",
        -10.244366645812988
      ],
      [
        "нул",
        -10.244476318359375
      ],
      [
        "зе",
        -10.244796752929688
      ],
      [
        "▁думаю",
        -10.245336532592773
      ],
      [
        "▁крест",
        -10.245497703552246
      ],
      [
        "▁пришел",
        -10.246068954467773
      ],
      [
        "▁войну",
        -10.246288299560547
      ],
      [
        "▁оказались",
        -10.246758460998535
      ],
      [
        "ting",
        -10.246816635131836
      ],
      [
        "вшиеся",
        -10.246891975402832
      ],
      [
        "▁называют",
        -10.246994018554688
      ],
      [
        "\";",
        -10.247380256652832
      ],
      [
        "ut",
        -10.2476806640625
      ],
      [
        "op",
        -10.248504638671875
      ],
      [
        "дом",
        -10.24975872039795
      ],
      [
        "▁порядка",
        -10.249893188476562
      ],
      [
        "▁смерть",
        -10.250090599060059
      ],
      [
        "▁Пре",
        -10.250160217285156
      ],
      [
        "▁требует",
        -10.250417709350586
      ],
      [
        "▁основной",
        -10.250791549682617
      ],
      [
        "▁жив",
        -10.251229286193848
      ],
      [
        "тели",
        -10.251806259155273
      ],
      [
        "▁объект",
        -10.251855850219727
      ],
      [
        "▁представитель",
        -10.251903533935547
      ],
      [
        "▁We",
        -10.252022743225098
      ],
      [
        "▁государственной",
        -10.252127647399902
      ],
      [
        "▁Мак",
        -10.2523775100708
      ],
      [
        "per",
        -10.252565383911133
      ],
      [
        "сел",
        -10.252731323242188
      ],
      [
        "ху",
        -10.25365161895752
      ],
      [
        "▁образование",
        -10.25367546081543
      ],
      [
        "▁Без",
        -10.253692626953125
      ],
      [
        "▁Тут",
        -10.253870010375977
      ],
      [
        "▁house",
        -10.253952980041504
      ],
      [
        "▁боевых",
        -10.254217147827148
      ],
      [
        "▁San",
        -10.254919052124023
      ],
      [
        "▁наше",
        -10.255138397216797
      ],
      [
        "ana",
        -10.255326271057129
      ],
      [
        "▁Мир",
        -10.255528450012207
      ],
      [
        "▁ЦК",
        -10.255687713623047
      ],
      [
        "ица",
        -10.255785942077637
      ],
      [
        "ial",
        -10.255964279174805
      ],
      [
        "▁проблема",
        -10.256071090698242
      ],
      [
        "гре",
        -10.256122589111328
      ],
      [
        "▁ин",
        -10.25621509552002
      ],
      [
        "▁мнение",
        -10.256391525268555
      ],
      [
        "/.",
        -10.256816864013672
      ],
      [
        "▁non",
        -10.2575101852417
      ],
      [
        "▁ноги",
        -10.25783920288086
      ],
      [
        "▁отношению",
        -10.258137702941895
      ],
      [
        "ner",
        -10.258299827575684
      ],
      [
        "▁пр",
        -10.258369445800781
      ],
      [
        "▁go",
        -10.25847053527832
      ],
      [
        "▁French",
        -10.258749961853027
      ],
      [
        "▁дочь",
        -10.259320259094238
      ],
      [
        "ложить",
        -10.259486198425293
      ],
      [
        "▁серии",
        -10.259584426879883
      ],
      [
        "▁Был",
        -10.260116577148438
      ],
      [
        "▁огонь",
        -10.260318756103516
      ],
      [
        "▁площади",
        -10.260664939880371
      ],
      [
        "▁книгу",
        -10.261146545410156
      ],
      [
        "шая",
        -10.261290550231934
      ],
      [
        "▁первое",
        -10.261357307434082
      ],
      [
        "▁without",
        -10.261384010314941
      ],
      [
        "▁общество",
        -10.261459350585938
      ],
      [
        "▁post",
        -10.26155948638916
      ],
      [
        "▁Ra",
        -10.261573791503906
      ],
      [
        "▁считал",
        -10.261635780334473
      ],
      [
        "▁Впрочем",
        -10.261950492858887
      ],
      [
        "▁third",
        -10.2620267868042
      ],
      [
        "▁Do",
        -10.262171745300293
      ],
      [
        "▁директор",
        -10.262360572814941
      ],
      [
        "▁взял",
        -10.262393951416016
      ],
      [
        "▁знаком",
        -10.262691497802734
      ],
      [
        "пис",
        -10.262895584106445
      ],
      [
        "енного",
        -10.26296615600586
      ],
      [
        "став",
        -10.263043403625488
      ],
      [
        "▁крайней",
        -10.263452529907227
      ],
      [
        "тра",
        -10.263631820678711
      ],
      [
        "зер",
        -10.263643264770508
      ],
      [
        "▁near",
        -10.263779640197754
      ],
      [
        "lin",
        -10.264139175415039
      ],
      [
        "▁бой",
        -10.264348983764648
      ],
      [
        "ec",
        -10.265449523925781
      ],
      [
        "Да",
        -10.266364097595215
      ],
      [
        "▁прием",
        -10.26639461517334
      ],
      [
        "▁научно",
        -10.266657829284668
      ],
      [
        "▁moved",
        -10.267149925231934
      ],
      [
        "ата",
        -10.267197608947754
      ],
      [
        "▁State",
        -10.267470359802246
      ],
      [
        "▁увидел",
        -10.26752758026123
      ],
      [
        "▁письма",
        -10.267593383789062
      ],
      [
        "▁Ба",
        -10.26771354675293
      ],
      [
        "▁en",
        -10.267777442932129
      ],
      [
        "▁форма",
        -10.268319129943848
      ],
      [
        "▁control",
        -10.268616676330566
      ],
      [
        "▁предприятия",
        -10.26891803741455
      ],
      [
        "кер",
        -10.269246101379395
      ],
      [
        "▁идти",
        -10.270257949829102
      ],
      [
        "▁человеку",
        -10.271450996398926
      ],
      [
        "▁говорится",
        -10.272125244140625
      ],
      [
        "▁книга",
        -10.272587776184082
      ],
      [
        "▁Италии",
        -10.273303031921387
      ],
      [
        "▁оказывается",
        -10.273530006408691
      ],
      [
        "▁country",
        -10.273652076721191
      ],
      [
        "дж",
        -10.273860931396484
      ],
      [
        "▁военного",
        -10.274029731750488
      ],
      [
        "▁проходит",
        -10.27431583404541
      ],
      [
        "▁land",
        -10.274452209472656
      ],
      [
        "▁помочь",
        -10.274507522583008
      ],
      [
        "ice",
        -10.274697303771973
      ],
      [
        "▁главный",
        -10.274877548217773
      ],
      [
        "▁using",
        -10.275076866149902
      ],
      [
        "▁университет",
        -10.275263786315918
      ],
      [
        "▁абсолютно",
        -10.275694847106934
      ],
      [
        "▁пара",
        -10.276104927062988
      ],
      [
        "▁промышленности",
        -10.277146339416504
      ],
      [
        "▁Сталин",
        -10.277266502380371
      ],
      [
        "лиз",
        -10.277551651000977
      ],
      [
        "▁West",
        -10.277750015258789
      ],
      [
        "ань",
        -10.277774810791016
      ],
      [
        "▁лично",
        -10.27791690826416
      ],
      [
        "▁расположен",
        -10.277937889099121
      ],
      [
        "▁создание",
        -10.278732299804688
      ],
      [
        "ish",
        -10.27877140045166
      ],
      [
        "://",
        -10.278914451599121
      ],
      [
        "руч",
        -10.279010772705078
      ],
      [
        "▁едва",
        -10.279325485229492
      ],
      [
        "▁правильно",
        -10.27950668334961
      ],
      [
        "▁двор",
        -10.280756950378418
      ],
      [
        "▁Ми",
        -10.280915260314941
      ],
      [
        "▁увидеть",
        -10.280993461608887
      ],
      [
        "ence",
        -10.281144142150879
      ],
      [
        "▁чемпионата",
        -10.281309127807617
      ],
      [
        "мон",
        -10.281532287597656
      ],
      [
        "▁Ленина",
        -10.28177261352539
      ],
      [
        "ot",
        -10.281828880310059
      ],
      [
        "▁however",
        -10.282181739807129
      ],
      [
        "▁original",
        -10.282302856445312
      ],
      [
        "di",
        -10.282549858093262
      ],
      [
        "▁своё",
        -10.283093452453613
      ],
      [
        "▁услуг",
        -10.283258438110352
      ],
      [
        "▁построен",
        -10.283329963684082
      ],
      [
        "▁понял",
        -10.283597946166992
      ],
      [
        "tic",
        -10.283904075622559
      ],
      [
        "▁объектов",
        -10.284153938293457
      ],
      [
        "ud",
        -10.2841796875
      ],
      [
        "▁говорили",
        -10.284225463867188
      ],
      [
        "▁представления",
        -10.284767150878906
      ],
      [
        "▁right",
        -10.285270690917969
      ],
      [
        "▁Возможно",
        -10.285314559936523
      ],
      [
        "▁следующие",
        -10.285680770874023
      ],
      [
        "▁сайт",
        -10.285807609558105
      ],
      [
        "▁военно",
        -10.28594970703125
      ],
      [
        "▁among",
        -10.286091804504395
      ],
      [
        "очный",
        -10.286211967468262
      ],
      [
        "▁активно",
        -10.28637409210205
      ],
      [
        "жив",
        -10.286558151245117
      ],
      [
        "▁мужчин",
        -10.286710739135742
      ],
      [
        "гин",
        -10.287075996398926
      ],
      [
        "▁how",
        -10.287256240844727
      ],
      [
        "▁подход",
        -10.287313461303711
      ],
      [
        "▁short",
        -10.287540435791016
      ],
      [
        "чен",
        -10.287606239318848
      ],
      [
        "\"),",
        -10.287666320800781
      ],
      [
        "▁лист",
        -10.288369178771973
      ],
      [
        "ьные",
        -10.288481712341309
      ],
      [
        "▁Бор",
        -10.288589477539062
      ],
      [
        "▁Эр",
        -10.288848876953125
      ],
      [
        "▁идея",
        -10.289179801940918
      ],
      [
        "▁никакого",
        -10.289278030395508
      ],
      [
        "▁зло",
        -10.289655685424805
      ],
      [
        "▁include",
        -10.289933204650879
      ],
      [
        "▁st",
        -10.290290832519531
      ],
      [
        "ир",
        -10.290719985961914
      ],
      [
        "▁строго",
        -10.290884017944336
      ],
      [
        "ally",
        -10.29089641571045
      ],
      [
        "▁car",
        -10.29154109954834
      ],
      [
        "ион",
        -10.291683197021484
      ],
      [
        "▁Совет",
        -10.291943550109863
      ],
      [
        "▁дальнейшем",
        -10.292227745056152
      ],
      [
        "▁данном",
        -10.292755126953125
      ],
      [
        "ике",
        -10.293780326843262
      ],
      [
        "▁town",
        -10.294204711914062
      ],
      [
        "],",
        -10.294300079345703
      ],
      [
        "ci",
        -10.29432201385498
      ],
      [
        "эр",
        -10.294639587402344
      ],
      [
        "лез",
        -10.29472827911377
      ],
      [
        "▁естественно",
        -10.295212745666504
      ],
      [
        "ized",
        -10.295316696166992
      ],
      [
        "дав",
        -10.295897483825684
      ],
      [
        "▁порт",
        -10.29603099822998
      ],
      [
        "▁материал",
        -10.296156883239746
      ],
      [
        "▁участников",
        -10.29625129699707
      ],
      [
        "▁здания",
        -10.296277046203613
      ],
      [
        "▁нес",
        -10.29666805267334
      ],
      [
        "▁Три",
        -10.297015190124512
      ],
      [
        "▁крупных",
        -10.297441482543945
      ],
      [
        "ять",
        -10.297584533691406
      ],
      [
        "▁задача",
        -10.297750473022461
      ],
      [
        "так",
        -10.298151969909668
      ],
      [
        "▁особенности",
        -10.298230171203613
      ],
      [
        "гран",
        -10.298712730407715
      ],
      [
        "▁top",
        -10.298890113830566
      ],
      [
        "куп",
        -10.29908275604248
      ],
      [
        "▁ограничен",
        -10.299247741699219
      ],
      [
        "▁первая",
        -10.299474716186523
      ],
      [
        "емые",
        -10.29992961883545
      ],
      [
        "▁анализ",
        -10.300357818603516
      ],
      [
        "▁писать",
        -10.300684928894043
      ],
      [
        "бан",
        -10.300697326660156
      ],
      [
        "▁ряда",
        -10.3010892868042
      ],
      [
        "▁published",
        -10.301464080810547
      ],
      [
        "▁элементов",
        -10.301623344421387
      ],
      [
        "▁некоторое",
        -10.301642417907715
      ],
      [
        "атор",
        -10.302749633789062
      ],
      [
        "▁стандарт",
        -10.302974700927734
      ],
      [
        "▁di",
        -10.30394172668457
      ],
      [
        "бел",
        -10.3040132522583
      ],
      [
        "▁блок",
        -10.304383277893066
      ],
      [
        "▁стол",
        -10.30472183227539
      ],
      [
        "▁возникает",
        -10.304835319519043
      ],
      [
        "зд",
        -10.304899215698242
      ],
      [
        "less",
        -10.304953575134277
      ],
      [
        "рев",
        -10.305511474609375
      ],
      [
        "▁транспорт",
        -10.306533813476562
      ],
      [
        "▁очевидно",
        -10.30655288696289
      ],
      [
        "▁деятель",
        -10.306557655334473
      ],
      [
        "▁статус",
        -10.306568145751953
      ],
      [
        "▁млрд",
        -10.306763648986816
      ],
      [
        "▁предмет",
        -10.306825637817383
      ],
      [
        "эй",
        -10.306947708129883
      ],
      [
        "▁свободы",
        -10.307271003723145
      ],
      [
        "▁позднее",
        -10.307331085205078
      ],
      [
        "▁Go",
        -10.307467460632324
      ],
      [
        "вшего",
        -10.307971000671387
      ],
      [
        "▁образован",
        -10.30801773071289
      ],
      [
        "▁national",
        -10.308084487915039
      ],
      [
        "▁сельского",
        -10.308662414550781
      ],
      [
        "▁чемпионате",
        -10.308749198913574
      ],
      [
        "▁having",
        -10.309526443481445
      ],
      [
        "ьный",
        -10.309656143188477
      ],
      [
        "▁болезни",
        -10.310717582702637
      ],
      [
        "нут",
        -10.311089515686035
      ],
      [
        "▁какая",
        -10.311241149902344
      ],
      [
        "▁окончания",
        -10.31141471862793
      ],
      [
        "▁Her",
        -10.311781883239746
      ],
      [
        "▁видим",
        -10.311888694763184
      ],
      [
        "▁King",
        -10.312213897705078
      ],
      [
        "эт",
        -10.312277793884277
      ],
      [
        "▁Хо",
        -10.312532424926758
      ],
      [
        "▁пункт",
        -10.312634468078613
      ],
      [
        "▁Сегодня",
        -10.312702178955078
      ],
      [
        "▁память",
        -10.313226699829102
      ],
      [
        "▁института",
        -10.313529014587402
      ],
      [
        "▁автора",
        -10.313661575317383
      ],
      [
        "▁вывод",
        -10.313669204711914
      ],
      [
        "▁какого",
        -10.31501293182373
      ],
      [
        "▁какую",
        -10.315889358520508
      ],
      [
        "▁Бу",
        -10.316006660461426
      ],
      [
        "ke",
        -10.316143989562988
      ],
      [
        "▁Иванович",
        -10.316505432128906
      ],
      [
        "▁These",
        -10.317392349243164
      ],
      [
        "▁конец",
        -10.317647933959961
      ],
      [
        "▁поведения",
        -10.317727088928223
      ],
      [
        "▁вкус",
        -10.31774616241455
      ],
      [
        "▁исследований",
        -10.318120002746582
      ],
      [
        "крат",
        -10.318347930908203
      ],
      [
        "▁Car",
        -10.318785667419434
      ],
      [
        "коп",
        -10.318794250488281
      ],
      [
        "▁вынужден",
        -10.319043159484863
      ],
      [
        "▁откуда",
        -10.319117546081543
      ],
      [
        "▁role",
        -10.319231986999512
      ],
      [
        "▁сюжет",
        -10.319332122802734
      ],
      [
        "line",
        -10.319461822509766
      ],
      [
        "▁should",
        -10.319705963134766
      ],
      [
        "▁службу",
        -10.319839477539062
      ],
      [
        "нич",
        -10.3201322555542
      ],
      [
        "▁производство",
        -10.320595741271973
      ],
      [
        "Про",
        -10.320759773254395
      ],
      [
        "▁остров",
        -10.32109260559082
      ],
      [
        "▁доктор",
        -10.321118354797363
      ],
      [
        "▁институт",
        -10.322031021118164
      ],
      [
        "net",
        -10.322614669799805
      ],
      [
        "При",
        -10.323226928710938
      ],
      [
        "▁рождения",
        -10.3233003616333
      ],
      [
        "▁полной",
        -10.323800086975098
      ],
      [
        "▁водой",
        -10.323821067810059
      ],
      [
        "▁объекта",
        -10.323993682861328
      ],
      [
        "▁пусть",
        -10.324057579040527
      ],
      [
        "▁мозг",
        -10.324403762817383
      ],
      [
        "▁Пар",
        -10.32442855834961
      ],
      [
        "▁нечто",
        -10.32462215423584
      ],
      [
        "▁спросил",
        -10.324799537658691
      ],
      [
        "▁должности",
        -10.325098991394043
      ],
      [
        "▁компьютер",
        -10.325695037841797
      ],
      [
        "▁момента",
        -10.325876235961914
      ],
      [
        "▁Джон",
        -10.325998306274414
      ],
      [
        "▁development",
        -10.326140403747559
      ],
      [
        "▁случайно",
        -10.326221466064453
      ],
      [
        "▁station",
        -10.326642036437988
      ],
      [
        "▁состава",
        -10.326738357543945
      ],
      [
        "fe",
        -10.326786994934082
      ],
      [
        "▁матче",
        -10.326815605163574
      ],
      [
        "▁фактически",
        -10.327085494995117
      ],
      [
        "▁чисто",
        -10.327095985412598
      ],
      [
        "▁son",
        -10.327644348144531
      ],
      [
        "out",
        -10.328195571899414
      ],
      [
        "▁Ро",
        -10.328534126281738
      ],
      [
        "▁страх",
        -10.329306602478027
      ],
      [
        "ship",
        -10.329413414001465
      ],
      [
        "▁штаб",
        -10.329469680786133
      ],
      [
        "▁возраста",
        -10.329550743103027
      ],
      [
        "ального",
        -10.329800605773926
      ],
      [
        "▁недели",
        -10.330598831176758
      ],
      [
        "щей",
        -10.330735206604004
      ],
      [
        "▁Y",
        -10.33113956451416
      ],
      [
        "овыми",
        -10.331748008728027
      ],
      [
        "▁окончательно",
        -10.331782341003418
      ],
      [
        "▁немедленно",
        -10.331965446472168
      ],
      [
        "▁Бога",
        -10.332164764404297
      ],
      [
        "поль",
        -10.332249641418457
      ],
      [
        "▁Кур",
        -10.333569526672363
      ],
      [
        "цов",
        -10.333881378173828
      ],
      [
        "▁министр",
        -10.334077835083008
      ],
      [
        "▁So",
        -10.33411693572998
      ],
      [
        "кс",
        -10.33430004119873
      ],
      [
        "ало",
        -10.33435344696045
      ],
      [
        "▁Правда",
        -10.33493709564209
      ],
      [
        "tro",
        -10.335091590881348
      ],
      [
        "▁номер",
        -10.335293769836426
      ],
      [
        "▁died",
        -10.33566665649414
      ],
      [
        "▁started",
        -10.335919380187988
      ],
      [
        "▁рук",
        -10.337238311767578
      ],
      [
        "ест",
        -10.337491035461426
      ],
      [
        "▁Ka",
        -10.337715148925781
      ],
      [
        "▁six",
        -10.338077545166016
      ],
      [
        "ill",
        -10.3381986618042
      ],
      [
        "▁Би",
        -10.338335990905762
      ],
      [
        "▁решили",
        -10.338565826416016
      ],
      [
        "▁участвовал",
        -10.33886432647705
      ],
      [
        "сы",
        -10.339247703552246
      ],
      [
        "za",
        -10.339334487915039
      ],
      [
        "▁контракт",
        -10.339341163635254
      ],
      [
        "▁представителей",
        -10.340004920959473
      ],
      [
        "▁IV",
        -10.34074592590332
      ],
      [
        "▁эффект",
        -10.341236114501953
      ],
      [
        "end",
        -10.341750144958496
      ],
      [
        "▁порядок",
        -10.342021942138672
      ],
      [
        "▁случаев",
        -10.342387199401855
      ],
      [
        "вед",
        -10.34257698059082
      ],
      [
        "▁государство",
        -10.342598915100098
      ],
      [
        "▁air",
        -10.342628479003906
      ],
      [
        "джи",
        -10.343579292297363
      ],
      [
        "▁погиб",
        -10.34412956237793
      ],
      [
        "▁начать",
        -10.344435691833496
      ],
      [
        "▁знания",
        -10.344881057739258
      ],
      [
        "▁Сер",
        -10.345130920410156
      ],
      [
        "▁успех",
        -10.345318794250488
      ],
      [
        "▁сказала",
        -10.346513748168945
      ],
      [
        "▁начинается",
        -10.347086906433105
      ],
      [
        "▁опер",
        -10.347148895263672
      ],
      [
        "▁цикл",
        -10.347380638122559
      ],
      [
        "▁рыб",
        -10.348143577575684
      ],
      [
        "Z",
        -10.34830093383789
      ],
      [
        "▁song",
        -10.348684310913086
      ],
      [
        "▁каждом",
        -10.34911823272705
      ],
      [
        "dy",
        -10.349150657653809
      ],
      [
        "ует",
        -10.349360466003418
      ],
      [
        "▁Андрей",
        -10.350260734558105
      ],
      [
        "▁самолета",
        -10.35046672821045
      ],
      [
        "▁Земли",
        -10.350693702697754
      ],
      [
        "▁ход",
        -10.350789070129395
      ],
      [
        "лег",
        -10.352365493774414
      ],
      [
        "един",
        -10.352758407592773
      ],
      [
        "▁данной",
        -10.352951049804688
      ],
      [
        "▁иностранных",
        -10.353134155273438
      ],
      [
        "▁флота",
        -10.353317260742188
      ],
      [
        "▁кол",
        -10.353594779968262
      ],
      [
        "ог",
        -10.353713035583496
      ],
      [
        "▁every",
        -10.353806495666504
      ],
      [
        "▁Карл",
        -10.353880882263184
      ],
      [
        "▁вклад",
        -10.353957176208496
      ],
      [
        "дал",
        -10.354796409606934
      ],
      [
        "Мы",
        -10.354981422424316
      ],
      [
        "▁устройства",
        -10.355196952819824
      ],
      [
        "▁Поскольку",
        -10.355355262756348
      ],
      [
        "▁представить",
        -10.355476379394531
      ],
      [
        "ений",
        -10.355745315551758
      ],
      [
        "реш",
        -10.3558988571167
      ],
      [
        "▁history",
        -10.356170654296875
      ],
      [
        "▁появились",
        -10.356285095214844
      ],
      [
        "▁служил",
        -10.356587409973145
      ],
      [
        "▁чему",
        -10.356902122497559
      ],
      [
        "мар",
        -10.356969833374023
      ],
      [
        "▁одному",
        -10.357378005981445
      ],
      [
        "▁насколько",
        -10.358392715454102
      ],
      [
        "чка",
        -10.358551025390625
      ],
      [
        "▁политической",
        -10.35856819152832
      ],
      [
        "▁ТАСС",
        -10.35886001586914
      ],
      [
        "сп",
        -10.359026908874512
      ],
      [
        "цен",
        -10.359366416931152
      ],
      [
        "▁la",
        -10.359588623046875
      ],
      [
        "▁периода",
        -10.360343933105469
      ],
      [
        "▁Po",
        -10.360678672790527
      ],
      [
        "ong",
        -10.361180305480957
      ],
      [
        "▁Каждый",
        -10.361221313476562
      ],
      [
        "▁штаба",
        -10.36131763458252
      ],
      [
        "▁announced",
        -10.361528396606445
      ],
      [
        "кал",
        -10.362170219421387
      ],
      [
        "▁member",
        -10.36232852935791
      ],
      [
        "▁Иногда",
        -10.36279010772705
      ],
      [
        "ium",
        -10.364109992980957
      ],
      [
        "▁модель",
        -10.364129066467285
      ],
      [
        "▁Air",
        -10.364165306091309
      ],
      [
        "▁современной",
        -10.364212036132812
      ],
      [
        "▁continued",
        -10.364492416381836
      ],
      [
        "▁days",
        -10.365241050720215
      ],
      [
        "▁Na",
        -10.365315437316895
      ],
      [
        "▁небольшой",
        -10.365545272827148
      ],
      [
        "оф",
        -10.365555763244629
      ],
      [
        "ating",
        -10.365605354309082
      ],
      [
        "ража",
        -10.365720748901367
      ],
      [
        "▁best",
        -10.366477012634277
      ],
      [
        "▁ныне",
        -10.36656665802002
      ],
      [
        "▁входит",
        -10.367317199707031
      ],
      [
        "▁Ти",
        -10.367378234863281
      ],
      [
        "▁given",
        -10.367980003356934
      ],
      [
        "▁данный",
        -10.369061470031738
      ],
      [
        "▁political",
        -10.369462966918945
      ],
      [
        "той",
        -10.36949634552002
      ],
      [
        "жал",
        -10.369526863098145
      ],
      [
        "▁Рис",
        -10.369693756103516
      ],
      [
        "щие",
        -10.369993209838867
      ],
      [
        "▁never",
        -10.370098114013672
      ],
      [
        "Как",
        -10.370189666748047
      ],
      [
        "ck",
        -10.370266914367676
      ],
      [
        "ors",
        -10.370342254638672
      ],
      [
        "▁Dr",
        -10.370711326599121
      ],
      [
        "▁характера",
        -10.371210098266602
      ],
      [
        "летний",
        -10.371527671813965
      ],
      [
        "om",
        -10.371552467346191
      ],
      [
        "ier",
        -10.372161865234375
      ],
      [
        "▁создан",
        -10.37226676940918
      ],
      [
        "▁разговор",
        -10.372583389282227
      ],
      [
        "раж",
        -10.373161315917969
      ],
      [
        "▁himself",
        -10.373211860656738
      ],
      [
        "▁спокойно",
        -10.373613357543945
      ],
      [
        "▁получения",
        -10.37374210357666
      ],
      [
        "▁point",
        -10.374208450317383
      ],
      [
        "ina",
        -10.374424934387207
      ],
      [
        "▁титул",
        -10.376646995544434
      ],
      [
        "кур",
        -10.377029418945312
      ],
      [
        "▁основании",
        -10.377455711364746
      ],
      [
        "ung",
        -10.37757396697998
      ],
      [
        "▁run",
        -10.377652168273926
      ],
      [
        "▁club",
        -10.377884864807129
      ],
[...]
