{
  "version": "1.0",
  "truncation": null,
  "padding": null,
  "added_tokens": [
    {
      "id": 0,
      "content": "<unk>",
      "single_word": false,
      "lstrip": false,
      "rstrip": false,
      "normalized": false,
      "special": true
    },
    {
      "id": 1,
      "content": "<s>",
      "single_word": false,
      "lstrip": false,
      "rstrip": false,
      "normalized": false,
      "special": true
    },
    {
      "id": 2,
      "content": "</s>",
      "single_word": false,
      "lstrip": false,
      "rstrip": false,
      "normalized": false,
      "special": true
    }
  ],
  "normalizer": {
    "type": "Sequence",
    "normalizers": [
      {
        "type": "Prepend",
        "prepend": "▁"
      },
      {
        "type": "Replace",
        "pattern": {
          "String": " "
        },
        "content": "▁"
      }
    ]
  },
  "pre_tokenizer": null,
  "post_processor": {
    "type": "TemplateProcessing",
    "single": [
      {
        "SpecialToken": {
          "id": "<s>",
          "type_id": 0
        }
      },
      {
        "Sequence": {
          "id": "A",
          "type_id": 0
        }
      }
    ],
    "pair": [
      {
        "SpecialToken": {
          "id": "<s>",
          "type_id": 0
        }
      },
      {
        "Sequence": {
          "id": "A",
          "type_id": 0
        }
      },
      {
        "SpecialToken": {
          "id": "<s>",
          "type_id": 1
        }
      },
      {
        "Sequence": {
          "id": "B",
          "type_id": 1
        }
      }
    ],
    "special_tokens": {
      "<s>": {
        "id": "<s>",
        "ids": [
          1
        ],
        "tokens": [
          "<s>"
        ]
      }
    }
  },
  "decoder": {
    "type": "Sequence",
    "decoders": [
      {
        "type": "Replace",
        "pattern": {
          "String": "▁"
        },
        "content": " "
      },
      {
        "type": "ByteFallback"
      },
      {
        "type": "Fuse"
      },
      {
        "type": "Strip",
        "content": " ",
        "start": 1,
        "stop": 0
      }
    ]
  },
  "model": {
    "type": "BPE",
    "dropout": null,
    "unk_token": "<unk>",
    "continuing_subword_prefix": null,
    "end_of_word_suffix": null,
    "fuse_unk": true,
    "byte_fallback": true,
    "vocab": {
      "<unk>": 0,
      "<s>": 1,
      "</s>": 2,
      "<0x00>": 3,
      "<0x01>": 4,
      "<0x02>": 5,
      "<0x03>": 6,
      "<0x04>": 7,
      "<0x05>": 8,
      "<0x06>": 9,
      "<0x07>": 10,
      "<0x08>": 11,
      "<0x09>": 12,
      "<0x0A>": 13,
      "<0x0B>": 14,
      "<0x0C>": 15,
      "<0x0D>": 16,
      "<0x0E>": 17,
      "<0x0F>": 18,
      "<0x10>": 19,
      "<0x11>": 20,
      "<0x12>": 21,
      "<0x13>": 22,
      "<0x14>": 23,
      "<0x15>": 24,
      "<0x16>": 25,
      "<0x17>": 26,
      "<0x18>": 27,
      "<0x19>": 28,
      "<0x1A>": 29,
      "<0x1B>": 30,
      "<0x1C>": 31,
      "<0x1D>": 32,
      "<0x1E>": 33,
      "<0x1F>": 34,
      "<0x20>": 35,
      "<0x21>": 36,
      "<0x22>": 37,
      "<0x23>": 38,
      "<0x24>": 39,
      "<0x25>": 40,
      "<0x26>": 41,
      "<0x27>": 42,
      "<0x28>": 43,
      "<0x29>": 44,
      "<0x2A>": 45,
      "<0x2B>": 46,
      "<0x2C>": 47,
      "<0x2D>": 48,
      "<0x2E>": 49,
      "<0x2F>": 50,
      "<0x30>": 51,
      "<0x31>": 52,
      "<0x32>": 53,
      "<0x33>": 54,
      "<0x34>": 55,
      "<0x35>": 56,
      "<0x36>": 57,
      "<0x37>": 58,
      "<0x38>": 59,
      "<0x39>": 60,
      "<0x3A>": 61,
      "<0x3B>": 62,
      "<0x3C>": 63,
      "<0x3D>": 64,
      "<0x3E>": 65,
      "<0x3F>": 66,
      "<0x40>": 67,
      "<0x41>": 68,
      "<0x42>": 69,
      "<0x43>": 70,
      "<0x44>": 71,
      "<0x45>": 72,
      "<0x46>": 73,
      "<0x47>": 74,
      "<0x48>": 75,
      "<0x49>": 76,
      "<0x4A>": 77,
      "<0x4B>": 78,
      "<0x4C>": 79,
      "<0x4D>": 80,
      "<0x4E>": 81,
      "<0x4F>": 82,
      "<0x50>": 83,
      "<0x51>": 84,
      "<0x52>": 85,
      "<0x53>": 86,
      "<0x54>": 87,
      "<0x55>": 88,
      "<0x56>": 89,
      "<0x57>": 90,
      "<0x58>": 91,
      "<0x59>": 92,
      "<0x5A>": 93,
      "<0x5B>": 94,
      "<0x5C>": 95,
      "<0x5D>": 96,
      "<0x5E>": 97,
      "<0x5F>": 98,
      "<0x60>": 99,
      "<0x61>": 100,
      "<0x62>": 101,
      "<0x63>": 102,
      "<0x64>": 103,
      "<0x65>": 104,
      "<0x66>": 105,
      "<0x67>": 106,
      "<0x68>": 107,
      "<0x69>": 108,
      "<0x6A>": 109,
      "<0x6B>": 110,
      "<0x6C>": 111,
      "<0x6D>": 112,
      "<0x6E>": 113,
      "<0x6F>": 114,
      "<0x70>": 115,
      "<0x71>": 116,
      "<0x72>": 117,
      "<0x73>": 118,
      "<0x74>": 119,
      "<0x75>": 120,
      "<0x76>": 121,
      "<0x77>": 122,
      "<0x78>": 123,
      "<0x79>": 124,
      "<0x7A>": 125,
      "<0x7B>": 126,
      "<0x7C>": 127,
      "<0x7D>": 128,
      "<0x7E>": 129,
      "<0x7F>": 130,
      "<0x80>": 131,
      "<0x81>": 132,
      "<0x82>": 133,
      "<0x83>": 134,
      "<0x84>": 135,
      "<0x85>": 136,
      "<0x86>": 137,
      "<0x87>": 138,
      "<0x88>": 139,
      "<0x89>": 140,
      "<0x8A>": 141,
      "<0x8B>": 142,
      "<0x8C>": 143,
      "<0x8D>": 144,
      "<0x8E>": 145,
      "<0x8F>": 146,
      "<0x90>": 147,
      "<0x91>": 148,
      "<0x92>": 149,
      "<0x93>": 150,
      "<0x94>": 151,
      "<0x95>": 152,
      "<0x96>": 153,
      "<0x97>": 154,
      "<0x98>": 155,
      "<0x99>": 156,
      "<0x9A>": 157,
      "<0x9B>": 158,
      "<0x9C>": 159,
      "<0x9D>": 160,
      "<0x9E>": 161,
      "<0x9F>": 162,
      "<0xA0>": 163,
      "<0xA1>": 164,
      "<0xA2>": 165,
      "<0xA3>": 166,
      "<0xA4>": 167,
      "<0xA5>": 168,
      "<0xA6>": 169,
      "<0xA7>": 170,
      "<0xA8>": 171,
      "<0xA9>": 172,
      "<0xAA>": 173,
      "<0xAB>": 174,
      "<0xAC>": 175,
      "<0xAD>": 176,
      "<0xAE>": 177,
      "<0xAF>": 178,
      "<0xB0>": 179,
      "<0xB1>": 180,
      "<0xB2>": 181,
      "<0xB3>": 182,
      "<0xB4>": 183,
      "<0xB5>": 184,
      "<0xB6>": 185,
      "<0xB7>": 186,
      "<0xB8>": 187,
      "<0xB9>": 188,
      "<0xBA>": 189,
      "<0xBB>": 190,
      "<0xBC>": 191,
      "<0xBD>": 192,
      "<0xBE>": 193,
      "<0xBF>": 194,
      "<0xC0>": 195,
      "<0xC1>": 196,
      "<0xC2>": 197,
      "<0xC3>": 198,
      "<0xC4>": 199,
      "<0xC5>": 200,
      "<0xC6>": 201,
      "<0xC7>": 202,
      "<0xC8>": 203,
      "<0xC9>": 204,
      "<0xCA>": 205,
      "<0xCB>": 206,
      "<0xCC>": 207,
      "<0xCD>": 208,
      "<0xCE>": 209,
      "<0xCF>": 210,
      "<0xD0>": 211,
      "<0xD1>": 212,
      "<0xD2>": 213,
      "<0xD3>": 214,
      "<0xD4>": 215,
      "<0xD5>": 216,
      "<0xD6>": 217,
      "<0xD7>": 218,
      "<0xD8>": 219,
      "<0xD9>": 220,
      "<0xDA>": 221,
      "<0xDB>": 222,
      "<0xDC>": 223,
      "<0xDD>": 224,
      "<0xDE>": 225,
      "<0xDF>": 226,
      "<0xE0>": 227,
      "<0xE1>": 228,
      "<0xE2>": 229,
      "<0xE3>": 230,
      "<0xE4>": 231,
      "<0xE5>": 232,
      "<0xE6>": 233,
      "<0xE7>": 234,
      "<0xE8>": 235,
      "<0xE9>": 236,
      "<0xEA>": 237,
      "<0xEB>": 238,
      "<0xEC>": 239,
      "<0xED>": 240,
      "<0xEE>": 241,
      "<0xEF>": 242,
      "<0xF0>": 243,
      "<0xF1>": 244,
      "<0xF2>": 245,
      "<0xF3>": 246,
      "<0xF4>": 247,
      "<0xF5>": 248,
      "<0xF6>": 249,
      "<0xF7>": 250,
      "<0xF8>": 251,
      "<0xF9>": 252,
      "<0xFA>": 253,
      "<0xFB>": 254,
      "<0xFC>": 255,
      "<0xFD>": 256,
      "<0xFE>": 257,
      "<0xFF>": 258,
      "▁п": 259,
      "ст": 260,
      "▁в": 261,
      "▁с": 262,
      "но": 263,
      "ни": 264,
      "на": 265,
      "ра": 266,
      "▁и": 267,
      "ко": 268,
      "то": 269,
      "▁о": 270,
      "ро": 271,
      "ре": 272,
      "го": 273,
      "ли": 274,
      "не": 275,
      "▁по": 276,
      "▁д": 277,
      "ва": 278,
      "ле": 279,
      "ка": 280,
      "ль": 281,
      "ны": 282,
      "ри": 283,
      "те": 284,
      "▁на": 285,
      "▁м": 286,
      "▁t": 287,
      "ло": 288,
      "ла": 289,
      "во": 290,
      "▁б": 291,
      "he": 292,
      "та": 293,
      "ен": 294,
      "за": 295,
      "ет": 296,
      "▁a": 297,
      "ки": 298,
      "да": 299,
      "in": 300,
      "ть": 301,
      "▁не": 302,
      "че": 303,
      "ся": 304,
      "ер": 305,
      "▁у": 306,
      "ти": 307,
      "ми": 308,
      "▁ко": 309,
      "er": 310,
      "▁the": 311,
      "де": 312,
      "ви": 313,
      "ру": 314,
      "on": 315,
      "▁ч": 316,
      "ди": 317,
      "же": 318,
      "▁за": 319,
      "▁ра": 320,
      "▁со": 321,
      "▁к": 322,
      "ста": 323,
      "ля": 324,
      "▁В": 325,
      "re": 326,
      "ско": 327,
      "▁про": 328,
      "▁а": 329,
      "ци": 330,
      "ве": 331,
      "ния": 332,
      "ма": 333,
      "▁э": 334,
      "мо": 335,
      "ние": 336,
      "до": 337,
      "ме": 338,
      "по": 339,
      "▁е": 340,
      "▁o": 341,
      "▁s": 342,
      "▁П": 343,
      "▁от": 344,
      "▁во": 345,
      "▁го": 346,
      "▁С": 347,
      "▁w": 348,
      "бо": 349,
      "▁при": 350,
      "сти": 351,
      "ed": 352,
      "nd": 353,
      "сто": 354,
      "at": 355,
      "▁ка": 356,
      "хо": 357,
      "▁бы": 358,
      "▁-": 359,
      "▁г": 360,
      "▁об": 361,
      "ча": 362,
      "▁\"": 363,
      "се": 364,
      "чи": 365,
      "▁до": 366,
      "▁то": 367,
      "en": 368,
      "or": 369,
      "ски": 370,
      "▁что": 371,
      "сь": 372,
      "ры": 373,
      "it": 374,
      "is": 375,
      "ше": 376,
      "ной": 377,
      "ду": 378,
      "▁c": 379,
      "▁К": 380,
      "an": 381,
      "ще": 382,
      "es": 383,
      "си": 384,
      "ar": 385,
      "ну": 386,
      "▁f": 387,
      "al": 388,
      "▁вы": 389,
      "▁из": 390,
      "▁of": 391,
      "му": 392,
      "ных": 393,
      "ши": 394,
      "▁Н": 395,
      "▁мо": 396,
      "▁in": 397,
      "▁т": 398,
      "▁b": 399,
      "со": 400,
      "жи": 401,
      "лу": 402,
      "ного": 403,
      "тель": 404,
      "▁(": 405,
      "▁p": 406,
      "▁М": 407,
      "ку": 408,
      "ing": 409,
      "сть": 410,
      "га": 411,
      "ги": 412,
      "as": 413,
      "▁пре": 414,
      "▁and": 415,
      "вы": 416,
      "ере": 417,
      "▁О": 418,
      "▁ре": 419,
      "▁та": 420,
      "па": 421,
      "ные": 422,
      "▁ф": 423,
      "▁это": 424,
      "▁те": 425,
      "са": 426,
      "ств": 427,
      "▁А": 428,
      "щи": 429,
      "ic": 430,
      "▁to": 431,
      "ный": 432,
      "ro": 433,
      "▁з": 434,
      "лю": 435,
      "▁де": 436,
      "▁m": 437,
      "▁раз": 438,
      "пи": 439,
      "ion": 440,
      "▁бо": 441,
      "ют": 442,
      "ря": 443,
      "▁И": 444,
      "▁я": 445,
      "▁d": 446,
      "▁но": 447,
      "ня": 448,
      "▁h": 449,
      "▁кото": 450,
      "▁Д": 451,
      "ем": 452,
      "le": 453,
      "▁Р": 454,
      "ту": 455,
      "▁Т": 456,
      "ты": 457,
      "▁ме": 458,
      "зо": 459,
      "ou": 460,
      "ется": 461,
      "пе": 462,
      "▁Б": 463,
      "▁че": 464,
      "це": 465,
      "жа": 466,
      "▁все": 467,
      "▁ма": 468,
      "мен": 469,
      "▁T": 470,
      "▁под": 471,
      "сле": 472,
      "▁как": 473,
      "зи": 474,
      "ство": 475,
      "▁S": 476,
      "▁Г": 477,
      "▁сво": 478,
      "▁се": 479,
      "▁ст": 480,
      "▁По": 481,
      "▁A": 482,
      "ent": 483,
      "il": 484,
      "би": 485,
      "вер": 486,
      "▁ста": 487,
      "..": 488,
      "ской": 489,
      "▁ли": 490,
      "ным": 491,
      "ции": 492,
      "вле": 493,
      "нии": 494,
      "▁ни": 495,
      "▁да": 496,
      "▁са": 497,
      "▁—": 498,
      "▁C": 499,
      "▁re": 500,
      "▁«": 501,
      "st": 502,
      "▁пере": 503,
      "бы": 504,
      "ды": 505,
      "ска": 506,
      "▁ве": 507,
      "ского": 508,
      "▁его": 509,
      "ное": 510,
      "ке": 511,
      "ствен": 512,
      "▁n": 513,
      "el": 514,
      "om": 515,
      "▁для": 516,
      "мы": 517,
      "ная": 518,
      "су": 519,
      "▁I": 520,
      "▁же": 521,
      "ров": 522,
      "спо": 523,
      "зы": 524,
      "лся": 525,
      "бе": 526,
      "ков": 527,
      "▁си": 528,
      "ей": 529,
      "▁th": 530,
      "жно": 531,
      "ар": 532,
      "▁l": 533,
      "вать": 534,
      "ор": 535,
      "чески": 536,
      "am": 537,
      "об": 538,
      "ша": 539,
      "▁Л": 540,
      "ном": 541,
      "▁он": 542,
      "ct": 543,
      "▁M": 544,
      "гда": 545,
      "ства": 546,
      "нов": 547,
      "▁так": 548,
      "▁e": 549,
      "ad": 550,
      "▁пред": 551,
      "ol": 552,
      "▁ми": 553,
      "ха": 554,
      "вля": 555,
      "ца": 556,
      "▁которы": 557,
      "et": 558,
      "ба": 559,
      "лько": 560,
      "гра": 561,
      "ности": 562,
      "пу": 563,
      "▁бе": 564,
      "▁ле": 565,
      "▁су": 566,
      "▁года": 567,
      "ний": 568,
      "▁кон": 569,
      "он": 570,
      "▁На": 571,
      "ur": 572,
      "▁was": 573,
      "▁ин": 574,
      "▁B": 575,
      "про": 576,
      "▁воз": 577,
      "ходи": 578,
      "сси": 579,
      "гу": 580,
      "id": 581,
      "ность": 582,
      "▁жи": 583,
      "ющи": 584,
      "▁бу": 585,
      "ch": 586,
      "мя": 587,
      "рова": 588,
      "▁ро": 589,
      "вет": 590,
      "im": 591,
      "лы": 592,
      "тов": 593,
      "▁хо": 594,
      "▁дру": 595,
      "▁Е": 596,
      "iv": 597,
      "▁P": 598,
      "▁или": 599,
      "ща": 600,
      "лись": 601,
      "▁рас": 602,
      "▁The": 603,
      "ly": 604,
      "▁З": 605,
      "▁on": 606,
      "каза": 607,
      "▁Э": 608,
      "ot": 609,
      "ce": 610,
      "ut": 611,
      "пра": 612,
      "▁пра": 613,
      "▁од": 614,
      "зу": 615,
      "▁вре": 616,
      "фи": 617,
      "▁H": 618,
      "ться": 619,
      "▁g": 620,
      "кой": 621,
      "ран": 622,
      "аль": 623,
      "▁ча": 624,
      "ig": 625,
      "▁for": 626,
      "▁У": 627,
      "тив": 628,
      "ir": 629,
      "us": 630,
      "ак": 631,
      "ский": 632,
      "▁был": 633,
      "▁ру": 634,
      "ень": 635,
      "▁ви": 636,
      "ation": 637,
      "ан": 638,
      "ву": 639,
      "ную": 640,
      "▁сто": 641,
      "▁be": 642,
      "тся": 643,
      "сте": 644,
      "сли": 645,
      "зна": 646,
      "\".": 647,
      "сту": 648,
      "▁па": 649,
      "стви": 650,
      "▁Ф": 651,
      "ow": 652,
      "▁зна": 653,
      "лен": 654,
      "ром": 655,
      "вой": 656,
      "ter": 657,
      "вя": 658,
      "ra": 659,
      "▁лю": 660,
      "▁рабо": 661,
      "лось": 662,
      "ith": 663,
      "▁as": 664,
      ").": 665,
      "▁he": 666,
      "мер": 667,
      "\",": 668,
      "▁было": 669,
      "▁D": 670,
      "▁R": 671,
      "пре": 672,
      "бу": 673,
      "ком": 674,
      "▁st": 675,
      "▁ва": 676,
      "нима": 677,
      "▁боль": 678,
      "жен": 679,
      "▁N": 680,
      "ver": 681,
      "нию": 682,
      "▁мы": 683,
      "▁Ч": 684,
      "лове": 685,
      "стоя": 686,
      "▁их": 687,
      "ay": 688,
      "un": 689,
      "▁обра": 690,
      "▁ис": 691,
      "вши": 692,
      "▁F": 693,
      "▁пер": 694,
      "▁после": 695,
      "она": 696,
      "ными": 697,
      "▁with": 698,
      "нием": 699,
      "▁ос": 700,
      "▁х": 701,
      "▁ш": 702,
      "том": 703,
      "▁году": 704,
      "em": 705,
      "▁L": 706,
      "ются": 707,
      "▁is": 708,
      "),": 709,
      "рой": 710,
      "▁W": 711,
      "из": 712,
      "лась": 713,
      "▁слу": 714,
      "▁Но": 715,
      "▁G": 716,
      "ul": 717,
      "лей": 718,
      "тя": 719,
      "...": 720,
      "▁Ко": 721,
      "ция": 722,
      "ман": 723,
      "жде": 724,
      "ек": 725,
      "▁пи": 726,
      "▁дол": 727,
      "чно": 728,
      "▁that": 729,
      "ers": 730,
      "▁пу": 731,
      "при": 732,
      "▁Ро": 733,
      "▁ц": 734,
      "дет": 735,
      "▁ком": 736,
      "ству": 737,
      "сы": 738,
      "▁Во": 739,
      "▁челове": 740,
      "▁только": 741,
      "дя": 742,
      "▁Х": 743,
      "▁ку": 744,
      "дер": 745,
      "пы": 746,
      "ника": 747,
      "▁wh": 748,
      "▁Со": 749,
      "лее": 750,
      "▁ди": 751,
      "зыва": 752,
      "род": 753,
      "ред": 754,
      "▁Я": 755,
      "▁фи": 756,
      "кра": 757,
      "ней": 758,
      "ден": 759,
      "os": 760,
      "▁само": 761,
      "ских": 762,
      "ник": 763,
      "лек": 764,
      "▁полу": 765,
      "▁al": 766,
      "ге": 767,
      "▁con": 768,
      "тре": 769,
      "▁име": 770,
      "▁by": 771,
      "зова": 772,
      "тер": 773,
      "▁сло": 774,
      "▁E": 775,
      "th": 776,
      "▁время": 777,
      "od": 778,
      "ев": 779,
      "her": 780,
      "and": 781,
      "▁at": 782,
      "жет": 783,
      "нь": 784,
      "рии": 785,
      "ag": 786,
      "▁an": 787,
      "▁Ка": 788,
      "ac": 789,
      "ist": 790,
      "▁нача": 791,
      "тра": 792,
      "ск": 793,
      "ская": 794,
      "▁они": 795,
      "▁J": 796,
      "▁пе": 797,
      "▁му": 798,
      "дь": 799,
      "▁были": 800,
      "дова": 801,
      "rom": 802,
      "um": 803,
      "хи": 804,
      "сло": 805,
      "стра": 806,
      "▁За": 807,
      "тельно": 808,
      "логи": 809,
      "▁ор": 810,
      "три": 811,
      "жда": 812,
      "кры": 813,
      "дар": 814,
      "▁стра": 815,
      "est": 816,
      "спе": 817,
      "ri": 818,
      "нее": 819,
      "▁Мо": 820,
      "вых": 821,
      "вто": 822,
      "стро": 823,
      "▁оста": 824,
      "▁испо": 825,
      "▁эти": 826,
      "зда": 827,
      "мет": 828,
      "av": 829,
      "▁de": 830,
      "▁чтобы": 831,
      "▁гла": 832,
      "▁Не": 833,
      "▁O": 834,
      "цы": 835,
      "▁чи": 836,
      "▁свои": 837,
      "▁тре": 838,
      "▁In": 839,
      "▁it": 840,
      "ain": 841,
      "▁При": 842,
      "нова": 843,
      "бли": 844,
      "гла": 845,
      "дин": 846,
      "пер": 847,
      "шь": 848,
      "▁сле": 849,
      "вые": 850,
      "юще": 851,
      "▁уже": 852,
      "op": 853,
      "▁также": 854,
      "клю": 855,
      "▁была": 856,
      "ском": 857,
      "▁когда": 858,
      "▁v": 859,
      "▁пла": 860,
      "▁ар": 861,
      "▁це": 862,
      "▁pro": 863,
      "▁чем": 864,
      "▁ба": 865,
      "up": 866,
      "if": 867,
      "▁пол": 868,
      "дов": 869,
      "oc": 870,
      "пол": 871,
      "▁se": 872,
      "соб": 873,
      "▁his": 874,
      "▁ду": 875,
      "▁Ма": 876,
      "вод": 877,
      "pe": 878,
      "▁которые": 879,
      "жду": 880,
      "▁жиз": 881,
      "руп": 882,
      "▁com": 883,
      "res": 884,
      "▁Ш": 885,
      "▁вер": 886,
      "▁того": 887,
      "дей": 888,
      "▁from": 889,
      "▁объ": 890,
      "ate": 891,
      "▁ее": 892,
      "нных": 893,
      "стре": 894,
      "▁вой": 895,
      "▁свя": 896,
      "лов": 897,
      "жения": 898,
      "ew": 899,
      "бя": 900,
      "ab": 901,
      "вал": 902,
      "▁спо": 903,
      "нд": 904,
      "льно": 905,
      "рь": 906,
      "ill": 907,
      "▁Бо": 908,
      "▁может": 909,
      "ld": 910,
      "мени": 911,
      "ин": 912,
      "зя": 913,
      "se": 914,
      "сла": 915,
      "▁она": 916,
      "▁этом": 917,
      "ity": 918,
      "▁исто": 919,
      "тия": 920,
      "▁други": 921,
      "кон": 922,
      "тор": 923,
      "▁более": 924,
      "art": 925,
      "».": 926,
      "▁Росси": 927,
      "фор": 928,
      "▁соста": 929,
      "ления": 930,
      "▁им": 931,
      "вая": 932,
      "▁Ра": 933,
      "▁том": 934,
      "qu": 935,
      "шо": 936,
      "▁еще": 937,
      "ких": 938,
      "чен": 939,
      "ort": 940,
      "▁если": 941,
      "▁обще": 942,
      "▁предста": 943,
      "▁дей": 944,
      "▁ту": 945,
      "тро": 946,
      "ud": 947,
      "▁Это": 948,
      "▁орга": 949,
      "вый": 950,
      "теля": 951,
      "жу": 952,
      "вого": 953,
      "вори": 954,
      "ore": 955,
      "дела": 956,
      "води": 957,
      "кую": 958,
      "емы": 959,
      "▁отно": 960,
      "ские": 961,
      "▁мне": 962,
      "бра": 963,
      "▁гра": 964,
      "жение": 965,
      "▁быть": 966,
      "igh": 967,
      "енно": 968,
      "▁or": 969,
      "веде": 970,
      "ies": 971,
      "от": 972,
      "▁этого": 973,
      "еня": 974,
      "▁ты": 975,
      "▁тем": 976,
      "ak": 977,
      "сты": 978,
      "нные": 979,
      "вали": 980,
      "▁ге": 981,
      "ere": 982,
      "ческой": 983,
      "▁который": 984,
      "дом": 985,
      "▁можно": 986,
      "ью": 987,
      "зе": 988,
      "▁кра": 989,
      "▁ок": 990,
      "ess": 991,
      "тери": 992,
      "▁исполь": 993,
      "ant": 994,
      "▁явля": 995,
      "сов": 996,
      "▁есть": 997,
      "стве": 998,
      "▁U": 999,
      "▁K": 1000,
      "all": 1001,
      "тически": 1002,
      "ich": 1003,
      "ard": 1004,
      "▁произ": 1005,
      "тому": 1006,
      "▁обла": 1007,
      "▁без": 1008,
      "▁r": 1009,
      "ников": 1010,
      "ber": 1011,
      "▁где": 1012,
      "▁ex": 1013,
      "ap": 1014,
      "ское": 1015,
      "▁созда": 1016,
      "шей": 1017,
      "чень": 1018,
      "кие": 1019,
      "▁случа": 1020,
      "кого": 1021,
      "циаль": 1022,
      "▁поло": 1023,
      "чение": 1024,
      "▁обо": 1025,
      "▁уча": 1026,
      "обра": 1027,
      "вления": 1028,
      "фе": 1029,
      "ub": 1030,
      "цию": 1031,
      "▁Он": 1032,
      "▁лет": 1033,
      "▁ак": 1034,
      "▁помо": 1035,
      "▁авто": 1036,
      "▁меня": 1037,
      "▁Та": 1038,
      "телей": 1039,
      "▁фор": 1040,
      "писа": 1041,
      "преде": 1042,
      "▁будет": 1043,
      "▁were": 1044,
      "▁ки": 1045,
      "судар": 1046,
      "▁между": 1047,
      "нения": 1048,
      "али": 1049,
      "вает": 1050,
      "»,": 1051,
      "цион": 1052,
      "чита": 1053,
      "сс": 1054,
      "вич": 1055,
      "дно": 1056,
      "ment": 1057,
      "нако": 1058,
      "▁свое": 1059,
      "рен": 1060,
      "ive": 1061,
      "▁чу": 1062,
      "бря": 1063,
      "▁y": 1064,
      "▁ch": 1065,
      "ge": 1066,
      "▁Ми": 1067,
      "лом": 1068,
      "чения": 1069,
      "можно": 1070,
      "вно": 1071,
      "▁are": 1072,
      "рез": 1073,
      "▁V": 1074,
      "пера": 1075,
      "▁тех": 1076,
      "вое": 1077,
      ".,": 1078,
      "ated": 1079,
      "▁поли": 1080,
      "▁дела": 1081,
      "нг": 1082,
      "▁даже": 1083,
      "тно": 1084,
      "ит": 1085,
      "▁которо": 1086,
      "gh": 1087,
      "ip": 1088,
      "▁сторо": 1089,
      "ia": 1090,
      "▁То": 1091,
      "our": 1092,
      "▁очень": 1093,
      "рак": 1094,
      "▁коман": 1095,
      "ческого": 1096,
      "цу": 1097,
      "▁прави": 1098,
      "▁St": 1099,
      "und": 1100,
      "▁Го": 1101,
      "▁ну": 1102,
      "шего": 1103,
      "ким": 1104,
      "ез": 1105,
      "сно": 1106,
      "▁Ни": 1107,
      "кан": 1108,
      "▁неско": 1109,
      "▁поз": 1110,
      "▁Ве": 1111,
      "цо": 1112,
      "▁себя": 1113,
      "ial": 1114,
      "ях": 1115,
      "▁тру": 1116,
      "ники": 1117,
      "вест": 1118,
      "ление": 1119,
      "▁пар": 1120,
      "ame": 1121,
      "чь": 1122,
      "шения": 1123,
      "▁ему": 1124,
      "▁сказа": 1125,
      "▁сов": 1126,
      "ell": 1127,
      "▁Са": 1128,
      "▁Па": 1129,
      "▁много": 1130,
      "ian": 1131,
      "▁работа": 1132,
      "▁органи": 1133,
      "кла": 1134,
      "▁Ц": 1135,
      "▁прои": 1136,
      "▁le": 1137,
      "▁действи": 1138,
      "нк": 1139,
      "ками": 1140,
      "нный": 1141,
      "▁них": 1142,
      "▁каж": 1143,
      "▁эк": 1144,
      "ov": 1145,
      "ющих": 1146,
      "▁pl": 1147,
      "▁ско": 1148,
      "менно": 1149,
      "▁Про": 1150,
      "▁Ва": 1151,
      "вания": 1152,
      "рта": 1153,
      "ear": 1154,
      "ступ": 1155,
      "бой": 1156,
      "▁Да": 1157,
      "чу": 1158,
      "ong": 1159,
      "▁k": 1160,
      "▁вла": 1161,
      "торы": 1162,
      "▁вос": 1163,
      "▁получи": 1164,
      "вор": 1165,
      "▁had": 1166,
      "▁спе": 1167,
      "▁горо": 1168,
      "слу": 1169,
      "ure": 1170,
      "ческих": 1171,
      "▁говори": 1172,
      "▁sh": 1173,
      "смо": 1174,
      "▁государ": 1175,
      "вым": 1176,
      "шу": 1177,
      "▁суще": 1178,
      "▁цен": 1179,
      "ках": 1180,
      "ary": 1181,
      "рая": 1182,
      "nt": 1183,
      "▁ло": 1184,
      "▁which": 1185,
      "нови": 1186,
      "ost": 1187,
      "ction": 1188,
      "ast": 1189,
      "ющие": 1190,
      "ходя": 1191,
      "вра": 1192,
      "▁га": 1193,
      "og": 1194,
      "▁лу": 1195,
      "тели": 1196,
      "▁тер": 1197,
      "льной": 1198,
      "ust": 1199,
      "кре": 1200,
      "нен": 1201,
      "ine": 1202,
      "▁опреде": 1203,
      "льта": 1204,
      "▁против": 1205,
      "кий": 1206,
      "ight": 1207,
      "сса": 1208,
      "ход": 1209,
      "▁следу": 1210,
      "рия": 1211,
      "▁ла": 1212,
      "▁До": 1213,
      "▁всех": 1214,
      "лли": 1215,
      "▁рай": 1216,
      "▁ю": 1217,
      "▁над": 1218,
      "бле": 1219,
      "▁сред": 1220,
      "▁уста": 1221,
      "▁not": 1222,
      "▁мно": 1223,
      "▁инте": 1224,
      "ён": 1225,
      "лаго": 1226,
      "▁ти": 1227,
      "▁нау": 1228,
      "▁нас": 1229,
      "СС": 1230,
      "кое": 1231,
      "▁друго": 1232,
      "йте": 1233,
      "▁человек": 1234,
      "ших": 1235,
      "цен": 1236,
      "▁всего": 1237,
      "ностью": 1238,
      "▁состоя": 1239,
      "▁Ж": 1240,
      "яви": 1241,
      "кто": 1242,
      "ire": 1243,
      "▁буду": 1244,
      "циона": 1245,
      "▁разви": 1246,
      "▁сер": 1247,
      "▁Од": 1248,
      "te": 1249,
      "▁[": 1250,
      "▁сдела": 1251,
      "лага": 1252,
      "▁пло": 1253,
      "▁Вы": 1254,
      "▁России": 1255,
      "▁кре": 1256,
      "скую": 1257,
      "ющий": 1258,
      "▁Ch": 1259,
      "лия": 1260,
      "дол": 1261,
      "нер": 1262,
      "цев": 1263,
      "ван": 1264,
      "мента": 1265,
      "бор": 1266,
      "ther": 1267,
      "мой": 1268,
      "▁жизни": 1269,
      "рав": 1270,
      "чных": 1271,
      "ходит": 1272,
      "ья": 1273,
      "pt": 1274,
      "доб": 1275,
      "▁один": 1276,
      "▁стро": 1277,
      "ave": 1278,
      "▁ха": 1279,
      "▁Если": 1280,
      "ций": 1281,
      "рабо": 1282,
      "мина": 1283,
      "▁вопро": 1284,
      "▁дви": 1285,
      "▁высо": 1286,
      "дель": 1287,
      "лет": 1288,
      "▁этой": 1289,
      "▁Ле": 1290,
      "▁через": 1291,
      "личи": 1292,
      "зом": 1293,
      "ord": 1294,
      "ством": 1295,
      "▁него": 1296,
      "нера": 1297,
      "▁груп": 1298,
      "рон": 1299,
      "uc": 1300,
      "ie": 1301,
      "вание": 1302,
      "▁больше": 1303,
      "ссо": 1304,
      "еди": 1305,
      "so": 1306,
      "pl": 1307,
      "ят": 1308,
      "тем": 1309,
      "▁вз": 1310,
      "▁возможно": 1311,
      "cl": 1312,
      "тера": 1313,
      "▁могу": 1314,
      "вление": 1315,
      "▁день": 1316,
      "▁этот": 1317,
      "▁соб": 1318,
      "▁Все": 1319,
      "ack": 1320,
      "▁X": 1321,
      "нем": 1322,
      "им": 1323,
      "ork": 1324,
      "▁дву": 1325,
      "▁Се": 1326,
      "следова": 1327,
      "ical": 1328,
      "зульта": 1329,
      "▁два": 1330,
      "ok": 1331,
      "ским": 1332,
      "▁рус": 1333,
      "▁уда": 1334,
      "▁He": 1335,
      "▁Ре": 1336,
      "тур": 1337,
      "▁фу": 1338,
      "ue": 1339,
      "шен": 1340,
      "are": 1341,
      "▁сооб": 1342,
      "шение": 1343,
      "ff": 1344,
      "той": 1345,
      "стей": 1346,
      "▁просто": 1347,
      "▁является": 1348,
      "▁послед": 1349,
      "▁Как": 1350,
      "льного": 1351,
      "▁кла": 1352,
      "чной": 1353,
      "пла": 1354,
      "ваться": 1355,
      "ственно": 1356,
      "мери": 1357,
      "▁un": 1358,
      "▁своей": 1359,
      "▁Ку": 1360,
      "ряд": 1361,
      "▁Ю": 1362,
      "держа": 1363,
      "▁несколько": 1364,
      "лез": 1365,
      "▁Так": 1366,
      "рт": 1367,
      "▁обе": 1368,
      "обходи": 1369,
      "▁наз": 1370,
      "вом": 1371,
      "▁откры": 1372,
      "ran": 1373,
      "ould": 1374,
      "▁голо": 1375,
      "ous": 1376,
      "▁После": 1377,
      "▁неко": 1378,
      "хра": 1379,
      "▁поч": 1380,
      "ish": 1381,
      "кая": 1382,
      "ome": 1383,
      "▁вс": 1384,
      "▁нет": 1385,
      "▁счита": 1386,
      "щу": 1387,
      "вро": 1388,
      "▁зем": 1389,
      "▁whe": 1390,
      "▁кор": 1391,
      "▁кар": 1392,
      "▁результа": 1393,
      "▁которых": 1394,
      "вается": 1395,
      "коно": 1396,
      "▁самы": 1397,
      "казыва": 1398,
      "iz": 1399,
      "▁себе": 1400,
      "▁совер": 1401,
      "▁Ме": 1402,
      "▁фа": 1403,
      "▁кни": 1404,
      "реди": 1405,
      "нти": 1406,
      "▁us": 1407,
      "лле": 1408,
      "▁Ба": 1409,
      "▁проце": 1410,
      "▁кто": 1411,
      "ступа": 1412,
      "port": 1413,
      "ним": 1414,
      "per": 1415,
      "▁необходи": 1416,
      "рий": 1417,
      "▁вме": 1418,
      "▁долж": 1419,
      "рук": 1420,
      "десь": 1421,
      "ry": 1422,
      "щен": 1423,
      "чина": 1424,
      "лин": 1425,
      "льных": 1426,
      "age": 1427,
      "вета": 1428,
      "мии": 1429,
      "ass": 1430,
      "зации": 1431,
      "▁мог": 1432,
      "▁сы": 1433,
      "▁ar": 1434,
      "яс": 1435,
      "▁упра": 1436,
      "ети": 1437,
      "дели": 1438,
      "тан": 1439,
      "форма": 1440,
      "▁язы": 1441,
      "льный": 1442,
      "шел": 1443,
      "▁поэ": 1444,
      "фа": 1445,
      "ition": 1446,
      "▁извест": 1447,
      "▁три": 1448,
      "▁смо": 1449,
      "лем": 1450,
      "нение": 1451,
      "рей": 1452,
      "▁Бе": 1453,
      "▁чет": 1454,
      "хов": 1455,
      "▁тра": 1456,
      "фо": 1457,
      "▁their": 1458,
      "▁напра": 1459,
      "грам": 1460,
      "вить": 1461,
      "▁Алек": 1462,
      "▁глав": 1463,
      "▁приня": 1464,
      "▁Ви": 1465,
      "▁cl": 1466,
      "▁слова": 1467,
      "▁коро": 1468,
      "▁лишь": 1469,
      "▁находи": 1470,
      "▁иг": 1471,
      "▁сте": 1472,
      "вший": 1473,
      "▁comp": 1474,
      "irst": 1475,
      "▁распо": 1476,
      "▁хоро": 1477,
      "ждения": 1478,
      "тки": 1479,
      "щая": 1480,
      "▁ию": 1481,
      "ье": 1482,
      "▁кри": 1483,
      "ide": 1484,
      "бер": 1485,
      "ческие": 1486,
      "▁вне": 1487,
      "ign": 1488,
      "▁Ки": 1489,
      "мент": 1490,
      "fter": 1491,
      "чет": 1492,
      "▁встре": 1493,
      "гля": 1494,
      "нами": 1495,
      "тей": 1496,
      "▁основ": 1497,
      "▁also": 1498,
      "▁her": 1499,
      "▁жен": 1500,
      "▁Си": 1501,
      "вар": 1502,
      "▁части": 1503,
      "▁От": 1504,
      "тий": 1505,
      "них": 1506,
      "▁которая": 1507,
      "влен": 1508,
      "▁перед": 1509,
      "пло": 1510,
      "▁вто": 1511,
      "▁ри": 1512,
      "▁времени": 1513,
      "ect": 1514,
      "▁вну": 1515,
      "▁ша": 1516,
      "▁стал": 1517,
      "ice": 1518,
      "стя": 1519,
      "II": 1520,
      "▁cont": 1521,
      "▁человека": 1522,
      "▁совет": 1523,
      "стов": 1524,
      "шая": 1525,
      "▁but": 1526,
      "бира": 1527,
      "йти": 1528,
      "▁благо": 1529,
      "▁/": 1530,
      "чего": 1531,
      "▁соот": 1532,
      "вают": 1533,
      "воз": 1534,
      "▁дере": 1535,
      "чные": 1536,
      "ному": 1537,
      "▁зада": 1538,
      "личе": 1539,
      "▁нем": 1540,
      "▁int": 1541,
      "оне": 1542,
      "▁би": 1543,
      "▁Ста": 1544,
      "▁руко": 1545,
      "out": 1546,
      "ственной": 1547,
      "▁Ли": 1548,
      "▁ad": 1549,
      "ровать": 1550,
      "нить": 1551,
      "▁уни": 1552,
      "▁обы": 1553,
      "ime": 1554,
      "▁способ": 1555,
      "▁свою": 1556,
      "тие": 1557,
      "ult": 1558,
      "▁поль": 1559,
      "▁каче": 1560,
      "▁часть": 1561,
      "▁луч": 1562,
      "▁Th": 1563,
      "пример": 1564,
      "▁которой": 1565,
      "mer": 1566,
      "▁людей": 1567,
      "▁других": 1568,
      "▁дея": 1569,
      "▁пос": 1570,
      "▁области": 1571,
      "него": 1572,
      "ib": 1573,
      "чки": 1574,
      "▁has": 1575,
      "▁писа": 1576,
      "▁ab": 1577,
      "дой": 1578,
      "ёт": 1579,
      "▁j": 1580,
      "▁have": 1581,
      "▁уче": 1582,
      "рио": 1583,
      "▁продол": 1584,
      "▁Те": 1585,
      "▁ры": 1586,
      "раз": 1587,
      "▁стре": 1588,
      "▁Пер": 1589,
      "ater": 1590,
      "▁ro": 1591,
      "▁своих": 1592,
      "▁first": 1593,
      "▁позво": 1594,
      "нт": 1595,
      "▁res": 1596,
      "ческий": 1597,
      "▁значи": 1598,
      "туры": 1599,
      "▁эта": 1600,
      "ru": 1601,
      "▁Из": 1602,
      "rit": 1603,
      "ond": 1604,
      "меча": 1605,
      "▁моло": 1606,
      "руг": 1607,
      "перь": 1608,
      "слови": 1609,
      "ил": 1610,
      "твер": 1611,
      "льные": 1612,
      "пас": 1613,
      "▁проис": 1614,
      "ню": 1615,
      "▁поста": 1616,
      "▁харак": 1617,
      "▁поня": 1618,
      "ence": 1619,
      "▁this": 1620,
      "ремен": 1621,
      "▁матери": 1622,
      "▁место": 1623,
      "▁многи": 1624,
      "▁свой": 1625,
      "▁образом": 1626,
      "вших": 1627,
      "щения": 1628,
      "▁Су": 1629,
      "▁бра": 1630,
      "▁Однако": 1631,
      "▁вра": 1632,
      "сом": 1633,
      "стер": 1634,
      "ступи": 1635,
      "вед": 1636,
      "▁who": 1637,
      "hed": 1638,
      "▁ap": 1639,
      "▁называ": 1640,
      "ствует": 1641,
      "--": 1642,
      "▁там": 1643,
      "шки": 1644,
      "erv": 1645,
      "▁виде": 1646,
      "над": 1647,
      "тру": 1648,
      "▁воен": 1649,
      "▁Что": 1650,
      "▁могут": 1651,
      "▁ги": 1652,
      "шин": 1653,
      "▁its": 1654,
      "▁Де": 1655,
      "▁компа": 1656,
      "▁all": 1657,
      "man": 1658,
      "коло": 1659,
      "ять": 1660,
      "ключа": 1661,
      "гов": 1662,
      "wo": 1663,
      "рев": 1664,
      "▁соответ": 1665,
      "▁ши": 1666,
      "▁ху": 1667,
      "вести": 1668,
      "ile": 1669,
      "тельства": 1670,
      "▁ответ": 1671,
      "ём": 1672,
      "▁интере": 1673,
      "нали": 1674,
      "чем": 1675,
      "▁Для": 1676,
      "▁нам": 1677,
      "кло": 1678,
      "▁расска": 1679,
      "▁сти": 1680,
      "ружи": 1681,
      "ссе": 1682,
      "ind": 1683,
      "нной": 1684,
      "▁доста": 1685,
      "▁ac": 1686,
      "▁теле": 1687,
      "▁этих": 1688,
      "▁доро": 1689,
      "тии": 1690,
      "▁оказа": 1691,
      "own": 1692,
      "▁part": 1693,
      "▁нео": 1694,
      "кти": 1695,
      "хва": 1696,
      "▁ag": 1697,
      "▁пробле": 1698,
      "нец": 1699,
      "год": 1700,
      "▁te": 1701,
      "▁уве": 1702,
      "▁ней": 1703,
      "▁своего": 1704,
      "кус": 1705,
      "ations": 1706,
      "▁en": 1707,
      "▁призна": 1708,
      "ally": 1709,
      "тен": 1710,
      "▁оче": 1711,
      "▁Ар": 1712,
      "▁one": 1713,
      "мов": 1714,
      "▁Y": 1715,
      "щих": 1716,
      "▁согла": 1717,
      "▁гу": 1718,
      "▁ци": 1719,
      "▁случае": 1720,
      "чный": 1721,
      "ген": 1722,
      "вляет": 1723,
      "▁man": 1724,
      "▁Хо": 1725,
      "▁куль": 1726,
      "тами": 1727,
      "▁двух": 1728,
      "▁ад": 1729,
      "нет": 1730,
      "▁Ру": 1731,
      "▁чув": 1732,
      "ugh": 1733,
      "шли": 1734,
      "▁систе": 1735,
      "гре": 1736,
      "ree": 1737,
      "рения": 1738,
      "▁успе": 1739,
      "▁иде": 1740,
      "▁Моск": 1741,
      "ян": 1742,
      "▁использова": 1743,
      "лий": 1744,
      "▁особ": 1745,
      "ik": 1746,
      "▁бли": 1747,
      "over": 1748,
      "ствие": 1749,
      "рито": 1750,
      "графи": 1751,
      "▁год": 1752,
      "тиво": 1753,
      "ang": 1754,
      "▁деятель": 1755,
      "ССР": 1756,
      "ach": 1757,
      "нди": 1758,
      "▁шко": 1759,
      "▁сем": 1760,
      "▁per": 1761,
      "строй": 1762,
      "▁занима": 1763,
      "чного": 1764,
      "▁Бу": 1765,
      "ложи": 1766,
      "▁войны": 1767,
      "ace": 1768,
      "зма": 1769,
      "роме": 1770,
      "▁выпол": 1771,
      "##": 1772,
      "▁Ге": 1773,
      "▁разли": 1774,
      "▁помощ": 1775,
      "▁показа": 1776,
      "▁основа": 1777,
      "▁Об": 1778,
      "▁im": 1779,
      "зан": 1780,
      "бро": 1781,
      "▁ж": 1782,
      "▁Мы": 1783,
      "нача": 1784,
      "▁глу": 1785,
      "верх": 1786,
      "▁некоторы": 1787,
      "вала": 1788,
      "▁bec": 1789,
      "публи": 1790,
      "▁хотя": 1791,
      "▁year": 1792,
      "гово": 1793,
      "вую": 1794,
      "ток": 1795,
      "▁её": 1796,
      "▁всегда": 1797,
      "нуть": 1798,
      "▁тот": 1799,
      "one": 1800,
      "ount": 1801,
      "▁информа": 1802,
      "▁вот": 1803,
      "шие": 1804,
      "час": 1805,
      "▁потому": 1806,
      "▁they": 1807,
      "держи": 1808,
      "тября": 1809,
      "оло": 1810,
      "▁проек": 1811,
      "ведения": 1812,
      "▁тогда": 1813,
      "шим": 1814,
      "нове": 1815,
      "ens": 1816,
      "▁been": 1817,
      "сут": 1818,
      "▁фак": 1819,
      "пад": 1820,
      "▁выра": 1821,
      "▁out": 1822,
      "▁Al": 1823,
      "вшие": 1824,
      "▁тя": 1825,
      "▁тор": 1826,
      "ссий": 1827,
      "▁жизнь": 1828,
      "▁Un": 1829,
      "▁работы": 1830,
      "ec": 1831,
      "▁города": 1832,
      "нах": 1833,
      "act": 1834,
      "нин": 1835,
      "▁город": 1836,
      "виси": 1837,
      "▁перио": 1838,
      "фф": 1839,
      "▁смер": 1840,
      "ory": 1841,
      "кономи": 1842,
      "ческая": 1843,
      "стью": 1844,
      "▁ог": 1845,
      "▁которого": 1846,
      "тора": 1847,
      "▁сам": 1848,
      "ющей": 1849,
      "▁насе": 1850,
      "бур": 1851,
      "▁здесь": 1852,
      "виде": 1853,
      "▁переда": 1854,
      "скому": 1855,
      "пита": 1856,
      "▁истори": 1857,
      "▁up": 1858,
      "ne": 1859,
      "ound": 1860,
      "мерикан": 1861,
      "мости": 1862,
      "прия": 1863,
      "▁вели": 1864,
      "дера": 1865,
      "ющего": 1866,
      "зии": 1867,
      "▁other": 1868,
      "▁услови": 1869,
      "сков": 1870,
      "что": 1871,
      "ade": 1872,
      "▁право": 1873,
      "uch": 1874,
      "шло": 1875,
      "▁стать": 1876,
      "▁програм": 1877,
      "▁–": 1878,
      "▁сла": 1879,
      "▁пока": 1880,
      "кова": 1881,
      "▁одно": 1882,
      "▁побе": 1883,
      "▁уров": 1884,
      "кт": 1885,
      "стран": 1886,
      "▁конце": 1887,
      "ild": 1888,
      "▁dis": 1889,
      "ший": 1890,
      "боль": 1891,
      "▁сра": 1892,
      "волю": 1893,
      "▁сме": 1894,
      "▁образова": 1895,
      "▁полити": 1896,
      "щение": 1897,
      "▁It": 1898,
      "воря": 1899,
      "вари": 1900,
      "▁исследова": 1901,
      "▁офи": 1902,
      "санд": 1903,
      "int": 1904,
      "clud": 1905,
      "▁пор": 1906,
      "ёр": 1907,
      "▁учи": 1908,
      "▁женщи": 1909,
      "▁No": 1910,
      "ric": 1911,
      "ark": 1912,
      "ША": 1913,
      "▁вся": 1914,
      "▁off": 1915,
      "▁Фе": 1916,
      "▁окру": 1917,
      ");": 1918,
      "for": 1919,
      "▁опера": 1920,
      "▁собой": 1921,
      "ете": 1922,
      "кси": 1923,
      "▁большо": 1924,
      "лё": 1925,
      "▁н": 1926,
      "▁защи": 1927,
      "ress": 1928,
      "жении": 1929,
      "▁оп": 1930,
      "▁дости": 1931,
      "ёл": 1932,
      "▁СССР": 1933,
      "▁мира": 1934,
      "ep": 1935,
      "aw": 1936,
      "▁террито": 1937,
      "▁пря": 1938,
      "цией": 1939,
      "▁жа": 1940,
      "▁ули": 1941,
      "ница": 1942,
      "▁ше": 1943,
      "oll": 1944,
      "▁Когда": 1945,
      "ions": 1946,
      "хе": 1947,
      "▁сист": 1948,
      "мом": 1949,
      "ственного": 1950,
      "▁реши": 1951,
      "▁осо": 1952,
      "рован": 1953,
      "urn": 1954,
      "▁роди": 1955,
      "мини": 1956,
      "блю": 1957,
      "uring": 1958,
      "▁Ту": 1959,
      "вил": 1960,
      "▁rec": 1961,
      "щий": 1962,
      "дра": 1963,
      "зиден": 1964,
      "▁понима": 1965,
      "▁two": 1966,
      "▁недо": 1967,
      "▁одной": 1968,
      "▁Кон": 1969,
      "▁именно": 1970,
      "able": 1971,
      "▁упо": 1972,
      "▁Они": 1973,
      "ely": 1974,
      "▁дан": 1975,
      "▁спи": 1976,
      "циали": 1977,
      "old": 1978,
      "ствия": 1979,
      "тных": 1980,
      "▁ря": 1981,
      "▁Александ": 1982,
      "ником": 1983,
      "тельной": 1984,
      "▁количе": 1985,
      "▁over": 1986,
      ".\"": 1987,
      "рую": 1988,
      "туа": 1989,
      "▁мест": 1990,
      "▁гру": 1991,
      "▁ним": 1992,
      "тельство": 1993,
      "▁США": 1994,
      "▁наи": 1995,
      "▁sc": 1996,
      "▁филь": 1997,
      "нно": 1998,
      "▁Пу": 1999,
      "▁Ла": 2000,
      "▁Га": 2001,
      "▁нужно": 2002,
      "▁элек": 2003,
      "тр": 2004,
      "▁him": 2005,
      "▁комп": 2006,
      "ститу": 2007,
      "ющим": 2008,
      "▁часто": 2009,
      "ng": 2010,
      "▁внима": 2011,
      "▁стороны": 2012,
      "▁ино": 2013,
      "▁work": 2014,
      "телем": 2015,
      "мати": 2016,
      "▁такой": 2017,
      "▁должно": 2018,
      "ору": 2019,
      "▁почти": 2020,
      "▁игра": 2021,
      "▁тыся": 2022,
      "ite": 2023,
      "▁противо": 2024,
      "▁вместе": 2025,
      "кам": 2026,
      "amp": 2027,
      "▁обя": 2028,
      "кро": 2029,
      "wn": 2030,
      "ческое": 2031,
      "ubl": 2032,
      "vel": 2033,
      "нци": 2034,
      "▁new": 2035,
      "▁даль": 2036,
      "▁любо": 2037,
      "ode": 2038,
      "тельных": 2039,
      "▁ne": 2040,
      "▁she": 2041,
      "▁изме": 2042,
      "▁пы": 2043,
      "ors": 2044,
      "▁дерев": 2045,
      "▁Мар": 2046,
      "жды": 2047,
      "ail": 2048,
      "▁использу": 2049,
      "▁чер": 2050,
      "стой": 2051,
      "▁люди": 2052,
      "ents": 2053,
      "▁непо": 2054,
      "▁живо": 2055,
      "▁after": 2056,
      "▁около": 2057,
      "▁ав": 2058,
      "того": 2059,
      "▁объек": 2060,
      "▁ска": 2061,
      "▁=": 2062,
      "▁затем": 2063,
      "лии": 2064,
      "▁надо": 2065,
      "▁бере": 2066,
      "дви": 2067,
      "▁сказал": 2068,
      "▁мар": 2069,
      "▁осу": 2070,
      "▁Пре": 2071,
      "▁начина": 2072,
      "ough": 2073,
      "ool": 2074,
      "▁заня": 2075,
      "▁свобо": 2076,
      "тах": 2077,
      "щей": 2078,
      "кола": 2079,
      "▁предпо": 2080,
      "▁круп": 2081,
      "ологи": 2082,
      "▁дело": 2083,
      "tern": 2084,
      "▁would": 2085,
      "пада": 2086,
      "след": 2087,
      "▁участ": 2088,
      "▁ради": 2089,
      "щё": 2090,
      "нок": 2091,
      "сем": 2092,
      "ственных": 2093,
      "▁comm": 2094,
      "▁pre": 2095,
      "▁должен": 2096,
      "грани": 2097,
      "ates": 2098,
      "бре": 2099,
      "ft": 2100,
      "зм": 2101,
      "▁уби": 2102,
      "рах": 2103,
      "пуска": 2104,
      "▁лег": 2105,
      "▁потом": 2106,
      "▁другие": 2107,
      "▁имеет": 2108,
      "▁взя": 2109,
      "ase": 2110,
      "тин": 2111,
      "▁ev": 2112,
      "▁includ": 2113,
      "▁искус": 2114,
      "land": 2115,
      "▁настоя": 2116,
      "ляр": 2117,
      "▁ничего": 2118,
      "▁должны": 2119,
      "▁дома": 2120,
      "▁into": 2121,
      "нечно": 2122,
      "▁весь": 2123,
      "ose": 2124,
      "▁сохра": 2125,
      "▁написа": 2126,
      "we": 2127,
      "▁чего": 2128,
      "труд": 2129,
      "ational": 2130,
      "щие": 2131,
      "рок": 2132,
      "ug": 2133,
      "трен": 2134,
      "▁генера": 2135,
      "▁пси": 2136,
      "▁пара": 2137,
      "тельные": 2138,
      "▁экономи": 2139,
      "лан": 2140,
      "▁две": 2141,
      "▁окон": 2142,
      "▁современ": 2143,
      "▁Гер": 2144,
      "шла": 2145,
      "лн": 2146,
      "▁Фран": 2147,
      "▁хра": 2148,
      "▁гор": 2149,
      "тить": 2150,
      "oy": 2151,
      "ствии": 2152,
      "▁des": 2153,
      "ерт": 2154,
      "ance": 2155,
      "ied": 2156,
      "чер": 2157,
      "▁наро": 2158,
      "▁сей": 2159,
      "ons": 2160,
      "▁can": 2161,
      "▁другой": 2162,
      "чей": 2163,
      "▁вам": 2164,
      "нул": 2165,
      "нес": 2166,
      "ob": 2167,
      "ху": 2168,
      "тал": 2169,
      "ood": 2170,
      "▁time": 2171,
      "ces": 2172,
      "сколь": 2173,
      "явля": 2174,
      "зд": 2175,
      "▁тоже": 2176,
      "▁жу": 2177,
      "▁we": 2178,
      "рования": 2179,
      "▁неме": 2180,
      "▁sp": 2181,
      "▁Лу": 2182,
      "ственный": 2183,
      "еха": 2184,
      "▁Вла": 2185,
      "▁числе": 2186,
      "▁Му": 2187,
      "▁Ан": 2188,
      "▁отпра": 2189,
      "▁Кра": 2190,
      "▁производ": 2191,
      "▁функ": 2192,
      "▁бро": 2193,
      "ph": 2194,
      "ock": 2195,
      "▁сен": 2196,
      "нан": 2197,
      "▁теперь": 2198,
      "мыш": 2199,
      "тура": 2200,
      "fer": 2201,
      "▁ника": 2202,
      "▁me": 2203,
      "▁Евро": 2204,
      "▁испол": 2205,
      "пусти": 2206,
      "имо": 2207,
      "▁получа": 2208,
      "ктор": 2209,
      "▁обеспе": 2210,
      "▁тран": 2211,
      "шем": 2212,
      "▁литера": 2213,
      "вшего": 2214,
      "▁мето": 2215,
      "▁Пе": 2216,
      "▁муж": 2217,
      "ницы": 2218,
      "▁und": 2219,
      "▁жела": 2220,
      "▁которое": 2221,
      "▁уг": 2222,
      "льное": 2223,
      "ждение": 2224,
      "шее": 2225,
      "ook": 2226,
      "▁мину": 2227,
      "▁Ar": 2228,
      "▁фо": 2229,
      "чему": 2230,
      "пере": 2231,
      "iss": 2232,
      "▁одного": 2233,
      "▁отноше": 2234,
      "▁вас": 2235,
      "сите": 2236,
      "▁пода": 2237,
      "емо": 2238,
      "▁худо": 2239,
      "▁подоб": 2240,
      "тельный": 2241,
      "▁Она": 2242,
      "виа": 2243,
      "▁Ри": 2244,
      "▁участи": 2245,
      "гото": 2246,
      "▁физи": 2247,
      "▁мини": 2248,
      "▁меся": 2249,
      "▁американ": 2250,
      "ath": 2251,
      "тый": 2252,
      "▁продолжа": 2253,
      "▁зако": 2254,
      "жида": 2255,
      "щего": 2256,
      "шую": 2257,
      "▁цер": 2258,
      "▁важ": 2259,
      "▁As": 2260,
      "▁представи": 2261,
      "чка": 2262,
      "нской": 2263,
      "▁Дж": 2264,
      "▁Ин": 2265,
      "▁дума": 2266,
      "тельного": 2267,
      "По": 2268,
      "▁связи": 2269,
      "▁сту": 2270,
      "няя": 2271,
      "▁бое": 2272,
      "▁разрабо": 2273,
      "ings": 2274,
      "щее": 2275,
      "или": 2276,
      "▁more": 2277,
      "▁play": 2278,
      "▁четы": 2279,
      "льная": 2280,
      "▁обна": 2281,
      "ake": 2282,
      "▁деся": 2283,
      "▁ra": 2284,
      "▁стан": 2285,
      "▁подо": 2286,
      "▁однако": 2287,
      "▁относи": 2288,
      "▁неза": 2289,
      "▁профе": 2290,
      "▁будут": 2291,
      "ited": 2292,
      "▁постоя": 2293,
      "▁Его": 2294,
      "▁менее": 2295,
      "▁истории": 2296,
      "меня": 2297,
      "вен": 2298,
      "rough": 2299,
      "годня": 2300,
      "ществ": 2301,
      "▁россий": 2302,
      "вили": 2303,
      "рами": 2304,
      "▁посе": 2305,
      "там": 2306,
      "пыт": 2307,
      "▁качестве": 2308,
      "ased": 2309,
      "зов": 2310,
      "струк": 2311,
      "▁сим": 2312,
      "▁коми": 2313,
      "▁среди": 2314,
      "▁расс": 2315,
      "чить": 2316,
      "▁всем": 2317,
      "gan": 2318,
      "▁изда": 2319,
      "▁гражда": 2320,
      "рю": 2321,
      "▁пример": 2322,
      "▁Пет": 2323,
      "тря": 2324,
      "▁км": 2325,
      "йской": 2326,
      "▁памя": 2327,
      "▁част": 2328,
      "▁On": 2329,
      "▁проду": 2330,
      "дить": 2331,
      "доро": 2332,
      "▁when": 2333,
      "▁необходимо": 2334,
      "таль": 2335,
      "скольку": 2336,
      "хода": 2337,
      "▁потре": 2338,
      "шка": 2339,
      "жден": 2340,
      "▁национа": 2341,
      "▁чемпи": 2342,
      "▁утвер": 2343,
      "▁Ха": 2344,
      "▁назна": 2345,
      "▁тому": 2346,
      "народ": 2347,
      "▁годы": 2348,
      "▁дли": 2349,
      "▁мир": 2350,
      "▁спа": 2351,
      "седа": 2352,
      "▁Лю": 2353,
      "▁Пи": 2354,
      "▁Укра": 2355,
      "▁нико": 2356,
      "цов": 2357,
      "▁неу": 2358,
      "▁например": 2359,
      "лла": 2360,
      "▁Сер": 2361,
      "точно": 2362,
      "воль": 2363,
      "▁связа": 2364,
      "▁хозя": 2365,
      "нского": 2366,
      "▁сель": 2367,
      "вался": 2368,
      "cess": 2369,
      "ember": 2370,
      "▁содержа": 2371,
      "ффек": 2372,
      "ans": 2373,
      "▁принима": 2374,
      "обще": 2375,
      "▁кру": 2376,
      "пыта": 2377,
      "▁поме": 2378,
      "мей": 2379,
      "▁существо": 2380,
      "тая": 2381,
      "▁места": 2382,
      "ont": 2383,
      "▁прекра": 2384,
      "▁Mar": 2385,
      "▁интер": 2386,
      "▁Вели": 2387,
      "▁ян": 2388,
      "▁шта": 2389,
      "▁tra": 2390,
      "▁тео": 2391,
      "тых": 2392,
      "▁дека": 2393,
      "▁фран": 2394,
      "ложе": 2395,
      "▁народ": 2396,
      "жной": 2397,
      "▁приме": 2398,
      "▁смы": 2399,
      "▁бан": 2400,
      "▁стали": 2401,
      "▁кли": 2402,
      "les": 2403,
      "лой": 2404,
      "▁gro": 2405,
      "▁какой": 2406,
      "▁маши": 2407,
      "▁Че": 2408,
      "▁наде": 2409,
      "▁ситуа": 2410,
      "▁скоро": 2411,
      "▁чле": 2412,
      "▁Под": 2413,
      "ить": 2414,
      "чил": 2415,
      "нам": 2416,
      "▁нор": 2417,
      "ick": 2418,
      "▁века": 2419,
      "вались": 2420,
      "стан": 2421,
      "▁New": 2422,
      "▁сли": 2423,
      "▁еди": 2424,
      "вин": 2425,
      "ющее": 2426,
      "стри": 2427,
      "▁фе": 2428,
      "▁эту": 2429,
      "▁возду": 2430,
      "▁особенно": 2431,
      "нев": 2432,
      "▁them": 2433,
      "лого": 2434,
      "▁котором": 2435,
      "мон": 2436,
      "чным": 2437,
      "▁люби": 2438,
      "▁кажды": 2439,
      "▁тут": 2440,
      "пря": 2441,
      "▁ret": 2442,
      "▁Вер": 2443,
      "▁одна": 2444,
      "▁Com": 2445,
      "▁spe": 2446,
      "▁отде": 2447,
      "▁under": 2448,
      "ual": 2449,
      "▁наблю": 2450,
      "▁реги": 2451,
      "▁музы": 2452,
      "▁обу": 2453,
      "▁изу": 2454,
      "ious": 2455,
      "деть": 2456,
      "▁универ": 2457,
      "бри": 2458,
      "__": 2459,
      "▁этим": 2460,
      "▁разме": 2461,
      "ляет": 2462,
      "▁жур": 2463,
      "кими": 2464,
      "лок": 2465,
      "▁причи": 2466,
      "▁своим": 2467,
      "▁you": 2468,
      "▁пле": 2469,
      "▁влия": 2470,
      "▁De": 2471,
      "так": 2472,
      "▁отра": 2473,
      "▁pr": 2474,
      "смотре": 2475,
      "▁авгу": 2476,
      "спубли": 2477,
      "▁социаль": 2478,
      "▁возра": 2479,
      "▁специаль": 2480,
      "▁хорошо": 2481,
      "более": 2482,
      "▁энер": 2483,
      "▁доку": 2484,
      "▁Re": 2485,
      "▁Вот": 2486,
      "док": 2487,
      "red": 2488,
      "io": 2489,
      "▁again": 2490,
      "зер": 2491,
      "гии": 2492,
      "▁спра": 2493,
      "▁дет": 2494,
      "▁поле": 2495,
      "гру": 2496,
      "▁so": 2497,
      "льным": 2498,
      "строе": 2499,
      "кви": 2500,
      "ve": 2501,
      "▁системы": 2502,
      "aus": 2503,
      "ward": 2504,
      "▁сейчас": 2505,
      "▁Бы": 2506,
      "▁эле": 2507,
      "▁гре": 2508,
      "▁режи": 2509,
      "вшись": 2510,
      "ict": 2511,
      "их": 2512,
      "сил": 2513,
      "ваются": 2514,
      "▁страны": 2515,
      "ложен": 2516,
      "▁собы": 2517,
      "ску": 2518,
      "▁анг": 2519,
      "▁внутрен": 2520,
      "▁Никола": 2521,
      "щую": 2522,
      "end": 2523,
      "▁реаль": 2524,
      "▁стран": 2525,
      "▁отли": 2526,
      "▁att": 2527,
      "▁Влади": 2528,
      "▁распро": 2529,
      "chool": 2530,
      "▁ещё": 2531,
      "▁дер": 2532,
      "жать": 2533,
      "▁ей": 2534,
      "▁прав": 2535,
      "▁пись": 2536,
      "став": 2537,
      "▁сотруд": 2538,
      "▁qu": 2539,
      "▁кора": 2540,
      "du": 2541,
      "▁тан": 2542,
      "сили": 2543,
      "выми": 2544,
      "▁янва": 2545,
      "▁диа": 2546,
      "ристи": 2547,
      "▁Кар": 2548,
      "reat": 2549,
      "▁кол": 2550,
      "▁всё": 2551,
      "▁оно": 2552,
      "диви": 2553,
      "вобо": 2554,
      ".)": 2555,
      "▁bet": 2556,
      "зь": 2557,
      "▁первый": 2558,
      "▁хи": 2559,
      "нологи": 2560,
      "▁требо": 2561,
      "▁sec": 2562,
      "hip": 2563,
      "▁таких": 2564,
      "▁появи": 2565,
      "ered": 2566,
      "▁бес": 2567,
      "▁нару": 2568,
      "матри": 2569,
      "▁широ": 2570,
      "▁do": 2571,
      "министра": 2572,
      "ram": 2573,
      "▁уго": 2574,
      "▁sup": 2575,
      "▁kn": 2576,
      "▁there": 2577,
      "▁электро": 2578,
      "жных": 2579,
      "▁op": 2580,
      "inal": 2581,
      "▁тол": 2582,
      "▁возвра": 2583,
      "way": 2584,
      "▁глаза": 2585,
      "еры": 2586,
      "зовать": 2587,
      "▁предо": 2588,
      "▁сделать": 2589,
      "ске": 2590,
      "▁убе": 2591,
      "▁сбор": 2592,
      "▁объяс": 2593,
      "▁уч": 2594,
      "▁результате": 2595,
      "▁Se": 2596,
      "каз": 2597,
      "▁Ну": 2598,
      "шенно": 2599,
      "oth": 2600,
      "пли": 2601,
      "▁прода": 2602,
      "▁Ду": 2603,
      "жем": 2604,
      "▁Раз": 2605,
      "▁Le": 2606,
      "▁Гла": 2607,
      "▁вопрос": 2608,
      "▁Ди": 2609,
      "ющая": 2610,
      "▁состав": 2611,
      "▁власти": 2612,
      "▁борь": 2613,
      "нил": 2614,
      "сной": 2615,
      "▁актив": 2616,
      "мир": 2617,
      "lect": 2618,
      "▁течение": 2619,
      "чная": 2620,
      "лый": 2621,
      "тые": 2622,
      "▁авиа": 2623,
      "мена": 2624,
      "▁изобра": 2625,
      "▁Пере": 2626,
      "rib": 2627,
      "дит": 2628,
      "▁момент": 2629,
      "▁армии": 2630,
      "orn": 2631,
      "рот": 2632,
      "лосо": 2633,
      "пара": 2634,
      "дца": 2635,
      "лев": 2636,
      "▁закон": 2637,
      "чат": 2638,
      "будь": 2639,
      "ced": 2640,
      "лки": 2641,
      "ren": 2642,
      "▁друг": 2643,
      "▁собствен": 2644,
      "обре": 2645,
      "ivers": 2646,
      "мая": 2647,
      "▁деле": 2648,
      "▁организа": 2649,
      "чное": 2650,
      "▁апре": 2651,
      "ями": 2652,
      "form": 2653,
      "▁only": 2654,
      "дро": 2655,
      "▁мет": 2656,
      "▁принци": 2657,
      "▁удо": 2658,
      "▁тек": 2659,
      "▁архи": 2660,
      "нять": 2661,
      "▁сразу": 2662,
      "▁поэтому": 2663,
      "▁немец": 2664,
      "▁коло": 2665,
      "тар": 2666,
      "▁которую": 2667,
      "▁собра": 2668,
      "▁безо": 2669,
      "▁служ": 2670,
      "▁строи": 2671,
      "▁чита": 2672,
      "▁bu": 2673,
      "▁inter": 2674,
      "ссии": 2675,
      "▁клу": 2676,
      "▁ноя": 2677,
      "▁reg": 2678,
      "▁неболь": 2679,
      "▁свет": 2680,
      "▁пози": 2681,
      "▁вза": 2682,
      "▁све": 2683,
      "скими": 2684,
      "▁указа": 2685,
      "▁устано": 2686,
      "▁доба": 2687,
      "▁сами": 2688,
      "▁II": 2689,
      "].": 2690,
      "тельное": 2691,
      "▁Украи": 2692,
      "▁'": 2693,
      "рить": 2694,
      "▁миро": 2695,
      "мышлен": 2696,
      "▁publ": 2697,
      "▁ind": 2698,
      "▁восста": 2699,
      "рин": 2700,
      "чай": 2701,
      "▁помощью": 2702,
      "ешь": 2703,
      "ческую": 2704,
      "▁cons": 2705,
      "менты": 2706,
      "▁похо": 2707,
      "▁такие": 2708,
      "рд": 2709,
      "▁мя": 2710,
      "▁президен": 2711,
      "▁about": 2712,
      "▁представля": 2713,
      "▁внеш": 2714,
      "▁станови": 2715,
      "▁where": 2716,
      "orld": 2717,
      "фика": 2718,
      "▁мень": 2719,
      "вало": 2720,
      "▁следует": 2721,
      "▁никогда": 2722,
      "▁years": 2723,
      "▁отдель": 2724,
      "▁револю": 2725,
      "▁материа": 2726,
      "pro": 2727,
      "▁эффек": 2728,
      "▁стар": 2729,
      "▁Поэ": 2730,
      "евра": 2731,
      "▁род": 2732,
      "▁This": 2733,
      "стру": 2734,
      "▁теа": 2735,
      "▁францу": 2736,
      "ener": 2737,
      "▁serv": 2738,
      "жит": 2739,
      "oint": 2740,
      "▁сказать": 2741,
      "вли": 2742,
      "▁выше": 2743,
      "▁Ло": 2744,
      "знача": 2745,
      "▁исклю": 2746,
      "▁вол": 2747,
      "che": 2748,
      "ум": 2749,
      "▁очеред": 2750,
      "▁диви": 2751,
      "числе": 2752,
      "▁(\"": 2753,
      "циа": 2754,
      "рует": 2755,
      "▁фрон": 2756,
      "▁кня": 2757,
      "▁pe": 2758,
      "нице": 2759,
      "▁древ": 2760,
      "▁fl": 2761,
      "▁лучше": 2762,
      "тной": 2763,
      "жей": 2764,
      "дии": 2765,
      "▁$": 2766,
      "кс": 2767,
      "▁территории": 2768,
      "▁контро": 2769,
      "▁включа": 2770,
      "▁rem": 2771,
      "▁забо": 2772,
      "▁получил": 2773,
      "▁кро": 2774,
      "▁than": 2775,
      "▁начала": 2776,
      "▁пора": 2777,
      "▁бри": 2778,
      "▁Ива": 2779,
      "все": 2780,
      "лых": 2781,
      "нибудь": 2782,
      "▁продук": 2783,
      "▁заклю": 2784,
      "▁some": 2785,
      "▁Совет": 2786,
      "▁заме": 2787,
      "лда": 2788,
      "▁ограни": 2789,
      "▁мало": 2790,
      "▁rel": 2791,
      "емых": 2792,
      "ted": 2793,
      "ческим": 2794,
      "▁начале": 2795,
      "▁ass": 2796,
      "вре": 2797,
      "держ": 2798,
      "rans": 2799,
      "▁района": 2800,
      "▁распростра": 2801,
      "сона": 2802,
      "▁ear": 2803,
      "ween": 2804,
      "▁дня": 2805,
      "▁fe": 2806,
      "риан": 2807,
      "ject": 2808,
      "▁университе": 2809,
      "▁период": 2810,
      "▁центра": 2811,
      "ix": 2812,
      "▁един": 2813,
      "▁произо": 2814,
      "гом": 2815,
      "aid": 2816,
      "▁возможность": 2817,
      "▁быстро": 2818,
      "▁встреча": 2819,
      "бля": 2820,
      "▁most": 2821,
      "сить": 2822,
      "▁четыре": 2823,
      "лью": 2824,
      "ts": 2825,
      "▁act": 2826,
      "▁then": 2827,
      "цами": 2828,
      "▁сере": 2829,
      "ям": 2830,
      "ks": 2831,
      "влении": 2832,
      "ll": 2833,
      "▁Ос": 2834,
      "▁февра": 2835,
      "вшей": 2836,
      "▁либо": 2837,
      "ished": 2838,
      "▁определен": 2839,
      "▁зе": 2840,
      "сер": 2841,
      "fore": 2842,
      "вода": 2843,
      "▁площа": 2844,
      "▁милли": 2845,
      "▁экс": 2846,
      "лень": 2847,
      "тай": 2848,
      "ровал": 2849,
      "▁началь": 2850,
      "▁р": 2851,
      "ident": 2852,
      "ствовать": 2853,
      "▁самом": 2854,
      "▁приро": 2855,
      "▁говоря": 2856,
      "ческом": 2857,
      "нулся": 2858,
      "▁пя": 2859,
      "▁второй": 2860,
      "oun": 2861,
      "▁восто": 2862,
      "полне": 2863,
      "▁работу": 2864,
      "ular": 2865,
      "▁Ти": 2866,
      "▁through": 2867,
      "писы": 2868,
      "евич": 2869,
      "▁каза": 2870,
      "▁осуществ": 2871,
      "▁Sh": 2872,
      "▁бога": 2873,
      "rad": 2874,
      "▁каждый": 2875,
      "ствуют": 2876,
      "▁Боль": 2877,
      "ясь": 2878,
      "▁срав": 2879,
      "шком": 2880,
      "▁Миха": 2881,
      "▁меди": 2882,
      "▁вообще": 2883,
      "▁таким": 2884,
      "вольно": 2885,
      "▁пове": 2886,
      "▁замет": 2887,
      "▁кры": 2888,
      "каде": 2889,
      "чности": 2890,
      "▁ver": 2891,
      "ментов": 2892,
      "▁говорит": 2893,
      "лые": 2894,
      "бора": 2895,
      "юз": 2896,
      "▁работ": 2897,
      "▁поскольку": 2898,
      "ah": 2899,
      "▁районе": 2900,
      "▁уме": 2901,
      "▁дра": 2902,
      "еру": 2903,
      "▁sy": 2904,
      "▁группы": 2905,
      "дума": 2906,
      "olog": 2907,
      "▁взгля": 2908,
      "нский": 2909,
      "гна": 2910,
      "▁роль": 2911,
      "▁тяже": 2912,
      "▁развития": 2913,
      "блей": 2914,
      "▁кур": 2915,
      "жо": 2916,
      "рави": 2917,
      "▁край": 2918,
      "▁зависи": 2919,
      "▁пыта": 2920,
      "▁made": 2921,
      "▁stud": 2922,
      "▁реали": 2923,
      "▁such": 2924,
      "шать": 2925,
      "ating": 2926,
      "▁Поэтому": 2927,
      "▁during": 2928,
      "▁узна": 2929,
      "▁анти": 2930,
      "▁стала": 2931,
      "▁sub": 2932,
      "пени": 2933,
      "тербур": 2934,
      "▁мая": 2935,
      "▁источ": 2936,
      "рию": 2937,
      "▁Z": 2938,
      "▁стало": 2939,
      "тических": 2940,
      "▁Герма": 2941,
      "▁ск": 2942,
      "лета": 2943,
      "▁сегодня": 2944,
      "code": 2945,
      "част": 2946,
      "дать": 2947,
      "роя": 2948,
      "▁РФ": 2949,
      "▁психо": 2950,
      "▁пользова": 2951,
      "▁loc": 2952,
      "▁обяза": 2953,
      "▁гото": 2954,
      "рование": 2955,
      "▁созна": 2956,
      "▁такое": 2957,
      "▁совершенно": 2958,
      "муще": 2959,
      "▁мат": 2960,
      "тельным": 2961,
      "ily": 2962,
      "образ": 2963,
      "▁am": 2964,
      "водя": 2965,
      "meric": 2966,
      "ходят": 2967,
      "▁находится": 2968,
      "ason": 2969,
      "▁form": 2970,
      "▁выступа": 2971,
      "даря": 2972,
      "▁зву": 2973,
      "надле": 2974,
      "▁cent": 2975,
      "▁описа": 2976,
      "▁мор": 2977,
      "▁отношения": 2978,
      "▁тро": 2979,
      "oh": 2980,
      "▁достаточно": 2981,
      "▁большин": 2982,
      "▁end": 2983,
      "▁тради": 2984,
      "слав": 2985,
      "дения": 2986,
      "ollow": 2987,
      "сен": 2988,
      "▁неиз": 2989,
      "▁between": 2990,
      "pr": 2991,
      "льзя": 2992,
      "▁огром": 2993,
      "▁детей": 2994,
      "они": 2995,
      "▁этому": 2996,
      "▁проводи": 2997,
      "▁укра": 2998,
      "мира": 2999,
      "▁многие": 3000,
      "▁нее": 3001,
      "▁рели": 3002,
      "тек": 3003,
      "▁месте": 3004,
      "▁деятельности": 3005,
      "▁Ор": 3006,
      "▁публи": 3007,
      "▁Кроме": 3008,
      "онов": 3009,
      "▁отве": 3010,
      "▁поро": 3011,
      "▁меха": 3012,
      "ствовал": 3013,
      "▁Гу": 3014,
      "▁выс": 3015,
      "▁компании": 3016,
      "ton": 3017,
      "ever": 3018,
      "▁оборо": 3019,
      "стом": 3020,
      "ilm": 3021,
      "▁тысяч": 3022,
      "ins": 3023,
      "▁col": 3024,
      "лко": 3025,
      "▁права": 3026,
      "▁приве": 3027,
      "пов": 3028,
      "▁всей": 3029,
      "лина": 3030,
      "▁характер": 3031,
      "ars": 3032,
      "▁mov": 3033,
      "тон": 3034,
      "▁конечно": 3035,
      "▁смерти": 3036,
      "▁каждо": 3037,
      "тельности": 3038,
      "▁снова": 3039,
      "оз": 3040,
      "▁ведь": 3041,
      "чик": 3042,
      "▁сце": 3043,
      "ities": 3044,
      "▁оконча": 3045,
      "▁многих": 3046,
      "зем": 3047,
      "air": 3048,
      "▁составля": 3049,
      "мах": 3050,
      "▁Ча": 3051,
      "▁июля": 3052,
      "elf": 3053,
      "лит": 3054,
      "pos": 3055,
      "▁чемпиона": 3056,
      "▁Анд": 3057,
      "cial": 3058,
      "▁самого": 3059,
      "▁долго": 3060,
      "▁пунк": 3061,
      "▁no": 3062,
      "лка": 3063,
      "гер": 3064,
      "рение": 3065,
      "▁сопро": 3066,
      "▁inv": 3067,
      "▁струк": 3068,
      "▁принадле": 3069,
      "говор": 3070,
      "чку": 3071,
      "▁хоте": 3072,
      "▁Воз": 3073,
      "▁inc": 3074,
      "пом": 3075,
      "▁used": 3076,
      "никами": 3077,
      "az": 3078,
      "att": 3079,
      "overn": 3080,
      "▁требу": 3081,
      "▁внимание": 3082,
      "ouse": 3083,
      "▁наиболее": 3084,
      "щает": 3085,
      "▁ост": 3086,
      "ган": 3087,
      "arg": 3088,
      "▁аб": 3089,
      "дия": 3090,
      "лить": 3091,
      "als": 3092,
      "ike": 3093,
      "▁одним": 3094,
      "▁конф": 3095,
      "▁An": 3096,
      "▁later": 3097,
      "либо": 3098,
      "гие": 3099,
      "чества": 3100,
      "щим": 3101,
      "сок": 3102,
      "лами": 3103,
      "▁pol": 3104,
      "▁сентября": 3105,
      "▁могли": 3106,
      "ственные": 3107,
      "▁сообщи": 3108,
      "any": 3109,
      "риа": 3110,
      "▁заяви": 3111,
      "тные": 3112,
      "▁оши": 3113,
      "моби": 3114,
      "ex": 3115,
      "роб": 3116,
      "▁производи": 3117,
      "▁мона": 3118,
      "▁организации": 3119,
      "▁техни": 3120,
      "юсь": 3121,
      "hen": 3122,
      "жные": 3123,
      "▁def": 3124,
      "▁августа": 3125,
      "▁июня": 3126,
      "▁хозяй": 3127,
      "дут": 3128,
      "дки": 3129,
      "▁bl": 3130,
      "▁приходи": 3131,
      "eld": 3132,
      "▁количество": 3133,
      "▁Бер": 3134,
      "▁близ": 3135,
      "пози": 3136,
      "▁pres": 3137,
      "нного": 3138,
      "▁руковод": 3139,
      "▁всю": 3140,
      "смотря": 3141,
      "зад": 3142,
      "▁прове": 3143,
      "▁руководи": 3144,
      "▁возник": 3145,
      "ey": 3146,
      "other": 3147,
      "▁превра": 3148,
      "▁войска": 3149,
      "▁co": 3150,
      "▁администра": 3151,
      "▁нашей": 3152,
      "ife": 3153,
      "▁являются": 3154,
      "▁стоя": 3155,
      "ann": 3156,
      "cc": 3157,
      "ведение": 3158,
      "▁марта": 3159,
      "▁делать": 3160,
      "За": 3161,
      "▁дней": 3162,
      "▁Сан": 3163,
      "зей": 3164,
      "▁совсем": 3165,
      "iew": 3166,
      "▁фото": 3167,
      "тил": 3168,
      "▁октября": 3169,
      "▁анали": 3170,
      "▁степени": 3171,
      "пей": 3172,
      "▁января": 3173,
      "тный": 3174,
      "▁несколь": 3175,
      "▁call": 3176,
      "писи": 3177,
      "▁пои": 3178,
      "телями": 3179,
      "▁годах": 3180,
      "жал": 3181,
      "чном": 3182,
      "ific": 3183,
      "▁Пред": 3184,
      "▁почему": 3185,
      "▁составе": 3186,
      "▁Americ": 3187,
      "iet": 3188,
      "ложения": 3189,
      "▁прямо": 3190,
      "тка": 3191,
      "▁Федера": 3192,
      "▁соеди": 3193,
      "▁имени": 3194,
      "нений": 3195,
      "▁которым": 3196,
      "▁случай": 3197,
      "▁разре": 3198,
      "duc": 3199,
      "жить": 3200,
      "▁выз": 3201,
      "ics": 3202,
      "▁three": 3203,
      "конец": 3204,
      "▁отсут": 3205,
      "outh": 3206,
      "!\"": 3207,
      "рус": 3208,
      "веро": 3209,
      "▁француз": 3210,
      "▁Фи": 3211,
      "На": 3212,
      "▁филосо": 3213,
      "лова": 3214,
      "▁преду": 3215,
      "куль": 3216,
      "▁действия": 3217,
      "ince": 3218,
      "ople": 3219,
      "▁практи": 3220,
      "▁институ": 3221,
      "нта": 3222,
      "еты": 3223,
      "orth": 3224,
      "ision": 3225,
      "▁той": 3226,
      "▁set": 3227,
      "▁завер": 3228,
      "▁сезо": 3229,
      "▁силы": 3230,
      "▁pos": 3231,
      "▁др": 3232,
      "▁found": 3233,
      "▁сни": 3234,
      "валось": 3235,
      "▁обычно": 3236,
      "личие": 3237,
      "▁преступ": 3238,
      "▁прежде": 3239,
      "▁вид": 3240,
      "▁повы": 3241,
      "тере": 3242,
      "шно": 3243,
      "▁цар": 3244,
      "бен": 3245,
      "▁ent": 3246,
      "стно": 3247,
      "ier": 3248,
      "▁назад": 3249,
      "рам": 3250,
      "ТА": 3251,
      "▁друга": 3252,
      "round": 3253,
      "▁num": 3254,
      "▁должна": 3255,
      "▁види": 3256,
      "мень": 3257,
      "вь": 3258,
      "▁некоторые": 3259,
      "ather": 3260,
      "▁гер": 3261,
      "▁твор": 3262,
      "▁семь": 3263,
      "ement": 3264,
      "мия": 3265,
      "▁зда": 3266,
      "▁ал": 3267,
      "пор": 3268,
      "▁образ": 3269,
      "пле": 3270,
      "▁команди": 3271,
      "▁мире": 3272,
      "▁декабря": 3273,
      "▁суб": 3274,
      "▁поряд": 3275,
      "деля": 3276,
      "▁being": 3277,
      "ived": 3278,
      "▁участие": 3279,
      "тного": 3280,
      "▁экспе": 3281,
      "▁Ис": 3282,
      "туре": 3283,
      "ale": 3284,
      "▁равно": 3285,
      "aj": 3286,
      "▁prov": 3287,
      "скоре": 3288,
      "▁комму": 3289,
      "▁дво": 3290,
      ".:": 3291,
      "▁международ": 3292,
      "▁свиде": 3293,
      "▁допол": 3294,
      "▁съ": 3295,
      "нина": 3296,
      "ower": 3297,
      "▁финан": 3298,
      "com": 3299,
      "▁двига": 3300,
      "▁решение": 3301,
      "▁ап": 3302,
      "▁большой": 3303,
      "▁золо": 3304,
      "ty": 3305,
      "ines": 3306,
      "вок": 3307,
      "лик": 3308,
      "ссы": 3309,
      "▁well": 3310,
      "ложение": 3311,
      "▁арти": 3312,
      "▁прибы": 3313,
      "емые": 3314,
      "▁go": 3315,
      "вей": 3316,
      "velop": 3317,
      "лим": 3318,
      "▁управления": 3319,
      "▁##": 3320,
      "▁капита": 3321,
      "▁полностью": 3322,
      "дина": 3323,
      "▁отмет": 3324,
      "надца": 3325,
      "owever": 3326,
      "первые": 3327,
      "▁апреля": 3328,
      "прав": 3329,
      "торов": 3330,
      "клады": 3331,
      "▁She": 3332,
      "ливо": 3333,
      "ert": 3334,
      "хом": 3335,
      "▁судь": 3336,
      "дел": 3337,
      "ative": 3338,
      "▁коле": 3339,
      "▁форма": 3340,
      "▁пово": 3341,
      "ева": 3342,
      "▁At": 3343,
      "▁зве": 3344,
      "▁данных": 3345,
      "▁вспо": 3346,
      "▁комплек": 3347,
      "ral": 3348,
      "▁слишком": 3349,
      "▁мере": 3350,
      "▁попа": 3351,
      "▁нес": 3352,
      "▁серь": 3353,
      "▁оби": 3354,
      "▁вок": 3355,
      "▁гг": 3356,
      "▁dec": 3357,
      "▁сре": 3358,
      "▁происходит": 3359,
      "▁собира": 3360,
      "мор": 3361,
      "▁спу": 3362,
      "▁облада": 3363,
      "▁тон": 3364,
      "дами": 3365,
      "stem": 3366,
      "▁типа": 3367,
      "▁поко": 3368,
      "пасности": 3369,
      "вшая": 3370,
      "мых": 3371,
      "▁освобо": 3372,
      "ise": 3373,
      "▁такого": 3374,
      "▁ними": 3375,
      "ременно": 3376,
      "ss": 3377,
      "чную": 3378,
      "▁стоит": 3379,
      "▁использовать": 3380,
      "▁вариан": 3381,
      "▁кино": 3382,
      "льном": 3383,
      "▁простран": 3384,
      "▁государства": 3385,
      "▁воору": 3386,
      "▁повто": 3387,
      "▁<": 3388,
      "▁спро": 3389,
      "▁поверх": 3390,
      "град": 3391,
      "ash": 3392,
      "ниях": 3393,
      "▁специали": 3394,
      "готов": 3395,
      "ury": 3396,
      "▁against": 3397,
      "▁became": 3398,
      "▁уви": 3399,
      "▁первой": 3400,
      "▁аль": 3401,
      "▁Эти": 3402,
      "▁захва": 3403,
      "▁оте": 3404,
      "▁находя": 3405,
      "▁отда": 3406,
      "▁ноября": 3407,
      "▁Pro": 3408,
      "кар": 3409,
      "▁попу": 3410,
      "▁сна": 3411,
      "▁пути": 3412,
      "▁many": 3413,
      "▁официаль": 3414,
      "▁воды": 3415,
      "▁глубо": 3416,
      "▁стол": 3417,
      "▁Би": 3418,
      "▁взаимо": 3419,
      "▁мощ": 3420,
      "сон": 3421,
      "бом": 3422,
      "▁треть": 3423,
      "▁карти": 3424,
      "▁*": 3425,
      "мые": 3426,
      "▁while": 3427,
      "▁нельзя": 3428,
      "вид": 3429,
      "▁желез": 3430,
      "его": 3431,
      "▁кам": 3432,
      "▁trans": 3433,
      "▁общества": 3434,
      "ten": 3435,
      "тельность": 3436,
      "ниц": 3437,
      "рого": 3438,
      "▁заста": 3439,
      "▁add": 3440,
      "▁em": 3441,
      "ism": 3442,
      "▁англий": 3443,
      "чать": 3444,
      "▁Ша": 3445,
      "led": 3446,
      "ктора": 3447,
      "▁will": 3448,
      "▁sur": 3449,
      "▁имя": 3450,
      "▁легко": 3451,
      "▁буд": 3452,
      "▁return": 3453,
      "▁движения": 3454,
      "▁follow": 3455,
      "▁болез": 3456,
      "▁тебя": 3457,
      "длен": 3458,
      "▁second": 3459,
      "ause": 3460,
      "▁множе": 3461,
      "▁ды": 3462,
      "▁выда": 3463,
      "▁оружи": 3464,
      "▁ph": 3465,
      "▁закры": 3466,
      "теря": 3467,
      "▁механи": 3468,
      "▁.": 3469,
      "езд": 3470,
      "ck": 3471,
      "▁годов": 3472,
      "мана": 3473,
      "вов": 3474,
      "новь": 3475,
      "▁промышлен": 3476,
      "▁fam": 3477,
      "ined": 3478,
      "▁дире": 3479,
      "its": 3480,
      "▁back": 3481,
      "▁объеди": 3482,
      "носи": 3483,
      "▁наме": 3484,
      "жением": 3485,
      "▁средства": 3486,
      "▁>": 3487,
      "▁начал": 3488,
      "▁есте": 3489,
      "▁импера": 3490,
      "son": 3491,
      "тические": 3492,
      "▁удалось": 3493,
      "▁технологи": 3494,
      "▁film": 3495,
      "▁духов": 3496,
      "▁тыс": 3497,
      "ern": 3498,
      "лях": 3499,
      "▁оказыва": 3500,
      "erm": 3501,
      "ственным": 3502,
      "▁руки": 3503,
      "льную": 3504,
      "▁ана": 3505,
      "▁полови": 3506,
      "▁тай": 3507,
      "▁значение": 3508,
      "тельная": 3509,
      "▁before": 3510,
      "жил": 3511,
      "▁интерес": 3512,
      "▁корпу": 3513,
      "▁day": 3514,
      "▁Cl": 3515,
      "▁наши": 3516,
      "▁населения": 3517,
      "ственное": 3518,
      "▁inst": 3519,
      "пута": 3520,
      "▁пожа": 3521,
      "▁поги": 3522,
      "жный": 3523,
      "▁запа": 3524,
      "▁Зем": 3525,
      "нили": 3526,
      "?\"": 3527,
      "▁сил": 3528,
      "ницу": 3529,
      "▁ожида": 3530,
      "рое": 3531,
      "▁иногда": 3532,
      "▁обнаружи": 3533,
      "рё": 3534,
      "▁Мак": 3535,
      "нка": 3536,
      "▁ито": 3537,
      "emb": 3538,
      "дко": 3539,
      "рыв": 3540,
      "хот": 3541,
      "▁ан": 3542,
      "xt": 3543,
      "▁ощу": 3544,
      "▁сум": 3545,
      "▁предприя": 3546,
      "▁верси": 3547,
      "▁rele": 3548,
      "▁дене": 3549,
      "▁различных": 3550,
      "▁\\": 3551,
      "клад": 3552,
      "▁партии": 3553,
      "влены": 3554,
      "▁оди": 3555,
      "▁поддерж": 3556,
      "ys": 3557,
      "тали": 3558,
      "▁малень": 3559,
      "ames": 3560,
      "▁own": 3561,
      "▁секре": 3562,
      "▁мой": 3563,
      "▁пес": 3564,
      "ple": 3565,
      "▁if": 3566,
      "▁уничто": 3567,
      "▁any": 3568,
      "▁л": 3569,
      "ступил": 3570,
      "леко": 3571,
      "рее": 3572,
      "▁городе": 3573,
      "▁название": 3574,
      "▁устрой": 3575,
      "▁тур": 3576,
      "дий": 3577,
      "▁отлича": 3578,
      "▁гро": 3579,
      "----": 3580,
      "▁автомоби": 3581,
      "▁недоста": 3582,
      "▁team": 3583,
      "стоит": 3584,
      "ters": 3585,
      "▁самых": 3586,
      "▁новые": 3587,
      "▁Чер": 3588,
      "▁XV": 3589,
      "▁какие": 3590,
      "....": 3591,
      "шёл": 3592,
      "▁невоз": 3593,
      "▁система": 3594,
      "▁своем": 3595,
      "ution": 3596,
      "гами": 3597,
      "▁число": 3598,
      "▁поку": 3599,
      "тым": 3600,
      "сред": 3601,
      "▁весьма": 3602,
      "▁февраля": 3603,
      "▁people": 3604,
      "▁евро": 3605,
      "шта": 3606,
      "▁вполне": 3607,
      "▁Васи": 3608,
      "eb": 3609,
      "▁становится": 3610,
      "▁said": 3611,
      "ныне": 3612,
      "меть": 3613,
      "чо": 3614,
      "рем": 3615,
      "рко": 3616,
      "▁симво": 3617,
      "▁запад": 3618,
      "▁худож": 3619,
      "▁school": 3620,
      "▁работе": 3621,
      "▁For": 3622,
      "▁Москве": 3623,
      "ющими": 3624,
      "влека": 3625,
      "тбо": 3626,
      "вича": 3627,
      "▁исти": 3628,
      "▁солда": 3629,
      "форми": 3630,
      "джа": 3631,
      "cept": 3632,
      "▁трех": 3633,
      "▁некоторых": 3634,
      "нки": 3635,
      "▁воло": 3636,
      "▁сю": 3637,
      "лья": 3638,
      "баты": 3639,
      "чении": 3640,
      "ract": 3641,
      "▁новых": 3642,
      "шает": 3643,
      "▁журна": 3644,
      "ows": 3645,
      "вшим": 3646,
      "▁Ind": 3647,
      "▁назва": 3648,
      "▁After": 3649,
      "▁пять": 3650,
      "inn": 3651,
      "юза": 3652,
      "▁приобре": 3653,
      "навли": 3654,
      "▁рез": 3655,
      "ull": 3656,
      "▁lead": 3657,
      "▁норма": 3658,
      "ссиона": 3659,
      "▁отказа": 3660,
      "щается": 3661,
      "▁соба": 3662,
      "▁имеют": 3663,
      "▁предоста": 3664,
      "дил": 3665,
      "▁Sc": 3666,
      "ures": 3667,
      "▁прак": 3668,
      "▁could": 3669,
      "дем": 3670,
      "ank": 3671,
      "▁куда": 3672,
      "валась": 3673,
      "таки": 3674,
      "чением": 3675,
      "▁низ": 3676,
      "▁ото": 3677,
      "▁добро": 3678,
      "▁Восто": 3679,
      "▁аре": 3680,
      "нении": 3681,
      "▁рассказа": 3682,
      "сей": 3683,
      "▁реки": 3684,
      "новременно": 3685,
      "▁разных": 3686,
      "irect": 3687,
      "рит": 3688,
      "▁действительно": 3689,
      "▁кого": 3690,
      "▁возможности": 3691,
      "▁реше": 3692,
      "▁довольно": 3693,
      "принима": 3694,
      "▁Этот": 3695,
      "ield": 3696,
      "▁вновь": 3697,
      "▁рабочи": 3698,
      "▁информации": 3699,
      "▁did": 3700,
      "▁дальней": 3701,
      "тет": 3702,
      "▁крити": 3703,
      "влением": 3704,
      "▁реак": 3705,
      "чек": 3706,
      "▁кроме": 3707,
      "arri": 3708,
      "▁форми": 3709,
      "fl": 3710,
      "▁регу": 3711,
      "▁ран": 3712,
      "фици": 3713,
      "▁мысли": 3714,
      "строен": 3715,
      "дах": 3716,
      "▁фло": 3717,
      "ful": 3718,
      "▁рав": 3719,
      "щем": 3720,
      "ists": 3721,
      "▁цели": 3722,
      "▁радио": 3723,
      "▁возмо": 3724,
      "▁вызыва": 3725,
      "▁возника": 3726,
      "бран": 3727,
      "▁appe": 3728,
      "▁наблюда": 3729,
      "▁самым": 3730,
      "▁Wh": 3731,
      "▁спосо": 3732,
      "▁Российской": 3733,
      "нное": 3734,
      "мар": 3735,
      "▁art": 3736,
      "▁зо": 3737,
      "▁ори": 3738,
      "жного": 3739,
      "▁зая": 3740,
      "гли": 3741,
      "сят": 3742,
      "▁обви": 3743,
      "▁ца": 3744,
      "рис": 3745,
      "жений": 3746,
      "iversity": 3747,
      "гну": 3748,
      "поли": 3749,
      "нению": 3750,
      "▁dif": 3751,
      "▁присут": 3752,
      "стями": 3753,
      "▁both": 3754,
      "под": 3755,
      "шему": 3756,
      "йн": 3757,
      "деле": 3758,
      "▁sign": 3759,
      "пись": 3760,
      "▁зрения": 3761,
      "▁фон": 3762,
      "дж": 3763,
      "ax": 3764,
      "чность": 3765,
      "▁подтвер": 3766,
      "▁pop": 3767,
      "сами": 3768,
      "▁одном": 3769,
      "ron": 3770,
      "▁транспо": 3771,
      "cy": 3772,
      "начала": 3773,
      "ired": 3774,
      "▁основе": 3775,
      "▁холо": 3776,
      "ature": 3777,
      "▁including": 3778,
      "нная": 3779,
      "▁соответству": 3780,
      "нос": 3781,
      "▁develop": 3782,
      "▁культуры": 3783,
      "емый": 3784,
      "▁конца": 3785,
      "▁ob": 3786,
      "тать": 3787,
      "▁нового": 3788,
      "▁часов": 3789,
      "ped": 3790,
      "бов": 3791,
      "▁met": 3792,
      "тию": 3793,
      "тили": 3794,
      "эн": 3795,
      "▁рода": 3796,
      "чными": 3797,
      "▁тебе": 3798,
      "▁//": 3799,
      "▁расши": 3800,
      "der": 3801,
      "▁самой": 3802,
      "шить": 3803,
      "▁рассматри": 3804,
      "ute": 3805,
      "мую": 3806,
      "били": 3807,
      "▁решения": 3808,
      "▁ser": 3809,
      "ходить": 3810,
      "▁означа": 3811,
      "рос": 3812,
      "логии": 3813,
      "▁форму": 3814,
      "▁dist": 3815,
      "▁деньги": 3816,
      "overnment": 3817,
      "▁Col": 3818,
      "▁est": 3819,
      "iver": 3820,
      "▁новый": 3821,
      "доров": 3822,
      "читы": 3823,
      "ква": 3824,
      "▁геро": 3825,
      "▁вет": 3826,
      "▁книги": 3827,
      "нович": 3828,
      "ved": 3829,
      "▁дом": 3830,
      "▁Москов": 3831,
      "▁запре": 3832,
      "▁приз": 3833,
      "▁коллек": 3834,
      "шед": 3835,
      "▁high": 3836,
      "жете": 3837,
      "▁mus": 3838,
      "▁помощи": 3839,
      "▁Тем": 3840,
      "▁посвя": 3841,
      "▁слово": 3842,
      "стья": 3843,
      "▁Александр": 3844,
      "▁реко": 3845,
      "ографи": 3846,
      "▁бю": 3847,
      "▁Bl": 3848,
      "▁нескольких": 3849,
      "▁лица": 3850,
      "мин": 3851,
      "▁cap": 3852,
      "▁точки": 3853,
      "ting": 3854,
      "▁персона": 3855,
      "▁уси": 3856,
      "▁sm": 3857,
      "рил": 3858,
      "▁mod": 3859,
      "▁mon": 3860,
      "ven": 3861,
      "ually": 3862,
      "▁лицо": 3863,
      "сед": 3864,
      "▁public": 3865,
      "▁уз": 3866,
      "▁Теперь": 3867,
      "▁four": 3868,
      "▁main": 3869,
      "СК": 3870,
      "▁церков": 3871,
      "няет": 3872,
      "ained": 3873,
      "чество": 3874,
      "▁count": 3875,
      "▁Свя": 3876,
      "сам": 3877,
      "▁char": 3878,
      "▁никто": 3879,
      "▁вокруг": 3880,
      "▁утвержда": 3881,
      "▁губер": 3882,
      "▁последова": 3883,
      "▁боя": 3884,
      "▁определя": 3885,
      "▁независи": 3886,
      "мым": 3887,
      "▁перво": 3888,
      "▁bro": 3889,
      "▁найти": 3890,
      "▁Здесь": 3891,
      "▁Таким": 3892,
      "▁ed": 3893,
      "бере": 3894,
      "▁беспо": 3895,
      "▁эпо": 3896,
      "ized": 3897,
      "▁условиях": 3898,
      "▁север": 3899,
      "▁Украины": 3900,
      "▁работать": 3901,
      "лыша": 3902,
      "езда": 3903,
      "ober": 3904,
      "Ка": 3905,
      "служи": 3906,
      "▁совме": 3907,
      "▁сторону": 3908,
      "tend": 3909,
      "▁напо": 3910,
      "чета": 3911,
      "няется": 3912,
      "варти": 3913,
      "▁напря": 3914,
      "ссу": 3915,
      "креп": 3916,
      "▁одну": 3917,
      "нику": 3918,
      "ring": 3919,
      "▁these": 3920,
      "ley": 3921,
      "▁\\-": 3922,
      "ared": 3923,
      "▁Con": 3924,
      "▁Joh": 3925,
      "▁футбо": 3926,
      "жд": 3927,
      "зация": 3928,
      "▁религи": 3929,
      "▁Цен": 3930,
      "▁бло": 3931,
      "лам": 3932,
      "uss": 3933,
      "▁record": 3934,
      "▁попро": 3935,
      "▁acc": 3936,
      "▁идет": 3937,
      "Ко": 3938,
      "лению": 3939,
      "шет": 3940,
      "▁group": 3941,
      "▁разру": 3942,
      "▁наших": 3943,
      "ерен": 3944,
      "▁выбо": 3945,
      "нюю": 3946,
      "▁граждан": 3947,
      "▁Анг": 3948,
      "цем": 3949,
      "▁очередь": 3950,
      "лах": 3951,
      "▁Зна": 3952,
      "гой": 3953,
      "▁меньше": 3954,
      "▁cre": 3955,
      "▁season": 3956,
      "til": 3957,
      "шлось": 3958,
      "ента": 3959,
      "▁эпи": 3960,
      "гает": 3961,
      "▁Ав": 3962,
      "жай": 3963,
      "▁каса": 3964,
      "▁медици": 3965,
      "степ": 3966,
      "▁ум": 3967,
      "тья": 3968,
      "стр": 3969,
      "ристиан": 3970,
      "pect": 3971,
      "▁акаде": 3972,
      "▁XI": 3973,
      "ис": 3974,
      "▁ус": 3975,
      "▁первого": 3976,
      "▁потеря": 3977,
      "▁United": 3978,
      "▁Оте": 3979,
      "▁минут": 3980,
      "▁скры": 3981,
      "tt": 3982,
      "▁цвет": 3983,
      "руется": 3984,
      "▁бом": 3985,
      "▁характери": 3986,
      "▁Затем": 3987,
      "imes": 3988,
      "▁см": 3989,
      "печат": 3990,
      "▁практически": 3991,
      "▁класси": 3992,
      "▁рам": 3993,
      "тром": 3994,
      "▁start": 3995,
      "▁иска": 3996,
      "фу": 3997,
      "▁вд": 3998,
      "▁конку": 3999,
      "▁впервые": 4000,
      "▁значит": 4001,
      "▁измени": 4002,
      "зор": 4003,
      "▁long": 4004,
      "▁мол": 4005,
      "▁самое": 4006,
      "▁fin": 4007,
      "▁оде": 4008,
      "▁путь": 4009,
      "▁умер": 4010,
      "▁внутри": 4011,
      "▁иностран": 4012,
      "ъек": 4013,
      "вшихся": 4014,
      "мокра": 4015,
      "ющую": 4016,
      "▁ходе": 4017,
      "ink": 4018,
      "▁сом": 4019,
      "▁рядом": 4020,
      "▁подготов": 4021,
      "oot": 4022,
      "ндии": 4023,
      "▁столь": 4024,
      "▁Север": 4025,
      "▁улица": 4026,
      "дри": 4027,
      "▁семей": 4028,
      "▁труд": 4029,
      "ционной": 4030,
      "зывать": 4031,
      "▁use": 4032,
      "▁поддержи": 4033,
      "зия": 4034,
      "▁Вто": 4035,
      "▁Например": 4036,
      "▁немного": 4037,
      "сю": 4038,
      "▁ново": 4039,
      "оте": 4040,
      "▁частности": 4041,
      "els": 4042,
      "erson": 4043,
      "▁аэ": 4044,
      "мый": 4045,
      "жным": 4046,
      "лье": 4047,
      "▁кана": 4048,
      "▁данным": 4049,
      "▁поя": 4050,
      "кну": 4051,
      "нным": 4052,
      "спублики": 4053,
      "▁войск": 4054,
      "▁writ": 4055,
      "▁серьез": 4056,
      "▁своими": 4057,
      "▁забы": 4058,
      "ат": 4059,
      "urch": 4060,
      "▁обсу": 4061,
      "▁var": 4062,
      "сколько": 4063,
      "▁мужчи": 4064,
      "▁конкре": 4065,
      "чит": 4066,
      "▁вклю": 4067,
      "кет": 4068,
      "▁темпера": 4069,
      "гах": 4070,
      "▁вдо": 4071,
      "▁may": 4072,
      "▁Eng": 4073,
      "▁плане": 4074,
      "ходил": 4075,
      "▁предлага": 4076,
      "▁тела": 4077,
      "▁пом": 4078,
      "ните": 4079,
      "erman": 4080,
      "con": 4081,
      "▁постоянно": 4082,
      "▁sever": 4083,
      "▁эффектив": 4084,
      "▁земли": 4085,
      "▁Sp": 4086,
      "▁прошло": 4087,
      "▁млн": 4088,
      "ient": 4089,
      "▁Также": 4090,
      "▁замеча": 4091,
      "▁деву": 4092,
      "inu": 4093,
      "луч": 4094,
      "▁Германии": 4095,
      "сах": 4096,
      "▁процесс": 4097,
      "▁отношении": 4098,
      "▁словам": 4099,
      "▁сильно": 4100,
      "ox": 4101,
      "туаль": 4102,
      "▁Между": 4103,
      "▁const": 4104,
      "жает": 4105,
      "циях": 4106,
      "▁oper": 4107,
      "▁проблемы": 4108,
      "▁until": 4109,
      "▁появля": 4110,
      "иль": 4111,
      "▁группа": 4112,
      "▁Fran": 4113,
      "▁Comm": 4114,
      "▁свобод": 4115,
      "тический": 4116,
      "▁рублей": 4117,
      "▁Ком": 4118,
      "ible": 4119,
      "бло": 4120,
      "▁Франции": 4121,
      "▁позволя": 4122,
      "▁Гор": 4123,
      "восто": 4124,
      "вки": 4125,
      "▁средств": 4126,
      "▁силу": 4127,
      "▁проте": 4128,
      "▁готов": 4129,
      "▁благодаря": 4130,
      "▁min": 4131,
      "▁комна": 4132,
      "▁най": 4133,
      "▁столи": 4134,
      "пет": 4135,
      "стях": 4136,
      "чал": 4137,
      "▁счет": 4138,
      "▁Эта": 4139,
      "iam": 4140,
      "gram": 4141,
      "▁Сле": 4142,
      "▁same": 4143,
      "гам": 4144,
      "▁Ad": 4145,
      "▁уж": 4146,
      "▁дополни": 4147,
      "▁расположен": 4148,
      "▁разно": 4149,
      "чены": 4150,
      "ОВ": 4151,
      "▁выпу": 4152,
      "ility": 4153,
      "▁кос": 4154,
      "рец": 4155,
      "▁system": 4156,
      "тчи": 4157,
      "▁John": 4158,
      "НИ": 4159,
      "▁Ленин": 4160,
      "enn": 4161,
      "лимпи": 4162,
      "▁писал": 4163,
      "▁нему": 4164,
      "ke": 4165,
      "емого": 4166,
      "▁Is": 4167,
      "▁генерал": 4168,
      "▁профессиона": 4169,
      "▁говорить": 4170,
      "▁eff": 4171,
      "▁работал": 4172,
      "▁стране": 4173,
      "ходили": 4174,
      "vent": 4175,
      "▁Чи": 4176,
      "роде": 4177,
      "...\"": 4178,
      "aking": 4179,
      "рица": 4180,
      "▁осуществля": 4181,
      "▁оцен": 4182,
      "▁шу": 4183,
      "▁number": 4184,
      "▁сек": 4185,
      "▁остро": 4186,
      "▁Дру": 4187,
      "щении": 4188,
      "▁тю": 4189,
      "▁опыт": 4190,
      "▁build": 4191,
      "▁отмеча": 4192,
      "ственная": 4193,
      "une": 4194,
      "▁сторон": 4195,
      "▁`": 4196,
      "▁Ты": 4197,
      "ants": 4198,
      "▁аген": 4199,
      "▁клю": 4200,
      "город": 4201,
      "лении": 4202,
      "▁Федерации": 4203,
      "▁доступ": 4204,
      "тика": 4205,
      "▁ряд": 4206,
      "▁непре": 4207,
      "▁доказа": 4208,
      "телям": 4209,
      "туру": 4210,
      "▁иметь": 4211,
      "▁индиви": 4212,
      "▁Аль": 4213,
      "▁Глав": 4214,
      "▁игро": 4215,
      "▁примерно": 4216,
      "кин": 4217,
      "влено": 4218,
      "▁Примеча": 4219,
      "▁обстоя": 4220,
      "▁выну": 4221,
      "▁позна": 4222,
      "лад": 4223,
      "▁художе": 4224,
      "▁Ио": 4225,
      "чё": 4226,
      "▁следова": 4227,
      "ek": 4228,
      "uro": 4229,
      "▁оце": 4230,
      "ets": 4231,
      "ческими": 4232,
      "▁составляет": 4233,
      "ковой": 4234,
      "▁верну": 4235,
      "ives": 4236,
      "ctions": 4237,
      "▁called": 4238,
      "шой": 4239,
      "▁непри": 4240,
      "▁пользу": 4241,
      "ровали": 4242,
      "йт": 4243,
      "▁полно": 4244,
      "▁кате": 4245,
      "▁воспо": 4246,
      "▁биз": 4247,
      "▁known": 4248,
      "▁инстру": 4249,
      "▁open": 4250,
      "▁сколько": 4251,
      "тельную": 4252,
      "▁Гри": 4253,
      "лог": 4254,
      "▁применя": 4255,
      "▁известно": 4256,
      "▁печа": 4257,
      "III": 4258,
      "my": 4259,
      "▁увеличи": 4260,
      "нял": 4261,
      "▁получить": 4262,
      "▁аппара": 4263,
      "▁жерт": 4264,
      "▁непосред": 4265,
      "ina": 4266,
      "▁Амери": 4267,
      "▁моря": 4268,
      "▁comple": 4269,
      "гани": 4270,
      "▁водо": 4271,
      "ционных": 4272,
      "▁gener": 4273,
      "▁еже": 4274,
      "цей": 4275,
      "▁будто": 4276,
      "▁ребен": 4277,
      "▁контра": 4278,
      "▁offic": 4279,
      "▁положение": 4280,
      "дам": 4281,
      "▁район": 4282,
      "▁rep": 4283,
      "▁посла": 4284,
      "▁реда": 4285,
      "пар": 4286,
      "▁другим": 4287,
      "влена": 4288,
      "говори": 4289,
      "емой": 4290,
      "▁Чере": 4291,
      "вел": 4292,
      "дали": 4293,
      "рес": 4294,
      "▁зло": 4295,
      "▁Ph": 4296,
      "▁приводи": 4297,
      "▁ат": 4298,
      "▁хва": 4299,
      "лер": 4300,
      "вшиеся": 4301,
      "▁They": 4302,
      "▁bel": 4303,
      "тета": 4304,
      "ural": 4305,
      "▁кажется": 4306,
      "▁точно": 4307,
      "рых": 4308,
      "▁конструк": 4309,
      "▁командова": 4310,
      "▁ныне": 4311,
      "▁позд": 4312,
      "▁suc": 4313,
      "uth": 4314,
      "▁противника": 4315,
      "▁импе": 4316,
      "▁пяти": 4317,
      "жали": 4318,
      "▁долла": 4319,
      "▁Тогда": 4320,
      "нит": 4321,
      "▁каждого": 4322,
      "▁председа": 4323,
      "▁неда": 4324,
      "бар": 4325,
      "тором": 4326,
      "▁бума": 4327,
      "▁моз": 4328,
      "▁Кор": 4329,
      "Ма": 4330,
      "▁новой": 4331,
      "▁госпо": 4332,
      "▁May": 4333,
      "▁заболе": 4334,
      "▁награ": 4335,
      "▁протя": 4336,
      "▁другими": 4337,
      "▁Там": 4338,
      "atch": 4339,
      "▁нашего": 4340,
      "▁orig": 4341,
      "▁говорил": 4342,
      "sh": 4343,
      "бка": 4344,
      "▁согласи": 4345,
      "▁показыва": 4346,
      "митри": 4347,
      "▁ever": 4348,
      "▁подчи": 4349,
      "фри": 4350,
      "▁угро": 4351,
      "ссия": 4352,
      "прави": 4353,
      "▁первых": 4354,
      "ene": 4355,
      "цер": 4356,
      "▁мыс": 4357,
      "▁убий": 4358,
      "▁изменения": 4359,
      "arn": 4360,
      "The": 4361,
      "▁расте": 4362,
      "arm": 4363,
      "▁Сто": 4364,
      "▁рассказыва": 4365,
      "солю": 4366,
      "мость": 4367,
      "the": 4368,
      "▁церкви": 4369,
      "▁автор": 4370,
      "▁вместо": 4371,
      ".).": 4372,
      "▁med": 4373,
      "▁rece": 4374,
      "▁вече": 4375,
      "▁торго": 4376,
      "ниями": 4377,
      "нда": 4378,
      "▁Brit": 4379,
      "▁заявил": 4380,
      "фон": 4381,
      "▁Нет": 4382,
      "▁целью": 4383,
      "▁пото": 4384,
      "роятно": 4385,
      "спек": 4386,
      "кому": 4387,
      "▁Ско": 4388,
      "▁прибли": 4389,
      "анта": 4390,
      "вшийся": 4391,
      "▁child": 4392,
      "▁позволяет": 4393,
      "ент": 4394,
      "▁мыш": 4395,
      "▁Чтобы": 4396,
      "чено": 4397,
      "▁знако": 4398,
      "нике": 4399,
      "кли": 4400,
      "ange": 4401,
      "▁American": 4402,
      "▁плани": 4403,
      "▁газ": 4404,
      "▁колле": 4405,
      "▁привы": 4406,
      "ments": 4407,
      "▁провер": 4408,
      "▁Бра": 4409,
      "мое": 4410,
      "▁ката": 4411,
      "▁суд": 4412,
      "▁ранее": 4413,
      "сур": 4414,
      "ised": 4415,
      "eng": 4416,
      "▁опубли": 4417,
      "▁early": 4418,
      "ющихся": 4419,
      "ided": 4420,
      "▁производства": 4421,
      "▁University": 4422,
      "▁команды": 4423,
      "▁began": 4424,
      "▁компью": 4425,
      "▁кило": 4426,
      "одо": 4427,
      "get": 4428,
      "▁игры": 4429,
      "▁...": 4430,
      "▁Рас": 4431,
      "▁предполага": 4432,
      "жности": 4433,
      "▁обеспечи": 4434,
      "никам": 4435,
      "▁безопасности": 4436,
      "▁ann": 4437,
      "▁наконец": 4438,
      "▁действий": 4439,
      "▁испыта": 4440,
      "наче": 4441,
      "▁данные": 4442,
      "▁установи": 4443,
      "▁существует": 4444,
      "rid": 4445,
      "рина": 4446,
      "▁фигу": 4447,
      "▁орде": 4448,
      "ata": 4449,
      "▁выска": 4450,
      "тивных": 4451,
      "▁одновременно": 4452,
      "ехал": 4453,
      "▁tr": 4454,
      "вос": 4455,
      "▁support": 4456,
      "гло": 4457,
      "▁show": 4458,
      "чув": 4459,
      "сного": 4460,
      "АТ": 4461,
      "▁дальше": 4462,
      "▁особен": 4463,
      "сный": 4464,
      "Со": 4465,
      "▁Каза": 4466,
      "iving": 4467,
      "лым": 4468,
      "▁преи": 4469,
      "▁Государ": 4470,
      "▁массо": 4471,
      "сад": 4472,
      "▁run": 4473,
      "▁Только": 4474,
      "▁земле": 4475,
      "ньше": 4476,
      "▁мате": 4477,
      "▁disc": 4478,
      "▁состоянии": 4479,
      "▁четвер": 4480,
      "тех": 4481,
      "▁produ": 4482,
      "▁союз": 4483,
      "пан": 4484,
      "▁трудно": 4485,
      "шку": 4486,
      "рый": 4487,
      "ристо": 4488,
      "▁празд": 4489,
      "▁обязан": 4490,
      "▁самоле": 4491,
      "▁наш": 4492,
      "гей": 4493,
      "▁основном": 4494,
      "▁Владимир": 4495,
      "▁предложи": 4496,
      "ruct": 4497,
      "▁#": 4498,
      "▁формы": 4499,
      "▁Европы": 4500,
      "Пе": 4501,
      "▁разу": 4502,
      "▁мета": 4503,
      "Во": 4504,
      "▁Исто": 4505,
      "▁Поль": 4506,
      "▁невозможно": 4507,
      "▁правило": 4508,
      "вели": 4509,
      "руют": 4510,
      "▁театра": 4511,
      "▁Мне": 4512,
      "▁катего": 4513,
      "лая": 4514,
      "ird": 4515,
      "▁,": 4516,
      "▁речь": 4517,
      "рёх": 4518,
      "▁тво": 4519,
      "дение": 4520,
      "ross": 4521,
      "▁музыка": 4522,
      "нему": 4523,
      "▁government": 4524,
      "▁законо": 4525,
      "зре": 4526,
      "▁события": 4527,
      "▁заключа": 4528,
      "СТ": 4529,
      "▁design": 4530,
      "▁микро": 4531,
      "▁другу": 4532,
      "▁сро": 4533,
      "▁Пари": 4534,
      "гать": 4535,
      "поло": 4536,
      "▁культур": 4537,
      "▁выгля": 4538,
      "способ": 4539,
      "▁sing": 4540,
      "зин": 4541,
      "▁hist": 4542,
      "▁name": 4543,
      "вла": 4544,
      "▁sl": 4545,
      "▁мнению": 4546,
      "▁подвер": 4547,
      "▁команду": 4548,
      "Не": 4549,
      "▁знаю": 4550,
      "▁самый": 4551,
      "▁Be": 4552,
      "щества": 4553,
      "▁догово": 4554,
      "▁Jan": 4555,
      "▁land": 4556,
      "▁several": 4557,
      "▁раньше": 4558,
      "▁доби": 4559,
      "▁середи": 4560,
      "▁логи": 4561,
      "▁ибо": 4562,
      "▁пой": 4563,
      "▁%": 4564,
      "▁студен": 4565,
      "▁pass": 4566,
      "▁роли": 4567,
      "ium": 4568,
      "вился": 4569,
      "▁Чу": 4570,
      "▁това": 4571,
      "▁утра": 4572,
      "▁пита": 4573,
      "ission": 4574,
      "▁спор": 4575,
      "▁поки": 4576,
      "обо": 4577,
      "▁стату": 4578,
      "arl": 4579,
      "▁народа": 4580,
      "▁вопросы": 4581,
      "ьер": 4582,
      "▁Примечания": 4583,
      "ps": 4584,
      "ital": 4585,
      "лений": 4586,
      "▁шо": 4587,
      "▁управля": 4588,
      "▁Согла": 4589,
      "▁состоит": 4590,
      "▁result": 4591,
      "СР": 4592,
      "▁времен": 4593,
      "amed": 4594,
      "▁Же": 4595,
      "▁like": 4596,
      "куда": 4597,
      "▁gu": 4598,
      "▁what": 4599,
      "чению": 4600,
      "▁мировой": 4601,
      "зирова": 4602,
      "▁York": 4603,
      "послед": 4604,
      "▁учеб": 4605,
      "стьян": 4606,
      "▁море": 4607,
      "▁опас": 4608,
      "▁ау": 4609,
      "▁Ново": 4610,
      "▁любой": 4611,
      "/.": 4612,
      "ющем": 4613,
      "▁глуби": 4614,
      "гия": 4615,
      "por": 4616,
      "▁профессо": 4617,
      "гар": 4618,
      "▁представляет": 4619,
      "ai": 4620,
      "▁кварти": 4621,
      "▁арми": 4622,
      "▁решил": 4623,
      "▁линии": 4624,
      "▁And": 4625,
      "ajor": 4626,
      "телю": 4627,
      "▁direct": 4628,
      "льными": 4629,
      "▁другом": 4630,
      "▁Фа": 4631,
      "▁ele": 4632,
      "эй": 4633,
      "▁понять": 4634,
      "▁корот": 4635,
      "▁пригла": 4636,
      "тива": 4637,
      "▁популяр": 4638,
      "▁впере": 4639,
      "лег": 4640,
      "станов": 4641,
      "▁региона": 4642,
      "▁city": 4643,
      "▁язык": 4644,
      "▁exp": 4645,
      "▁Тур": 4646,
      "▁пришлось": 4647,
      "▁--": 4648,
      "▁Pl": 4649,
      "▁Кры": 4650,
      "▁покры": 4651,
      "▁air": 4652,
      "кор": 4653,
      "▁поля": 4654,
      "▁бой": 4655,
      "▁имел": 4656,
      "▁своему": 4657,
      "▁некото": 4658,
      "ble": 4659,
      "тации": 4660,
      "▁скло": 4661,
      "▁военно": 4662,
      "▁German": 4663,
      "▁которому": 4664,
      "ила": 4665,
      "дленно": 4666,
      "▁случаях": 4667,
      "ically": 4668,
      "\")": 4669,
      "▁area": 4670,
      "тое": 4671,
      "▁ins": 4672,
      "▁окружа": 4673,
      "▁ссы": 4674,
      "рудова": 4675,
      "▁разо": 4676,
      "▁школы": 4677,
      "____": 4678,
      "ove": 4679,
      "▁my": 4680,
      "▁because": 4681,
      "лл": 4682,
      "▁насто": 4683,
      "▁верх": 4684,
      "▁потреб": 4685,
      "▁There": 4686,
      "▁экспери": 4687,
      "▁Ев": 4688,
      "▁вста": 4689,
      "▁развитие": 4690,
      "влет": 4691,
      "▁sim": 4692,
      "▁mil": 4693,
      "поль": 4694,
      "▁след": 4695,
      "▁учре": 4696,
      "▁инже": 4697,
      "дят": 4698,
      "▁христиан": 4699,
      "ОН": 4700,
      "▁подписа": 4701,
      "▁образования": 4702,
      "теше": 4703,
      "**": 4704,
      "раздо": 4705,
      "влению": 4706,
      "▁World": 4707,
      "rist": 4708,
      "▁head": 4709,
      "▁искусства": 4710,
      "▁стара": 4711,
      "чке": 4712,
      "гры": 4713,
      "▁Тре": 4714,
      "▁воздей": 4715,
      "▁товари": 4716,
      "▁down": 4717,
      "▁настоящее": 4718,
      "▁самостоя": 4719,
      "слов": 4720,
      "▁Ju": 4721,
      "гина": 4722,
      "▁макси": 4723,
      "▁organ": 4724,
      "▁XX": 4725,
      "▁перево": 4726,
      "▁полез": 4727,
      "▁меч": 4728,
      "тивно": 4729,
      "тирова": 4730,
      "▁расстоя": 4731,
      "дили": 4732,
      "ister": 4733,
      "▁US": 4734,
      "ствовали": 4735,
      "▁первые": 4736,
      "▁стреми": 4737,
      "▁сыгра": 4738,
      "tle": 4739,
      "▁изо": 4740,
      "▁деятельность": 4741,
      "ЕР": 4742,
      "ues": 4743,
      "▁подроб": 4744,
      "дже": 4745,
      "aving": 4746,
      "▁устра": 4747,
      "▁пору": 4748,
      "▁выи": 4749,
      "▁фай": 4750,
      "rand": 4751,
      "▁differ": 4752,
      "▁фра": 4753,
      "вании": 4754,
      "▁языка": 4755,
      "шими": 4756,
      "вит": 4757,
      "▁class": 4758,
      "▁state": 4759,
      "▁власть": 4760,
      "▁ситуации": 4761,
      "нке": 4762,
      "▁Ху": 4763,
      "тни": 4764,
      "▁хотел": 4765,
      "тивной": 4766,
      "▁нуж": 4767,
      "▁пост": 4768,
      "▁прожи": 4769,
      "arch": 4770,
      "▁пти": 4771,
      "▁hel": 4772,
      "▁финансо": 4773,
      "▁правительства": 4774,
      "▁паль": 4775,
      "▁посо": 4776,
      "▁Через": 4777,
      "нден": 4778,
      "▁Ген": 4779,
      "ровки": 4780,
      "▁Среди": 4781,
      "лён": 4782,
      "▁ими": 4783,
      "тное": 4784,
      "▁However": 4785,
      "▁ква": 4786,
      "▁War": 4787,
      "▁Дмитри": 4788,
      "▁прос": 4789,
      "▁япо": 4790,
      "ages": 4791,
      "вай": 4792,
      "▁partic": 4793,
      "▁уверен": 4794,
      "зья": 4795,
      "▁библи": 4796,
      "▁сын": 4797,
      "▁скорее": 4798,
      "деб": 4799,
      "▁Еще": 4800,
      "▁первую": 4801,
      "ступления": 4802,
      "соеди": 4803,
      "ана": 4804,
      "▁препо": 4805,
      "тона": 4806,
      "▁заве": 4807,
      "ностей": 4808,
      "▁высоко": 4809,
      "abl": 4810,
      "▁давно": 4811,
      "▁располага": 4812,
      "Ро": 4813,
      "тябре": 4814,
      "▁ого": 4815,
      "ционного": 4816,
      "ющиеся": 4817,
      "ret": 4818,
      "влений": 4819,
      "ize": 4820,
      "▁соответствии": 4821,
      "▁моей": 4822,
      "которы": 4823,
      "▁охра": 4824,
      "▁сокра": 4825,
      "▁His": 4826,
      "тической": 4827,
      "▁point": 4828,
      "▁переме": 4829,
      "▁Именно": 4830,
      "шек": 4831,
      "▁исче": 4832,
      "▁near": 4833,
      "▁took": 4834,
      "▁now": 4835,
      "▁знамени": 4836,
      "образова": 4837,
      "illion": 4838,
      "тился": 4839,
      "▁опять": 4840,
      "▁ата": 4841,
      "пят": 4842,
      "▁выбра": 4843,
      "ссив": 4844,
      "рик": 4845,
      "▁впечат": 4846,
      "▁Ал": 4847,
      "▁безу": 4848,
      "▁prom": 4849,
      "▁Хотя": 4850,
      "тиви": 4851,
      "рович": 4852,
      "чиво": 4853,
      "▁метров": 4854,
      "▁occ": 4855,
      "orm": 4856,
      "▁ужа": 4857,
      "тник": 4858,
      "▁Основ": 4859,
      "▁III": 4860,
      "▁исследования": 4861,
      "▁целом": 4862,
      "▁Роди": 4863,
      "▁радо": 4864,
      "▁труда": 4865,
      "▁деревня": 4866,
      "▁преда": 4867,
      "pend": 4868,
      "▁чуть": 4869,
      "последствии": 4870,
      "ery": 4871,
      "],": 4872,
      "▁особо": 4873,
      "▁вдруг": 4874,
      "▁дел": 4875,
      "прочем": 4876,
      "пании": 4877,
      "▁работает": 4878,
      "тием": 4879,
      "▁сайте": 4880,
      "▁состояние": 4881,
      "кса": 4882,
      "жная": 4883,
      "щать": 4884,
      "дор": 4885,
      "▁family": 4886,
      "ional": 4887,
      "▁первым": 4888,
      "зить": 4889,
      "▁абсолю": 4890,
      "бки": 4891,
      "▁веду": 4892,
      "▁удоб": 4893,
      "тики": 4894,
      "by": 4895,
      "несе": 4896,
      "гель": 4897,
      "▁индивиду": 4898,
      "цам": 4899,
      "▁досто": 4900,
      "▁сф": 4901,
      "ior": 4902,
      "▁двумя": 4903,
      "▁мага": 4904,
      "▁рамках": 4905,
      "▁главным": 4906,
      "▁ору": 4907,
      "▁сви": 4908,
      "жению": 4909,
      "▁упомина": 4910,
      "▁положи": 4911,
      "▁бед": 4912,
      "дите": 4913,
      "▁сопрово": 4914,
      "Ра": 4915,
      "▁преимуще": 4916,
      "▁держа": 4917,
      "▁образу": 4918,
      "▁сама": 4919,
      "▁Ги": 4920,
      "▁карь": 4921,
      "▁Совета": 4922,
      "duced": 4923,
      "▁уровня": 4924,
      "▁сверх": 4925,
      "ris": 4926,
      "au": 4927,
      "▁жить": 4928,
      "▁такая": 4929,
      "▁game": 4930,
      "▁just": 4931,
      "нести": 4932,
      "▁услу": 4933,
      "▁артилле": 4934,
      ",\"": 4935,
      "▁монасты": 4936,
      "▁депута": 4937,
      "▁форме": 4938,
      "пить": 4939,
      "стати": 4940,
      "▁requ": 4941,
      "oci": 4942,
      "нут": 4943,
      "▁жителей": 4944,
      "▁людя": 4945,
      "▁несмотря": 4946,
      "пру": 4947,
      "▁серд": 4948,
      "▁program": 4949,
      "▁Гра": 4950,
      "▁Коро": 4951,
      "▁States": 4952,
      "▁указыва": 4953,
      "▁спокой": 4954,
      "Мо": 4955,
      "▁ль": 4956,
      "▁Их": 4957,
      "▁наук": 4958,
      "нены": 4959,
      "▁гораздо": 4960,
      "omen": 4961,
      "▁Авто": 4962,
      "▁украин": 4963,
      "▁инф": 4964,
      "▁предме": 4965,
      "▁совершен": 4966,
      "▁Сте": 4967,
      "▁Бар": 4968,
      "сных": 4969,
      "▁време": 4970,
      "▁along": 4971,
      "▁полага": 4972,
      "сит": 4973,
      "▁report": 4974,
      "▁другого": 4975,
      "▁each": 4976,
      "▁замести": 4977,
      "▁нена": 4978,
      "▁сделал": 4979,
      "▁голову": 4980,
      "▁way": 4981,
      "▁Te": 4982,
      "▁world": 4983,
      "▁Им": 4984,
      "de": 4985,
      "▁позже": 4986,
      "▁right": 4987,
      "▁зара": 4988,
      "▁тело": 4989,
      "▁раза": 4990,
      "жки": 4991,
      "▁говорят": 4992,
      "▁установ": 4993,
      "▁правитель": 4994,
      "raph": 4995,
      "read": 4996,
      "▁Ведь": 4997,
      "▁религиоз": 4998,
      "▁around": 4999,
      "▁создания": 5000,
      "▁останови": 5001,
      "hes": 5002,
      "▁place": 5003,
      "▁commun": 5004,
      "▁Рабо": 5005,
      "шил": 5006,
      "ator": 5007,
      "ience": 5008,
      "▁знает": 5009,
      "row": 5010,
      "▁плохо": 5011,
      "▁неф": 5012,
      "циями": 5013,
      "сные": 5014,
      "емся": 5015,
      "▁ref": 5016,
      "два": 5017,
      "af": 5018,
      "▁умень": 5019,
      "▁чрез": 5020,
      "сф": 5021,
      "oman": 5022,
      "▁помощь": 5023,
      "▁возгла": 5024,
      "▁small": 5025,
      "станти": 5026,
      "ую": 5027,
      "▁app": 5028,
      "▁брига": 5029,
      "▁success": 5030,
      "▁яр": 5031,
      "лением": 5032,
      "▁слов": 5033,
      "▁роман": 5034,
      "вайте": 5035,
      "тным": 5036,
      "omet": 5037,
      "▁журнали": 5038,
      "▁здоров": 5039,
      "ices": 5040,
      "▁уровне": 5041,
      "▁центр": 5042,
      "▁ниже": 5043,
      "▁молоды": 5044,
      "тке": 5045,
      "arge": 5046,
      "сова": 5047,
      "ждении": 5048,
      "ology": 5049,
      "▁последние": 5050,
      "стить": 5051,
      "ung": 5052,
      "ус": 5053,
      "▁каким": 5054,
      "груз": 5055,
      "тербург": 5056,
      "метров": 5057,
      "chn": 5058,
      "▁подня": 5059,
      "чена": 5060,
      "▁Союза": 5061,
      "▁series": 5062,
      "тина": 5063,
      "▁book": 5064,
      "▁исключи": 5065,
      "▁множество": 5066,
      "bum": 5067,
      "▁систем": 5068,
      "▁знал": 5069,
      "ждать": 5070,
      "ilt": 5071,
      "▁ресур": 5072,
      "бви": 5073,
      "oard": 5074,
      "вка": 5075,
      "▁далеко": 5076,
      "писко": 5077,
      "ствием": 5078,
      "▁Тру": 5079,
      "▁начали": 5080,
      "▁even": 5081,
      "▁дать": 5082,
      "▁Aug": 5083,
      "▁left": 5084,
      "пен": 5085,
      "▁пропа": 5086,
      "▁пережи": 5087,
      "▁Пра": 5088,
      "▁значения": 5089,
      "▁движение": 5090,
      "▁теории": 5091,
      "▁назначен": 5092,
      "мого": 5093,
      "▁сначала": 5094,
      "ственности": 5095,
      "▁though": 5096,
      "▁программы": 5097,
      "▁развед": 5098,
      "view": 5099,
      "▁русской": 5100,
      "▁Nov": 5101,
      "ged": 5102,
      "▁лиц": 5103,
      "▁канди": 5104,
      "▁house": 5105,
      "бай": 5106,
      "▁old": 5107,
      "▁Япо": 5108,
      "спи": 5109,
      "ians": 5110,
      "▁федера": 5111,
      "реза": 5112,
      "▁десяти": 5113,
      "▁дни": 5114,
      "▁All": 5115,
      "тивного": 5116,
      "▁continu": 5117,
      "▁hand": 5118,
      "▁since": 5119,
      "▁женщин": 5120,
      "▁употре": 5121,
      "степенно": 5122,
      "дной": 5123,
      "▁долларов": 5124,
      "▁относительно": 5125,
      "нией": 5126,
      "rol": 5127,
      "▁[/": 5128,
      "▁Чем": 5129,
      "чика": 5130,
      "тивный": 5131,
      "▁относя": 5132,
      "жность": 5133,
      "▁смотре": 5134,
      "▁европей": 5135,
      "сл": 5136,
      "▁Москвы": 5137,
      "▁рекомен": 5138,
      "гро": 5139,
      "ллю": 5140,
      "▁главе": 5141,
      "▁прото": 5142,
      "▁прид": 5143,
      "▁кандида": 5144,
      "▁мастер": 5145,
      "▁Це": 5146,
      "▁det": 5147,
      "▁горя": 5148,
      "ulation": 5149,
      "uary": 5150,
      "▁маль": 5151,
      "▁Запад": 5152,
      "▁операции": 5153,
      "чая": 5154,
      "▁бур": 5155,
      "▁эмо": 5156,
      "▁психи": 5157,
      "though": 5158,
      "▁документа": 5159,
      "▁осно": 5160,
      "▁Один": 5161,
      "▁Man": 5162,
      "арь": 5163,
      "▁ид": 5164,
      "▁мел": 5165,
      "▁отец": 5166,
      "АН": 5167,
      "▁животных": 5168,
      "▁нами": 5169,
      "▁самые": 5170,
      "med": 5171,
      "▁spec": 5172,
      "▁cur": 5173,
      "▁ext": 5174,
      "▁rest": 5175,
      "rent": 5176,
      "жены": 5177,
      "▁страте": 5178,
      "▁dr": 5179,
      "▁cour": 5180,
      "▁home": 5181,
      "▁пишет": 5182,
      "▁ще": 5183,
      "▁фильм": 5184,
      "▁страда": 5185,
      "▁женщины": 5186,
      "▁краси": 5187,
      "▁Ши": 5188,
      "▁Or": 5189,
      "▁погиб": 5190,
      "▁вскоре": 5191,
      "▁Гре": 5192,
      "ствова": 5193,
      "чью": 5194,
      "▁литератур": 5195,
      "тальян": 5196,
      "тивные": 5197,
      "▁very": 5198,
      "▁процесса": 5199,
      "▁Центра": 5200,
      "▁Euro": 5201,
      "▁Ана": 5202,
      "▁месяцев": 5203,
      "▁Согласно": 5204,
      "▁денег": 5205,
      "това": 5206,
      "▁August": 5207,
      "▁Pr": 5208,
      "тает": 5209,
      "▁доме": 5210,
      "▁история": 5211,
      "▁нер": 5212,
      "aim": 5213,
      "ptember": 5214,
      "▁пересе": 5215,
      "▁сих": 5216,
      "▁Oct": 5217,
      "▁стандар": 5218,
      "▁ночь": 5219,
      "нте": 5220,
      "бил": 5221,
      "▁Россия": 5222,
      "голь": 5223,
      "▁истре": 5224,
      "вшее": 5225,
      "ains": 5226,
      "▁Can": 5227,
      "▁исполни": 5228,
      "▁уто": 5229,
      "▁турни": 5230,
      "▁процен": 5231,
      "▁юри": 5232,
      "▁двор": 5233,
      "▁Рус": 5234,
      "▁фир": 5235,
      "▁released": 5236,
      "шев": 5237,
      "▁отрица": 5238,
      "▁Ge": 5239,
      "ченных": 5240,
      "тыми": 5241,
      "▁испы": 5242,
      "▁могла": 5243,
      "▁построе": 5244,
      "▁Aust": 5245,
      "▁начало": 5246,
      "▁разве": 5247,
      "▁хоть": 5248,
      "aced": 5249,
      "ссов": 5250,
      "▁бле": 5251,
      "▁иначе": 5252,
      "ваясь": 5253,
      "гни": 5254,
      "чественной": 5255,
      "cent": 5256,
      "▁социали": 5257,
      "▁отца": 5258,
      "▁чаще": 5259,
      "▁языке": 5260,
      "▁still": 5261,
      "▁семьи": 5262,
      "▁make": 5263,
      "▁автома": 5264,
      "▁last": 5265,
      "▁революции": 5266,
      "▁смерть": 5267,
      "▁Ex": 5268,
      "зен": 5269,
      "▁major": 5270,
      "▁большинство": 5271,
      "▁русских": 5272,
      "▁означает": 5273,
      "▁парт": 5274,
      "пя": 5275,
      "▁выяс": 5276,
      "тная": 5277,
      "джи": 5278,
      "▁улуч": 5279,
      "ковых": 5280,
      "▁оборудова": 5281,
      "▁September": 5282,
      "▁происхо": 5283,
      "▁life": 5284,
      "▁ty": 5285,
      "▁ини": 5286,
      "embers": 5287,
      "коми": 5288,
      "ote": 5289,
      "▁Мини": 5290,
      "▁смысле": 5291,
      "▁сове": 5292,
      "▁Сей": 5293,
      "ногие": 5294,
      "ague": 5295,
      "▁song": 5296,
      "▁удовлет": 5297,
      "▁путеше": 5298,
      "▁car": 5299,
      "▁многочисле": 5300,
      "рыва": 5301,
      "▁National": 5302,
      "▁семье": 5303,
      "▁June": 5304,
      "augh": 5305,
      "▁крестьян": 5306,
      "▁паро": 5307,
      "▁appro": 5308,
      "▁организова": 5309,
      "▁сигна": 5310,
      "▁дивизии": 5311,
      "▁Am": 5312,
      "▁любви": 5313,
      "▁зависимости": 5314,
      "▁чисто": 5315,
      "▁тепло": 5316,
      "▁мои": 5317,
      "▁берегу": 5318,
      "▁Cent": 5319,
      "▁числа": 5320,
      "▁soc": 5321,
      "▁отвер": 5322,
      "ternational": 5323,
      "▁напомина": 5324,
      "▁последу": 5325,
      "co": 5326,
      "▁двадца": 5327,
      "даль": 5328,
      "▁согласно": 5329,
      "чёт": 5330,
      "▁видео": 5331,
      "▁str": 5332,
      "▁систему": 5333,
      "▁сне": 5334,
      "произ": 5335,
      "▁делает": 5336,
      "ина": 5337,
      "▁компози": 5338,
      "▁провин": 5339,
      "▁Вме": 5340,
      "▁избе": 5341,
      "▁lit": 5342,
      "ony": 5343,
      "▁можете": 5344,
      "▁отличие": 5345,
      "uff": 5346,
      "▁подчер": 5347,
      "лена": 5348,
      "▁субъек": 5349,
      "▁зу": 5350,
      "▁March": 5351,
      "ждений": 5352,
      "тку": 5353,
      "▁Нью": 5354,
      "▁значительно": 5355,
      "тую": 5356,
      "▁попада": 5357,
      "▁уро": 5358,
      "мимо": 5359,
      "\":": 5360,
      "▁туда": 5361,
      "▁Константи": 5362,
      "ody": 5363,
      "ately": 5364,
      "▁содержи": 5365,
      "стами": 5366,
      "▁album": 5367,
      "▁Конечно": 5368,
      "▁упа": 5369,
      "▁проекта": 5370,
      "▁крепо": 5371,
      "стров": 5372,
      "ently": 5373,
      "нских": 5374,
      "▁частью": 5375,
      "▁мм": 5376,
      "▁tri": 5377,
      "ници": 5378,
      "ченные": 5379,
      "▁October": 5380,
      "▁those": 5381,
      "▁честь": 5382,
      "хар": 5383,
      "▁памяти": 5384,
      "ложить": 5385,
      "▁Фо": 5386,
      "▁charact": 5387,
      "▁local": 5388,
      "▁взаимодей": 5389,
      "▁проблема": 5390,
      "бю": 5391,
      "▁хле": 5392,
      "бить": 5393,
      "▁music": 5394,
      "▁сет": 5395,
      "que": 5396,
      "зоваться": 5397,
      "▁кисло": 5398,
      "▁Верхов": 5399,
      "▁проект": 5400,
      "//": 5401,
      "▁университета": 5402,
      "фы": 5403,
      "▁Ке": 5404,
      "▁хими": 5405,
      "▁incre": 5406,
      "▁законода": 5407,
      "▁цвета": 5408,
      "тите": 5409,
      "me": 5410,
      "▁модели": 5411,
      "▁науки": 5412,
      "ллек": 5413,
      "▁пов": 5414,
      "питан": 5415,
      "сшта": 5416,
      "которые": 5417,
      "▁проблем": 5418,
      "to": 5419,
      "ступление": 5420,
      "ляции": 5421,
      "стной": 5422,
      "ales": 5423,
      "atic": 5424,
      "▁дис": 5425,
      "брь": 5426,
      "▁класса": 5427,
      "менова": 5428,
      "▁dem": 5429,
      "▁неизвест": 5430,
      "льд": 5431,
      "▁Жи": 5432,
      "▁зам": 5433,
      "ционные": 5434,
      "▁какое": 5435,
      "▁отря": 5436,
      "▁расположе": 5437,
      "титься": 5438,
      "ними": 5439,
      "дови": 5440,
      "▁каждой": 5441,
      "▁Даже": 5442,
      "щик": 5443,
      "▁всеми": 5444,
      "▁уровень": 5445,
      "▁import": 5446,
      "▁Вол": 5447,
      "▁произошло": 5448,
      "▁ев": 5449,
      "▁Mus": 5450,
      "▁лично": 5451,
      "▁евре": 5452,
      "▁рим": 5453,
      "▁видов": 5454,
      "ner": 5455,
      "вила": 5456,
      "гал": 5457,
      "▁another": 5458,
      "▁предмет": 5459,
      "▁можем": 5460,
      "▁eng": 5461,
      "▁XIX": 5462,
      "▁рекла": 5463,
      "▁оказался": 5464,
      "▁law": 5465,
      "▁Пла": 5466,
      "▁прош": 5467,
      "рите": 5468,
      "▁пят": 5469,
      "▁напа": 5470,
      "летия": 5471,
      "pril": 5472,
      "ленных": 5473,
      "▁ниж": 5474,
      "self": 5475,
      "пой": 5476,
      "▁Есть": 5477,
      "oss": 5478,
      "▁заво": 5479,
      "стые": 5480,
      "ored": 5481,
      "лимпий": 5482,
      "▁Кто": 5483,
      "дьми": 5484,
      "▁Sy": 5485,
      "▁случи": 5486,
      "▁завое": 5487,
      "▁первом": 5488,
      "▁объяви": 5489,
      "▁July": 5490,
      "▁care": 5491,
      "▁person": 5492,
      "▁дети": 5493,
      "дный": 5494,
      "цкий": 5495,
      "▁никаких": 5496,
      "луа": 5497,
      "циони": 5498,
      "▁британ": 5499,
      "▁свидетель": 5500,
      "▁bus": 5501,
      "▁коне": 5502,
      "чает": 5503,
      "▁British": 5504,
      "▁elect": 5505,
      "▁существу": 5506,
      "ОР": 5507,
      "▁Бело": 5508,
      "▁влияние": 5509,
      "▁January": 5510,
      "▁Пар": 5511,
      "iness": 5512,
      "▁During": 5513,
      "▁Сред": 5514,
      "▁итоге": 5515,
      "▁much": 5516,
      "▁службы": 5517,
      "Но": 5518,
      "▁полка": 5519,
      "ival": 5520,
      "▁South": 5521,
      "довать": 5522,
      "ats": 5523,
      "▁бор": 5524,
      "женный": 5525,
      "▁член": 5526,
      "▁жена": 5527,
      "▁президент": 5528,
      "▁произведения": 5529,
      "жё": 5530,
      "▁вышел": 5531,
      "▁острова": 5532,
      "▁зри": 5533,
      "▁Ше": 5534,
      "▁видел": 5535,
      "▁сня": 5536,
      "▁предна": 5537,
      "▁дороги": 5538,
      "ланд": 5539,
      "▁препода": 5540,
      "понен": 5541,
      "▁получили": 5542,
      "▁настолько": 5543,
      "эр": 5544,
      "ётся": 5545,
      "▁принял": 5546,
      "▁camp": 5547,
      "▁различные": 5548,
      "мера": 5549,
      "▁Можно": 5550,
      "▁обнару": 5551,
      "▁сохрани": 5552,
      "ane": 5553,
      "▁твер": 5554,
      "щал": 5555,
      "▁following": 5556,
      "▁i": 5557,
      "▁библиоте": 5558,
      "тельными": 5559,
      "нением": 5560,
      "ining": 5561,
      "ционный": 5562,
      "):": 5563,
      "цом": 5564,
      "ness": 5565,
      "▁зер": 5566,
      "шается": 5567,
      "▁April": 5568,
      "чений": 5569,
      "▁дает": 5570,
      "▁Май": 5571,
      "▁функции": 5572,
      "▁демон": 5573,
      "▁School": 5574,
      "▁мл": 5575,
      "чий": 5576,
      "▁северо": 5577,
      "▁солдат": 5578,
      "КА": 5579,
      "▁сцена": 5580,
      "▁живу": 5581,
      "ственность": 5582,
      "вере": 5583,
      "▁метал": 5584,
      "▁объя": 5585,
      "▁Николай": 5586,
      "▁следующий": 5587,
      "ленной": 5588,
      "▁оке": 5589,
      "▁создать": 5590,
      "▁каких": 5591,
      "mber": 5592,
      "ходы": 5593,
      "нтов": 5594,
      "лив": 5595,
      "рачи": 5596,
      "▁машины": 5597,
      "▁get": 5598,
      "rop": 5599,
      "▁Лон": 5600,
      "▁establ": 5601,
      "см": 5602,
      "▁Мин": 5603,
      "▁Пол": 5604,
      "▁ребенка": 5605,
      "▁войне": 5606,
      "▁won": 5607,
      "▁Ed": 5608,
      "▁правительство": 5609,
      "▁священ": 5610,
      "▁large": 5611,
      "▁электри": 5612,
      "▁consid": 5613,
      "ien": 5614,
      "▁adv": 5615,
      "▁When": 5616,
      "▁мной": 5617,
      "▁хочет": 5618,
      "▁members": 5619,
      "▁прочи": 5620,
      "▁проя": 5621,
      "▁свер": 5622,
      "▁подгото": 5623,
      "inc": 5624,
      "▁воздуш": 5625,
      "низ": 5626,
      "▁опы": 5627,
      "▁сча": 5628,
      "▁сообщил": 5629,
      "sc": 5630,
      "▁каби": 5631,
      "▁Шу": 5632,
      "▁мое": 5633,
      "▁событий": 5634,
      "▁суда": 5635,
      "дыду": 5636,
      "ниципа": 5637,
      "▁сотрудни": 5638,
      "▁Андре": 5639,
      "▁mark": 5640,
      "▁противоре": 5641,
      "▁присоеди": 5642,
      "St": 5643,
      "▁фронта": 5644,
      "▁гар": 5645,
      "▁la": 5646,
      "▁большое": 5647,
      "▁военных": 5648,
      "▁vis": 5649,
      "сия": 5650,
      "вью": 5651,
      "▁dep": 5652,
      "▁корре": 5653,
      "▁вещи": 5654,
      "reen": 5655,
      "▁удар": 5656,
      "▁психологи": 5657,
      "▁Bro": 5658,
      "▁бит": 5659,
      "sy": 5660,
      "роди": 5661,
      "▁Gu": 5662,
      "app": 5663,
      "виться": 5664,
      "min": 5665,
      "кру": 5666,
      "щиков": 5667,
      "▁план": 5668,
      "ording": 5669,
      "▁небе": 5670,
      "▁Мон": 5671,
      "▁event": 5672,
      "▁неожида": 5673,
      "▁добы": 5674,
      "▁разные": 5675,
      "alk": 5676,
      "▁усили": 5677,
      "▁путем": 5678,
      "стных": 5679,
      "▁преж": 5680,
      "тории": 5681,
      "кипа": 5682,
      "▁line": 5683,
      "▁гвар": 5684,
      "uck": 5685,
      "▁предела": 5686,
      "▁человеком": 5687,
      "жат": 5688,
      "▁демокра": 5689,
      "▁взгляд": 5690,
      "▁циф": 5691,
      "тельном": 5692,
      "тков": 5693,
      "▁книге": 5694,
      "▁Ap": 5695,
      "щаться": 5696,
      "тит": 5697,
      "▁war": 5698,
      "▁членов": 5699,
      "▁Джон": 5700,
      "▁важно": 5701,
      "▁которыми": 5702,
      "▁село": 5703,
      "▁компания": 5704,
      "луй": 5705,
      "▁Europe": 5706,
      "оны": 5707,
      "▁максима": 5708,
      "▁company": 5709,
      "▁Сергей": 5710,
      "▁polit": 5711,
      "строи": 5712,
      "шке": 5713,
      "ball": 5714,
      "▁сочи": 5715,
      "oad": 5716,
      "aster": 5717,
      "▁учё": 5718,
      "верь": 5719,
      "щими": 5720,
      "▁распоря": 5721,
      "▁историю": 5722,
      "iven": 5723,
      "wards": 5724,
      "ray": 5725,
      "▁людьми": 5726,
      "▁использования": 5727,
      "ходов": 5728,
      "веден": 5729,
      "▁подраз": 5730,
      "▁описы": 5731,
      "▁опа": 5732,
      "riend": 5733,
      "▁ближай": 5734,
      "▁статьи": 5735,
      "▁поводу": 5736,
      "▁русского": 5737,
      "▁имели": 5738,
      "бок": 5739,
      "▁написал": 5740,
      "▁вести": 5741,
      "cember": 5742,
      "▁every": 5743,
      "▁изгото": 5744,
      "▁переста": 5745,
      "▁resp": 5746,
      "▁ува": 5747,
      "▁Й": 5748,
      "▁сопроти": 5749,
      "дон": 5750,
      "▁виду": 5751,
      "▁рассмотре": 5752,
      "ript": 5753,
      "▁процессе": 5754,
      "▁power": 5755,
      "▁вовсе": 5756,
      "▁покупа": 5757,
      "▁Европе": 5758,
      "▁age": 5759,
      "▁борьбы": 5760,
      "жное": 5761,
      "▁desc": 5762,
      "ходе": 5763,
      "▁всему": 5764,
      "▁юго": 5765,
      "▁фотографи": 5766,
      "▁спустя": 5767,
      "▁November": 5768,
      "▁отношений": 5769,
      "▁москов": 5770,
      "▁кому": 5771,
      "▁позиции": 5772,
      "лями": 5773,
      "▁условия": 5774,
      "▁индивидуаль": 5775,
      "▁другое": 5776,
      "▁системе": 5777,
      "▁солн": 5778,
      "▁секу": 5779,
      "▁выход": 5780,
      "▁газе": 5781,
      "▁запро": 5782,
      "▁due": 5783,
      "iety": 5784,
      "day": 5785,
      "▁начинает": 5786,
      "ческому": 5787,
      "стики": 5788,
      "gy": 5789,
      "▁Иван": 5790,
      "разу": 5791,
      "▁century": 5792,
      "лять": 5793,
      "▁мать": 5794,
      "▁людям": 5795,
      "▁необы": 5796,
      "дал": 5797,
      "ВА": 5798,
      "ственном": 5799,
      "▁президента": 5800,
      "raft": 5801,
      "лон": 5802,
      "кали": 5803,
      "ведений": 5804,
      "▁attack": 5805,
      "▁экспер": 5806,
      "▁вен": 5807,
      "▁Fl": 5808,
      "▁обороны": 5809,
      "▁exper": 5810,
      "парта": 5811,
      "▁концеп": 5812,
      "▁av": 5813,
      "▁December": 5814,
      "бель": 5815,
      "▁моя": 5816,
      "▁знать": 5817,
      "▁leg": 5818,
      "itions": 5819,
      "▁By": 5820,
      "ides": 5821,
      "▁band": 5822,
      "ТАСС": 5823,
      "▁увиде": 5824,
      "▁веро": 5825,
      "влять": 5826,
      "йо": 5827,
      "сив": 5828,
      "ждая": 5829,
      "▁столько": 5830,
      "▁Почему": 5831,
      "▁Дже": 5832,
      "▁term": 5833,
      "▁принять": 5834,
      "▁станции": 5835,
      "▁дивизи": 5836,
      "куп": 5837,
      "iod": 5838,
      "▁постепенно": 5839,
      "▁Ад": 5840,
      "▁временем": 5841,
      "ured": 5842,
      "▁present": 5843,
      "чиков": 5844,
      "бир": 5845,
      "rew": 5846,
      "▁последний": 5847,
      "▁требования": 5848,
      "▁предыду": 5849,
      "▁Республики": 5850,
      "▁town": 5851,
      "alth": 5852,
      "▁причем": 5853,
      "▁философи": 5854,
      "ified": 5855,
      "▁men": 5856,
      "▁задачи": 5857,
      "▁проявля": 5858,
      "▁обрабо": 5859,
      "▁осозна": 5860,
      "▁death": 5861,
      "▁Сталин": 5862,
      "▁хро": 5863,
      "▁брат": 5864,
      "▁turn": 5865,
      "▁остается": 5866,
      "▁val": 5867,
      "фикации": 5868,
      "филь": 5869,
      "нули": 5870,
      "▁Will": 5871,
      "▁million": 5872,
      "▁удиви": 5873,
      "ур": 5874,
      "▁общем": 5875,
      "▁коммуни": 5876,
      "▁заслу": 5877,
      "ott": 5878,
      "▁цве": 5879,
      "форм": 5880,
      "ницей": 5881,
      "▁чувство": 5882,
      "▁кле": 5883,
      "▁Ита": 5884,
      "▁кров": 5885,
      "▁величи": 5886,
      "ссажи": 5887,
      "▁неве": 5888,
      "▁сосед": 5889,
      "▁перегово": 5890,
      "▁Великой": 5891,
      "▁связь": 5892,
      "▁held": 5893,
      "▁фильма": 5894,
      "дка": 5895,
      "▁голов": 5896,
      "вале": 5897,
      "ун": 5898,
      "▁пого": 5899,
      "work": 5900,
      "ваний": 5901,
      "▁Госпо": 5902,
      "ves": 5903,
      "▁вроде": 5904,
      "▁особы": 5905,
      "▁большую": 5906,
      "даго": 5907,
      "▁final": 5908,
      "▁Одна": 5909,
      "▁tit": 5910,
      "бина": 5911,
      "▁итальян": 5912,
      "▁таком": 5913,
      "ively": 5914,
      "▁наслед": 5915,
      "par": 5916,
      "▁Em": 5917,
      "▁воспита": 5918,
      "ering": 5919,
      "нную": 5920,
      "▁фанта": 5921,
      "▁клуб": 5922,
      "▁энергии": 5923,
      "женных": 5924,
      "▁возбу": 5925,
      "тю": 5926,
      "пень": 5927,
      "▁архитек": 5928,
      "гий": 5929,
      "▁We": 5930,
      "▁девя": 5931,
      "суль": 5932,
      "▁ясно": 5933,
      "кри": 5934,
      "▁jo": 5935,
      "ling": 5936,
      "▁King": 5937,
      "▁зи": 5938,
      "жела": 5939,
      "▁came": 5940,
      "▁информацию": 5941,
      "сток": 5942,
      "▁тка": 5943,
      "Ве": 5944,
      "▁Оста": 5945,
      "стых": 5946,
      "▁запи": 5947,
      "▁поднима": 5948,
      "\").": 5949,
      "ственную": 5950,
      "▁Пушки": 5951,
      "▁будем": 5952,
      "ново": 5953,
      "▁cor": 5954,
      "▁former": 5955,
      "▁наше": 5956,
      "лку": 5957,
      "▁Велико": 5958,
      "▁одино": 5959,
      "▁received": 5960,
      "▁Потом": 5961,
      "▁North": 5962,
      "▁es": 5963,
      "▁фина": 5964,
      "▁попыт": 5965,
      "плуа": 5966,
      "▁выво": 5967,
      "▁вернулся": 5968,
      "меется": 5969,
      "▁сына": 5970,
      "▁полков": 5971,
      "▁poss": 5972,
      "вленные": 5973,
      "лое": 5974,
      "ненных": 5975,
      "рхи": 5976,
      "ждён": 5977,
      "▁китай": 5978,
      "▁expl": 5979,
      "▁восстано": 5980,
      "ches": 5981,
      "рые": 5982,
      "▁КП": 5983,
      "гно": 5984,
      "▁conf": 5985,
      "▁Благо": 5986,
      "▁Mc": 5987,
      "катери": 5988,
      "▁потен": 5989,
      "▁империи": 5990,
      "▁played": 5991,
      "бин": 5992,
      "▁общей": 5993,
      "риаль": 5994,
      "▁станет": 5995,
      "▁навер": 5996,
      "▁po": 5997,
      "▁необходимости": 5998,
      "Бо": 5999,
      "▁факт": 6000,
      "!!": 6001,
      "▁парла": 6002,
      "▁наказа": 6003,
      "види": 6004,
      "ization": 6005,
      "▁сердце": 6006,
      "▁Второй": 6007,
      "▁режисс": 6008,
      "▁стен": 6009,
      "▁поверхности": 6010,
      "поста": 6011,
      "▁дове": 6012,
      "▁имуще": 6013,
      "шении": 6014,
      "▁Первый": 6015,
      "▁муниципа": 6016,
      "rict": 6017,
      "▁Национа": 6018,
      "стного": 6019,
      "▁офице": 6020,
      "▁души": 6021,
      "▁еврей": 6022,
      "▁Послед": 6023,
      "▁мысль": 6024,
      "стической": 6025,
      "▁Christ": 6026,
      "akes": 6027,
      "▁рома": 6028,
      "▁пье": 6029,
      "▁Кри": 6030,
      "▁hum": 6031,
      "▁Co": 6032,
      "▁материаль": 6033,
      "▁дал": 6034,
      "ваем": 6035,
      "лне": 6036,
      "▁:": 6037,
      "▁City": 6038,
      "▁Некоторые": 6039,
      "видно": 6040,
      "▁обре": 6041,
      "зды": 6042,
      "шал": 6043,
      "▁органов": 6044,
      "▁выигра": 6045,
      "▁сети": 6046,
      "▁опо": 6047,
      "▁писатель": 6048,
      "▁stand": 6049,
      "ration": 6050,
      "▁уди": 6051,
      "начально": 6052,
      "▁отношение": 6053,
      "▁прис": 6054,
      "▁different": 6055,
      "▁kill": 6056,
      "▁руку": 6057,
      "рода": 6058,
      "▁спек": 6059,
      "▁устанавли": 6060,
      "▁уголов": 6061,
      "▁опро": 6062,
      "▁water": 6063,
      "▁сос": 6064,
      "▁beg": 6065,
      "▁используется": 6066,
      "▁круг": 6067,
      "нется": 6068,
      "нье": 6069,
      "емая": 6070,
      "▁косми": 6071,
      "▁подума": 6072,
      "жь": 6073,
      "▁Отечественной": 6074,
      "▁Александра": 6075,
      "▁озе": 6076,
      "▁времена": 6077,
      "▁Car": 6078,
      "▁природы": 6079,
      "бль": 6080,
      "▁направлении": 6081,
      "▁выпуска": 6082,
      "▁Pol": 6083,
      "ney": 6084,
      "бург": 6085,
      "▁баталь": 6086,
      "нился": 6087,
      "▁воск": 6088,
      "▁say": 6089,
      "вляется": 6090,
      "▁сборной": 6091,
      "чев": 6092,
      "▁месяца": 6093,
      "Са": 6094,
      "▁руках": 6095,
      "▁крови": 6096,
      "▁домой": 6097,
      "▁шесть": 6098,
      "ront": 6099,
      "ниям": 6100,
      "▁суме": 6101,
      "▁судеб": 6102,
      "▁кафе": 6103,
      "▁партий": 6104,
      "▁включая": 6105,
      "▁качества": 6106,
      "▁Ass": 6107,
      "▁оба": 6108,
      "▁проз": 6109,
      "▁чувства": 6110,
      "▁need": 6111,
      "▁словами": 6112,
      "▁сравни": 6113,
      "▁within": 6114,
      "ждает": 6115,
      "▁six": 6116,
      "долго": 6117,
      "▁личности": 6118,
      "▁внимания": 6119,
      "▁относится": 6120,
      "дных": 6121,
      "▁раскры": 6122,
      "▁Стра": 6123,
      "▁fun": 6124,
      "▁идеи": 6125,
      "вшую": 6126,
      "reet": 6127,
      "ЕН": 6128,
      "▁космо": 6129,
      "▁iss": 6130,
      "▁распреде": 6131,
      "▁акт": 6132,
      "стям": 6133,
      "▁совета": 6134,
      "меры": 6135,
      "ense": 6136,
      "кции": 6137,
      "▁привле": 6138,
      "▁хочу": 6139,
      "▁странах": 6140,
      "▁отме": 6141,
      "надцать": 6142,
      "▁любовь": 6143,
      "редо": 6144,
      "ктором": 6145,
      "▁находятся": 6146,
      "тим": 6147,
      "▁приказа": 6148,
      "▁жили": 6149,
      "вычай": 6150,
      "▁касается": 6151,
      "МИ": 6152,
      "▁причина": 6153,
      "кров": 6154,
      "▁вое": 6155,
      "▁возраста": 6156,
      "let": 6157,
      "▁заседа": 6158,
      "▁приходится": 6159,
      "▁слы": 6160,
      "▁действу": 6161,
      "▁землю": 6162,
      "\\.": 6163,
      "▁Har": 6164,
      "▁письмо": 6165,
      "alf": 6166,
      "▁вероятно": 6167,
      "▁children": 6168,
      "чили": 6169,
      "ief": 6170,
      "▁named": 6171,
      "▁Сейчас": 6172,
      "▁вперед": 6173,
      "сная": 6174,
      "▁рису": 6175,
      "дре": 6176,
      "▁allow": 6177,
      "▁par": 6178,
      "нными": 6179,
      "▁большим": 6180,
      "▁срок": 6181,
      "▁Несмотря": 6182,
      "йдет": 6183,
      "▁Тро": 6184,
      "▁смысл": 6185,
      "вшейся": 6186,
      "бами": 6187,
      "ster": 6188,
      "▁сообщает": 6189,
      "▁русский": 6190,
      "▁подви": 6191,
      "▁женщина": 6192,
      "yn": 6193,
      "▁предприятия": 6194,
      "▁истреби": 6195,
      "▁ам": 6196,
      "▁зави": 6197,
      "▁запо": 6198,
      "▁led": 6199,
      "▁превы": 6200,
      "▁пала": 6201,
      "тического": 6202,
      "▁ТА": 6203,
      "нность": 6204,
      "сторон": 6205,
      "▁карто": 6206,
      "▁Лит": 6207,
      "▁Санкт": 6208,
      "Да": 6209,
      "▁момента": 6210,
      "▁домаш": 6211,
      "пки": 6212,
      "▁академи": 6213,
      "сыпа": 6214,
      "lege": 6215,
      "▁trad": 6216,
      "\";": 6217,
      "▁посред": 6218,
      "ос": 6219,
      "щихся": 6220,
      "▁названием": 6221,
      "▁Алексе": 6222,
      "▁порядке": 6223,
      "▁действие": 6224,
      "▁Сам": 6225,
      "▁вслед": 6226,
      "▁широко": 6227,
      "рядок": 6228,
      "водят": 6229,
      "▁беско": 6230,
      "▁середине": 6231,
      "▁трак": 6232,
      "empt": 6233,
      "втра": 6234,
      "▁секрета": 6235,
      ".-": 6236,
      "arried": 6237,
      "▁Англии": 6238,
      "▁fact": 6239,
      "▁трудо": 6240,
      "▁Ман": 6241,
      "▁pat": 6242,
      "нейших": 6243,
      "▁often": 6244,
      "ially": 6245,
      "▁лоша": 6246,
      "До": 6247,
      "суаль": 6248,
      "▁позволи": 6249,
      "щены": 6250,
      "▁видеть": 6251,
      "▁каз": 6252,
      "▁протяжении": 6253,
      "▁Михай": 6254,
      "resent": 6255,
      "▁зво": 6256,
      "))": 6257,
      "▁стороне": 6258,
      "▁инициа": 6259,
      "▁take": 6260,
      "стана": 6261,
      "интере": 6262,
      "▁связан": 6263,
      "ison": 6264,
      "ВД": 6265,
      "▁пресс": 6266,
      "▁моно": 6267,
      "▁неуда": 6268,
      "днев": 6269,
      "▁Может": 6270,
      "роприя": 6271,
      "▁результат": 6272,
      "▁далее": 6273,
      "▁захо": 6274,
      "▁сда": 6275,
      "дру": 6276,
      "▁El": 6277,
      "▁repl": 6278,
      "▁дипло": 6279,
      "ходила": 6280,
      "ms": 6281,
      "нена": 6282,
      "▁находился": 6283,
      "▁речи": 6284,
      "▁получила": 6285,
      "ченный": 6286,
      "лете": 6287,
      "▁масшта": 6288,
      "ющийся": 6289,
      "▁сущ": 6290,
      "▁очи": 6291,
      "▁новое": 6292,
      "▁общего": 6293,
      "▁бывает": 6294,
      "новения": 6295,
      "▁задача": 6296,
      "▁built": 6297,
      "▁post": 6298,
      "▁друзья": 6299,
      "▁Геор": 6300,
      "стического": 6301,
      "пустить": 6302,
      "▁гри": 6303,
      "▁республи": 6304,
      "▁любы": 6305,
      "▁зависит": 6306,
      "▁мора": 6307,
      "▁month": 6308,
      "▁транс": 6309,
      "▁стихи": 6310,
      "вшегося": 6311,
      "▁period": 6312,
      "▁меж": 6313,
      "▁жесто": 6314,
      "▁prof": 6315,
      "▁центре": 6316,
      "нодоро": 6317,
      "▁поступа": 6318,
      "▁larg": 6319,
      "товой": 6320,
      "atter": 6321,
      "side": 6322,
      "кает": 6323,
      "пно": 6324,
      "▁Feb": 6325,
      "▁crit": 6326,
      "кана": 6327,
      "\"),": 6328,
      "▁Ab": 6329,
      "urs": 6330,
      "стье": 6331,
      "▁концов": 6332,
      "▁went": 6333,
      "▁effect": 6334,
      "▁рабочих": 6335,
      "▁included": 6336,
      "▁транспорт": 6337,
      "ards": 6338,
      "▁площадь": 6339,
      "▁конфлик": 6340,
      "▁five": 6341,
      "ruary": 6342,
      "ологии": 6343,
      "▁посмотре": 6344,
      "ждается": 6345,
      "гая": 6346,
      "▁воду": 6347,
      "ler": 6348,
      "uthor": 6349,
      "▁Екатери": 6350,
      "мену": 6351,
      "▁Серге": 6352,
      "itary": 6353,
      "▁нема": 6354,
      "▁миллионов": 6355,
      "тиру": 6356,
      "▁кг": 6357,
      "tain": 6358,
      "▁округа": 6359,
      "▁Многие": 6360,
      "▁охо": 6361,
      "▁терро": 6362,
      "▁испыты": 6363,
      "енси": 6364,
      "▁Дан": 6365,
      "▁осве": 6366,
      "▁версии": 6367,
      "▁Джо": 6368,
      "ploy": 6369,
      "▁Наи": 6370,
      "жется": 6371,
      "▁весе": 6372,
      "мат": 6373,
      "фей": 6374,
      "▁гря": 6375,
      "▁клет": 6376,
      "▁родился": 6377,
      "▁Af": 6378,
      "▁правда": 6379,
      "ality": 6380,
      "▁оказалось": 6381,
      "▁света": 6382,
      "▁подъ": 6383,
      "поле": 6384,
      "гали": 6385,
      "дные": 6386,
      "бий": 6387,
      "▁положения": 6388,
      "▁избира": 6389,
      "ИН": 6390,
      "барди": 6391,
      "▁отдельных": 6392,
      "▁возрасте": 6393,
      "▁Кла": 6394,
      "▁глаз": 6395,
      "▁реша": 6396,
      "жается": 6397,
      ".),": 6398,
      "▁справед": 6399,
      "▁Кур": 6400,
      "▁литературы": 6401,
      "▁доче": 6402,
      "▁short": 6403,
      "▁manag": 6404,
      "▁Air": 6405,
      "▁Или": 6406,
      "rench": 6407,
      "▁Полу": 6408,
      "зой": 6409,
      "▁повторя": 6410,
      "тения": 6411,
      "▁предупре": 6412,
      "ead": 6413,
      "▁пехо": 6414,
      "▁Обра": 6415,
      "▁марш": 6416,
      "сторо": 6417,
      "▁моего": 6418,
      "▁приводит": 6419,
      "▁эксплуа": 6420,
      "▁announ": 6421,
      "дного": 6422,
      "хан": 6423,
      "▁улы": 6424,
      "▁считать": 6425,
      "▁February": 6426,
      "▁машин": 6427,
      "стую": 6428,
      "новен": 6429,
      "▁улице": 6430,
      "▁большие": 6431,
      "▁впоследствии": 6432,
      "▁next": 6433,
      "▁считает": 6434,
      "▁учили": 6435,
      "▁веке": 6436,
      "▁музе": 6437,
      "ваю": 6438,
      "▁экипа": 6439,
      "ham": 6440,
      "лист": 6441,
      "▁основных": 6442,
      "брита": 6443,
      "▁взять": 6444,
      "ille": 6445,
      "▁el": 6446,
      "▁Par": 6447,
      "▁брать": 6448,
      "чали": 6449,
      "АР": 6450,
      "ступить": 6451,
      "ково": 6452,
      "рово": 6453,
      "▁яко": 6454,
      "▁цель": 6455,
      "▁магази": 6456,
      "▁защиты": 6457,
      "▁Her": 6458,
      "▁должность": 6459,
      "▁доб": 6460,
      "▁страш": 6461,
      "▁игру": 6462,
      "горь": 6463,
      "люби": 6464,
      "оборот": 6465,
      "▁building": 6466,
      "зяй": 6467,
      "▁тысячи": 6468,
      "▁глава": 6469,
      "▁among": 6470,
      "▁красо": 6471,
      "attle": 6472,
      "▁программ": 6473,
      "▁корпуса": 6474,
      "няют": 6475,
      "▁часа": 6476,
      "▁ока": 6477,
      "лены": 6478,
      "▁vers": 6479,
      "▁Ино": 6480,
      "▁редко": 6481,
      "▁поддержа": 6482,
      "▁addition": 6483,
      "▁Возможно": 6484,
      "▁order": 6485,
      "▁пригото": 6486,
      "▁трёх": 6487,
      "▁прида": 6488,
      "вленных": 6489,
      "▁Бога": 6490,
      "вшими": 6491,
      "▁Фу": 6492,
      "▁few": 6493,
      "ревнова": 6494,
      "▁окра": 6495,
      "▁война": 6496,
      "▁математи": 6497,
      "▁top": 6498,
      "idd": 6499,
      "▁исчез": 6500,
      "▁буква": 6501,
      "▁мероприя": 6502,
      "▁политики": 6503,
      "▁могло": 6504,
      "▁прем": 6505,
      "▁снима": 6506,
      "▁клуба": 6507,
      "ask": 6508,
      "▁частей": 6509,
      "▁сочета": 6510,
      "▁Сы": 6511,
      "▁conc": 6512,
      "▁результаты": 6513,
      "▁сожа": 6514,
      "пора": 6515,
      "▁список": 6516,
      "▁привлека": 6517,
      "▁раство": 6518,
      "▁great": 6519,
      "лую": 6520,
      "▁пассажи": 6521,
      "▁beh": 6522,
      "рги": 6523,
      "ondon": 6524,
      "▁теоре": 6525,
      "▁клиен": 6526,
      "▁сведения": 6527,
      "кура": 6528,
      "▁бар": 6529,
      "ument": 6530,
      "▁Дей": 6531,
      "▁опублико": 6532,
      "▁казалось": 6533,
      "▁воспринима": 6534,
      "ched": 6535,
      "▁Аб": 6536,
      "ОЛ": 6537,
      "▁bre": 6538,
      "▁describ": 6539,
      "печа": 6540,
      "▁называется": 6541,
      "▁советский": 6542,
      "▁область": 6543,
      "▁атмо": 6544,
      "тельств": 6545,
      "▁One": 6546,
      "▁Comp": 6547,
      "▁single": 6548,
      "лга": 6549,
      "▁club": 6550,
      "▁предпринима": 6551,
      "▁зад": 6552,
      "▁противополо": 6553,
      "щество": 6554,
      "▁should": 6555,
      "▁агре": 6556,
      "▁патри": 6557,
      "▁главное": 6558,
      "дыха": 6559,
      "▁Cal": 6560,
      "ublic": 6561,
      "▁вспомина": 6562,
      "▁del": 6563,
      "▁соору": 6564,
      "▁народов": 6565,
      "▁тюрь": 6566,
      "▁гости": 6567,
      "▁Пав": 6568,
      "емое": 6569,
      "дио": 6570,
      "▁словно": 6571,
      "▁Более": 6572,
      "рией": 6573,
      "▁длин": 6574,
      "▁память": 6575,
      "▁местах": 6576,
      "▁изобре": 6577,
      "▁направления": 6578,
      "▁интеллек": 6579,
      "▁Три": 6580,
      "▁завод": 6581,
      "▁Михаил": 6582,
      "дли": 6583,
      "▁ску": 6584,
      "▁ассо": 6585,
      "▁ship": 6586,
      "▁цивили": 6587,
      "▁Уже": 6588,
      "мок": 6589,
      "▁ep": 6590,
      "ризо": 6591,
      "▁вида": 6592,
      "▁попыта": 6593,
      "▁военной": 6594,
      "▁штур": 6595,
      "▁cr": 6596,
      "▁кризи": 6597,
      "Про": 6598,
      "▁Нор": 6599,
      "▁deb": 6600,
      "▁port": 6601,
      "нё": 6602,
      "▁незна": 6603,
      "мель": 6604,
      "ема": 6605,
      "равда": 6606,
      "▁Гит": 6607,
      "▁философ": 6608,
      "▁копи": 6609,
      "▁гло": 6610,
      "▁плат": 6611,
      "▁аэро": 6612,
      "vious": 6613,
      "▁оружия": 6614,
      "▁sold": 6615,
      "▁точ": 6616,
      "▁юриди": 6617,
      "мани": 6618,
      "eder": 6619,
      "urg": 6620,
      "▁непосредственно": 6621,
      "▁мер": 6622,
      "▁claim": 6623,
      "▁div": 6624,
      "▁бизнес": 6625,
      "кта": 6626,
      "▁вспом": 6627,
      "▁разде": 6628,
      "apan": 6629,
      "▁process": 6630,
      "неве": 6631,
      "▁рей": 6632,
      "▁месяц": 6633,
      "стные": 6634,
      "▁Великобрита": 6635,
      "▁второго": 6636,
      "цеп": 6637,
      "▁общи": 6638,
      "вии": 6639,
      "ера": 6640,
      "▁такую": 6641,
      "▁Итак": 6642,
      "жала": 6643,
      "▁церковь": 6644,
      "▁Гру": 6645,
      "▁Go": 6646,
      "обла": 6647,
      "ненно": 6648,
      "▁слабо": 6649,
      "▁Советского": 6650,
      "amb": 6651,
      "▁gl": 6652,
      "of": 6653,
      "▁опла": 6654,
      "▁ответил": 6655,
      "▁новую": 6656,
      "▁Даль": 6657,
      "▁выбор": 6658,
      "▁состояния": 6659,
      "▁based": 6660,
      "▁скорость": 6661,
      "▁табли": 6662,
      "▁борьбе": 6663,
      "▁торгов": 6664,
      "▁одинако": 6665,
      "▁Кали": 6666,
      "▁прием": 6667,
      "стая": 6668,
      "▁большей": 6669,
      "tended": 6670,
      "▁посети": 6671,
      "ятся": 6672,
      "angu": 6673,
      "▁установлен": 6674,
      "▁большая": 6675,
      "чики": 6676,
      "▁победи": 6677,
      "ases": 6678,
      "тесь": 6679,
      "ковые": 6680,
      "▁father": 6681,
      "▁чере": 6682,
      "▁разгово": 6683,
      "▁агент": 6684,
      "щена": 6685,
      "ograph": 6686,
      "▁час": 6687,
      "▁паци": 6688,
      "▁больших": 6689,
      "вера": 6690,
      "блен": 6691,
      "▁чинов": 6692,
      "▁самоу": 6693,
      "ae": 6694,
      "тение": 6695,
      "▁Austral": 6696,
      "служ": 6697,
      "▁perform": 6698,
      "▁find": 6699,
      "как": 6700,
      "вку": 6701,
      "леку": 6702,
      "▁Min": 6703,
      "Па": 6704,
      "▁чрезвычай": 6705,
      "▁жан": 6706,
      "смотри": 6707,
      "рота": 6708,
      "▁Доб": 6709,
      "▁equ": 6710,
      "▁обязательно": 6711,
      "▁мг": 6712,
      "urther": 6713,
      "▁sk": 6714,
      "▁десять": 6715,
      "▁техники": 6716,
      "цкого": 6717,
      "▁West": 6718,
      "omin": 6719,
      "▁продви": 6720,
      "▁sent": 6721,
      "сила": 6722,
      "▁Дон": 6723,
      "▁человеку": 6724,
      "▁нач": 6725,
      "▁школе": 6726,
      "▁превос": 6727,
      "▁ред": 6728,
      "▁Москву": 6729,
      "▁графи": 6730,
      "▁теря": 6731,
      "▁руководством": 6732,
      "лича": 6733,
      "Го": 6734,
      "▁late": 6735,
      "▁королев": 6736,
      "▁опти": 6737,
      "лович": 6738,
      "▁серви": 6739,
      "▁Прави": 6740,
      "ходило": 6741,
      "пто": 6742,
      "▁регуляр": 6743,
      "inning": 6744,
      "йна": 6745,
      "▁обстанов": 6746,
      "▁избран": 6747,
      "▁аналоги": 6748,
      "▁лагер": 6749,
      "▁силь": 6750,
      "▁London": 6751,
      "▁войну": 6752,
      "▁Bar": 6753,
      "▁аресто": 6754,
      "▁прогре": 6755,
      "▁project": 6756,
      "▁Красно": 6757,
      "▁women": 6758,
      "▁предназна": 6759,
      "▁мяг": 6760,
      "▁ноги": 6761,
      "мол": 6762,
      "▁оказались": 6763,
      "▁называют": 6764,
      "щений": 6765,
      "▁become": 6766,
      "▁смог": 6767,
      "▁aff": 6768,
      "▁прово": 6769,
      "▁Мор": 6770,
      "▁удоволь": 6771,
      "▁астро": 6772,
      "▁энерги": 6773,
      "▁эпизо": 6774,
      "▁модель": 6775,
      "риста": 6776,
      "▁вес": 6777,
      "▁педаго": 6778,
      "▁You": 6779,
      "свя": 6780,
      "▁основной": 6781,
      "бера": 6782,
      "▁желе": 6783,
      "▁выдви": 6784,
      "ума": 6785,
      "▁пару": 6786,
      "▁расти": 6787,
      "▁супру": 6788,
      "▁государственной": 6789,
      "▁Geor": 6790,
      "▁Фор": 6791,
      "▁фами": 6792,
      "▁образование": 6793,
      "гут": 6794,
      "ждый": 6795,
      "жную": 6796,
      "▁init": 6797,
      "▁боевых": 6798,
      "гают": 6799,
      "▁ЦК": 6800,
      "▁read": 6801,
      "роз": 6802,
      "▁дево": 6803,
      "▁good": 6804,
      "stit": 6805,
      "един": 6806,
      "eter": 6807,
      "▁резко": 6808,
      "▁преодо": 6809,
      "▁стрелко": 6810,
      "▁иллю": 6811,
      "▁мнение": 6812,
      "posed": 6813,
      "▁книгу": 6814,
      "▁non": 6815,
      "▁French": 6816,
      "▁отношению": 6817,
      "▁свойства": 6818,
      "▁дочь": 6819,
      "▁прось": 6820,
      "▁постро": 6821,
      "▁Тол": 6822,
      "▁требует": 6823,
      "нула": 6824,
      "▁серии": 6825,
      "▁Вар": 6826,
      "▁первое": 6827,
      "▁third": 6828,
      "▁Russ": 6829,
      "▁young": 6830,
      "пля": 6831,
      "▁огонь": 6832,
      "▁счаст": 6833,
      "▁without": 6834,
      "▁площади": 6835,
      "аз": 6836,
      "кер": 6837,
      "редото": 6838,
      "▁Me": 6839,
      "▁крайней": 6840,
      "ковского": 6841,
      "щают": 6842,
      "▁Впрочем": 6843,
      "рованных": 6844,
      "▁invol": 6845,
      "терпе": 6846,
      "▁построен": 6847,
      "▁короля": 6848,
      "шений": 6849,
      "▁герман": 6850,
      "тную": 6851,
      "▁service": 6852,
      "▁экра": 6853,
      "--------": 6854,
      "гети": 6855,
      "▁видно": 6856,
      "▁общество": 6857,
      "▁сезона": 6858,
      "▁Count": 6859,
      "▁зеле": 6860,
      "снова": 6861,
      "line": 6862,
      "▁оправ": 6863,
      "▁села": 6864,
      "▁moved": 6865,
      "Ми": 6866,
      "▁жало": 6867,
      "▁level": 6868,
      "жая": 6869,
      "жели": 6870,
      "▁Cor": 6871,
      "▁какая": 6872,
      "▁брон": 6873,
      "▁Sw": 6874,
      "▁Коми": 6875,
      "▁шести": 6876,
      "▁говорится": 6877,
      "▁Смо": 6878,
      "▁гео": 6879,
      "▁письма": 6880,
      "тическим": 6881,
      "▁РС": 6882,
      "conom": 6883,
      "▁компонен": 6884,
      "против": 6885,
      "▁экспеди": 6886,
      "▁Международ": 6887,
      "▁идти": 6888,
      "▁нынеш": 6889,
      "▁маршру": 6890,
      "▁какого": 6891,
      "▁попы": 6892,
      "▁экспо": 6893,
      "▁son": 6894,
      "mit": 6895,
      "▁военного": 6896,
      "▁воспомина": 6897,
      "▁Испо": 6898,
      "▁оказывается": 6899,
      "▁состава": 6900,
      "▁Италии": 6901,
      "▁country": 6902,
      "лыми": 6903,
      "▁думаю": 6904,
      "▁Ленина": 6905,
      "▁предвари": 6906,
      "▁stat": 6907,
      "▁оригина": 6908,
      "▁пояс": 6909,
      "▁главный": 6910,
      "ченко": 6911,
      "▁using": 6912,
      "▁помочь": 6913,
      "▁cover": 6914,
      "▁side": 6915,
      "cil": 6916,
      "▁эми": 6917,
      "▁говорили": 6918,
      "▁плен": 6919,
      "▁коль": 6920,
      "▁Бог": 6921,
      "▁схе": 6922,
      "▁national": 6923,
      "рика": 6924,
      "▁собственно": 6925,
      "▁промышленности": 6926,
      "▁зато": 6927,
      "▁стек": 6928,
      "▁fac": 6929,
      "▁крайне": 6930,
      "▁четырех": 6931,
      "sp": 6932,
      "ruction": 6933,
      "://": 6934,
      "▁спраши": 6935,
      "uted": 6936,
      "▁едва": 6937,
      "▁настрое": 6938,
      "ilar": 6939,
      "никах": 6940,
      "гор": 6941,
      "▁how": 6942,
      "▁увидеть": 6943,
      "▁создание": 6944,
      "ese": 6945,
      "▁стрем": 6946,
      "▁however": 6947,
      "▁чемпионата": 6948,
      "▁original": 6949,
      "ger": 6950,
      "▁теку": 6951,
      "anc": 6952,
      "▁леген": 6953,
      "▁убеди": 6954,
      "▁ВВ": 6955,
      "▁представления": 6956,
      "▁Japan": 6957,
      "▁Фили": 6958,
      "▁techn": 6959,
      "▁продолжи": 6960,
      "ал": 6961,
      "▁объектов": 6962,
      "▁Был": 6963,
      "▁края": 6964,
      "▁наступа": 6965,
      "▁character": 6966,
      "вив": 6967,
      "няли": 6968,
      "less": 6969,
      "▁chang": 6970,
      "▁следующие": 6971,
      "ample": 6972,
      "пти": 6973,
      "▁своё": 6974,
      "хозяй": 6975,
      "▁парти": 6976,
      "▁win": 6977,
      "▁Сов": 6978,
      "▁вариант": 6979,
      "▁ke": 6980,
      "▁корабля": 6981,
      "▁исключительно": 6982,
      "▁Челове": 6983,
      "▁Афри": 6984,
      "рили": 6985,
      "▁Кре": 6986,
      "▁никакого": 6987,
      "зил": 6988,
      "▁эска": 6989,
      "▁элемента": 6990,
      "▁креп": 6991,
      "▁Sec": 6992,
      "hing": 6993,
      "ровка": 6994,
      "olution": 6995,
      "▁Цер": 6996,
      "ствий": 6997,
      "▁Зе": 6998,
      "ждены": 6999,
      "жено": 7000,
      "▁кара": 7001,
      "льности": 7002,
      "▁Ры": 7003,
      "тельством": 7004,
      "aken": 7005,
      "▁En": 7006,
      "▁какую": 7007,
      "▁соревнова": 7008,
      "▁Тут": 7009,
      "▁include": 7010,
      "▁железнодоро": 7011,
      "мысле": 7012,
      "▁Слу": 7013,
      "▁проходит": 7014,
      "▁втор": 7015,
      "▁appear": 7016,
      "▁вероят": 7017,
      "техни": 7018,
      "ъя": 7019,
      "▁But": 7020,
      "▁нарко": 7021,
      "шению": 7022,
      "▁успеш": 7023,
      "▁Бри": 7024,
      "▁Гар": 7025,
      "▁участников": 7026,
      "▁Ря": 7027,
      "вляют": 7028,
      "▁жил": 7029,
      "▁неде": 7030,
      "▁резер": 7031,
      "be": 7032,
      "▁проведе": 7033,
      "менить": 7034,
      "▁данном": 7035,
      "сел": 7036,
      "▁ке": 7037,
      "▁крупных": 7038,
      "▁особенности": 7039,
      "▁che": 7040,
      "rest": 7041,
      "▁Сегодня": 7042,
      "▁писать": 7043,
      "▁пласти": 7044,
      "▁затра": 7045,
      "вёл": 7046,
      "терна": 7047,
      "▁State": 7048,
      "▁первая": 7049,
      "▁published": 7050,
      "▁выделя": 7051,
      "▁элементов": 7052,
      "▁fore": 7053,
      "▁трав": 7054,
      "▁увидел": 7055,
      "rote": 7056,
      "дует": 7057,
      "рованы": 7058,
      "ковский": 7059,
      "▁некоторое": 7060,
      "▁понял": 7061,
      "ords": 7062,
      "ention": 7063,
      "▁эволю": 7064,
      "жена": 7065,
      "▁порядка": 7066,
      "кле": 7067,
      "▁сказала": 7068,
      "щему": 7069,
      "▁Генера": 7070,
      "▁природ": 7071,
      "ests": 7072,
      "▁отметил": 7073,
      "ampions": 7074,
      "▁жел": 7075,
      "ape": 7076,
      "▁population": 7077,
      "▁возникает": 7078,
      "▁Тер": 7079,
      "поте": 7080,
      "▁Моло": 7081,
      "▁устройства": 7082,
      "▁friend": 7083,
      "шением": 7084,
      "▁сложи": 7085,
      "лке": 7086,
      "▁gr": 7087,
      "чиная": 7088,
      "▁чемпионате": 7089,
      "▁позднее": 7090,
      "серва": 7091,
      "▁млрд": 7092,
      "▁команда": 7093,
      "▁селе": 7094,
      "▁спорт": 7095,
      "▁разум": 7096,
      "▁свободы": 7097,
      "▁еписко": 7098,
      "▁Перед": 7099,
      "▁сельского": 7100,
      "()": 7101,
      "▁зака": 7102,
      "▁know": 7103,
      "полу": 7104,
      "▁having": 7105,
      "▁чему": 7106,
      "▁compet": 7107,
      "тились": 7108,
      "▁наста": 7109,
      "▁пребы": 7110,
      "коль": 7111,
      "части": 7112,
      "ze": 7113,
      "ream": 7114,
      "▁Pres": 7115,
      "▁пришел": 7116,
      "вол": 7117,
      "РА": 7118,
      "▁болезни": 7119,
      "▁млад": 7120,
      "▁cult": 7121,
      "лло": 7122,
      "▁конец": 7123,
      "▁поиска": 7124,
      "тана": 7125,
      "вленный": 7126,
      "евского": 7127,
      "йтесь": 7128,
      "▁рассу": 7129,
      "вёр": 7130,
      "нном": 7131,
      "▁поведения": 7132,
      "▁infl": 7133,
      "▁откуда": 7134,
      "bl": 7135,
      "НО": 7136,
      "▁количества": 7137,
      "▁These": 7138,
      "▁учиты": 7139,
      "▁look": 7140,
      "▁нечто": 7141,
      "▁рождения": 7142,
      "▁sit": 7143,
      "▁исследований": 7144,
      "тье": 7145,
      "▁сформи": 7146,
      "▁службу": 7147,
      "▁activ": 7148,
      "raw": 7149,
      "▁William": 7150,
      "тябрь": 7151,
      "▁полной": 7152,
      "ency": 7153,
      "сное": 7154,
      "▁never": 7155,
      "▁производство": 7156,
      "сыла": 7157,
      "коле": 7158,
      "▁Роб": 7159,
      "▁водой": 7160,
      "стера": 7161,
      "▁ряда": 7162,
      "▁Изра": 7163,
      "▁молодо": 7164,
      "роваться": 7165,
      "▁пусть": 7166,
      "▁должности": 7167,
      "▁role": 7168,
      "▁fre": 7169,
      "▁конкурен": 7170,
      "ald": 7171,
      "цио": 7172,
      "ries": 7173,
      "лож": 7174,
      "lish": 7175,
      "сюда": 7176,
      "▁недели": 7177,
      "▁книг": 7178,
      "мит": 7179,
      "▁развер": 7180,
      "▁книга": 7181,
      "▁окончания": 7182,
      "▁real": 7183,
      "▁памят": 7184,
      "▁отдела": 7185,
      "▁IV": 7186,
      "▁ТАСС": 7187,
      "ops": 7188,
      "▁тща": 7189,
      "▁пет": 7190,
      "▁station": 7191,
      "▁ох": 7192,
      "aul": 7193,
      "▁Поз": 7194,
      "ань": 7195,
      "▁деревя": 7196,
      "▁Правда": 7197,
      "нета": 7198,
      "пил": 7199,
      "▁Василь": 7200,
      "▁начальник": 7201,
      "▁характера": 7202,
      "▁несо": 7203,
      "▁Макси": 7204,
      "▁метод": 7205,
      "▁пусты": 7206,
      "▁business": 7207,
      "▁слыша": 7208,
      "▁титу": 7209,
      "▁задержа": 7210,
      "чился": 7211,
      "▁Кара": 7212,
      "eth": 7213,
      "▁died": 7214,
      "▁гаран": 7215,
      "ьев": 7216,
      "\"[": 7217,
      "рень": 7218,
      "думы": 7219,
      "▁started": 7220,
      "▁стати": 7221,
      "▁Acc": 7222,
      "▁tem": 7223,
      "ниться": 7224,
      "▁бомбарди": 7225,
      "новение": 7226,
      "▁пило": 7227,
      "мому": 7228,
      "▁нака": 7229,
      "▁вось": 7230,
      "▁запу": 7231,
      "ванию": 7232,
      "женные": 7233,
      "▁случаев": 7234,
      "▁спросил": 7235,
      "▁полк": 7236,
      "ones": 7237,
      "▁обозна": 7238,
      "▁Ang": 7239,
      "arent": 7240,
      "дете": 7241,
      "▁наша": 7242,
      "▁публика": 7243,
      "▁решили": 7244,
      "▁государство": 7245,
      "честве": 7246,
      "▁преобразова": 7247,
      "▁представителей": 7248,
      "iber": 7249,
      "▁attempt": 7250,
      "стен": 7251,
      "говари": 7252,
      "▁Med": 7253,
      "▁восем": 7254,
      "▁регули": 7255,
      "нями": 7256,
      "▁никак": 7257,
      "▁порядок": 7258,
      "▁укреп": 7259,
      "личия": 7260,
      "▁обстоятельства": 7261,
      "Та": 7262,
      "ole": 7263,
      "мато": 7264,
      "дим": 7265,
      "дея": 7266,
      "нар": 7267,
      "▁текст": 7268,
      "osp": 7269,
      "ЕЛ": 7270,
      "▁command": 7271,
      "Йор": 7272,
      "сения": 7273,
      "▁начинается": 7274,
      "uk": 7275,
      "▁периода": 7276,
      "жают": 7277,
      "стры": 7278,
      "▁слуша": 7279,
      "емым": 7280,
      "▁явно": 7281,
      "лера": 7282,
      "vers": 7283,
      "ached": 7284,
      "душ": 7285,
      "▁факуль": 7286,
      "▁Хи": 7287,
      "▁выбира": 7288,
      "рабаты": 7289,
      "словно": 7290,
      "▁принято": 7291,
      "▁одному": 7292,
      "▁реа": 7293,
      "▁Эр": 7294,
      "▁prote": 7295,
      "Си": 7296,
      "▁Андрей": 7297,
      "▁Ир": 7298,
      "▁Res": 7299,
      "▁Особ": 7300,
      "ющему": 7301,
      "вец": 7302,
      "▁знаком": 7303,
      "▁сосредото": 7304,
      "зме": 7305,
      "▁прин": 7306,
      "чется": 7307,
      "val": 7308,
      "конча": 7309,
      "▁Земли": 7310,
      "лиза": 7311,
      "шина": 7312,
      "▁законом": 7313,
      "▁With": 7314,
      "▁нрави": 7315,
      "▁штаба": 7316,
      "ttp": 7317,
      "▁непро": 7318,
      "▁данной": 7319,
      "▁клад": 7320,
      "▁каждом": 7321,
      "чие": 7322,
      "▁соблю": 7323,
      "▁иностранных": 7324,
      "bs": 7325,
      "▁подвод": 7326,
      "▁политической": 7327,
      "▁Поскольку": 7328,
      "ana": 7329,
      "▁####": 7330,
      "▁want": 7331,
      "▁дре": 7332,
      "▁history": 7333,
      "lev": 7334,
      "▁появились": 7335,
      "??": 7336,
      "▁иной": 7337,
      "мули": 7338,
      "▁days": 7339,
      "▁насколько": 7340,
      "▁educ": 7341,
      "▁баш": 7342,
      "▁see": 7343,
      "▁конкур": 7344,
      "гри": 7345,
      "кратно": 7346,
      "▁армия": 7347,
      "рно": 7348,
      "стройки": 7349,
      "▁ву": 7350,
      "жном": 7351,
      "▁конферен": 7352,
      "▁матче": 7353,
      "▁north": 7354,
      "▁опу": 7355,
      "▁Кан": 7356,
      "раб": 7357,
      "▁Каждый": 7358,
      "▁торже": 7359,
      "плы": 7360,
      "▁Рей": 7361,
      "▁разби": 7362,
      "льному": 7363,
      "▁жест": 7364,
      "сным": 7365,
      "▁view": 7366,
      "чник": 7367,
      "зать": 7368,
      "читься": 7369,
      "▁флота": 7370,
      "▁родствен": 7371,
      "▁Part": 7372,
      "▁announced": 7373,
      "▁дворя": 7374,
      "няются": 7375,
      "тила": 7376,
      "▁rad": 7377,
      "▁рубе": 7378,
      "▁Иногда": 7379,
      "▁горе": 7380,
      "▁ракет": 7381,
      "▁tw": 7382,
      "▁данный": 7383,
      "▁member": 7384,
      "▁continued": 7385,
      "▁Рим": 7386,
      "▁современной": 7387,
      "▁Sup": 7388,
      "▁коммента": 7389,
      "▁clos": 7390,
      "▁небольшой": 7391,
      "▁земля": 7392,
      "▁гос": 7393,
      "lear": 7394,
      "eneral": 7395,
      "змом": 7396,
      "▁камен": 7397,
      "▁маги": 7398,
      "▁направлен": 7399,
      "май": 7400,
      "estern": 7401,
      "▁гим": 7402,
      "лови": 7403,
      "▁института": 7404,
      "ствовала": 7405,
      "▁Вен": 7406,
      "ivid": 7407,
      "▁повре": 7408,
      "▁given": 7409,
      "▁шах": 7410,
      "▁иск": 7411,
      "Ме": 7412,
      "▁взял": 7413,
      "толи": 7414,
      "▁La": 7415,
      "ories": 7416,
      "Мы": 7417,
      "▁let": 7418,
      "ourn": 7419,
      "▁дальнейшем": 7420,
      "▁класс": 7421,
      "▁неодно": 7422,
      "▁ядер": 7423,
      "ванием": 7424,
      "▁завода": 7425,
      "oon": 7426,
      "rag": 7427,
      "нете": 7428,
      "фициаль": 7429,
      "▁вку": 7430,
      "▁обслужи": 7431,
      "▁игр": 7432,
      "▁Нача": 7433,
      "▁himself": 7434,
      "%.": 7435,
      "▁получения": 7436,
      "зиру": 7437,
      "юр": 7438,
      "▁води": 7439,
      "▁исход": 7440,
      "▁меры": 7441,
      "▁help": 7442,
      "▁зарабо": 7443,
      "▁голос": 7444,
      "▁squ": 7445,
      "зами": 7446,
      "▁Иванович": 7447,
      "ested": 7448,
      "▁членом": 7449,
      "эль": 7450,
      "штей": 7451,
      "▁доли": 7452,
      "чера": 7453,
      "▁control": 7454,
      "жка": 7455,
      "воен": 7456,
      "ino": 7457,
      "сии": 7458,
      "бенок": 7459,
      "ссер": 7460,
      "▁основании": 7461,
      "циям": 7462,
      "▁хозяйства": 7463,
      "▁вами": 7464,
      "▁активно": 7465,
      "▁представить": 7466,
      "▁проведения": 7467,
      "▁перевод": 7468,
      "▁хло": 7469,
      "▁Министер": 7470,
      "жим": 7471,
      "▁записа": 7472,
      "▁собственной": 7473,
      "▁предложил": 7474,
      "indows": 7475,
      "▁Джей": 7476,
      "бку": 7477,
      "▁стихот": 7478,
      "нская": 7479,
      "▁школу": 7480,
      "▁нерв": 7481,
      "▁входит": 7482,
      "ef": 7483,
      "▁оз": 7484,
      "aff": 7485,
      "благо": 7486,
      "▁wrote": 7487,
      "щением": 7488,
      "▁использование": 7489,
      "▁Canad": 7490,
      "▁считают": 7491,
      "▁returned": 7492,
      "▁претен": 7493,
      "oph": 7494,
      "▁мед": 7495,
      "▁Москва": 7496,
      "▁границы": 7497,
      "▁задач": 7498,
      "ots": 7499,
      "▁Пока": 7500,
      "▁list": 7501,
      "▁трени": 7502,
      "▁Еги": 7503,
      "▁советских": 7504,
      "При": 7505,
      "▁адре": 7506,
      "▁sw": 7507,
      "жье": 7508,
      "▁заключается": 7509,
      "дю": 7510,
      "▁Иль": 7511,
      "берг": 7512,
      "льность": 7513,
      "▁достоин": 7514,
      "▁Акаде": 7515,
      "▁Поли": 7516,
      "ugg": 7517,
      "▁наоборот": 7518,
      "▁Азии": 7519,
      "рас": 7520,
      "▁вынужден": 7521,
      "▁вдоль": 7522,
      "▁боро": 7523,
      "кнул": 7524,
      "▁served": 7525,
      "▁охва": 7526,
      "▁вру": 7527,
      "▁best": 7528,
      "▁сознания": 7529,
      "▁вверх": 7530,
      "▁неё": 7531,
      "▁масса": 7532,
      "▁Ак": 7533,
      "кал": 7534,
      "▁Ок": 7535,
      "▁моих": 7536,
      "▁author": 7537,
      "Ба": 7538,
      "▁Шта": 7539,
      "▁собо": 7540,
      "▁придется": 7541,
      "',": 7542,
      "▁автора": 7543,
      "▁изба": 7544,
      "▁МО": 7545,
      "▁главного": 7546,
      "чами": 7547,
      "▁inform": 7548,
      "▁научно": 7549,
      "ментом": 7550,
      "▁предше": 7551,
      "▁represent": 7552,
      "▁большеви": 7553,
      "вё": 7554,
      "дры": 7555,
      "▁гене": 7556,
      "твор": 7557,
      "чив": 7558,
      "ouncil": 7559,
      "Бе": 7560,
      "▁специ": 7561,
      "==": 7562,
      "ference": 7563,
      "▁относятся": 7564,
      "used": 7565,
      "▁выстав": 7566,
      "▁губернии": 7567,
      "канчи": 7568,
      "▁English": 7569,
      "▁бассе": 7570,
      "ford": 7571,
      "сё": 7572,
      "▁Оно": 7573,
      "▁сексуаль": 7574,
      "▁Очень": 7575,
      "бели": 7576,
      "▁tot": 7577,
      "▁ликви": 7578,
      "▁development": 7579,
      "▁достижения": 7580,
      "▁советской": 7581,
      "▁students": 7582,
      "reg": 7583,
      "крови": 7584,
      "▁православ": 7585,
      "▁Park": 7586,
      "oid": 7587,
      "err": 7588,
      "нности": 7589,
      "▁герои": 7590,
      "▁профессор": 7591,
      "abor": 7592,
      "irc": 7593,
      "▁Президен": 7594,
      "▁отсутствие": 7595,
      "вились": 7596,
      "ченной": 7597,
      "▁дороге": 7598,
      "ington": 7599,
      "▁Afric": 7600,
      "▁комитета": 7601,
      "▁царя": 7602,
      "▁горизо": 7603,
      "▁налого": 7604,
      "нила": 7605,
      "▁common": 7606,
      "▁Вскоре": 7607,
      "▁деревни": 7608,
      "▁командир": 7609,
      "▁русские": 7610,
      "▁инду": 7611,
      "▁сравнению": 7612,
      "кл": 7613,
      "▁Спи": 7614,
      "▁воин": 7615,
      "▁дыха": 7616,
      "▁побере": 7617,
      "▁другую": 7618,
      "▁высокой": 7619,
      "чков": 7620,
      "▁увели": 7621,
      "▁поселения": 7622,
      "▁previous": 7623,
      "дает": 7624,
      "▁считается": 7625,
      "▁напи": 7626,
      "na": 7627,
      "▁pain": 7628,
      "▁неделю": 7629,
      "▁Высо": 7630,
      "▁position": 7631,
      "тировал": 7632,
      "▁сухо": 7633,
      "▁Генри": 7634,
      "▁field": 7635,
      "▁соответственно": 7636,
      "надцати": 7637,
      "ridge": 7638,
      "▁belie": 7639,
      "▁стратеги": 7640,
      "▁городов": 7641,
      "вига": 7642,
      "ждению": 7643,
      "▁атмосф": 7644,
      "стым": 7645,
      "▁does": 7646,
      "▁somet": 7647,
      "▁базе": 7648,
      "▁priv": 7649,
      "▁правильно": 7650,
      "▁Dav": 7651,
      "▁обратно": 7652,
      "▁лабора": 7653,
      "ственными": 7654,
      "▁Наконец": 7655,
      "езде": 7656,
      "ius": 7657,
      "▁здания": 7658,
      "plic": 7659,
      "▁оружие": 7660,
      "▁статье": 7661,
      "стам": 7662,
      "▁ПО": 7663,
      "▁портре": 7664,
      "▁сельсо": 7665,
      "▁Эн": 7666,
      "▁управление": 7667,
      "▁лице": 7668,
      "имость": 7669,
      "iron": 7670,
      "▁номер": 7671,
      "▁идея": 7672,
      "▁выста": 7673,
      "▁inf": 7674,
      "▁успешно": 7675,
      "▁компьютер": 7676,
      "▁less": 7677,
      "дан": 7678,
      "▁считал": 7679,
      "▁mag": 7680,
      "▁dest": 7681,
      "▁Ser": 7682,
      "▁недавно": 7683,
      "sequ": 7684,
      "▁участвовал": 7685,
      "▁Глава": 7686,
      "щики": 7687,
      "▁преде": 7688,
      "▁Soc": 7689,
      "стный": 7690,
      "▁Жу": 7691,
      "▁ночью": 7692,
      "ER": 7693,
      "▁arr": 7694,
      "▁Ne": 7695,
      "▁перемен": 7696,
      "▁окончил": 7697,
      "▁Алексей": 7698,
      "центра": 7699,
      "ably": 7700,
      "▁ненави": 7701,
      "▁Красной": 7702,
      "▁Gl": 7703,
      "▁бесс": 7704,
      "forman": 7705,
      "▁СП": 7706,
      "ненные": 7707,
      "▁население": 7708,
      "▁imp": 7709,
      "сля": 7710,
      "▁удосто": 7711,
      "шкой": 7712,
      "▁повер": 7713,
      "мыми": 7714,
      "▁знания": 7715,
      "▁обучения": 7716,
      "duct": 7717,
      "▁добра": 7718,
      "чкой": 7719,
      "▁начать": 7720,
      "▁case": 7721,
      "▁Des": 7722,
      "▁Сла": 7723,
      "▁стои": 7724,
      "ВО": 7725,
      "▁Tr": 7726,
      "▁Коман": 7727,
      "▁Пло": 7728,
      "▁трево": 7729,
      "▁поведение": 7730,
      "▁сче": 7731,
      "▁political": 7732,
      "▁строительства": 7733,
      "фов": 7734,
      "▁процеду": 7735,
      "▁закона": 7736,
      "▁постра": 7737,
      "▁песни": 7738,
      "▁май": 7739,
      "BC": 7740,
      "денти": 7741,
      "▁вышла": 7742,
      "▁высказыва": 7743,
      "ued": 7744,
      "▁Россию": 7745,
      "бая": 7746,
      "▁воздуха": 7747,
      "щика": 7748,
      "▁Олимпий": 7749,
      "ряду": 7750,
      "▁символи": 7751,
      "▁High": 7752,
      "▁Rep": 7753,
      "▁впло": 7754,
      "стических": 7755,
      "▁вещества": 7756,
      "▁put": 7757,
      "▁остальные": 7758,
      "ровой": 7759,
      "▁Кли": 7760,
      "▁vill": 7761,
      "прос": 7762,
      "купа": 7763,
      "▁Phil": 7764,
      "▁принимать": 7765,
      "кового": 7766,
      "avy": 7767,
      "▁сай": 7768,
      "▁поо": 7769,
      "ступили": 7770,
      "▁Верховного": 7771,
      "кость": 7772,
      "нга": 7773,
      "▁Дело": 7774,
      "Се": 7775,
      "стый": 7776,
      "▁существования": 7777,
      "▁потребо": 7778,
      "▁ide": 7779,
      "▁сообщения": 7780,
      "▁special": 7781,
      "artment": 7782,
      "▁отчет": 7783,
      "▁последних": 7784,
      "ning": 7785,
      "etwork": 7786,
      "рат": 7787,
      "▁pract": 7788,
      "мм": 7789,
      "▁катастро": 7790,
      "▁прика": 7791,
      "▁фла": 7792,
      "▁оса": 7793,
      "▁рост": 7794,
      "yle": 7795,
      "▁завтра": 7796,
      "▁various": 7797,
      "▁носи": 7798,
      "AS": 7799,
      "▁ant": 7800,
      "▁большого": 7801,
      "▁сила": 7802,
      "РО": 7803,
      "▁господ": 7804,
      "джет": 7805,
      "щено": 7806,
      "▁оказалась": 7807,
      "▁снаря": 7808,
      "рной": 7809,
      "▁tro": 7810,
      "▁meet": 7811,
      "зербай": 7812,
      "▁гром": 7813,
      "▁Анто": 7814,
      "▁current": 7815,
      "▁defe": 7816,
      "▁###": 7817,
      "▁ориен": 7818,
      "Ре": 7819,
      "зербайджа": 7820,
      "▁x": 7821,
      "▁определить": 7822,
      "ination": 7823,
      "▁названия": 7824,
      "▁заму": 7825,
      "▁кем": 7826,
      "▁основные": 7827,
      "несен": 7828,
      "▁сопровожда": 7829,
      "▁сожалению": 7830,
      "▁фер": 7831,
      "право": 7832,
      "▁important": 7833,
      "▁внеза": 7834,
      "iment": 7835,
      "▁military": 7836,
      "▁Солн": 7837,
      "▁силой": 7838,
      "▁вниз": 7839,
      "off": 7840,
      "стика": 7841,
      "▁заниматься": 7842,
      "▁Японии": 7843,
      "▁газеты": 7844,
      "▁Сло": 7845,
      "щаются": 7846,
      "▁z": 7847,
      "▁семи": 7848,
      "▁мужчина": 7849,
      "▁условий": 7850,
      "▁Петербур": 7851,
      "▁препят": 7852,
      "▁владель": 7853,
      "бах": 7854,
      "▁мае": 7855,
      "▁инженер": 7856,
      "тном": 7857,
      "▁паралле": 7858,
      "▁имеется": 7859,
      "деления": 7860,
      "▁rese": 7861,
      "▁оско": 7862,
      "нью": 7863,
      "▁подозре": 7864,
      "▁боже": 7865,
      "▁директор": 7866,
      "▁поза": 7867,
      "▁Ag": 7868,
      "▁вопросов": 7869,
      "omb": 7870,
      "▁Спа": 7871,
      "ush": 7872,
      "▁To": 7873,
      "нья": 7874,
      "турой": 7875,
      "▁San": 7876,
      "▁реализации": 7877,
      "▁внутренних": 7878,
      "спонден": 7879,
      "ither": 7880,
      "▁вообра": 7881,
      "зок": 7882,
      "шили": 7883,
      "▁нако": 7884,
      ".;": 7885,
      "стю": 7886,
      "▁Ее": 7887,
      "▁Ему": 7888,
      "▁смотри": 7889,
      "▁моду": 7890,
      "ividual": 7891,
      "▁Филип": 7892,
      "ехали": 7893,
      "▁Интер": 7894,
      "▁станов": 7895,
      "▁яй": 7896,
      "▁отре": 7897,
      "▁Обы": 7898,
      "▁south": 7899,
      "▁away": 7900,
      "▁мужчин": 7901,
      "▁коммер": 7902,
      "йского": 7903,
      "зировать": 7904,
      "▁контроли": 7905,
      "лива": 7906,
      "мами": 7907,
      "ule": 7908,
      "▁прошлом": 7909,
      "▁двой": 7910,
      "▁связано": 7911,
      "▁динами": 7912,
      "ковым": 7913,
      "▁парамет": 7914,
      "▁обеспечения": 7915,
      "▁Ст": 7916,
      "▁император": 7917,
      "▁пожалуй": 7918,
      "▁желание": 7919,
      "доне": 7920,
      "▁ограничи": 7921,
      "делить": 7922,
      "▁запла": 7923,
      "▁Петро": 7924,
      "щер": 7925,
      "▁доктор": 7926,
      "ways": 7927,
      "▁Надо": 7928,
      "▁понятия": 7929,
      "зацию": 7930,
      "▁российский": 7931,
      "▁сфере": 7932,
      "aly": 7933,
      "▁применения": 7934,
      "▁Вам": 7935,
      "▁каком": 7936,
      "▁идей": 7937,
      "▁чтоб": 7938,
      "isc": 7939,
      "▁must": 7940,
      "▁бата": 7941,
      "▁feature": 7942,
      "▁неприя": 7943,
      "▁искать": 7944,
      "▁established": 7945,
      "▁приходилось": 7946,
      "носит": 7947,
      "▁further": 7948,
      "▁эксперимента": 7949,
      "▁делу": 7950,
      "▁экономики": 7951,
      "▁строго": 7952,
      "▁эпохи": 7953,
      "вому": 7954,
      "▁вечер": 7955,
      "▁появился": 7956,
      "ertain": 7957,
      "▁играть": 7958,
      "▁Суще": 7959,
      "ogn": 7960,
      "▁столк": 7961,
      "▁Вене": 7962,
      "▁инвести": 7963,
      "icro": 7964,
      "ivil": 7965,
      "▁правила": 7966,
      "▁Sm": 7967,
      "▁содержание": 7968,
      "utes": 7969,
      "▁улицы": 7970,
      "▁спектак": 7971,
      "▁Br": 7972,
      "▁сердца": 7973,
      "▁оцени": 7974,
      "▁нашем": 7975,
      "▁остался": 7976,
      "▁телефон": 7977,
      "▁основы": 7978,
      "idence": 7979,
      "▁сва": 7980,
      "▁главы": 7981,
      "hold": 7982,
      "▁caus": 7983,
      "▁воде": 7984,
      "▁рук": 7985,
      "тивное": 7986,
      "▁Reg": 7987,
      "ope": 7988,
      "▁начальника": 7989,
      "▁fem": 7990,
      "▁упраж": 7991,
      "влял": 7992,
      "лости": 7993,
      "▁similar": 7994,
      "▁Фри": 7995,
      "первых": 7996,
      "▁заинтере": 7997,
      "нено": 7998,
      "▁скорости": 7999,
      "▁ситуация": 8000,
      "▁intro": 8001,
      "▁креди": 8002,
      "▁университет": 8003,
      "▁бук": 8004,
      "▁Sch": 8005,
      "вказ": 8006,
      "▁Спе": 8007,
      "▁потреби": 8008,
      "▁естественно": 8009,
      "мум": 8010,
      "▁восприя": 8011,
      "кол": 8012,
      "рных": 8013,
      "▁провести": 8014,
      "▁Вместе": 8015,
      "эт": 8016,
      "▁роста": 8017,
      "▁хол": 8018,
      "▁full": 8019,
      "▁эн": 8020,
      "▁Ах": 8021,
      "lin": 8022,
      "▁фаши": 8023,
      "▁руководство": 8024,
      "▁делают": 8025,
      "▁герцо": 8026,
      "▁абсолютно": 8027,
      "▁Хоро": 8028,
      "▁дета": 8029,
      "▁games": 8030,
      "▁нрав": 8031,
      "▁story": 8032,
      "▁Act": 8033,
      "летний": 8034,
      "▁встречи": 8035,
      "▁верто": 8036,
      "▁устой": 8037,
      "▁сезоне": 8038,
      "roll": 8039,
      "▁Оль": 8040,
      "▁марте": 8041,
      "rap": 8042,
      "▁lim": 8043,
      "▁times": 8044,
      "▁Дол": 8045,
      "щён": 8046,
      "ights": 8047,
      "▁степень": 8048,
      "товых": 8049,
      "▁ордена": 8050,
      "▁Ци": 8051,
      "▁славя": 8052,
      "epend": 8053,
      "тность": 8054,
      "alt": 8055,
      "▁искусство": 8056,
      "▁influ": 8057,
      "▁целей": 8058,
      "▁рассказал": 8059,
      "▁контак": 8060,
      "▁vol": 8061,
      "▁мозга": 8062,
      "тяну": 8063,
      "▁бело": 8064,
      "▁губерна": 8065,
      "▁друзей": 8066,
      "▁интен": 8067,
      "▁подготовки": 8068,
      "▁km": 8069,
      "▁отста": 8070,
      "▁капитали": 8071,
      "▁Народ": 8072,
      "▁успеха": 8073,
      "▁прошлого": 8074,
      "▁текста": 8075,
      "шены": 8076,
      "lection": 8077,
      "▁топли": 8078,
      "umb": 8079,
      "льского": 8080,
      "▁заболевания": 8081,
      "roup": 8082,
      "▁юно": 8083,
      "довой": 8084,
      "▁бого": 8085,
      "▁Казах": 8086,
      "▁нём": 8087,
      "▁бесе": 8088,
      "▁институт": 8089,
      "▁масло": 8090,
      "gether": 8091,
      "▁впечатление": 8092,
      "▁social": 8093,
      "wh": 8094,
      "▁together": 8095,
      "▁фактически": 8096,
      "▁Дэ": 8097,
      "▁invest": 8098,
      "▁автомати": 8099,
      "▁молодой": 8100,
      "▁полиции": 8101,
      "▁национальной": 8102,
      "ampionship": 8103,
      "▁немедленно": 8104,
      "дание": 8105,
      "▁представители": 8106,
      "▁деревне": 8107,
      "дне": 8108,
      "▁particular": 8109,
      "▁появляется": 8110,
      "▁Без": 8111,
      "▁lost": 8112,
      "▁последнее": 8113,
      "▁групп": 8114,
      "▁элементы": 8115,
      "▁лето": 8116,
      "▁преступления": 8117,
      "▁тип": 8118,
      "порт": 8119,
      "▁popular": 8120,
      "▁неред": 8121,
      "▁langu": 8122,
      "▁production": 8123,
      "ордина": 8124,
      "зал": 8125,
      "▁объекта": 8126,
      "▁будучи": 8127,
      "ровании": 8128,
      "▁et": 8129,
      "▁код": 8130,
      "енье": 8131,
      "▁проник": 8132,
      "▁тему": 8133,
      "ложений": 8134,
      "▁матча": 8135,
      "паде": 8136,
      "▁головы": 8137,
      "▁очевид": 8138,
      "oe": 8139,
      "▁Родился": 8140,
      "adem": 8141,
      "▁ident": 8142,
      "▁хотелось": 8143,
      "кульп": 8144,
      "▁данного": 8145,
      "▁узнать": 8146,
      "веря": 8147,
      "▁comb": 8148,
      "▁fail": 8149,
      "▁гне": 8150,
      "▁XVIII": 8151,
      "oney": 8152,
      "лега": 8153,
      "▁дро": 8154,
      "▁arch": 8155,
      "▁въ": 8156,
      "▁Джа": 8157,
      "▁раздра": 8158,
      "▁half": 8159,
      "новой": 8160,
      "▁sol": 8161,
      "менять": 8162,
      "боро": 8163,
      "эм": 8164,
      "▁sum": 8165,
      "▁соли": 8166,
      "ьи": 8167,
      "▁прио": 8168,
      "▁Побе": 8169,
      "▁вызывает": 8170,
      "▁привести": 8171,
      "▁дверь": 8172,
      "▁здание": 8173,
      "ying": 8174,
      "прият": 8175,
      "жнему": 8176,
      "ours": 8177,
      "▁мело": 8178,
      "реги": 8179,
      "▁ство": 8180,
      "▁шел": 8181,
      "▁био": 8182,
      "например": 8183,
      "▁econom": 8184,
      "▁строительство": 8185,
      "most": 8186,
      "тировать": 8187,
      "▁крат": 8188,
      "ИТ": 8189,
      "ara": 8190,
      "▁ваш": 8191,
      "▁концу": 8192,
      "рные": 8193,
      "▁километров": 8194,
      "▁Евге": 8195,
      "▁Ль": 8196,
      "россий": 8197,
      "▁организаций": 8198,
      "▁Кана": 8199,
      "оном": 8200,
      "▁Бори": 8201,
      "▁Ленинград": 8202,
      "станции": 8203,
      "рана": 8204,
      "ising": 8205,
      "ложил": 8206,
      "▁последнего": 8207,
      "▁познакоми": 8208,
      "▁Воро": 8209,
      "▁Дмитрий": 8210,
      "▁этими": 8211,
      "ут": 8212,
      "возь": 8213,
      "▁вопло": 8214,
      "ционная": 8215,
      "чок": 8216,
      "ехать": 8217,
      "▁январе": 8218,
      "▁осталось": 8219,
      "▁специально": 8220,
      "▁сентябре": 8221,
      "▁Хар": 8222,
      "▁пришли": 8223,
      "няться": 8224,
      "▁самолета": 8225,
      "тивным": 8226,
      "▁тридца": 8227,
      "▁ума": 8228,
      "▁мерт": 8229,
      "▁академии": 8230,
      "▁сюда": 8231,
      "▁августе": 8232,
      "ФСР": 8233,
      "ky": 8234,
      "ЕТ": 8235,
      "▁match": 8236,
      "▁декабре": 8237,
      "▁будущем": 8238,
      "вшем": 8239,
      "нском": 8240,
      "▁individual": 8241,
      "▁кладби": 8242,
      "▁положении": 8243,
      "▁серебря": 8244,
      "▁cond": 8245,
      "uit": 8246,
      "▁career": 8247,
      "▁российских": 8248,
      "рована": 8249,
      "▁general": 8250,
      "▁новым": 8251,
      "сме": 8252,
      "нант": 8253,
      "▁схва": 8254,
      "▁вода": 8255,
      "▁League": 8256,
      "▁вои": 8257,
      "▁видели": 8258,
      "▁example": 8259,
      "▁Иоан": 8260,
      "▁сты": 8261,
      "▁служи": 8262,
      "нях": 8263,
      "енью": 8264,
      "стской": 8265,
      "▁уника": 8266,
      "cast": 8267,
      "▁школа": 8268,
      "▁самолет": 8269,
      "шко": 8270,
      "▁драма": 8271,
      "ells": 8272,
      "▁комиссии": 8273,
      "▁броса": 8274,
      "▁total": 8275,
      "▁Воло": 8276,
      "▁именем": 8277,
      "▁human": 8278,
      "▁буржу": 8279,
      "▁hig": 8280,
      "ципли": 8281,
      "▁огне": 8282,
      "▁здоро": 8283,
      "исто": 8284,
      "тивная": 8285,
      "▁случайно": 8286,
      "▁семья": 8287,
      "оти": 8288,
      "▁выпла": 8289,
      "▁лекар": 8290,
      "▁богат": 8291,
      "рай": 8292,
      "=\"": 8293,
      "▁материалов": 8294,
      "ционно": 8295,
      "........": 8296,
      "вшаяся": 8297,
      "брать": 8298,
      "▁born": 8299,
      "▁среды": 8300,
      "bor": 8301,
      "жными": 8302,
      "бую": 8303,
      "тивы": 8304,
      "▁анализа": 8305,
      "▁created": 8306,
      "гнуть": 8307,
      "▁информация": 8308,
      "▁поэт": 8309,
      "▁голу": 8310,
      "▁форм": 8311,
      "▁солне": 8312,
      "▁моги": 8313,
      "▁самому": 8314,
      "ances": 8315,
      "▁шли": 8316,
      "rem": 8317,
      "▁шла": 8318,
      "▁изображения": 8319,
      "▁сор": 8320,
      "▁РСФСР": 8321,
      "▁половине": 8322,
      "▁втором": 8323,
      "AT": 8324,
      "▁Сем": 8325,
      "▁находились": 8326,
      "▁мили": 8327,
      "▁такими": 8328,
      "pecial": 8329,
      "▁допуска": 8330,
      "▁While": 8331,
      "пания": 8332,
      "▁fire": 8333,
      "▁знали": 8334,
      "▁host": 8335,
      "зию": 8336,
      "▁победу": 8337,
      "▁сможет": 8338,
      "льник": 8339,
      "▁справедливо": 8340,
      "▁Упра": 8341,
      "▁глазами": 8342,
      "lex": 8343,
      "rug": 8344,
      "▁Петра": 8345,
      "▁группе": 8346,
      "граф": 8347,
      "▁According": 8348,
      "▁явления": 8349,
      "▁эмоциона": 8350,
      "▁социальной": 8351,
      "жён": 8352,
      "▁кан": 8353,
      "▁ask": 8354,
      "жие": 8355,
      "▁осла": 8356,
      "▁корпора": 8357,
      "▁думать": 8358,
      "ведён": 8359,
      "▁глазах": 8360,
      "leg": 8361,
      "▁prim": 8362,
      "▁показывает": 8363,
      "▁поса": 8364,
      "▁растений": 8365,
      "▁постано": 8366,
      "▁Само": 8367,
      "▁сотрудников": 8368,
      "▁выхода": 8369,
      "▁эко": 8370,
      "▁гидро": 8371,
      "▁сделали": 8372,
      "▁установить": 8373,
      "▁усилия": 8374,
      "▁утром": 8375,
      "рованные": 8376,
      "▁обществе": 8377,
      "▁неизбе": 8378,
      "следования": 8379,
      "цар": 8380,
      "▁лиш": 8381,
      "▁старо": 8382,
      "▁иденти": 8383,
      "▁почув": 8384,
      "▁способность": 8385,
      "▁reported": 8386,
      "▁кно": 8387,
      "▁Иванов": 8388,
      "менте": 8389,
      "▁located": 8390,
      "▁бол": 8391,
      "хам": 8392,
      "пси": 8393,
      "▁сути": 8394,
      "▁River": 8395,
      "▁картин": 8396,
      "▁вино": 8397,
      "ллер": 8398,
      "кторов": 8399,
      "▁блю": 8400,
      "▁Фин": 8401,
      "▁рассе": 8402,
      "aign": 8403,
      "▁министер": 8404,
      "ходом": 8405,
      "▁pri": 8406,
      "▁организма": 8407,
      "▁official": 8408,
      "▁fund": 8409,
      "▁proper": 8410,
      "▁прикры": 8411,
      "▁наси": 8412,
      "рованного": 8413,
      "▁философии": 8414,
      "▁decl": 8415,
      "▁обита": 8416,
      "▁небо": 8417,
      "▁General": 8418,
      "▁нередко": 8419,
      "▁кори": 8420,
      "▁восполь": 8421,
      "▁целе": 8422,
      "▁появилась": 8423,
      "стрее": 8424,
      "▁категории": 8425,
      "▁performan": 8426,
      "▁dev": 8427,
      "▁вещей": 8428,
      "itor": 8429,
      "Ле": 8430,
      "▁новая": 8431,
      "тности": 8432,
      "▁картины": 8433,
      "ьет": 8434,
      "elt": 8435,
      "дох": 8436,
      "▁Ат": 8437,
      "Вы": 8438,
      "▁двадцать": 8439,
      "физи": 8440,
      "▁title": 8441,
      "лога": 8442,
      "▁поддержку": 8443,
      "▁партия": 8444,
      "▁группи": 8445,
      "▁лежит": 8446,
      "бят": 8447,
      "вяз": 8448,
      "То": 8449,
      "▁очевидно": 8450,
      "▁сайт": 8451,
      "rain": 8452,
      "▁записи": 8453,
      "▁Виль": 8454,
      "▁Per": 8455,
      "▁стихотво": 8456,
      "▁группу": 8457,
      "▁известный": 8458,
      "деся": 8459,
      "▁заметил": 8460,
      "выше": 8461,
      "▁выполнения": 8462,
      "▁grad": 8463,
      "▁лучших": 8464,
      "AR": 8465,
      "▁indust": 8466,
      "▁House": 8467,
      "▁республики": 8468,
      "▁послу": 8469,
      "▁князя": 8470,
      "▁прояви": 8471,
      "▁International": 8472,
      "стого": 8473,
      "шают": 8474,
      "▁community": 8475,
      "▁подобных": 8476,
      "▁aut": 8477,
      "▁силами": 8478,
      "▁связыва": 8479,
      "жащих": 8480,
      "страи": 8481,
      "ays": 8482,
      "▁миру": 8483,
      "ica": 8484,
      "мети": 8485,
      "▁Наиболее": 8486,
      "▁your": 8487,
      "▁Всего": 8488,
      "▁отка": 8489,
      "▁разнообраз": 8490,
      "▁Институ": 8491,
      "▁Великобритании": 8492,
      "▁используют": 8493,
      "▁уточ": 8494,
      "▁виды": 8495,
      "▁намере": 8496,
      "ett": 8497,
      "ЛА": 8498,
      "▁Созда": 8499,
      "▁foot": 8500,
      "ющейся": 8501,
      "тик": 8502,
      "rated": 8503,
      "▁Рис": 8504,
      "▁Северной": 8505,
      "ences": 8506,
      "▁приблизи": 8507,
      "▁deg": 8508,
      "ленные": 8509,
      "▁однажды": 8510,
      "нилось": 8511,
      "щали": 8512,
      "тацию": 8513,
      "стка": 8514,
      "▁взрос": 8515,
      "льт": 8516,
      "▁Нов": 8517,
      "▁остров": 8518,
      "▁vict": 8519,
      "▁традиции": 8520,
      "страции": 8521,
      "▁представитель": 8522,
      "▁современных": 8523,
      "▁опи": 8524,
      "тяги": 8525,
      "▁тенден": 8526,
      "▁погру": 8527,
      "нские": 8528,
      "▁технологии": 8529,
      "▁проме": 8530,
      "пах": 8531,
      "iol": 8532,
      "irl": 8533,
      "рованный": 8534,
      "hib": 8535,
      "▁Street": 8536,
      "ee": 8537,
      "▁Бор": 8538,
      "▁получает": 8539,
      "▁epis": 8540,
      "льский": 8541,
      "▁авиации": 8542,
      "евский": 8543,
      "▁Далее": 8544,
      "▁Америки": 8545,
      "▁grow": 8546,
      "▁причине": 8547,
      "ened": 8548,
      "▁нашу": 8549,
      "▁едино": 8550,
      "▁конфи": 8551,
      "▁considered": 8552,
      "▁ребенок": 8553,
      "▁Зи": 8554,
      "формы": 8555,
      "▁переход": 8556,
      "▁представление": 8557,
      "In": 8558,
      "▁мра": 8559,
      "▁документов": 8560,
      "▁стрель": 8561,
      "ступила": 8562,
      "▁самая": 8563,
      "yl": 8564,
      "▁размер": 8565,
      "чками": 8566,
      "▁body": 8567,
      "охра": 8568,
      "▁College": 8569,
      "мона": 8570,
      "▁hold": 8571,
      "▁making": 8572,
      "▁пространства": 8573,
      "дится": 8574,
      "▁октябре": 8575,
      "▁глубоко": 8576,
      "▁содержит": 8577,
      "▁покло": 8578,
      "вающих": 8579,
      "▁struct": 8580,
      "here": 8581,
      "▁bas": 8582,
      "▁оппози": 8583,
      "▁England": 8584,
      "лант": 8585,
      "ссию": 8586,
      "▁фоне": 8587,
      "▁никакой": 8588,
      "▁переу": 8589,
      "▁others": 8590,
      "!..": 8591,
      "▁документы": 8592,
      "▁выстре": 8593,
      "▁ведом": 8594,
      "▁ord": 8595,
      "▁привет": 8596,
      "▁пище": 8597,
      "▁too": 8598,
      "вило": 8599,
      "▁вследствие": 8600,
      "ource": 8601,
      "▁отстав": 8602,
      "▁горы": 8603,
      "▁Извест": 8604,
      "▁вечером": 8605,
      "▁невы": 8606,
      "▁вернуться": 8607,
      "▁участия": 8608,
      "▁небольшо": 8609,
      "▁генерала": 8610,
      "нуться": 8611,
      "▁profess": 8612,
      "▁безопас": 8613,
      "▁научных": 8614,
      "▁histor": 8615,
      "▁самолетов": 8616,
      "гант": 8617,
      "▁гвардей": 8618,
      "кос": 8619,
      "тными": 8620,
      "▁реф": 8621,
      "▁ВВС": 8622,
      "▁члены": 8623,
      "▁испра": 8624,
      "пку": 8625,
      "▁продукции": 8626,
      "▁строе": 8627,
      "мию": 8628,
      "▁Che": 8629,
      "▁опыта": 8630,
      "прежнему": 8631,
      "ferred": 8632,
      "▁Кита": 8633,
      "▁обши": 8634,
      "▁контроль": 8635,
      "▁сма": 8636,
      "рный": 8637,
      "▁From": 8638,
      "▁worked": 8639,
      "▁Art": 8640,
      "▁литературе": 8641,
      "▁предложения": 8642,
      "дё": 8643,
      "▁одер": 8644,
      "▁mother": 8645,
      "▁началась": 8646,
      "дации": 8647,
      "aining": 8648,
      "▁упомя": 8649,
      "pite": 8650,
      "лию": 8651,
      "вами": 8652,
      "▁сосу": 8653,
      "▁природе": 8654,
      "чила": 8655,
      "жом": 8656,
      "▁Автор": 8657,
      "▁origin": 8658,
      "iting": 8659,
      "▁President": 8660,
      "▁имела": 8661,
      "▁спец": 8662,
      "ma": 8663,
      "▁brother": 8664,
      "▁разговор": 8665,
      "▁разработчи": 8666,
      "стром": 8667,
      "вшему": 8668,
      "▁квали": 8669,
      "oyal": 8670,
      "▁Pe": 8671,
      "▁методы": 8672,
      "▁Mon": 8673,
      "рье": 8674,
      "▁газо": 8675,
      "цвет": 8676,
      "▁министр": 8677,
      "▁Ска": 8678,
      "▁рукой": 8679,
      "▁преимущественно": 8680,
      "▁якобы": 8681,
      "▁Army": 8682,
      "фом": 8683,
      "nder": 8684,
      "▁будущего": 8685,
      "▁фабри": 8686,
      "▁сопер": 8687,
      "▁руб": 8688,
      "▁week": 8689,
      "▁лейте": 8690,
      "▁требуется": 8691,
      "жья": 8692,
      "зму": 8693,
      "▁мужчины": 8694,
      "▁joined": 8695,
      "▁East": 8696,
      "▁плю": 8697,
      "▁скульп": 8698,
      "net": 8699,
      "нились": 8700,
      "▁Было": 8701,
      "▁медленно": 8702,
      "▁структуры": 8703,
      "▁строй": 8704,
      "▁разъ": 8705,
      "▁обли": 8706,
      "▁основания": 8707,
      "▁стари": 8708,
      "бан": 8709,
      "▁low": 8710,
      "Об": 8711,
      "▁site": 8712,
      "пуль": 8713,
      "▁хво": 8714,
      "▁существование": 8715,
      "▁working": 8716,
      "▁зару": 8717,
      "▁gave": 8718,
      "▁биологи": 8719,
      "кости": 8720,
      "▁)": 8721,
      "▁принадлежит": 8722,
      "евна": 8723,
      "▁appoint": 8724,
      "▁передачи": 8725,
      "пок": 8726,
      "▁душе": 8727,
      "▁знаем": 8728,
      "▁артиллерий": 8729,
      "тес": 8730,
      "mp": 8731,
      "▁ground": 8732,
      "▁спорта": 8733,
      "▁аэрод": 8734,
      "▁верши": 8735,
      "▁Много": 8736,
      "▁обык": 8737,
      "▁третий": 8738,
      "несли": 8739,
      "▁театр": 8740,
      "▁гимна": 8741,
      "▁руками": 8742,
      "▁предложение": 8743,
      "▁окончательно": 8744,
      "гон": 8745,
      "ИК": 8746,
      "▁arg": 8747,
      "▁пенси": 8748,
      "▁грамо": 8749,
      "пии": 8750,
      "▁ключе": 8751,
      "▁броне": 8752,
      "▁once": 8753,
      "▁ассоциа": 8754,
      "▁ситуацию": 8755,
      "▁test": 8756,
      "▁прими": 8757,
      "▁местных": 8758,
      "органи": 8759,
      "▁провинции": 8760,
      "▁Фер": 8761,
      "▁правил": 8762,
      "▁Нау": 8763,
      "▁ночи": 8764,
      "▁оформ": 8765,
      "▁лицом": 8766,
      "▁специфи": 8767,
      "дие": 8768,
      "ждением": 8769,
      "▁Port": 8770,
      "▁фильме": 8771,
      "ological": 8772,
      "▁устраи": 8773,
      "кора": 8774,
      "▁зага": 8775,
      "▁замы": 8776,
      "▁углу": 8777,
      "▁сюжет": 8778,
      "▁князь": 8779,
      "era": 8780,
      "▁назвать": 8781,
      "дая": 8782,
      "▁снаб": 8783,
      "▁Ac": 8784,
      "▁Эй": 8785,
      "▁дели": 8786,
      "▁заказ": 8787,
      "▁прия": 8788,
      "▁любого": 8789,
      "▁договор": 8790,
      "▁опер": 8791,
      "рет": 8792,
      "▁ауди": 8793,
      "▁характеризу": 8794,
      "▁апреле": 8795,
      "▁министра": 8796,
      "▁романа": 8797,
      "▁associ": 8798,
      "▁интервью": 8799,
      "▁обез": 8800,
      "oor": 8801,
      "пр": 8802,
      "▁выступал": 8803,
      "▁лета": 8804,
      "ww": 8805,
      "жима": 8806,
      "▁энергети": 8807,
      "▁вплоть": 8808,
      "▁agre": 8809,
      "▁уско": 8810,
      "▁отметить": 8811,
      "▁Али": 8812,
      "зне": 8813,
      "▁пункт": 8814,
      "ogle": 8815,
      "urb": 8816,
      "запад": 8817,
      "▁version": 8818,
      "▁our": 8819,
      "▁летом": 8820,
      "лакти": 8821,
      "▁round": 8822,
      "▁light": 8823,
      "field": 8824,
      "▁mater": 8825,
      "▁зре": 8826,
      "тори": 8827,
      "▁front": 8828,
      "▁занимает": 8829,
      "▁strong": 8830,
      "▁знак": 8831,
      "мян": 8832,
      "▁Some": 8833,
      "▁пры": 8834,
      "▁примеру": 8835,
      "▁объект": 8836,
      "▁контроля": 8837,
      "▁попытки": 8838,
      "▁главных": 8839,
      "▁чай": 8840,
      "▁Соб": 8841,
      "▁стоял": 8842,
      "сек": 8843,
      "▁Red": 8844,
      "▁видит": 8845,
      "▁Владими": 8846,
      "▁employ": 8847,
      "сна": 8848,
      "▁заканчи": 8849,
      "логия": 8850,
      "бет": 8851,
      "▁нега": 8852,
      "▁препара": 8853,
      "▁Два": 8854,
      "▁добавить": 8855,
      "▁Char": 8856,
      "▁колхо": 8857,
      "ideo": 8858,
      "падает": 8859,
      "▁вез": 8860,
      "▁июне": 8861,
      "Как": 8862,
      "▁полицей": 8863,
      "▁звание": 8864,
      "▁восемь": 8865,
      "▁телеви": 8866,
      "▁proble": 8867,
      "▁государств": 8868,
      "шинство": 8869,
      "▁обусло": 8870,
      "▁relations": 8871,
      "▁государственный": 8872,
      "кке": 8873,
      "▁tradition": 8874,
      "▁Rec": 8875,
      "▁политических": 8876,
      "ware": 8877,
      "▁рассчиты": 8878,
      "▁чувству": 8879,
      "льской": 8880,
      "зве": 8881,
      "▁функциона": 8882,
      "▁возвы": 8883,
      "графии": 8884,
      "aper": 8885,
      "▁шан": 8886,
      "ствования": 8887,
      "сматри": 8888,
      "▁County": 8889,
      "▁играл": 8890,
      "▁родителей": 8891,
      "▁победы": 8892,
      "гене": 8893,
      "▁шаг": 8894,
      "uel": 8895,
      "▁консу": 8896,
      "%,": 8897,
      "коман": 8898,
      "▁молоде": 8899,
      "▁История": 8900,
      "▁вклад": 8901,
      "ису": 8902,
      "пта": 8903,
      "▁июле": 8904,
      "рк": 8905,
      "ctor": 8906,
      "тическая": 8907,
      "гин": 8908,
      "▁отказыва": 8909,
      "▁днев": 8910,
      "▁стены": 8911,
      "▁Тор": 8912,
      "▁Украине": 8913,
      "▁Бал": 8914,
      "▁курс": 8915,
      "▁пр": 8916,
      "▁включает": 8917,
      "▁музей": 8918,
      "▁король": 8919,
      "вающие": 8920,
      "стано": 8921,
      "▁способности": 8922,
      "▁происхождения": 8923,
      "▁пытался": 8924,
      "▁программа": 8925,
      "▁cost": 8926,
      "▁http": 8927,
      "Это": 8928,
      "▁Потому": 8929,
      "▁пан": 8930,
      "▁становятся": 8931,
      "▁организация": 8932,
      "▁изменя": 8933,
      "ношения": 8934,
      "чия": 8935,
      "▁ван": 8936,
      "▁taken": 8937,
      "iers": 8938,
      "мно": 8939,
      "▁мимо": 8940,
      "▁described": 8941,
      "лай": 8942,
      "▁моби": 8943,
      "▁Church": 8944,
      "▁употребля": 8945,
      "▁отличи": 8946,
      "тинен": 8947,
      "▁квадра": 8948,
      "Ли": 8949,
      "тропо": 8950,
      "▁produced": 8951,
      "стное": 8952,
      "▁заместитель": 8953,
      "жий": 8954,
      "▁необходимость": 8955,
      "▁наличие": 8956,
      "▁используются": 8957,
      "горе": 8958,
      "▁приложения": 8959,
      "раста": 8960,
      "▁engine": 8961,
      "▁бывший": 8962,
      "▁свете": 8963,
      "▁работают": 8964,
      "мас": 8965,
      "▁able": 8966,
      "НК": 8967,
      "ально": 8968,
      "тельстве": 8969,
      "▁миллиар": 8970,
      "▁wife": 8971,
      "▁преподава": 8972,
      "▁игре": 8973,
      "щались": 8974,
      "now": 8975,
      "▁сознание": 8976,
      "▁although": 8977,
      "nect": 8978,
      "▁aver": 8979,
      "▁Бли": 8980,
      "▁sugg": 8981,
      "▁Юго": 8982,
      "▁прису": 8983,
      "▁Где": 8984,
      "▁граф": 8985,
      "▁прекрасно": 8986,
      "▁мин": 8987,
      "▁Луч": 8988,
      "▁Бан": 8989,
      "▁команд": 8990,
      "▁выйти": 8991,
      "ченного": 8992,
      "▁exist": 8993,
      "▁пространство": 8994,
      "пуск": 8995,
      "▁облег": 8996,
      "жало": 8997,
      "▁вопросам": 8998,
      "▁показать": 8999,
      "▁бесконе": 9000,
      "▁герой": 9001,
      "▁отдельные": 9002,
      "▁кораблей": 9003,
      "▁рынке": 9004,
      "▁достато": 9005,
      "ari": 9006,
      "▁программи": 9007,
      "▁колон": 9008,
      "▁посвящен": 9009,
      "▁Джор": 9010,
      "▁веру": 9011,
      "▁Орден": 9012,
      "▁гля": 9013,
      "▁отличается": 9014,
      "зит": 9015,
      "▁евреев": 9016,
      "чают": 9017,
      "▁France": 9018,
      "▁процессов": 9019,
      "▁Dep": 9020,
      "▁saw": 9021,
      "▁корабль": 9022,
      "женной": 9023,
      "▁Пара": 9024,
      "▁бизне": 9025,
      "щиеся": 9026,
      "тров": 9027,
      "чеб": 9028,
      "▁Stud": 9029,
      "рского": 9030,
      "▁посту": 9031,
      "▁географи": 9032,
      "▁Ники": 9033,
      "▁suff": 9034,
      "ique": 9035,
      "▁вдох": 9036,
      "▁дают": 9037,
      "▁другая": 9038,
      "________": 9039,
      "лил": 9040,
      "▁Ste": 9041,
      "▁штаб": 9042,
      "▁самостоятельно": 9043,
      "▁mat": 9044,
      "▁press": 9045,
      "▁военные": 9046,
      "IN": 9047,
      "▁подле": 9048,
      "▁успех": 9049,
      "▁Индии": 9050,
      "▁ССР": 9051,
      "▁премьер": 9052,
      "▁free": 9053,
      "▁этапе": 9054,
      "▁\"...": 9055,
      "▁ноябре": 9056,
      "мся": 9057,
      "▁feat": 9058,
      "▁спокойно": 9059,
      "▁Ber": 9060,
      "▁months": 9061,
      "▁куп": 9062,
      "щению": 9063,
      "▁заранее": 9064,
      "▁цело": 9065,
      "▁нагруз": 9066,
      "▁брата": 9067,
      "пустил": 9068,
      "▁Сталина": 9069,
      "ishing": 9070,
      "▁сму": 9071,
      "▁корпус": 9072,
      "craft": 9073,
      "▁всеоб": 9074,
      "▁разработки": 9075,
      "▁умира": 9076,
      "▁крестья": 9077,
      "щался": 9078,
      "▁жены": 9079,
      "▁городского": 9080,
      "▁говор": 9081,
      "▁понятие": 9082,
      "▁боевой": 9083,
      "неров": 9084,
      "нулась": 9085,
      "защи": 9086,
      "▁назвал": 9087,
      "зий": 9088,
      "▁rev": 9089,
      "совой": 9090,
      "▁коме": 9091,
      "▁счастли": 9092,
      "спекти": 9093,
      "▁little": 9094,
      "▁mer": 9095,
      "▁государственных": 9096,
      "▁seen": 9097,
      "▁married": 9098,
      "▁товаров": 9099,
      "▁пон": 9100,
      "▁капитан": 9101,
      "вершен": 9102,
      "▁mult": 9103,
      "сев": 9104,
      "▁сход": 9105,
      "▁молодых": 9106,
      "▁church": 9107,
      "▁Mich": 9108,
      "▁органы": 9109,
      "нулись": 9110,
      "▁председатель": 9111,
      "▁создании": 9112,
      "▁императора": 9113,
      "▁Париже": 9114,
      "▁Подоб": 9115,
      "▁signific": 9116,
      "логов": 9117,
      "▁здра": 9118,
      "▁сериа": 9119,
      "▁Бре": 9120,
      "go": 9121,
      "▁Бен": 9122,
      "кала": 9123,
      "▁диза": 9124,
      "вана": 9125,
      "▁сложно": 9126,
      "▁рассказ": 9127,
      "▁opened": 9128,
      "ровала": 9129,
      "▁выпуск": 9130,
      "▁across": 9131,
      "▁излу": 9132,
      "▁щи": 9133,
      "▁героя": 9134,
      "▁night": 9135,
      "▁владе": 9136,
      "▁опубликова": 9137,
      "▁объяснить": 9138,
      "▁Московской": 9139,
      "▁массы": 9140,
      "▁синте": 9141,
      "▁сообщили": 9142,
      "▁головой": 9143,
      "▁хочется": 9144,
      "риф": 9145,
      "ционе": 9146,
      "зоб": 9147,
      "▁буквально": 9148,
      "▁будущее": 9149,
      "▁аргу": 9150,
      "aps": 9151,
      "▁typ": 9152,
      "эк": 9153,
      "▁феврале": 9154,
      "▁стади": 9155,
      "▁компаний": 9156,
      "▁домов": 9157,
      "▁plan": 9158,
      "▁отдыха": 9159,
      "▁Помимо": 9160,
      "OS": 9161,
      "▁чрезвычайно": 9162,
      "▁главной": 9163,
      "▁don": 9164,
      "▁areas": 9165,
      "aut": 9166,
      "▁достой": 9167,
      "▁обеспечить": 9168,
      "яз": 9169,
      "▁грузо": 9170,
      "▁Фло": 9171,
      "доби": 9172,
      "▁Тот": 9173,
      "▁услыша": 9174,
      "▁поезд": 9175,
      "Ин": 9176,
      "▁дали": 9177,
      "▁Испании": 9178,
      "туда": 9179,
      "▁обоих": 9180,
      "▁началось": 9181,
      "▁потери": 9182,
      "▁голове": 9183,
      ".[": 9184,
      "▁приказ": 9185,
      "▁связаны": 9186,
      "▁исключением": 9187,
      "▁войсками": 9188,
      "▁разда": 9189,
      "▁works": 9190,
      "▁блоки": 9191,
      "▁вашей": 9192,
      "▁Хе": 9193,
      "экономи": 9194,
      "пред": 9195,
      "▁America": 9196,
      "▁продолжал": 9197,
      "ющегося": 9198,
      "▁нашли": 9199,
      "созна": 9200,
      "▁возро": 9201,
      "▁простой": 9202,
      "fic": 9203,
      "хоро": 9204,
      "жин": 9205,
      "▁нарушения": 9206,
      "ровано": 9207,
      "▁mot": 9208,
      "шена": 9209,
      "▁приняли": 9210,
      "▁жидко": 9211,
      "ждали": 9212,
      "▁армию": 9213,
      "пь": 9214,
      "▁Люди": 9215,
      "▁беспла": 9216,
      "▁существуют": 9217,
      "сор": 9218,
      "play": 9219,
      "ani": 9220,
      "▁чуде": 9221,
      "чти": 9222,
      "▁party": 9223,
      "стива": 9224,
      "▁англича": 9225,
      "▁particip": 9226,
      "▁eas": 9227,
      "▁отобра": 9228,
      "▁обладает": 9229,
      "▁black": 9230,
      "year": 9231,
      "hern": 9232,
      "фак": 9233,
      "▁порта": 9234,
      "етесь": 9235,
      "десят": 9236,
      "ought": 9237,
      "лено": 9238,
      "ведены": 9239,
      "▁любом": 9240,
      "▁road": 9241,
      "▁правления": 9242,
      "▁практике": 9243,
      "▁возле": 9244,
      "▁ваши": 9245,
      "▁прочита": 9246,
      "стным": 9247,
      "▁Владимира": 9248,
      "▁СМИ": 9249,
      "▁Чемпи": 9250,
      "сную": 9251,
      "▁пожи": 9252,
      "ills": 9253,
      "▁зачем": 9254,
      "▁расстре": 9255,
      "▁начинают": 9256,
      "вят": 9257,
      "▁гипоте": 9258,
      "▁концер": 9259,
      "▁Предста": 9260,
      "▁окре": 9261,
      "▁Dr": 9262,
      "▁причин": 9263,
      "▁воспроиз": 9264,
      "uf": 9265,
      "▁Windows": 9266,
      "▁My": 9267,
      "▁знают": 9268,
      "▁откло": 9269,
      "▁Hol": 9270,
      "▁последней": 9271,
      "▁Особенно": 9272,
      "▁хуже": 9273,
      "ports": 9274,
      "▁дале": 9275,
      "lected": 9276,
      "▁avail": 9277,
      "ьми": 9278,
      "▁предска": 9279,
      "▁добиться": 9280,
      "▁престо": 9281,
      "▁питания": 9282,
      "▁Кам": 9283,
      "▁НА": 9284,
      "▁modern": 9285,
      "▁coll": 9286,
      "▁Первая": 9287,
      "ваку": 9288,
      "stand": 9289,
      "▁дисципли": 9290,
      "сибо": 9291,
      "лкой": 9292,
      "ждал": 9293,
      "▁переи": 9294,
      "▁forces": 9295,
      "▁поступ": 9296,
      "▁campaign": 9297,
      "леты": 9298,
      "▁Пор": 9299,
      "▁сотни": 9300,
      "▁поставить": 9301,
      "▁самолё": 9302,
      "гих": 9303,
      "▁воздух": 9304,
      "▁Василий": 9305,
      "▁отделения": 9306,
      "▁восстанови": 9307,
      "ators": 9308,
      "▁темно": 9309,
      "дешь": 9310,
      "▁страну": 9311,
      "▁причиной": 9312,
      "▁фунда": 9313,
      "▁рынка": 9314,
      "▁удовлетво": 9315,
      "▁осторо": 9316,
      "нивер": 9317,
      "▁последствия": 9318,
      "ault": 9319,
      "вторых": 9320,
      "▁пошел": 9321,
      "▁показал": 9322,
      "лел": 9323,
      "▁спаса": 9324,
      "▁отправился": 9325,
      "▁поддержки": 9326,
      "▁представляют": 9327,
      "Петербур": 9328,
      "гора": 9329,
      "тилась": 9330,
      "▁ten": 9331,
      "▁журнала": 9332,
      "▁жители": 9333,
      "видимому": 9334,
      "▁премии": 9335,
      "чается": 9336,
      "▁дочери": 9337,
      "рие": 9338,
      "▁служил": 9339,
      "▁начиная": 9340,
      "▁ter": 9341,
      "ournal": 9342,
      "▁Mor": 9343,
      "▁Div": 9344,
      "▁Армии": 9345,
      "▁метро": 9346,
      "дерни": 9347,
      "lands": 9348,
      "▁Cour": 9349,
      "▁Киев": 9350,
      "▁ров": 9351,
      "▁room": 9352,
      "▁столе": 9353,
      "levision": 9354,
      "▁смогли": 9355,
      "▁диск": 9356,
      "▁предпри": 9357,
      "▁видим": 9358,
      "▁предстоя": 9359,
      "центри": 9360,
      "▁нужны": 9361,
      "нером": 9362,
      "рка": 9363,
      "Ку": 9364,
      "▁Пом": 9365,
      "где": 9366,
      "▁установки": 9367,
      "▁хотели": 9368,
      "▁подробно": 9369,
      "рона": 9370,
      "▁навы": 9371,
      "▁приходит": 9372,
      "дку": 9373,
      "▁сот": 9374,
      "жество": 9375,
      "▁быстрее": 9376,
      "▁rail": 9377,
      "▁попал": 9378,
      "▁successful": 9379,
      "сан": 9380,
      "▁подклю": 9381,
      "вока": 9382,
      "itive": 9383,
      "rick": 9384,
      "▁Нам": 9385,
      "▁запол": 9386,
      "▁занимался": 9387,
      "▁скри": 9388,
      "▁полномо": 9389,
[...]
