<unk>	0
<s>	0
</s>	0
▁п	-0
ст	-1
▁в	-2
▁с	-3
но	-4
ни	-5
на	-6
ра	-7
▁и	-8
ко	-9
то	-10
▁о	-11
ро	-12
ре	-13
го	-14
ли	-15
не	-16
▁по	-17
▁д	-18
ва	-19
ле	-20
ка	-21
ль	-22
ны	-23
ри	-24
те	-25
▁на	-26
▁м	-27
▁t	-28
ло	-29
ла	-30
во	-31
▁б	-32
he	-33
та	-34
ен	-35
за	-36
ет	-37
▁a	-38
ки	-39
да	-40
in	-41
ть	-42
▁не	-43
че	-44
ся	-45
ер	-46
▁у	-47
ти	-48
ми	-49
▁ко	-50
er	-51
▁the	-52
де	-53
ви	-54
ру	-55
on	-56
▁ч	-57
ди	-58
же	-59
▁за	-60
▁ра	-61
▁со	-62
▁к	-63
ста	-64
ля	-65
▁В	-66
re	-67
ско	-68
▁про	-69
▁а	-70
ци	-71
ве	-72
ния	-73
ма	-74
▁э	-75
мо	-76
ние	-77
до	-78
ме	-79
по	-80
▁е	-81
▁o	-82
▁s	-83
▁П	-84
▁от	-85
▁во	-86
▁го	-87
▁С	-88
▁w	-89
бо	-90
▁при	-91
сти	-92
ed	-93
nd	-94
сто	-95
at	-96
▁ка	-97
хо	-98
▁бы	-99
▁-	-100
▁г	-101
▁об	-102
ча	-103
▁"	-104
се	-105
чи	-106
▁до	-107
▁то	-108
en	-109
or	-110
ски	-111
▁что	-112
сь	-113
ры	-114
it	-115
is	-116
ше	-117
ной	-118
ду	-119
▁c	-120
▁К	-121
an	-122
ще	-123
es	-124
си	-125
ar	-126
ну	-127
▁f	-128
al	-129
▁вы	-130
▁из	-131
▁of	-132
му	-133
ных	-134
ши	-135
▁Н	-136
▁мо	-137
▁in	-138
▁т	-139
▁b	-140
со	-141
жи	-142
лу	-143
ного	-144
тель	-145
▁(	-146
▁p	-147
▁М	-148
ку	-149
ing	-150
сть	-151
га	-152
ги	-153
as	-154
▁пре	-155
▁and	-156
вы	-157
ере	-158
▁О	-159
▁ре	-160
▁та	-161
па	-162
ные	-163
▁ф	-164
▁это	-165
▁те	-166
са	-167
ств	-168
▁А	-169
щи	-170
ic	-171
▁to	-172
ный	-173
ro	-174
▁з	-175
лю	-176
▁де	-177
▁m	-178
▁раз	-179
пи	-180
ion	-181
▁бо	-182
ют	-183
ря	-184
▁И	-185
▁я	-186
▁d	-187
▁но	-188
ня	-189
▁h	-190
▁кото	-191
▁Д	-192
ем	-193
le	-194
▁Р	-195
ту	-196
▁Т	-197
ты	-198
▁ме	-199
зо	-200
ou	-201
ется	-202
пе	-203
▁Б	-204
▁че	-205
це	-206
жа	-207
▁все	-208
▁ма	-209
мен	-210
▁T	-211
▁под	-212
сле	-213
▁как	-214
зи	-215
ство	-216
▁S	-217
▁Г	-218
▁сво	-219
▁се	-220
▁ст	-221
▁По	-222
▁A	-223
ent	-224
il	-225
би	-226
вер	-227
▁ста	-228
..	-229
ской	-230
▁ли	-231
ным	-232
ции	-233
вле	-234
нии	-235
▁ни	-236
▁да	-237
▁са	-238
▁—	-239
▁C	-240
▁re	-241
▁«	-242
st	-243
▁пере	-244
бы	-245
ды	-246
ска	-247
▁ве	-248
ского	-249
▁его	-250
ное	-251
ке	-252
ствен	-253
▁n	-254
el	-255
om	-256
▁для	-257
мы	-258
ная	-259
су	-260
▁I	-261
▁же	-262
ров	-263
спо	-264
зы	-265
лся	-266
бе	-267
ков	-268
▁си	-269
ей	-270
▁th	-271
жно	-272
ар	-273
▁l	-274
вать	-275
ор	-276
чески	-277
am	-278
об	-279
ша	-280
▁Л	-281
ном	-282
▁он	-283
ct	-284
▁M	-285
гда	-286
ства	-287
нов	-288
▁так	-289
▁e	-290
ad	-291
▁пред	-292
ol	-293
▁ми	-294
ха	-295
вля	-296
ца	-297
▁которы	-298
et	-299
ба	-300
лько	-301
гра	-302
ности	-303
пу	-304
▁бе	-305
▁ле	-306
▁су	-307
▁года	-308
ний	-309
▁кон	-310
он	-311
▁На	-312
ur	-313
▁was	-314
▁ин	-315
▁B	-316
про	-317
▁воз	-318
ходи	-319
сси	-320
гу	-321
id	-322
ность	-323
▁жи	-324
ющи	-325
▁бу	-326
ch	-327
мя	-328
рова	-329
▁ро	-330
вет	-331
im	-332
лы	-333
тов	-334
▁хо	-335
▁дру	-336
▁Е	-337
iv	-338
▁P	-339
▁или	-340
ща	-341
лись	-342
▁рас	-343
▁The	-344
ly	-345
▁З	-346
▁on	-347
каза	-348
▁Э	-349
ot	-350
ce	-351
ut	-352
пра	-353
▁пра	-354
▁од	-355
зу	-356
▁вре	-357
фи	-358
▁H	-359
ться	-360
▁g	-361
кой	-362
ран	-363
аль	-364
▁ча	-365
ig	-366
▁for	-367
▁У	-368
тив	-369
ir	-370
us	-371
ак	-372
ский	-373
▁был	-374
▁ру	-375
ень	-376
▁ви	-377
ation	-378
ан	-379
ву	-380
ную	-381
▁сто	-382
▁be	-383
тся	-384
сте	-385
сли	-386
зна	-387
".	-388
сту	-389
▁па	-390
стви	-391
▁Ф	-392
ow	-393
▁зна	-394
лен	-395
ром	-396
вой	-397
ter	-398
вя	-399
ra	-400
▁лю	-401
▁рабо	-402
лось	-403
ith	-404
▁as	-405
).	-406
▁he	-407
мер	-408
",	-409
▁было	-410
▁D	-411
▁R	-412
пре	-413
бу	-414
ком	-415
▁st	-416
▁ва	-417
нима	-418
▁боль	-419
жен	-420
▁N	-421
ver	-422
нию	-423
▁мы	-424
▁Ч	-425
лове	-426
стоя	-427
▁их	-428
ay	-429
un	-430
▁обра	-431
▁ис	-432
вши	-433
▁F	-434
▁пер	-435
▁после	-436
она	-437
ными	-438
▁with	-439
нием	-440
▁ос	-441
▁х	-442
▁ш	-443
том	-444
▁году	-445
em	-446
▁L	-447
ются	-448
▁is	-449
),	-450
рой	-451
▁W	-452
из	-453
лась	-454
▁слу	-455
▁Но	-456
▁G	-457
ul	-458
лей	-459
тя	-460
...	-461
▁Ко	-462
ция	-463
ман	-464
жде	-465
ек	-466
▁пи	-467
▁дол	-468
чно	-469
▁that	-470
ers	-471
▁пу	-472
при	-473
▁Ро	-474
▁ц	-475
дет	-476
▁ком	-477
ству	-478
сы	-479
▁Во	-480
▁челове	-481
▁только	-482
дя	-483
▁Х	-484
▁ку	-485
дер	-486
пы	-487
ника	-488
▁wh	-489
▁Со	-490
лее	-491
▁ди	-492
зыва	-493
род	-494
ред	-495
▁Я	-496
▁фи	-497
кра	-498
ней	-499
ден	-500
os	-501
▁само	-502
ских	-503
ник	-504
лек	-505
▁полу	-506
▁al	-507
ге	-508
▁con	-509
тре	-510
▁име	-511
▁by	-512
зова	-513
тер	-514
▁сло	-515
▁E	-516
th	-517
▁время	-518
od	-519
ев	-520
her	-521
and	-522
▁at	-523
жет	-524
нь	-525
рии	-526
ag	-527
▁an	-528
▁Ка	-529
ac	-530
ist	-531
▁нача	-532
тра	-533
ск	-534
ская	-535
▁они	-536
▁J	-537
▁пе	-538
▁му	-539
дь	-540
▁были	-541
дова	-542
rom	-543
um	-544
хи	-545
сло	-546
стра	-547
▁За	-548
тельно	-549
логи	-550
▁ор	-551
три	-552
жда	-553
кры	-554
дар	-555
▁стра	-556
est	-557
спе	-558
ri	-559
нее	-560
▁Мо	-561
вых	-562
вто	-563
стро	-564
▁оста	-565
▁испо	-566
▁эти	-567
зда	-568
мет	-569
av	-570
▁de	-571
▁чтобы	-572
▁гла	-573
▁Не	-574
▁O	-575
цы	-576
▁чи	-577
▁свои	-578
▁тре	-579
▁In	-580
▁it	-581
ain	-582
▁При	-583
нова	-584
бли	-585
гла	-586
дин	-587
пер	-588
шь	-589
▁сле	-590
вые	-591
юще	-592
▁уже	-593
op	-594
▁также	-595
клю	-596
▁была	-597
ском	-598
▁когда	-599
▁v	-600
▁пла	-601
▁ар	-602
▁це	-603
▁pro	-604
▁чем	-605
▁ба	-606
up	-607
if	-608
▁пол	-609
дов	-610
oc	-611
пол	-612
▁se	-613
соб	-614
▁his	-615
▁ду	-616
▁Ма	-617
вод	-618
pe	-619
▁которые	-620
жду	-621
▁жиз	-622
руп	-623
▁com	-624
res	-625
▁Ш	-626
▁вер	-627
▁того	-628
дей	-629
▁from	-630
▁объ	-631
ate	-632
▁ее	-633
нных	-634
стре	-635
▁вой	-636
▁свя	-637
лов	-638
жения	-639
ew	-640
бя	-641
ab	-642
вал	-643
▁спо	-644
нд	-645
льно	-646
рь	-647
ill	-648
▁Бо	-649
▁может	-650
ld	-651
мени	-652
ин	-653
зя	-654
se	-655
сла	-656
▁она	-657
▁этом	-658
ity	-659
▁исто	-660
тия	-661
▁други	-662
кон	-663
тор	-664
▁более	-665
art	-666
».	-667
▁Росси	-668
фор	-669
▁соста	-670
ления	-671
▁им	-672
вая	-673
▁Ра	-674
▁том	-675
qu	-676
шо	-677
▁еще	-678
ких	-679
чен	-680
ort	-681
▁если	-682
▁обще	-683
▁предста	-684
▁дей	-685
▁ту	-686
тро	-687
ud	-688
▁Это	-689
▁орга	-690
вый	-691
теля	-692
жу	-693
вого	-694
вори	-695
ore	-696
дела	-697
води	-698
кую	-699
емы	-700
▁отно	-701
ские	-702
▁мне	-703
бра	-704
▁гра	-705
жение	-706
▁быть	-707
igh	-708
енно	-709
▁or	-710
веде	-711
ies	-712
от	-713
▁этого	-714
еня	-715
▁ты	-716
▁тем	-717
ak	-718
сты	-719
нные	-720
вали	-721
▁ге	-722
ere	-723
ческой	-724
▁который	-725
дом	-726
▁можно	-727
ью	-728
зе	-729
▁кра	-730
▁ок	-731
ess	-732
тери	-733
▁исполь	-734
ant	-735
▁явля	-736
сов	-737
▁есть	-738
стве	-739
▁U	-740
▁K	-741
all	-742
тически	-743
ich	-744
ard	-745
▁произ	-746
тому	-747
▁обла	-748
▁без	-749
▁r	-750
ников	-751
ber	-752
▁где	-753
▁ex	-754
ap	-755
ское	-756
▁созда	-757
шей	-758
чень	-759
кие	-760
▁случа	-761
кого	-762
циаль	-763
▁поло	-764
чение	-765
▁обо	-766
▁уча	-767
обра	-768
вления	-769
фе	-770
ub	-771
цию	-772
▁Он	-773
▁лет	-774
▁ак	-775
▁помо	-776
▁авто	-777
▁меня	-778
▁Та	-779
телей	-780
▁фор	-781
писа	-782
преде	-783
▁будет	-784
▁were	-785
▁ки	-786
судар	-787
▁между	-788
нения	-789
али	-790
вает	-791
»,	-792
цион	-793
чита	-794
сс	-795
вич	-796
дно	-797
ment	-798
нако	-799
▁свое	-800
рен	-801
ive	-802
▁чу	-803
бря	-804
▁y	-805
▁ch	-806
ge	-807
▁Ми	-808
лом	-809
чения	-810
можно	-811
вно	-812
▁are	-813
рез	-814
▁V	-815
пера	-816
▁тех	-817
вое	-818
.,	-819
ated	-820
▁поли	-821
▁дела	-822
нг	-823
▁даже	-824
тно	-825
ит	-826
▁которо	-827
gh	-828
ip	-829
▁сторо	-830
ia	-831
▁То	-832
our	-833
▁очень	-834
рак	-835
▁коман	-836
ческого	-837
цу	-838
▁прави	-839
▁St	-840
und	-841
▁Го	-842
▁ну	-843
шего	-844
ким	-845
ез	-846
сно	-847
▁Ни	-848
кан	-849
▁неско	-850
▁поз	-851
▁Ве	-852
цо	-853
▁себя	-854
ial	-855
ях	-856
▁тру	-857
ники	-858
вест	-859
ление	-860
▁пар	-861
ame	-862
чь	-863
шения	-864
▁ему	-865
▁сказа	-866
▁сов	-867
ell	-868
▁Са	-869
▁Па	-870
▁много	-871
ian	-872
▁работа	-873
▁органи	-874
кла	-875
▁Ц	-876
▁прои	-877
▁le	-878
▁действи	-879
нк	-880
ками	-881
нный	-882
▁них	-883
▁каж	-884
▁эк	-885
ov	-886
ющих	-887
▁pl	-888
▁ско	-889
менно	-890
▁Про	-891
▁Ва	-892
вания	-893
рта	-894
ear	-895
ступ	-896
бой	-897
▁Да	-898
чу	-899
ong	-900
▁k	-901
▁вла	-902
торы	-903
▁вос	-904
▁получи	-905
вор	-906
▁had	-907
▁спе	-908
▁горо	-909
слу	-910
ure	-911
ческих	-912
▁говори	-913
▁sh	-914
смо	-915
▁государ	-916
вым	-917
шу	-918
▁суще	-919
▁цен	-920
ках	-921
ary	-922
рая	-923
nt	-924
▁ло	-925
▁which	-926
нови	-927
ost	-928
ction	-929
ast	-930
ющие	-931
ходя	-932
вра	-933
▁га	-934
og	-935
▁лу	-936
тели	-937
▁тер	-938
льной	-939
ust	-940
кре	-941
нен	-942
ine	-943
▁опреде	-944
льта	-945
▁против	-946
кий	-947
ight	-948
сса	-949
ход	-950
▁следу	-951
рия	-952
▁ла	-953
▁До	-954
▁всех	-955
лли	-956
▁рай	-957
▁ю	-958
▁над	-959
бле	-960
▁сред	-961
▁уста	-962
▁not	-963
▁мно	-964
▁инте	-965
ён	-966
лаго	-967
▁ти	-968
▁нау	-969
▁нас	-970
СС	-971
кое	-972
▁друго	-973
йте	-974
▁человек	-975
ших	-976
цен	-977
▁всего	-978
ностью	-979
▁состоя	-980
▁Ж	-981
яви	-982
кто	-983
ire	-984
▁буду	-985
циона	-986
▁разви	-987
▁сер	-988
▁Од	-989
te	-990
▁[	-991
▁сдела	-992
лага	-993
▁пло	-994
▁Вы	-995
▁России	-996
▁кре	-997
скую	-998
ющий	-999
▁Ch	-1000
лия	-1001
дол	-1002
нер	-1003
цев	-1004
ван	-1005
мента	-1006
бор	-1007
ther	-1008
мой	-1009
▁жизни	-1010
рав	-1011
чных	-1012
ходит	-1013
ья	-1014
pt	-1015
доб	-1016
▁один	-1017
▁стро	-1018
ave	-1019
▁ха	-1020
▁Если	-1021
ций	-1022
рабо	-1023
мина	-1024
▁вопро	-1025
▁дви	-1026
▁высо	-1027
дель	-1028
лет	-1029
▁этой	-1030
▁Ле	-1031
▁через	-1032
личи	-1033
зом	-1034
ord	-1035
ством	-1036
▁него	-1037
нера	-1038
▁груп	-1039
рон	-1040
uc	-1041
ie	-1042
вание	-1043
▁больше	-1044
ссо	-1045
еди	-1046
so	-1047
pl	-1048
ят	-1049
тем	-1050
▁вз	-1051
▁возможно	-1052
cl	-1053
тера	-1054
▁могу	-1055
вление	-1056
▁день	-1057
▁этот	-1058
▁соб	-1059
▁Все	-1060
ack	-1061
▁X	-1062
нем	-1063
им	-1064
ork	-1065
▁дву	-1066
▁Се	-1067
следова	-1068
ical	-1069
зульта	-1070
▁два	-1071
ok	-1072
ским	-1073
▁рус	-1074
▁уда	-1075
▁He	-1076
▁Ре	-1077
тур	-1078
▁фу	-1079
ue	-1080
шен	-1081
are	-1082
▁сооб	-1083
шение	-1084
ff	-1085
той	-1086
стей	-1087
▁просто	-1088
▁является	-1089
▁послед	-1090
▁Как	-1091
льного	-1092
▁кла	-1093
чной	-1094
пла	-1095
ваться	-1096
ственно	-1097
мери	-1098
▁un	-1099
▁своей	-1100
▁Ку	-1101
ряд	-1102
▁Ю	-1103
держа	-1104
▁несколько	-1105
лез	-1106
▁Так	-1107
рт	-1108
▁обе	-1109
обходи	-1110
▁наз	-1111
вом	-1112
▁откры	-1113
ran	-1114
ould	-1115
▁голо	-1116
ous	-1117
▁После	-1118
▁неко	-1119
хра	-1120
▁поч	-1121
ish	-1122
кая	-1123
ome	-1124
▁вс	-1125
▁нет	-1126
▁счита	-1127
щу	-1128
вро	-1129
▁зем	-1130
▁whe	-1131
▁кор	-1132
▁кар	-1133
▁результа	-1134
▁которых	-1135
вается	-1136
коно	-1137
▁самы	-1138
казыва	-1139
iz	-1140
▁себе	-1141
▁совер	-1142
▁Ме	-1143
▁фа	-1144
▁кни	-1145
реди	-1146
нти	-1147
▁us	-1148
лле	-1149
▁Ба	-1150
▁проце	-1151
▁кто	-1152
ступа	-1153
port	-1154
ним	-1155
per	-1156
▁необходи	-1157
рий	-1158
▁вме	-1159
▁долж	-1160
рук	-1161
десь	-1162
ry	-1163
щен	-1164
чина	-1165
лин	-1166
льных	-1167
age	-1168
вета	-1169
мии	-1170
ass	-1171
зации	-1172
▁мог	-1173
▁сы	-1174
▁ar	-1175
яс	-1176
▁упра	-1177
ети	-1178
дели	-1179
тан	-1180
форма	-1181
▁язы	-1182
льный	-1183
шел	-1184
▁поэ	-1185
фа	-1186
ition	-1187
▁извест	-1188
▁три	-1189
▁смо	-1190
лем	-1191
нение	-1192
рей	-1193
▁Бе	-1194
▁чет	-1195
хов	-1196
▁тра	-1197
фо	-1198
▁their	-1199
▁напра	-1200
грам	-1201
вить	-1202
▁Алек	-1203
▁глав	-1204
▁приня	-1205
▁Ви	-1206
▁cl	-1207
▁слова	-1208
▁коро	-1209
▁лишь	-1210
▁находи	-1211
▁иг	-1212
▁сте	-1213
вший	-1214
▁comp	-1215
irst	-1216
▁распо	-1217
▁хоро	-1218
ждения	-1219
тки	-1220
щая	-1221
▁ию	-1222
ье	-1223
▁кри	-1224
ide	-1225
бер	-1226
ческие	-1227
▁вне	-1228
ign	-1229
▁Ки	-1230
мент	-1231
fter	-1232
чет	-1233
▁встре	-1234
гля	-1235
нами	-1236
тей	-1237
▁основ	-1238
▁also	-1239
▁her	-1240
▁жен	-1241
▁Си	-1242
вар	-1243
▁части	-1244
▁От	-1245
тий	-1246
них	-1247
▁которая	-1248
влен	-1249
▁перед	-1250
пло	-1251
▁вто	-1252
▁ри	-1253
▁времени	-1254
ect	-1255
▁вну	-1256
▁ша	-1257
▁стал	-1258
ice	-1259
стя	-1260
II	-1261
▁cont	-1262
▁человека	-1263
▁совет	-1264
стов	-1265
шая	-1266
▁but	-1267
бира	-1268
йти	-1269
▁благо	-1270
▁/	-1271
чего	-1272
▁соот	-1273
вают	-1274
воз	-1275
▁дере	-1276
чные	-1277
ному	-1278
▁зада	-1279
личе	-1280
▁нем	-1281
▁int	-1282
оне	-1283
▁би	-1284
▁Ста	-1285
▁руко	-1286
out	-1287
ственной	-1288
▁Ли	-1289
▁ad	-1290
ровать	-1291
нить	-1292
▁уни	-1293
▁обы	-1294
ime	-1295
▁способ	-1296
▁свою	-1297
тие	-1298
ult	-1299
▁поль	-1300
▁каче	-1301
▁часть	-1302
▁луч	-1303
▁Th	-1304
пример	-1305
▁которой	-1306
mer	-1307
▁людей	-1308
▁других	-1309
▁дея	-1310
▁пос	-1311
▁области	-1312
него	-1313
ib	-1314
чки	-1315
▁has	-1316
▁писа	-1317
▁ab	-1318
дой	-1319
ёт	-1320
▁j	-1321
▁have	-1322
▁уче	-1323
рио	-1324
▁продол	-1325
▁Те	-1326
▁ры	-1327
раз	-1328
▁стре	-1329
▁Пер	-1330
ater	-1331
▁ro	-1332
▁своих	-1333
▁first	-1334
▁позво	-1335
нт	-1336
▁res	-1337
ческий	-1338
▁значи	-1339
туры	-1340
▁эта	-1341
ru	-1342
▁Из	-1343
rit	-1344
ond	-1345
меча	-1346
▁моло	-1347
руг	-1348
перь	-1349
слови	-1350
ил	-1351
твер	-1352
льные	-1353
пас	-1354
▁проис	-1355
ню	-1356
▁поста	-1357
▁харак	-1358
▁поня	-1359
ence	-1360
▁this	-1361
ремен	-1362
▁матери	-1363
▁место	-1364
▁многи	-1365
▁свой	-1366
▁образом	-1367
вших	-1368
щения	-1369
▁Су	-1370
▁бра	-1371
▁Однако	-1372
▁вра	-1373
сом	-1374
стер	-1375
ступи	-1376
вед	-1377
▁who	-1378
hed	-1379
▁ap	-1380
▁называ	-1381
ствует	-1382
--	-1383
▁там	-1384
шки	-1385
erv	-1386
▁виде	-1387
над	-1388
тру	-1389
▁воен	-1390
▁Что	-1391
▁могут	-1392
▁ги	-1393
шин	-1394
▁its	-1395
▁Де	-1396
▁компа	-1397
▁all	-1398
man	-1399
коло	-1400
ять	-1401
ключа	-1402
гов	-1403
wo	-1404
рев	-1405
▁соответ	-1406
▁ши	-1407
▁ху	-1408
вести	-1409
ile	-1410
тельства	-1411
▁ответ	-1412
ём	-1413
▁интере	-1414
нали	-1415
чем	-1416
▁Для	-1417
▁нам	-1418
кло	-1419
▁расска	-1420
▁сти	-1421
ружи	-1422
ссе	-1423
ind	-1424
нной	-1425
▁доста	-1426
▁ac	-1427
▁теле	-1428
▁этих	-1429
▁доро	-1430
тии	-1431
▁оказа	-1432
own	-1433
▁part	-1434
▁нео	-1435
кти	-1436
хва	-1437
▁ag	-1438
▁пробле	-1439
нец	-1440
год	-1441
▁te	-1442
▁уве	-1443
▁ней	-1444
▁своего	-1445
кус	-1446
ations	-1447
▁en	-1448
▁призна	-1449
ally	-1450
тен	-1451
▁оче	-1452
▁Ар	-1453
▁one	-1454
мов	-1455
▁Y	-1456
щих	-1457
▁согла	-1458
▁гу	-1459
▁ци	-1460
▁случае	-1461
чный	-1462
ген	-1463
вляет	-1464
▁man	-1465
▁Хо	-1466
▁куль	-1467
тами	-1468
▁двух	-1469
▁ад	-1470
нет	-1471
▁Ру	-1472
▁чув	-1473
ugh	-1474
шли	-1475
▁систе	-1476
гре	-1477
ree	-1478
рения	-1479
▁успе	-1480
▁иде	-1481
▁Моск	-1482
ян	-1483
▁использова	-1484
лий	-1485
▁особ	-1486
ik	-1487
▁бли	-1488
over	-1489
ствие	-1490
рито	-1491
графи	-1492
▁год	-1493
тиво	-1494
ang	-1495
▁деятель	-1496
ССР	-1497
ach	-1498
нди	-1499
▁шко	-1500
▁сем	-1501
▁per	-1502
строй	-1503
▁занима	-1504
чного	-1505
▁Бу	-1506
ложи	-1507
▁войны	-1508
ace	-1509
зма	-1510
роме	-1511
▁выпол	-1512
##	-1513
▁Ге	-1514
▁разли	-1515
▁помощ	-1516
▁показа	-1517
▁основа	-1518
▁Об	-1519
▁im	-1520
зан	-1521
бро	-1522
▁ж	-1523
▁Мы	-1524
нача	-1525
▁глу	-1526
верх	-1527
▁некоторы	-1528
вала	-1529
▁bec	-1530
публи	-1531
▁хотя	-1532
▁year	-1533
гово	-1534
вую	-1535
ток	-1536
▁её	-1537
▁всегда	-1538
нуть	-1539
▁тот	-1540
one	-1541
ount	-1542
▁информа	-1543
▁вот	-1544
шие	-1545
час	-1546
▁потому	-1547
▁they	-1548
держи	-1549
тября	-1550
оло	-1551
▁проек	-1552
ведения	-1553
▁тогда	-1554
шим	-1555
нове	-1556
ens	-1557
▁been	-1558
сут	-1559
▁фак	-1560
пад	-1561
▁выра	-1562
▁out	-1563
▁Al	-1564
вшие	-1565
▁тя	-1566
▁тор	-1567
ссий	-1568
▁жизнь	-1569
▁Un	-1570
▁работы	-1571
ec	-1572
▁города	-1573
нах	-1574
act	-1575
нин	-1576
▁город	-1577
виси	-1578
▁перио	-1579
фф	-1580
▁смер	-1581
ory	-1582
кономи	-1583
ческая	-1584
стью	-1585
▁ог	-1586
▁которого	-1587
тора	-1588
▁сам	-1589
ющей	-1590
▁насе	-1591
бур	-1592
▁здесь	-1593
виде	-1594
▁переда	-1595
скому	-1596
пита	-1597
▁истори	-1598
▁up	-1599
ne	-1600
ound	-1601
мерикан	-1602
мости	-1603
прия	-1604
▁вели	-1605
дера	-1606
ющего	-1607
зии	-1608
▁other	-1609
▁услови	-1610
сков	-1611
что	-1612
ade	-1613
▁право	-1614
uch	-1615
шло	-1616
▁стать	-1617
▁програм	-1618
▁–	-1619
▁сла	-1620
▁пока	-1621
кова	-1622
▁одно	-1623
▁побе	-1624
▁уров	-1625
кт	-1626
стран	-1627
▁конце	-1628
ild	-1629
▁dis	-1630
ший	-1631
боль	-1632
▁сра	-1633
волю	-1634
▁сме	-1635
▁образова	-1636
▁полити	-1637
щение	-1638
▁It	-1639
воря	-1640
вари	-1641
▁исследова	-1642
▁офи	-1643
санд	-1644
int	-1645
clud	-1646
▁пор	-1647
ёр	-1648
▁учи	-1649
▁женщи	-1650
▁No	-1651
ric	-1652
ark	-1653
ША	-1654
▁вся	-1655
▁off	-1656
▁Фе	-1657
▁окру	-1658
);	-1659
for	-1660
▁опера	-1661
▁собой	-1662
ете	-1663
кси	-1664
▁большо	-1665
лё	-1666
▁н	-1667
▁защи	-1668
ress	-1669
жении	-1670
▁оп	-1671
▁дости	-1672
ёл	-1673
▁СССР	-1674
▁мира	-1675
ep	-1676
aw	-1677
▁террито	-1678
▁пря	-1679
цией	-1680
▁жа	-1681
▁ули	-1682
ница	-1683
▁ше	-1684
oll	-1685
▁Когда	-1686
ions	-1687
хе	-1688
▁сист	-1689
мом	-1690
ственного	-1691
▁реши	-1692
▁осо	-1693
рован	-1694
urn	-1695
▁роди	-1696
мини	-1697
блю	-1698
uring	-1699
▁Ту	-1700
вил	-1701
▁rec	-1702
щий	-1703
дра	-1704
зиден	-1705
▁понима	-1706
▁two	-1707
▁недо	-1708
▁одной	-1709
▁Кон	-1710
▁именно	-1711
able	-1712
▁упо	-1713
▁Они	-1714
ely	-1715
▁дан	-1716
▁спи	-1717
циали	-1718
old	-1719
ствия	-1720
тных	-1721
▁ря	-1722
▁Александ	-1723
ником	-1724
тельной	-1725
▁количе	-1726
▁over	-1727
."	-1728
рую	-1729
туа	-1730
▁мест	-1731
▁гру	-1732
▁ним	-1733
тельство	-1734
▁США	-1735
▁наи	-1736
▁sc	-1737
▁филь	-1738
нно	-1739
▁Пу	-1740
▁Ла	-1741
▁Га	-1742
▁нужно	-1743
▁элек	-1744
тр	-1745
▁him	-1746
▁комп	-1747
ститу	-1748
ющим	-1749
▁часто	-1750
ng	-1751
▁внима	-1752
▁стороны	-1753
▁ино	-1754
▁work	-1755
телем	-1756
мати	-1757
▁такой	-1758
▁должно	-1759
ору	-1760
▁почти	-1761
▁игра	-1762
▁тыся	-1763
ite	-1764
▁противо	-1765
▁вместе	-1766
кам	-1767
amp	-1768
▁обя	-1769
кро	-1770
wn	-1771
ческое	-1772
ubl	-1773
vel	-1774
нци	-1775
▁new	-1776
▁даль	-1777
▁любо	-1778
ode	-1779
тельных	-1780
▁ne	-1781
▁she	-1782
▁изме	-1783
▁пы	-1784
ors	-1785
▁дерев	-1786
▁Мар	-1787
жды	-1788
ail	-1789
▁использу	-1790
▁чер	-1791
стой	-1792
▁люди	-1793
ents	-1794
▁непо	-1795
▁живо	-1796
▁after	-1797
▁около	-1798
▁ав	-1799
того	-1800
▁объек	-1801
▁ска	-1802
▁=	-1803
▁затем	-1804
лии	-1805
▁надо	-1806
▁бере	-1807
дви	-1808
▁сказал	-1809
▁мар	-1810
▁осу	-1811
▁Пре	-1812
▁начина	-1813
ough	-1814
ool	-1815
▁заня	-1816
▁свобо	-1817
тах	-1818
щей	-1819
кола	-1820
▁предпо	-1821
▁круп	-1822
ологи	-1823
▁дело	-1824
tern	-1825
▁would	-1826
пада	-1827
след	-1828
▁участ	-1829
▁ради	-1830
щё	-1831
нок	-1832
сем	-1833
ственных	-1834
▁comm	-1835
▁pre	-1836
▁должен	-1837
грани	-1838
ates	-1839
бре	-1840
ft	-1841
зм	-1842
▁уби	-1843
рах	-1844
пуска	-1845
▁лег	-1846
▁потом	-1847
▁другие	-1848
▁имеет	-1849
▁взя	-1850
ase	-1851
тин	-1852
▁ev	-1853
▁includ	-1854
▁искус	-1855
land	-1856
▁настоя	-1857
ляр	-1858
▁ничего	-1859
▁должны	-1860
▁дома	-1861
▁into	-1862
нечно	-1863
▁весь	-1864
ose	-1865
▁сохра	-1866
▁написа	-1867
we	-1868
▁чего	-1869
труд	-1870
ational	-1871
щие	-1872
рок	-1873
ug	-1874
трен	-1875
▁генера	-1876
▁пси	-1877
▁пара	-1878
тельные	-1879
▁экономи	-1880
лан	-1881
▁две	-1882
▁окон	-1883
▁современ	-1884
▁Гер	-1885
шла	-1886
лн	-1887
▁Фран	-1888
▁хра	-1889
▁гор	-1890
тить	-1891
oy	-1892
ствии	-1893
▁des	-1894
ерт	-1895
ance	-1896
ied	-1897
чер	-1898
▁наро	-1899
▁сей	-1900
ons	-1901
▁can	-1902
▁другой	-1903
чей	-1904
▁вам	-1905
нул	-1906
нес	-1907
ob	-1908
ху	-1909
тал	-1910
ood	-1911
▁time	-1912
ces	-1913
сколь	-1914
явля	-1915
зд	-1916
▁тоже	-1917
▁жу	-1918
▁we	-1919
рования	-1920
▁неме	-1921
▁sp	-1922
▁Лу	-1923
ственный	-1924
еха	-1925
▁Вла	-1926
▁числе	-1927
▁Му	-1928
▁Ан	-1929
▁отпра	-1930
▁Кра	-1931
▁производ	-1932
▁функ	-1933
▁бро	-1934
ph	-1935
ock	-1936
▁сен	-1937
нан	-1938
▁теперь	-1939
мыш	-1940
тура	-1941
fer	-1942
▁ника	-1943
▁me	-1944
▁Евро	-1945
▁испол	-1946
пусти	-1947
имо	-1948
▁получа	-1949
ктор	-1950
▁обеспе	-1951
▁тран	-1952
шем	-1953
▁литера	-1954
вшего	-1955
▁мето	-1956
▁Пе	-1957
▁муж	-1958
ницы	-1959
▁und	-1960
▁жела	-1961
▁которое	-1962
▁уг	-1963
льное	-1964
ждение	-1965
шее	-1966
ook	-1967
▁мину	-1968
▁Ar	-1969
▁фо	-1970
чему	-1971
пере	-1972
iss	-1973
▁одного	-1974
▁отноше	-1975
▁вас	-1976
сите	-1977
▁пода	-1978
емо	-1979
▁худо	-1980
▁подоб	-1981
тельный	-1982
▁Она	-1983
виа	-1984
▁Ри	-1985
▁участи	-1986
гото	-1987
▁физи	-1988
▁мини	-1989
▁меся	-1990
▁американ	-1991
ath	-1992
тый	-1993
▁продолжа	-1994
▁зако	-1995
жида	-1996
щего	-1997
шую	-1998
▁цер	-1999
▁важ	-2000
▁As	-2001
▁представи	-2002
чка	-2003
нской	-2004
▁Дж	-2005
▁Ин	-2006
▁дума	-2007
тельного	-2008
По	-2009
▁связи	-2010
▁сту	-2011
няя	-2012
▁бое	-2013
▁разрабо	-2014
ings	-2015
щее	-2016
или	-2017
▁more	-2018
▁play	-2019
▁четы	-2020
льная	-2021
▁обна	-2022
ake	-2023
▁деся	-2024
▁ra	-2025
▁стан	-2026
▁подо	-2027
▁однако	-2028
▁относи	-2029
▁неза	-2030
▁профе	-2031
▁будут	-2032
ited	-2033
▁постоя	-2034
▁Его	-2035
▁менее	-2036
▁истории	-2037
меня	-2038
вен	-2039
rough	-2040
годня	-2041
ществ	-2042
▁россий	-2043
вили	-2044
рами	-2045
▁посе	-2046
там	-2047
пыт	-2048
▁качестве	-2049
ased	-2050
зов	-2051
струк	-2052
▁сим	-2053
▁коми	-2054
▁среди	-2055
▁расс	-2056
чить	-2057
▁всем	-2058
gan	-2059
▁изда	-2060
▁гражда	-2061
рю	-2062
▁пример	-2063
▁Пет	-2064
тря	-2065
▁км	-2066
йской	-2067
▁памя	-2068
▁част	-2069
▁On	-2070
▁проду	-2071
дить	-2072
доро	-2073
▁when	-2074
▁необходимо	-2075
таль	-2076
скольку	-2077
хода	-2078
▁потре	-2079
шка	-2080
жден	-2081
▁национа	-2082
▁чемпи	-2083
▁утвер	-2084
▁Ха	-2085
▁назна	-2086
▁тому	-2087
народ	-2088
▁годы	-2089
▁дли	-2090
▁мир	-2091
▁спа	-2092
седа	-2093
▁Лю	-2094
▁Пи	-2095
▁Укра	-2096
▁нико	-2097
цов	-2098
▁неу	-2099
▁например	-2100
лла	-2101
▁Сер	-2102
точно	-2103
воль	-2104
▁связа	-2105
▁хозя	-2106
нского	-2107
▁сель	-2108
вался	-2109
cess	-2110
ember	-2111
▁содержа	-2112
ффек	-2113
ans	-2114
▁принима	-2115
обще	-2116
▁кру	-2117
пыта	-2118
▁поме	-2119
мей	-2120
▁существо	-2121
тая	-2122
▁места	-2123
ont	-2124
▁прекра	-2125
▁Mar	-2126
▁интер	-2127
▁Вели	-2128
▁ян	-2129
▁шта	-2130
▁tra	-2131
▁тео	-2132
тых	-2133
▁дека	-2134
▁фран	-2135
ложе	-2136
▁народ	-2137
жной	-2138
▁приме	-2139
▁смы	-2140
▁бан	-2141
▁стали	-2142
▁кли	-2143
les	-2144
лой	-2145
▁gro	-2146
▁какой	-2147
▁маши	-2148
▁Че	-2149
▁наде	-2150
▁ситуа	-2151
▁скоро	-2152
▁чле	-2153
▁Под	-2154
ить	-2155
чил	-2156
нам	-2157
▁нор	-2158
ick	-2159
▁века	-2160
вались	-2161
стан	-2162
▁New	-2163
▁сли	-2164
▁еди	-2165
вин	-2166
ющее	-2167
стри	-2168
▁фе	-2169
▁эту	-2170
▁возду	-2171
▁особенно	-2172
нев	-2173
▁them	-2174
лого	-2175
▁котором	-2176
мон	-2177
чным	-2178
▁люби	-2179
▁кажды	-2180
▁тут	-2181
пря	-2182
▁ret	-2183
▁Вер	-2184
▁одна	-2185
▁Com	-2186
▁spe	-2187
▁отде	-2188
▁under	-2189
ual	-2190
▁наблю	-2191
▁реги	-2192
▁музы	-2193
▁обу	-2194
▁изу	-2195
ious	-2196
деть	-2197
▁универ	-2198
бри	-2199
__	-2200
▁этим	-2201
▁разме	-2202
ляет	-2203
▁жур	-2204
кими	-2205
лок	-2206
▁причи	-2207
▁своим	-2208
▁you	-2209
▁пле	-2210
▁влия	-2211
▁De	-2212
так	-2213
▁отра	-2214
▁pr	-2215
смотре	-2216
▁авгу	-2217
спубли	-2218
▁социаль	-2219
▁возра	-2220
▁специаль	-2221
▁хорошо	-2222
более	-2223
▁энер	-2224
▁доку	-2225
▁Re	-2226
▁Вот	-2227
док	-2228
red	-2229
io	-2230
▁again	-2231
зер	-2232
гии	-2233
▁спра	-2234
▁дет	-2235
▁поле	-2236
гру	-2237
▁so	-2238
льным	-2239
строе	-2240
кви	-2241
ve	-2242
▁системы	-2243
aus	-2244
ward	-2245
▁сейчас	-2246
▁Бы	-2247
▁эле	-2248
▁гре	-2249
▁режи	-2250
вшись	-2251
ict	-2252
их	-2253
сил	-2254
ваются	-2255
▁страны	-2256
ложен	-2257
▁собы	-2258
ску	-2259
▁анг	-2260
▁внутрен	-2261
▁Никола	-2262
щую	-2263
end	-2264
▁реаль	-2265
▁стран	-2266
▁отли	-2267
▁att	-2268
▁Влади	-2269
▁распро	-2270
chool	-2271
▁ещё	-2272
▁дер	-2273
жать	-2274
▁ей	-2275
▁прав	-2276
▁пись	-2277
став	-2278
▁сотруд	-2279
▁qu	-2280
▁кора	-2281
du	-2282
▁тан	-2283
сили	-2284
выми	-2285
▁янва	-2286
▁диа	-2287
ристи	-2288
▁Кар	-2289
reat	-2290
▁кол	-2291
▁всё	-2292
▁оно	-2293
диви	-2294
вобо	-2295
.)	-2296
▁bet	-2297
зь	-2298
▁первый	-2299
▁хи	-2300
нологи	-2301
▁требо	-2302
▁sec	-2303
hip	-2304
▁таких	-2305
▁появи	-2306
ered	-2307
▁бес	-2308
▁нару	-2309
матри	-2310
▁широ	-2311
▁do	-2312
министра	-2313
ram	-2314
▁уго	-2315
▁sup	-2316
▁kn	-2317
▁there	-2318
▁электро	-2319
жных	-2320
▁op	-2321
inal	-2322
▁тол	-2323
▁возвра	-2324
way	-2325
▁глаза	-2326
еры	-2327
зовать	-2328
▁предо	-2329
▁сделать	-2330
ске	-2331
▁убе	-2332
▁сбор	-2333
▁объяс	-2334
▁уч	-2335
▁результате	-2336
▁Se	-2337
каз	-2338
▁Ну	-2339
шенно	-2340
oth	-2341
пли	-2342
▁прода	-2343
▁Ду	-2344
жем	-2345
▁Раз	-2346
▁Le	-2347
▁Гла	-2348
▁вопрос	-2349
▁Ди	-2350
ющая	-2351
▁состав	-2352
▁власти	-2353
▁борь	-2354
нил	-2355
сной	-2356
▁актив	-2357
мир	-2358
lect	-2359
▁течение	-2360
чная	-2361
лый	-2362
тые	-2363
▁авиа	-2364
мена	-2365
▁изобра	-2366
▁Пере	-2367
rib	-2368
дит	-2369
▁момент	-2370
▁армии	-2371
orn	-2372
рот	-2373
лосо	-2374
пара	-2375
дца	-2376
лев	-2377
▁закон	-2378
чат	-2379
будь	-2380
ced	-2381
лки	-2382
ren	-2383
▁друг	-2384
▁собствен	-2385
обре	-2386
ivers	-2387
мая	-2388
▁деле	-2389
▁организа	-2390
чное	-2391
▁апре	-2392
ями	-2393
form	-2394
▁only	-2395
дро	-2396
▁мет	-2397
▁принци	-2398
▁удо	-2399
▁тек	-2400
▁архи	-2401
нять	-2402
▁сразу	-2403
▁поэтому	-2404
▁немец	-2405
▁коло	-2406
тар	-2407
▁которую	-2408
▁собра	-2409
▁безо	-2410
▁служ	-2411
▁строи	-2412
▁чита	-2413
▁bu	-2414
▁inter	-2415
ссии	-2416
▁клу	-2417
▁ноя	-2418
▁reg	-2419
▁неболь	-2420
▁свет	-2421
▁пози	-2422
▁вза	-2423
▁све	-2424
скими	-2425
▁указа	-2426
▁устано	-2427
▁доба	-2428
▁сами	-2429
▁II	-2430
].	-2431
тельное	-2432
▁Украи	-2433
▁'	-2434
рить	-2435
▁миро	-2436
мышлен	-2437
▁publ	-2438
▁ind	-2439
▁восста	-2440
рин	-2441
чай	-2442
▁помощью	-2443
ешь	-2444
ческую	-2445
▁cons	-2446
менты	-2447
▁похо	-2448
▁такие	-2449
рд	-2450
▁мя	-2451
▁президен	-2452
▁about	-2453
▁представля	-2454
▁внеш	-2455
▁станови	-2456
▁where	-2457
orld	-2458
фика	-2459
▁мень	-2460
вало	-2461
▁следует	-2462
▁никогда	-2463
▁years	-2464
▁отдель	-2465
▁револю	-2466
▁материа	-2467
pro	-2468
▁эффек	-2469
▁стар	-2470
▁Поэ	-2471
евра	-2472
▁род	-2473
▁This	-2474
стру	-2475
▁теа	-2476
▁францу	-2477
ener	-2478
▁serv	-2479
жит	-2480
oint	-2481
▁сказать	-2482
вли	-2483
▁выше	-2484
▁Ло	-2485
знача	-2486
▁исклю	-2487
▁вол	-2488
che	-2489
ум	-2490
▁очеред	-2491
▁диви	-2492
числе	-2493
▁("	-2494
циа	-2495
рует	-2496
▁фрон	-2497
▁кня	-2498
▁pe	-2499
нице	-2500
▁древ	-2501
▁fl	-2502
▁лучше	-2503
тной	-2504
жей	-2505
дии	-2506
▁$	-2507
кс	-2508
▁территории	-2509
▁контро	-2510
▁включа	-2511
▁rem	-2512
▁забо	-2513
▁получил	-2514
▁кро	-2515
▁than	-2516
▁начала	-2517
▁пора	-2518
▁бри	-2519
▁Ива	-2520
все	-2521
лых	-2522
нибудь	-2523
▁продук	-2524
▁заклю	-2525
▁some	-2526
▁Совет	-2527
▁заме	-2528
лда	-2529
▁ограни	-2530
▁мало	-2531
▁rel	-2532
емых	-2533
ted	-2534
ческим	-2535
▁начале	-2536
▁ass	-2537
вре	-2538
держ	-2539
rans	-2540
▁района	-2541
▁распростра	-2542
сона	-2543
▁ear	-2544
ween	-2545
▁дня	-2546
▁fe	-2547
риан	-2548
ject	-2549
▁университе	-2550
▁период	-2551
▁центра	-2552
ix	-2553
▁един	-2554
▁произо	-2555
гом	-2556
aid	-2557
▁возможность	-2558
▁быстро	-2559
▁встреча	-2560
бля	-2561
▁most	-2562
сить	-2563
▁четыре	-2564
лью	-2565
ts	-2566
▁act	-2567
▁then	-2568
цами	-2569
▁сере	-2570
ям	-2571
ks	-2572
влении	-2573
ll	-2574
▁Ос	-2575
▁февра	-2576
вшей	-2577
▁либо	-2578
ished	-2579
▁определен	-2580
▁зе	-2581
сер	-2582
fore	-2583
вода	-2584
▁площа	-2585
▁милли	-2586
▁экс	-2587
лень	-2588
тай	-2589
ровал	-2590
▁началь	-2591
▁р	-2592
ident	-2593
ствовать	-2594
▁самом	-2595
▁приро	-2596
▁говоря	-2597
ческом	-2598
нулся	-2599
▁пя	-2600
▁второй	-2601
oun	-2602
▁восто	-2603
полне	-2604
▁работу	-2605
ular	-2606
▁Ти	-2607
▁through	-2608
писы	-2609
евич	-2610
▁каза	-2611
▁осуществ	-2612
▁Sh	-2613
▁бога	-2614
rad	-2615
▁каждый	-2616
ствуют	-2617
▁Боль	-2618
ясь	-2619
▁срав	-2620
шком	-2621
▁Миха	-2622
▁меди	-2623
▁вообще	-2624
▁таким	-2625
вольно	-2626
▁пове	-2627
▁замет	-2628
▁кры	-2629
каде	-2630
чности	-2631
▁ver	-2632
ментов	-2633
▁говорит	-2634
лые	-2635
бора	-2636
юз	-2637
▁работ	-2638
▁поскольку	-2639
ah	-2640
▁районе	-2641
▁уме	-2642
▁дра	-2643
еру	-2644
▁sy	-2645
▁группы	-2646
дума	-2647
olog	-2648
▁взгля	-2649
нский	-2650
гна	-2651
▁роль	-2652
▁тяже	-2653
▁развития	-2654
блей	-2655
▁кур	-2656
жо	-2657
рави	-2658
▁край	-2659
▁зависи	-2660
▁пыта	-2661
▁made	-2662
▁stud	-2663
▁реали	-2664
▁such	-2665
шать	-2666
ating	-2667
▁Поэтому	-2668
▁during	-2669
▁узна	-2670
▁анти	-2671
▁стала	-2672
▁sub	-2673
пени	-2674
тербур	-2675
▁мая	-2676
▁источ	-2677
рию	-2678
▁Z	-2679
▁стало	-2680
тических	-2681
▁Герма	-2682
▁ск	-2683
лета	-2684
▁сегодня	-2685
code	-2686
част	-2687
дать	-2688
роя	-2689
▁РФ	-2690
▁психо	-2691
▁пользова	-2692
▁loc	-2693
▁обяза	-2694
▁гото	-2695
рование	-2696
▁созна	-2697
▁такое	-2698
▁совершенно	-2699
муще	-2700
▁мат	-2701
тельным	-2702
ily	-2703
образ	-2704
▁am	-2705
водя	-2706
meric	-2707
ходят	-2708
▁находится	-2709
ason	-2710
▁form	-2711
▁выступа	-2712
даря	-2713
▁зву	-2714
надле	-2715
▁cent	-2716
▁описа	-2717
▁мор	-2718
▁отношения	-2719
▁тро	-2720
oh	-2721
▁достаточно	-2722
▁большин	-2723
▁end	-2724
▁тради	-2725
слав	-2726
дения	-2727
ollow	-2728
сен	-2729
▁неиз	-2730
▁between	-2731
pr	-2732
льзя	-2733
▁огром	-2734
▁детей	-2735
они	-2736
▁этому	-2737
▁проводи	-2738
▁укра	-2739
мира	-2740
▁многие	-2741
▁нее	-2742
▁рели	-2743
тек	-2744
▁месте	-2745
▁деятельности	-2746
▁Ор	-2747
▁публи	-2748
▁Кроме	-2749
онов	-2750
▁отве	-2751
▁поро	-2752
▁меха	-2753
ствовал	-2754
▁Гу	-2755
▁выс	-2756
▁компании	-2757
ton	-2758
ever	-2759
▁оборо	-2760
стом	-2761
ilm	-2762
▁тысяч	-2763
ins	-2764
▁col	-2765
лко	-2766
▁права	-2767
▁приве	-2768
пов	-2769
▁всей	-2770
лина	-2771
▁характер	-2772
ars	-2773
▁mov	-2774
тон	-2775
▁конечно	-2776
▁смерти	-2777
▁каждо	-2778
тельности	-2779
▁снова	-2780
оз	-2781
▁ведь	-2782
чик	-2783
▁сце	-2784
ities	-2785
▁оконча	-2786
▁многих	-2787
зем	-2788
air	-2789
▁составля	-2790
мах	-2791
▁Ча	-2792
▁июля	-2793
elf	-2794
лит	-2795
pos	-2796
▁чемпиона	-2797
▁Анд	-2798
cial	-2799
▁самого	-2800
▁долго	-2801
▁пунк	-2802
▁no	-2803
лка	-2804
гер	-2805
рение	-2806
▁сопро	-2807
▁inv	-2808
▁струк	-2809
▁принадле	-2810
говор	-2811
чку	-2812
▁хоте	-2813
▁Воз	-2814
▁inc	-2815
пом	-2816
▁used	-2817
никами	-2818
az	-2819
att	-2820
overn	-2821
▁требу	-2822
▁внимание	-2823
ouse	-2824
▁наиболее	-2825
щает	-2826
▁ост	-2827
ган	-2828
arg	-2829
▁аб	-2830
дия	-2831
лить	-2832
als	-2833
ike	-2834
▁одним	-2835
▁конф	-2836
▁An	-2837
▁later	-2838
либо	-2839
гие	-2840
чества	-2841
щим	-2842
сок	-2843
лами	-2844
▁pol	-2845
▁сентября	-2846
▁могли	-2847
ственные	-2848
▁сообщи	-2849
any	-2850
риа	-2851
▁заяви	-2852
тные	-2853
▁оши	-2854
моби	-2855
ex	-2856
роб	-2857
▁производи	-2858
▁мона	-2859
▁организации	-2860
▁техни	-2861
юсь	-2862
hen	-2863
жные	-2864
▁def	-2865
▁августа	-2866
▁июня	-2867
▁хозяй	-2868
дут	-2869
дки	-2870
▁bl	-2871
▁приходи	-2872
eld	-2873
▁количество	-2874
▁Бер	-2875
▁близ	-2876
пози	-2877
▁pres	-2878
нного	-2879
▁руковод	-2880
▁всю	-2881
смотря	-2882
зад	-2883
▁прове	-2884
▁руководи	-2885
▁возник	-2886
ey	-2887
other	-2888
▁превра	-2889
▁войска	-2890
▁co	-2891
▁администра	-2892
▁нашей	-2893
ife	-2894
▁являются	-2895
▁стоя	-2896
ann	-2897
cc	-2898
ведение	-2899
▁марта	-2900
▁делать	-2901
За	-2902
▁дней	-2903
▁Сан	-2904
зей	-2905
▁совсем	-2906
iew	-2907
▁фото	-2908
тил	-2909
▁октября	-2910
▁анали	-2911
▁степени	-2912
пей	-2913
▁января	-2914
тный	-2915
▁несколь	-2916
▁call	-2917
писи	-2918
▁пои	-2919
телями	-2920
▁годах	-2921
жал	-2922
чном	-2923
ific	-2924
▁Пред	-2925
▁почему	-2926
▁составе	-2927
▁Americ	-2928
iet	-2929
ложения	-2930
▁прямо	-2931
тка	-2932
▁Федера	-2933
▁соеди	-2934
▁имени	-2935
нений	-2936
▁которым	-2937
▁случай	-2938
▁разре	-2939
duc	-2940
жить	-2941
▁выз	-2942
ics	-2943
▁three	-2944
конец	-2945
▁отсут	-2946
outh	-2947
!"	-2948
рус	-2949
веро	-2950
▁француз	-2951
▁Фи	-2952
На	-2953
▁филосо	-2954
лова	-2955
▁преду	-2956
куль	-2957
▁действия	-2958
ince	-2959
ople	-2960
▁практи	-2961
▁институ	-2962
нта	-2963
еты	-2964
orth	-2965
ision	-2966
▁той	-2967
▁set	-2968
▁завер	-2969
▁сезо	-2970
▁силы	-2971
▁pos	-2972
▁др	-2973
▁found	-2974
▁сни	-2975
валось	-2976
▁обычно	-2977
личие	-2978
▁преступ	-2979
▁прежде	-2980
▁вид	-2981
▁повы	-2982
тере	-2983
шно	-2984
▁цар	-2985
бен	-2986
▁ent	-2987
стно	-2988
ier	-2989
▁назад	-2990
рам	-2991
ТА	-2992
▁друга	-2993
round	-2994
▁num	-2995
▁должна	-2996
▁види	-2997
мень	-2998
вь	-2999
▁некоторые	-3000
ather	-3001
▁гер	-3002
▁твор	-3003
▁семь	-3004
ement	-3005
мия	-3006
▁зда	-3007
▁ал	-3008
пор	-3009
▁образ	-3010
пле	-3011
▁команди	-3012
▁мире	-3013
▁декабря	-3014
▁суб	-3015
▁поряд	-3016
деля	-3017
▁being	-3018
ived	-3019
▁участие	-3020
тного	-3021
▁экспе	-3022
▁Ис	-3023
туре	-3024
ale	-3025
▁равно	-3026
aj	-3027
▁prov	-3028
скоре	-3029
▁комму	-3030
▁дво	-3031
.:	-3032
▁международ	-3033
▁свиде	-3034
▁допол	-3035
▁съ	-3036
нина	-3037
ower	-3038
▁финан	-3039
com	-3040
▁двига	-3041
▁решение	-3042
▁ап	-3043
▁большой	-3044
▁золо	-3045
ty	-3046
ines	-3047
вок	-3048
лик	-3049
ссы	-3050
▁well	-3051
ложение	-3052
▁арти	-3053
▁прибы	-3054
емые	-3055
▁go	-3056
вей	-3057
velop	-3058
лим	-3059
▁управления	-3060
▁##	-3061
▁капита	-3062
▁полностью	-3063
дина	-3064
▁отмет	-3065
надца	-3066
owever	-3067
первые	-3068
▁апреля	-3069
прав	-3070
торов	-3071
клады	-3072
▁She	-3073
ливо	-3074
ert	-3075
хом	-3076
▁судь	-3077
дел	-3078
ative	-3079
▁коле	-3080
▁форма	-3081
▁пово	-3082
ева	-3083
▁At	-3084
▁зве	-3085
▁данных	-3086
▁вспо	-3087
▁комплек	-3088
ral	-3089
▁слишком	-3090
▁мере	-3091
▁попа	-3092
▁нес	-3093
▁серь	-3094
▁оби	-3095
▁вок	-3096
▁гг	-3097
▁dec	-3098
▁сре	-3099
▁происходит	-3100
▁собира	-3101
мор	-3102
▁спу	-3103
▁облада	-3104
▁тон	-3105
дами	-3106
stem	-3107
▁типа	-3108
▁поко	-3109
пасности	-3110
вшая	-3111
мых	-3112
▁освобо	-3113
ise	-3114
▁такого	-3115
▁ними	-3116
ременно	-3117
ss	-3118
чную	-3119
▁стоит	-3120
▁использовать	-3121
▁вариан	-3122
▁кино	-3123
льном	-3124
▁простран	-3125
▁государства	-3126
▁воору	-3127
▁повто	-3128
▁<	-3129
▁спро	-3130
▁поверх	-3131
град	-3132
ash	-3133
ниях	-3134
▁специали	-3135
готов	-3136
ury	-3137
▁against	-3138
▁became	-3139
▁уви	-3140
▁первой	-3141
▁аль	-3142
▁Эти	-3143
▁захва	-3144
▁оте	-3145
▁находя	-3146
▁отда	-3147
▁ноября	-3148
▁Pro	-3149
кар	-3150
▁попу	-3151
▁сна	-3152
▁пути	-3153
▁many	-3154
▁официаль	-3155
▁воды	-3156
▁глубо	-3157
▁стол	-3158
▁Би	-3159
▁взаимо	-3160
▁мощ	-3161
сон	-3162
бом	-3163
▁треть	-3164
▁карти	-3165
▁*	-3166
мые	-3167
▁while	-3168
▁нельзя	-3169
вид	-3170
▁желез	-3171
его	-3172
▁кам	-3173
▁trans	-3174
▁общества	-3175
ten	-3176
тельность	-3177
ниц	-3178
рого	-3179
▁заста	-3180
▁add	-3181
▁em	-3182
ism	-3183
▁англий	-3184
чать	-3185
▁Ша	-3186
led	-3187
ктора	-3188
▁will	-3189
▁sur	-3190
▁имя	-3191
▁легко	-3192
▁буд	-3193
▁return	-3194
▁движения	-3195
▁follow	-3196
▁болез	-3197
▁тебя	-3198
длен	-3199
▁second	-3200
ause	-3201
▁множе	-3202
▁ды	-3203
▁выда	-3204
▁оружи	-3205
▁ph	-3206
▁закры	-3207
теря	-3208
▁механи	-3209
▁.	-3210
езд	-3211
ck	-3212
▁годов	-3213
мана	-3214
вов	-3215
новь	-3216
▁промышлен	-3217
▁fam	-3218
ined	-3219
▁дире	-3220
its	-3221
▁back	-3222
▁объеди	-3223
носи	-3224
▁наме	-3225
жением	-3226
▁средства	-3227
▁>	-3228
▁начал	-3229
▁есте	-3230
▁импера	-3231
son	-3232
тические	-3233
▁удалось	-3234
▁технологи	-3235
▁film	-3236
▁духов	-3237
▁тыс	-3238
ern	-3239
лях	-3240
▁оказыва	-3241
erm	-3242
ственным	-3243
▁руки	-3244
льную	-3245
▁ана	-3246
▁полови	-3247
▁тай	-3248
▁значение	-3249
тельная	-3250
▁before	-3251
жил	-3252
▁интерес	-3253
▁корпу	-3254
▁day	-3255
▁Cl	-3256
▁наши	-3257
▁населения	-3258
ственное	-3259
▁inst	-3260
пута	-3261
▁пожа	-3262
▁поги	-3263
жный	-3264
▁запа	-3265
▁Зем	-3266
нили	-3267
?"	-3268
▁сил	-3269
ницу	-3270
▁ожида	-3271
рое	-3272
▁иногда	-3273
▁обнаружи	-3274
рё	-3275
▁Мак	-3276
нка	-3277
▁ито	-3278
emb	-3279
дко	-3280
рыв	-3281
хот	-3282
▁ан	-3283
xt	-3284
▁ощу	-3285
▁сум	-3286
▁предприя	-3287
▁верси	-3288
▁rele	-3289
▁дене	-3290
▁различных	-3291
▁\	-3292
клад	-3293
▁партии	-3294
влены	-3295
▁оди	-3296
▁поддерж	-3297
ys	-3298
тали	-3299
▁малень	-3300
ames	-3301
▁own	-3302
▁секре	-3303
▁мой	-3304
▁пес	-3305
ple	-3306
▁if	-3307
▁уничто	-3308
▁any	-3309
▁л	-3310
ступил	-3311
леко	-3312
рее	-3313
▁городе	-3314
▁название	-3315
▁устрой	-3316
▁тур	-3317
дий	-3318
▁отлича	-3319
▁гро	-3320
----	-3321
▁автомоби	-3322
▁недоста	-3323
▁team	-3324
стоит	-3325
ters	-3326
▁самых	-3327
▁новые	-3328
▁Чер	-3329
▁XV	-3330
▁какие	-3331
....	-3332
шёл	-3333
▁невоз	-3334
▁система	-3335
▁своем	-3336
ution	-3337
гами	-3338
▁число	-3339
▁поку	-3340
тым	-3341
сред	-3342
▁весьма	-3343
▁февраля	-3344
▁people	-3345
▁евро	-3346
шта	-3347
▁вполне	-3348
▁Васи	-3349
eb	-3350
▁становится	-3351
▁said	-3352
ныне	-3353
меть	-3354
чо	-3355
рем	-3356
рко	-3357
▁симво	-3358
▁запад	-3359
▁худож	-3360
▁school	-3361
▁работе	-3362
▁For	-3363
▁Москве	-3364
ющими	-3365
влека	-3366
тбо	-3367
вича	-3368
▁исти	-3369
▁солда	-3370
форми	-3371
джа	-3372
cept	-3373
▁трех	-3374
▁некоторых	-3375
нки	-3376
▁воло	-3377
▁сю	-3378
лья	-3379
баты	-3380
чении	-3381
ract	-3382
▁новых	-3383
шает	-3384
▁журна	-3385
ows	-3386
вшим	-3387
▁Ind	-3388
▁назва	-3389
▁After	-3390
▁пять	-3391
inn	-3392
юза	-3393
▁приобре	-3394
навли	-3395
▁рез	-3396
ull	-3397
▁lead	-3398
▁норма	-3399
ссиона	-3400
▁отказа	-3401
щается	-3402
▁соба	-3403
▁имеют	-3404
▁предоста	-3405
дил	-3406
▁Sc	-3407
ures	-3408
▁прак	-3409
▁could	-3410
дем	-3411
ank	-3412
▁куда	-3413
валась	-3414
таки	-3415
чением	-3416
▁низ	-3417
▁ото	-3418
▁добро	-3419
▁Восто	-3420
▁аре	-3421
нении	-3422
▁рассказа	-3423
сей	-3424
▁реки	-3425
новременно	-3426
▁разных	-3427
irect	-3428
рит	-3429
▁действительно	-3430
▁кого	-3431
▁возможности	-3432
▁реше	-3433
▁довольно	-3434
принима	-3435
▁Этот	-3436
ield	-3437
▁вновь	-3438
▁рабочи	-3439
▁информации	-3440
▁did	-3441
▁дальней	-3442
тет	-3443
▁крити	-3444
влением	-3445
▁реак	-3446
чек	-3447
▁кроме	-3448
arri	-3449
▁форми	-3450
fl	-3451
▁регу	-3452
▁ран	-3453
фици	-3454
▁мысли	-3455
строен	-3456
дах	-3457
▁фло	-3458
ful	-3459
▁рав	-3460
щем	-3461
ists	-3462
▁цели	-3463
▁радио	-3464
▁возмо	-3465
▁вызыва	-3466
▁возника	-3467
бран	-3468
▁appe	-3469
▁наблюда	-3470
▁самым	-3471
▁Wh	-3472
▁спосо	-3473
▁Российской	-3474
нное	-3475
мар	-3476
▁art	-3477
▁зо	-3478
▁ори	-3479
жного	-3480
▁зая	-3481
гли	-3482
сят	-3483
▁обви	-3484
▁ца	-3485
рис	-3486
жений	-3487
iversity	-3488
гну	-3489
поли	-3490
нению	-3491
▁dif	-3492
▁присут	-3493
стями	-3494
▁both	-3495
под	-3496
шему	-3497
йн	-3498
деле	-3499
▁sign	-3500
пись	-3501
▁зрения	-3502
▁фон	-3503
дж	-3504
ax	-3505
чность	-3506
▁подтвер	-3507
▁pop	-3508
сами	-3509
▁одном	-3510
ron	-3511
▁транспо	-3512
cy	-3513
начала	-3514
ired	-3515
▁основе	-3516
▁холо	-3517
ature	-3518
▁including	-3519
нная	-3520
▁соответству	-3521
нос	-3522
▁develop	-3523
▁культуры	-3524
емый	-3525
▁конца	-3526
▁ob	-3527
тать	-3528
▁нового	-3529
▁часов	-3530
ped	-3531
бов	-3532
▁met	-3533
тию	-3534
тили	-3535
эн	-3536
▁рода	-3537
чными	-3538
▁тебе	-3539
▁//	-3540
▁расши	-3541
der	-3542
▁самой	-3543
шить	-3544
▁рассматри	-3545
ute	-3546
мую	-3547
били	-3548
▁решения	-3549
▁ser	-3550
ходить	-3551
▁означа	-3552
рос	-3553
логии	-3554
▁форму	-3555
▁dist	-3556
▁деньги	-3557
overnment	-3558
▁Col	-3559
▁est	-3560
iver	-3561
▁новый	-3562
доров	-3563
читы	-3564
ква	-3565
▁геро	-3566
▁вет	-3567
▁книги	-3568
нович	-3569
ved	-3570
▁дом	-3571
▁Москов	-3572
▁запре	-3573
▁приз	-3574
▁коллек	-3575
шед	-3576
▁high	-3577
жете	-3578
▁mus	-3579
▁помощи	-3580
▁Тем	-3581
▁посвя	-3582
▁слово	-3583
стья	-3584
▁Александр	-3585
▁реко	-3586
ографи	-3587
▁бю	-3588
▁Bl	-3589
▁нескольких	-3590
▁лица	-3591
мин	-3592
▁cap	-3593
▁точки	-3594
ting	-3595
▁персона	-3596
▁уси	-3597
▁sm	-3598
рил	-3599
▁mod	-3600
▁mon	-3601
ven	-3602
ually	-3603
▁лицо	-3604
сед	-3605
▁public	-3606
▁уз	-3607
▁Теперь	-3608
▁four	-3609
▁main	-3610
СК	-3611
▁церков	-3612
няет	-3613
ained	-3614
чество	-3615
▁count	-3616
▁Свя	-3617
сам	-3618
▁char	-3619
▁никто	-3620
▁вокруг	-3621
▁утвержда	-3622
▁губер	-3623
▁последова	-3624
▁боя	-3625
▁определя	-3626
▁независи	-3627
мым	-3628
▁перво	-3629
▁bro	-3630
▁найти	-3631
▁Здесь	-3632
▁Таким	-3633
▁ed	-3634
бере	-3635
▁беспо	-3636
▁эпо	-3637
ized	-3638
▁условиях	-3639
▁север	-3640
▁Украины	-3641
▁работать	-3642
лыша	-3643
езда	-3644
ober	-3645
Ка	-3646
служи	-3647
▁совме	-3648
▁сторону	-3649
tend	-3650
▁напо	-3651
чета	-3652
няется	-3653
варти	-3654
▁напря	-3655
ссу	-3656
креп	-3657
▁одну	-3658
нику	-3659
ring	-3660
▁these	-3661
ley	-3662
▁\-	-3663
ared	-3664
▁Con	-3665
▁Joh	-3666
▁футбо	-3667
жд	-3668
зация	-3669
▁религи	-3670
▁Цен	-3671
▁бло	-3672
лам	-3673
uss	-3674
▁record	-3675
▁попро	-3676
▁acc	-3677
▁идет	-3678
Ко	-3679
лению	-3680
шет	-3681
▁group	-3682
▁разру	-3683
▁наших	-3684
ерен	-3685
▁выбо	-3686
нюю	-3687
▁граждан	-3688
▁Анг	-3689
цем	-3690
▁очередь	-3691
лах	-3692
▁Зна	-3693
гой	-3694
▁меньше	-3695
▁cre	-3696
▁season	-3697
til	-3698
шлось	-3699
ента	-3700
▁эпи	-3701
гает	-3702
▁Ав	-3703
жай	-3704
▁каса	-3705
▁медици	-3706
степ	-3707
▁ум	-3708
тья	-3709
стр	-3710
ристиан	-3711
pect	-3712
▁акаде	-3713
▁XI	-3714
ис	-3715
▁ус	-3716
▁первого	-3717
▁потеря	-3718
▁United	-3719
▁Оте	-3720
▁минут	-3721
▁скры	-3722
tt	-3723
▁цвет	-3724
руется	-3725
▁бом	-3726
▁характери	-3727
▁Затем	-3728
imes	-3729
▁см	-3730
печат	-3731
▁практически	-3732
▁класси	-3733
▁рам	-3734
тром	-3735
▁start	-3736
▁иска	-3737
фу	-3738
▁вд	-3739
▁конку	-3740
▁впервые	-3741
▁значит	-3742
▁измени	-3743
зор	-3744
▁long	-3745
▁мол	-3746
▁самое	-3747
▁fin	-3748
▁оде	-3749
▁путь	-3750
▁умер	-3751
▁внутри	-3752
▁иностран	-3753
ъек	-3754
вшихся	-3755
мокра	-3756
ющую	-3757
▁ходе	-3758
ink	-3759
▁сом	-3760
▁рядом	-3761
▁подготов	-3762
oot	-3763
ндии	-3764
▁столь	-3765
▁Север	-3766
▁улица	-3767
дри	-3768
▁семей	-3769
▁труд	-3770
ционной	-3771
зывать	-3772
▁use	-3773
▁поддержи	-3774
зия	-3775
▁Вто	-3776
▁Например	-3777
▁немного	-3778
сю	-3779
▁ново	-3780
оте	-3781
▁частности	-3782
els	-3783
erson	-3784
▁аэ	-3785
мый	-3786
жным	-3787
лье	-3788
▁кана	-3789
▁данным	-3790
▁поя	-3791
кну	-3792
нным	-3793
спублики	-3794
▁войск	-3795
▁writ	-3796
▁серьез	-3797
▁своими	-3798
▁забы	-3799
ат	-3800
urch	-3801
▁обсу	-3802
▁var	-3803
сколько	-3804
▁мужчи	-3805
▁конкре	-3806
чит	-3807
▁вклю	-3808
кет	-3809
▁темпера	-3810
гах	-3811
▁вдо	-3812
▁may	-3813
▁Eng	-3814
▁плане	-3815
ходил	-3816
▁предлага	-3817
▁тела	-3818
▁пом	-3819
ните	-3820
erman	-3821
con	-3822
▁постоянно	-3823
▁sever	-3824
▁эффектив	-3825
▁земли	-3826
▁Sp	-3827
▁прошло	-3828
▁млн	-3829
ient	-3830
▁Также	-3831
▁замеча	-3832
▁деву	-3833
inu	-3834
луч	-3835
▁Германии	-3836
сах	-3837
▁процесс	-3838
▁отношении	-3839
▁словам	-3840
▁сильно	-3841
ox	-3842
туаль	-3843
▁Между	-3844
▁const	-3845
жает	-3846
циях	-3847
▁oper	-3848
▁проблемы	-3849
▁until	-3850
▁появля	-3851
иль	-3852
▁группа	-3853
▁Fran	-3854
▁Comm	-3855
▁свобод	-3856
тический	-3857
▁рублей	-3858
▁Ком	-3859
ible	-3860
бло	-3861
▁Франции	-3862
▁позволя	-3863
▁Гор	-3864
восто	-3865
вки	-3866
▁средств	-3867
▁силу	-3868
▁проте	-3869
▁готов	-3870
▁благодаря	-3871
▁min	-3872
▁комна	-3873
▁най	-3874
▁столи	-3875
пет	-3876
стях	-3877
чал	-3878
▁счет	-3879
▁Эта	-3880
iam	-3881
gram	-3882
▁Сле	-3883
▁same	-3884
гам	-3885
▁Ad	-3886
▁уж	-3887
▁дополни	-3888
▁расположен	-3889
▁разно	-3890
чены	-3891
ОВ	-3892
▁выпу	-3893
ility	-3894
▁кос	-3895
рец	-3896
▁system	-3897
тчи	-3898
▁John	-3899
НИ	-3900
▁Ленин	-3901
enn	-3902
лимпи	-3903
▁писал	-3904
▁нему	-3905
ke	-3906
емого	-3907
▁Is	-3908
▁генерал	-3909
▁профессиона	-3910
▁говорить	-3911
▁eff	-3912
▁работал	-3913
▁стране	-3914
ходили	-3915
vent	-3916
▁Чи	-3917
роде	-3918
..."	-3919
aking	-3920
рица	-3921
▁осуществля	-3922
▁оцен	-3923
▁шу	-3924
▁number	-3925
▁сек	-3926
▁остро	-3927
▁Дру	-3928
щении	-3929
▁тю	-3930
▁опыт	-3931
▁build	-3932
▁отмеча	-3933
ственная	-3934
une	-3935
▁сторон	-3936
▁`	-3937
▁Ты	-3938
ants	-3939
▁аген	-3940
▁клю	-3941
город	-3942
лении	-3943
▁Федерации	-3944
▁доступ	-3945
тика	-3946
▁ряд	-3947
▁непре	-3948
▁доказа	-3949
телям	-3950
туру	-3951
▁иметь	-3952
▁индиви	-3953
▁Аль	-3954
▁Глав	-3955
▁игро	-3956
▁примерно	-3957
кин	-3958
влено	-3959
▁Примеча	-3960
▁обстоя	-3961
▁выну	-3962
▁позна	-3963
лад	-3964
▁художе	-3965
▁Ио	-3966
чё	-3967
▁следова	-3968
ek	-3969
uro	-3970
▁оце	-3971
ets	-3972
ческими	-3973
▁составляет	-3974
ковой	-3975
▁верну	-3976
ives	-3977
ctions	-3978
▁called	-3979
шой	-3980
▁непри	-3981
▁пользу	-3982
ровали	-3983
йт	-3984
▁полно	-3985
▁кате	-3986
▁воспо	-3987
▁биз	-3988
▁known	-3989
▁инстру	-3990
▁open	-3991
▁сколько	-3992
тельную	-3993
▁Гри	-3994
лог	-3995
▁применя	-3996
▁известно	-3997
▁печа	-3998
III	-3999
my	-4000
▁увеличи	-4001
нял	-4002
▁получить	-4003
▁аппара	-4004
▁жерт	-4005
▁непосред	-4006
ina	-4007
▁Амери	-4008
▁моря	-4009
▁comple	-4010
гани	-4011
▁водо	-4012
ционных	-4013
▁gener	-4014
▁еже	-4015
цей	-4016
▁будто	-4017
▁ребен	-4018
▁контра	-4019
▁offic	-4020
▁положение	-4021
дам	-4022
▁район	-4023
▁rep	-4024
▁посла	-4025
▁реда	-4026
пар	-4027
▁другим	-4028
влена	-4029
говори	-4030
емой	-4031
▁Чере	-4032
вел	-4033
дали	-4034
рес	-4035
▁зло	-4036
▁Ph	-4037
▁приводи	-4038
▁ат	-4039
▁хва	-4040
лер	-4041
вшиеся	-4042
▁They	-4043
▁bel	-4044
тета	-4045
ural	-4046
▁кажется	-4047
▁точно	-4048
рых	-4049
▁конструк	-4050
▁командова	-4051
▁ныне	-4052
▁позд	-4053
▁suc	-4054
uth	-4055
▁противника	-4056
▁импе	-4057
▁пяти	-4058
жали	-4059
▁долла	-4060
▁Тогда	-4061
нит	-4062
▁каждого	-4063
▁председа	-4064
▁неда	-4065
бар	-4066
тором	-4067
▁бума	-4068
▁моз	-4069
▁Кор	-4070
Ма	-4071
▁новой	-4072
▁госпо	-4073
▁May	-4074
▁заболе	-4075
▁награ	-4076
▁протя	-4077
▁другими	-4078
▁Там	-4079
atch	-4080
▁нашего	-4081
▁orig	-4082
▁говорил	-4083
sh	-4084
бка	-4085
▁согласи	-4086
▁показыва	-4087
митри	-4088
▁ever	-4089
▁подчи	-4090
фри	-4091
▁угро	-4092
ссия	-4093
прави	-4094
▁первых	-4095
ene	-4096
цер	-4097
▁мыс	-4098
▁убий	-4099
▁изменения	-4100
arn	-4101
The	-4102
▁расте	-4103
arm	-4104
▁Сто	-4105
▁рассказыва	-4106
солю	-4107
мость	-4108
the	-4109
▁церкви	-4110
▁автор	-4111
▁вместо	-4112
.).	-4113
▁med	-4114
▁rece	-4115
▁вече	-4116
▁торго	-4117
ниями	-4118
нда	-4119
▁Brit	-4120
▁заявил	-4121
фон	-4122
▁Нет	-4123
▁целью	-4124
▁пото	-4125
роятно	-4126
спек	-4127
кому	-4128
▁Ско	-4129
▁прибли	-4130
анта	-4131
вшийся	-4132
▁child	-4133
▁позволяет	-4134
ент	-4135
▁мыш	-4136
▁Чтобы	-4137
чено	-4138
▁знако	-4139
нике	-4140
кли	-4141
ange	-4142
▁American	-4143
▁плани	-4144
▁газ	-4145
▁колле	-4146
▁привы	-4147
ments	-4148
▁провер	-4149
▁Бра	-4150
мое	-4151
▁ката	-4152
▁суд	-4153
▁ранее	-4154
сур	-4155
ised	-4156
eng	-4157
▁опубли	-4158
▁early	-4159
ющихся	-4160
ided	-4161
▁производства	-4162
▁University	-4163
▁команды	-4164
▁began	-4165
▁компью	-4166
▁кило	-4167
одо	-4168
get	-4169
▁игры	-4170
▁...	-4171
▁Рас	-4172
▁предполага	-4173
жности	-4174
▁обеспечи	-4175
никам	-4176
▁безопасности	-4177
▁ann	-4178
▁наконец	-4179
▁действий	-4180
▁испыта	-4181
наче	-4182
▁данные	-4183
▁установи	-4184
▁существует	-4185
rid	-4186
рина	-4187
▁фигу	-4188
▁орде	-4189
ata	-4190
▁выска	-4191
тивных	-4192
▁одновременно	-4193
ехал	-4194
▁tr	-4195
вос	-4196
▁support	-4197
гло	-4198
▁show	-4199
чув	-4200
сного	-4201
АТ	-4202
▁дальше	-4203
▁особен	-4204
сный	-4205
Со	-4206
▁Каза	-4207
iving	-4208
лым	-4209
▁преи	-4210
▁Государ	-4211
▁массо	-4212
сад	-4213
▁run	-4214
▁Только	-4215
▁земле	-4216
ньше	-4217
▁мате	-4218
▁disc	-4219
▁состоянии	-4220
▁четвер	-4221
тех	-4222
▁produ	-4223
▁союз	-4224
пан	-4225
▁трудно	-4226
шку	-4227
рый	-4228
ристо	-4229
▁празд	-4230
▁обязан	-4231
▁самоле	-4232
▁наш	-4233
гей	-4234
▁основном	-4235
▁Владимир	-4236
▁предложи	-4237
ruct	-4238
▁#	-4239
▁формы	-4240
▁Европы	-4241
Пе	-4242
▁разу	-4243
▁мета	-4244
Во	-4245
▁Исто	-4246
▁Поль	-4247
▁невозможно	-4248
▁правило	-4249
вели	-4250
руют	-4251
▁театра	-4252
▁Мне	-4253
▁катего	-4254
лая	-4255
ird	-4256
▁,	-4257
▁речь	-4258
рёх	-4259
▁тво	-4260
дение	-4261
ross	-4262
▁музыка	-4263
нему	-4264
▁government	-4265
▁законо	-4266
зре	-4267
▁события	-4268
▁заключа	-4269
СТ	-4270
▁design	-4271
▁микро	-4272
▁другу	-4273
▁сро	-4274
▁Пари	-4275
гать	-4276
поло	-4277
▁культур	-4278
▁выгля	-4279
способ	-4280
▁sing	-4281
зин	-4282
▁hist	-4283
▁name	-4284
вла	-4285
▁sl	-4286
▁мнению	-4287
▁подвер	-4288
▁команду	-4289
Не	-4290
▁знаю	-4291
▁самый	-4292
▁Be	-4293
щества	-4294
▁догово	-4295
▁Jan	-4296
▁land	-4297
▁several	-4298
▁раньше	-4299
▁доби	-4300
▁середи	-4301
▁логи	-4302
▁ибо	-4303
▁пой	-4304
▁%	-4305
▁студен	-4306
▁pass	-4307
▁роли	-4308
ium	-4309
вился	-4310
▁Чу	-4311
▁това	-4312
▁утра	-4313
▁пита	-4314
ission	-4315
▁спор	-4316
▁поки	-4317
обо	-4318
▁стату	-4319
arl	-4320
▁народа	-4321
▁вопросы	-4322
ьер	-4323
▁Примечания	-4324
ps	-4325
ital	-4326
лений	-4327
▁шо	-4328
▁управля	-4329
▁Согла	-4330
▁состоит	-4331
▁result	-4332
СР	-4333
▁времен	-4334
amed	-4335
▁Же	-4336
▁like	-4337
куда	-4338
▁gu	-4339
▁what	-4340
чению	-4341
▁мировой	-4342
зирова	-4343
▁York	-4344
послед	-4345
▁учеб	-4346
стьян	-4347
▁море	-4348
▁опас	-4349
▁ау	-4350
▁Ново	-4351
▁любой	-4352
/.	-4353
ющем	-4354
▁глуби	-4355
гия	-4356
por	-4357
▁профессо	-4358
гар	-4359
▁представляет	-4360
ai	-4361
▁кварти	-4362
▁арми	-4363
▁решил	-4364
▁линии	-4365
▁And	-4366
ajor	-4367
телю	-4368
▁direct	-4369
льными	-4370
▁другом	-4371
▁Фа	-4372
▁ele	-4373
эй	-4374
▁понять	-4375
▁корот	-4376
▁пригла	-4377
тива	-4378
▁популяр	-4379
▁впере	-4380
лег	-4381
станов	-4382
▁региона	-4383
▁city	-4384
▁язык	-4385
▁exp	-4386
▁Тур	-4387
▁пришлось	-4388
▁--	-4389
▁Pl	-4390
▁Кры	-4391
▁покры	-4392
▁air	-4393
кор	-4394
▁поля	-4395
▁бой	-4396
▁имел	-4397
▁своему	-4398
▁некото	-4399
ble	-4400
тации	-4401
▁скло	-4402
▁военно	-4403
▁German	-4404
▁которому	-4405
ила	-4406
дленно	-4407
▁случаях	-4408
ically	-4409
")	-4410
▁area	-4411
тое	-4412
▁ins	-4413
▁окружа	-4414
▁ссы	-4415
рудова	-4416
▁разо	-4417
▁школы	-4418
____	-4419
ove	-4420
▁my	-4421
▁because	-4422
лл	-4423
▁насто	-4424
▁верх	-4425
▁потреб	-4426
▁There	-4427
▁экспери	-4428
▁Ев	-4429
▁вста	-4430
▁развитие	-4431
влет	-4432
▁sim	-4433
▁mil	-4434
поль	-4435
▁след	-4436
▁учре	-4437
▁инже	-4438
дят	-4439
▁христиан	-4440
ОН	-4441
▁подписа	-4442
▁образования	-4443
теше	-4444
**	-4445
раздо	-4446
влению	-4447
▁World	-4448
rist	-4449
▁head	-4450
▁искусства	-4451
▁стара	-4452
чке	-4453
гры	-4454
▁Тре	-4455
▁воздей	-4456
▁товари	-4457
▁down	-4458
▁настоящее	-4459
▁самостоя	-4460
слов	-4461
▁Ju	-4462
гина	-4463
▁макси	-4464
▁organ	-4465
▁XX	-4466
▁перево	-4467
▁полез	-4468
▁меч	-4469
тивно	-4470
тирова	-4471
▁расстоя	-4472
дили	-4473
ister	-4474
▁US	-4475
ствовали	-4476
▁первые	-4477
▁стреми	-4478
▁сыгра	-4479
tle	-4480
▁изо	-4481
▁деятельность	-4482
ЕР	-4483
ues	-4484
▁подроб	-4485
дже	-4486
aving	-4487
▁устра	-4488
▁пору	-4489
▁выи	-4490
▁фай	-4491
rand	-4492
▁differ	-4493
▁фра	-4494
вании	-4495
▁языка	-4496
шими	-4497
вит	-4498
▁class	-4499
▁state	-4500
▁власть	-4501
▁ситуации	-4502
нке	-4503
▁Ху	-4504
тни	-4505
▁хотел	-4506
тивной	-4507
▁нуж	-4508
▁пост	-4509
▁прожи	-4510
arch	-4511
▁пти	-4512
▁hel	-4513
▁финансо	-4514
▁правительства	-4515
▁паль	-4516
▁посо	-4517
▁Через	-4518
нден	-4519
▁Ген	-4520
ровки	-4521
▁Среди	-4522
лён	-4523
▁ими	-4524
тное	-4525
▁However	-4526
▁ква	-4527
▁War	-4528
▁Дмитри	-4529
▁прос	-4530
▁япо	-4531
ages	-4532
вай	-4533
▁partic	-4534
▁уверен	-4535
зья	-4536
▁библи	-4537
▁сын	-4538
▁скорее	-4539
деб	-4540
▁Еще	-4541
▁первую	-4542
ступления	-4543
соеди	-4544
ана	-4545
▁препо	-4546
тона	-4547
▁заве	-4548
ностей	-4549
▁высоко	-4550
abl	-4551
▁давно	-4552
▁располага	-4553
Ро	-4554
тябре	-4555
▁ого	-4556
ционного	-4557
ющиеся	-4558
ret	-4559
влений	-4560
ize	-4561
▁соответствии	-4562
▁моей	-4563
которы	-4564
▁охра	-4565
▁сокра	-4566
▁His	-4567
тической	-4568
▁point	-4569
▁переме	-4570
▁Именно	-4571
шек	-4572
▁исче	-4573
▁near	-4574
▁took	-4575
▁now	-4576
▁знамени	-4577
образова	-4578
illion	-4579
тился	-4580
▁опять	-4581
▁ата	-4582
пят	-4583
▁выбра	-4584
ссив	-4585
рик	-4586
▁впечат	-4587
▁Ал	-4588
▁безу	-4589
▁prom	-4590
▁Хотя	-4591
тиви	-4592
рович	-4593
чиво	-4594
▁метров	-4595
▁occ	-4596
orm	-4597
▁ужа	-4598
тник	-4599
▁Основ	-4600
▁III	-4601
▁исследования	-4602
▁целом	-4603
▁Роди	-4604
▁радо	-4605
▁труда	-4606
▁деревня	-4607
▁преда	-4608
pend	-4609
▁чуть	-4610
последствии	-4611
ery	-4612
],	-4613
▁особо	-4614
▁вдруг	-4615
▁дел	-4616
прочем	-4617
пании	-4618
▁работает	-4619
тием	-4620
▁сайте	-4621
▁состояние	-4622
кса	-4623
жная	-4624
щать	-4625
дор	-4626
▁family	-4627
ional	-4628
▁первым	-4629
зить	-4630
▁абсолю	-4631
бки	-4632
▁веду	-4633
▁удоб	-4634
тики	-4635
by	-4636
несе	-4637
гель	-4638
▁индивиду	-4639
цам	-4640
▁досто	-4641
▁сф	-4642
ior	-4643
▁двумя	-4644
▁мага	-4645
▁рамках	-4646
▁главным	-4647
▁ору	-4648
▁сви	-4649
жению	-4650
▁упомина	-4651
▁положи	-4652
▁бед	-4653
дите	-4654
▁сопрово	-4655
Ра	-4656
▁преимуще	-4657
▁держа	-4658
▁образу	-4659
▁сама	-4660
▁Ги	-4661
▁карь	-4662
▁Совета	-4663
duced	-4664
▁уровня	-4665
▁сверх	-4666
ris	-4667
au	-4668
▁жить	-4669
▁такая	-4670
▁game	-4671
▁just	-4672
нести	-4673
▁услу	-4674
▁артилле	-4675
,"	-4676
▁монасты	-4677
▁депута	-4678
▁форме	-4679
пить	-4680
стати	-4681
▁requ	-4682
oci	-4683
нут	-4684
▁жителей	-4685
▁людя	-4686
▁несмотря	-4687
пру	-4688
▁серд	-4689
▁program	-4690
▁Гра	-4691
▁Коро	-4692
▁States	-4693
▁указыва	-4694
▁спокой	-4695
Мо	-4696
▁ль	-4697
▁Их	-4698
▁наук	-4699
нены	-4700
▁гораздо	-4701
omen	-4702
▁Авто	-4703
▁украин	-4704
▁инф	-4705
▁предме	-4706
▁совершен	-4707
▁Сте	-4708
▁Бар	-4709
сных	-4710
▁време	-4711
▁along	-4712
▁полага	-4713
сит	-4714
▁report	-4715
▁другого	-4716
▁each	-4717
▁замести	-4718
▁нена	-4719
▁сделал	-4720
▁голову	-4721
▁way	-4722
▁Te	-4723
▁world	-4724
▁Им	-4725
de	-4726
▁позже	-4727
▁right	-4728
▁зара	-4729
▁тело	-4730
▁раза	-4731
жки	-4732
▁говорят	-4733
▁установ	-4734
▁правитель	-4735
raph	-4736
read	-4737
▁Ведь	-4738
▁религиоз	-4739
▁around	-4740
▁создания	-4741
▁останови	-4742
hes	-4743
▁place	-4744
▁commun	-4745
▁Рабо	-4746
шил	-4747
ator	-4748
ience	-4749
▁знает	-4750
row	-4751
▁плохо	-4752
▁неф	-4753
циями	-4754
сные	-4755
емся	-4756
▁ref	-4757
два	-4758
af	-4759
▁умень	-4760
▁чрез	-4761
сф	-4762
oman	-4763
▁помощь	-4764
▁возгла	-4765
▁small	-4766
станти	-4767
ую	-4768
▁app	-4769
▁брига	-4770
▁success	-4771
▁яр	-4772
лением	-4773
▁слов	-4774
▁роман	-4775
вайте	-4776
тным	-4777
omet	-4778
▁журнали	-4779
▁здоров	-4780
ices	-4781
▁уровне	-4782
▁центр	-4783
▁ниже	-4784
▁молоды	-4785
тке	-4786
arge	-4787
сова	-4788
ждении	-4789
ology	-4790
▁последние	-4791
стить	-4792
ung	-4793
ус	-4794
▁каким	-4795
груз	-4796
тербург	-4797
метров	-4798
chn	-4799
▁подня	-4800
чена	-4801
▁Союза	-4802
▁series	-4803
тина	-4804
▁book	-4805
▁исключи	-4806
▁множество	-4807
bum	-4808
▁систем	-4809
▁знал	-4810
ждать	-4811
ilt	-4812
▁ресур	-4813
бви	-4814
oard	-4815
вка	-4816
▁далеко	-4817
писко	-4818
ствием	-4819
▁Тру	-4820
▁начали	-4821
▁even	-4822
▁дать	-4823
▁Aug	-4824
▁left	-4825
пен	-4826
▁пропа	-4827
▁пережи	-4828
▁Пра	-4829
▁значения	-4830
▁движение	-4831
▁теории	-4832
▁назначен	-4833
мого	-4834
▁сначала	-4835
ственности	-4836
▁though	-4837
▁программы	-4838
▁развед	-4839
view	-4840
▁русской	-4841
▁Nov	-4842
ged	-4843
▁лиц	-4844
▁канди	-4845
▁house	-4846
бай	-4847
▁old	-4848
▁Япо	-4849
спи	-4850
ians	-4851
▁федера	-4852
реза	-4853
▁десяти	-4854
▁дни	-4855
▁All	-4856
тивного	-4857
▁continu	-4858
▁hand	-4859
▁since	-4860
▁женщин	-4861
▁употре	-4862
степенно	-4863
дной	-4864
▁долларов	-4865
▁относительно	-4866
нией	-4867
rol	-4868
▁[/	-4869
▁Чем	-4870
чика	-4871
тивный	-4872
▁относя	-4873
жность	-4874
▁смотре	-4875
▁европей	-4876
сл	-4877
▁Москвы	-4878
▁рекомен	-4879
гро	-4880
ллю	-4881
▁главе	-4882
▁прото	-4883
▁прид	-4884
▁кандида	-4885
▁мастер	-4886
▁Це	-4887
▁det	-4888
▁горя	-4889
ulation	-4890
uary	-4891
▁маль	-4892
▁Запад	-4893
▁операции	-4894
чая	-4895
▁бур	-4896
▁эмо	-4897
▁психи	-4898
though	-4899
▁документа	-4900
▁осно	-4901
▁Один	-4902
▁Man	-4903
арь	-4904
▁ид	-4905
▁мел	-4906
▁отец	-4907
АН	-4908
▁животных	-4909
▁нами	-4910
▁самые	-4911
med	-4912
▁spec	-4913
▁cur	-4914
▁ext	-4915
▁rest	-4916
rent	-4917
жены	-4918
▁страте	-4919
▁dr	-4920
▁cour	-4921
▁home	-4922
▁пишет	-4923
▁ще	-4924
▁фильм	-4925
▁страда	-4926
▁женщины	-4927
▁краси	-4928
▁Ши	-4929
▁Or	-4930
▁погиб	-4931
▁вскоре	-4932
▁Гре	-4933
ствова	-4934
чью	-4935
▁литератур	-4936
тальян	-4937
тивные	-4938
▁very	-4939
▁процесса	-4940
▁Центра	-4941
▁Euro	-4942
▁Ана	-4943
▁месяцев	-4944
▁Согласно	-4945
▁денег	-4946
това	-4947
▁August	-4948
▁Pr	-4949
тает	-4950
▁доме	-4951
▁история	-4952
▁нер	-4953
aim	-4954
ptember	-4955
▁пересе	-4956
▁сих	-4957
▁Oct	-4958
▁стандар	-4959
▁ночь	-4960
нте	-4961
бил	-4962
▁Россия	-4963
голь	-4964
▁истре	-4965
вшее	-4966
ains	-4967
▁Can	-4968
▁исполни	-4969
▁уто	-4970
▁турни	-4971
▁процен	-4972
▁юри	-4973
▁двор	-4974
▁Рус	-4975
▁фир	-4976
▁released	-4977
шев	-4978
▁отрица	-4979
▁Ge	-4980
ченных	-4981
тыми	-4982
▁испы	-4983
▁могла	-4984
▁построе	-4985
▁Aust	-4986
▁начало	-4987
▁разве	-4988
▁хоть	-4989
aced	-4990
ссов	-4991
▁бле	-4992
▁иначе	-4993
ваясь	-4994
гни	-4995
чественной	-4996
cent	-4997
▁социали	-4998
▁отца	-4999
▁чаще	-5000
▁языке	-5001
▁still	-5002
▁семьи	-5003
▁make	-5004
▁автома	-5005
▁last	-5006
▁революции	-5007
▁смерть	-5008
▁Ex	-5009
зен	-5010
▁major	-5011
▁большинство	-5012
▁русских	-5013
▁означает	-5014
▁парт	-5015
пя	-5016
▁выяс	-5017
тная	-5018
джи	-5019
▁улуч	-5020
ковых	-5021
▁оборудова	-5022
▁September	-5023
▁происхо	-5024
▁life	-5025
▁ty	-5026
▁ини	-5027
embers	-5028
коми	-5029
ote	-5030
▁Мини	-5031
▁смысле	-5032
▁сове	-5033
▁Сей	-5034
ногие	-5035
ague	-5036
▁song	-5037
▁удовлет	-5038
▁путеше	-5039
▁car	-5040
▁многочисле	-5041
рыва	-5042
▁National	-5043
▁семье	-5044
▁June	-5045
augh	-5046
▁крестьян	-5047
▁паро	-5048
▁appro	-5049
▁организова	-5050
▁сигна	-5051
▁дивизии	-5052
▁Am	-5053
▁любви	-5054
▁зависимости	-5055
▁чисто	-5056
▁тепло	-5057
▁мои	-5058
▁берегу	-5059
▁Cent	-5060
▁числа	-5061
▁soc	-5062
▁отвер	-5063
ternational	-5064
▁напомина	-5065
▁последу	-5066
co	-5067
▁двадца	-5068
даль	-5069
▁согласно	-5070
чёт	-5071
▁видео	-5072
▁str	-5073
▁систему	-5074
▁сне	-5075
произ	-5076
▁делает	-5077
ина	-5078
▁компози	-5079
▁провин	-5080
▁Вме	-5081
▁избе	-5082
▁lit	-5083
ony	-5084
▁можете	-5085
▁отличие	-5086
uff	-5087
▁подчер	-5088
лена	-5089
▁субъек	-5090
▁зу	-5091
▁March	-5092
ждений	-5093
тку	-5094
▁Нью	-5095
▁значительно	-5096
тую	-5097
▁попада	-5098
▁уро	-5099
мимо	-5100
":	-5101
▁туда	-5102
▁Константи	-5103
ody	-5104
ately	-5105
▁содержи	-5106
стами	-5107
▁album	-5108
▁Конечно	-5109
▁упа	-5110
▁проекта	-5111
▁крепо	-5112
стров	-5113
ently	-5114
нских	-5115
▁частью	-5116
▁мм	-5117
▁tri	-5118
ници	-5119
ченные	-5120
▁October	-5121
▁those	-5122
▁честь	-5123
хар	-5124
▁памяти	-5125
ложить	-5126
▁Фо	-5127
▁charact	-5128
▁local	-5129
▁взаимодей	-5130
▁проблема	-5131
бю	-5132
▁хле	-5133
бить	-5134
▁music	-5135
▁сет	-5136
que	-5137
зоваться	-5138
▁кисло	-5139
▁Верхов	-5140
▁проект	-5141
//	-5142
▁университета	-5143
фы	-5144
▁Ке	-5145
▁хими	-5146
▁incre	-5147
▁законода	-5148
▁цвета	-5149
тите	-5150
me	-5151
▁модели	-5152
▁науки	-5153
ллек	-5154
▁пов	-5155
питан	-5156
сшта	-5157
которые	-5158
▁проблем	-5159
to	-5160
ступление	-5161
ляции	-5162
стной	-5163
ales	-5164
atic	-5165
▁дис	-5166
брь	-5167
▁класса	-5168
менова	-5169
▁dem	-5170
▁неизвест	-5171
льд	-5172
▁Жи	-5173
▁зам	-5174
ционные	-5175
▁какое	-5176
▁отря	-5177
▁расположе	-5178
титься	-5179
ними	-5180
дови	-5181
▁каждой	-5182
▁Даже	-5183
щик	-5184
▁всеми	-5185
▁уровень	-5186
▁import	-5187
▁Вол	-5188
▁произошло	-5189
▁ев	-5190
▁Mus	-5191
▁лично	-5192
▁евре	-5193
▁рим	-5194
▁видов	-5195
ner	-5196
вила	-5197
гал	-5198
▁another	-5199
▁предмет	-5200
▁можем	-5201
▁eng	-5202
▁XIX	-5203
▁рекла	-5204
▁оказался	-5205
▁law	-5206
▁Пла	-5207
▁прош	-5208
рите	-5209
▁пят	-5210
▁напа	-5211
летия	-5212
pril	-5213
ленных	-5214
▁ниж	-5215
self	-5216
пой	-5217
▁Есть	-5218
oss	-5219
▁заво	-5220
стые	-5221
ored	-5222
лимпий	-5223
▁Кто	-5224
дьми	-5225
▁Sy	-5226
▁случи	-5227
▁завое	-5228
▁первом	-5229
▁объяви	-5230
▁July	-5231
▁care	-5232
▁person	-5233
▁дети	-5234
дный	-5235
цкий	-5236
▁никаких	-5237
луа	-5238
циони	-5239
▁британ	-5240
▁свидетель	-5241
▁bus	-5242
▁коне	-5243
чает	-5244
▁British	-5245
▁elect	-5246
▁существу	-5247
ОР	-5248
▁Бело	-5249
▁влияние	-5250
▁January	-5251
▁Пар	-5252
iness	-5253
▁During	-5254
▁Сред	-5255
▁итоге	-5256
▁much	-5257
▁службы	-5258
Но	-5259
▁полка	-5260
ival	-5261
▁South	-5262
довать	-5263
ats	-5264
▁бор	-5265
женный	-5266
▁член	-5267
▁жена	-5268
▁президент	-5269
▁произведения	-5270
жё	-5271
▁вышел	-5272
▁острова	-5273
▁зри	-5274
▁Ше	-5275
▁видел	-5276
▁сня	-5277
▁предна	-5278
▁дороги	-5279
ланд	-5280
▁препода	-5281
понен	-5282
▁получили	-5283
▁настолько	-5284
эр	-5285
ётся	-5286
▁принял	-5287
▁camp	-5288
▁различные	-5289
мера	-5290
▁Можно	-5291
▁обнару	-5292
▁сохрани	-5293
ane	-5294
▁твер	-5295
щал	-5296
▁following	-5297
▁i	-5298
▁библиоте	-5299
тельными	-5300
нением	-5301
ining	-5302
ционный	-5303
):	-5304
цом	-5305
ness	-5306
▁зер	-5307
шается	-5308
▁April	-5309
чений	-5310
▁дает	-5311
▁Май	-5312
▁функции	-5313
▁демон	-5314
▁School	-5315
▁мл	-5316
чий	-5317
▁северо	-5318
▁солдат	-5319
КА	-5320
▁сцена	-5321
▁живу	-5322
ственность	-5323
вере	-5324
▁метал	-5325
▁объя	-5326
▁Николай	-5327
▁следующий	-5328
ленной	-5329
▁оке	-5330
▁создать	-5331
▁каких	-5332
mber	-5333
ходы	-5334
нтов	-5335
лив	-5336
рачи	-5337
▁машины	-5338
▁get	-5339
rop	-5340
▁Лон	-5341
▁establ	-5342
см	-5343
▁Мин	-5344
▁Пол	-5345
▁ребенка	-5346
▁войне	-5347
▁won	-5348
▁Ed	-5349
▁правительство	-5350
▁священ	-5351
▁large	-5352
▁электри	-5353
▁consid	-5354
ien	-5355
▁adv	-5356
▁When	-5357
▁мной	-5358
▁хочет	-5359
▁members	-5360
▁прочи	-5361
▁проя	-5362
▁свер	-5363
▁подгото	-5364
inc	-5365
▁воздуш	-5366
низ	-5367
▁опы	-5368
▁сча	-5369
▁сообщил	-5370
sc	-5371
▁каби	-5372
▁Шу	-5373
▁мое	-5374
▁событий	-5375
▁суда	-5376
дыду	-5377
ниципа	-5378
▁сотрудни	-5379
▁Андре	-5380
▁mark	-5381
▁противоре	-5382
▁присоеди	-5383
St	-5384
▁фронта	-5385
▁гар	-5386
▁la	-5387
▁большое	-5388
▁военных	-5389
▁vis	-5390
сия	-5391
вью	-5392
▁dep	-5393
▁корре	-5394
▁вещи	-5395
reen	-5396
▁удар	-5397
▁психологи	-5398
▁Bro	-5399
▁бит	-5400
sy	-5401
роди	-5402
▁Gu	-5403
app	-5404
виться	-5405
min	-5406
кру	-5407
щиков	-5408
▁план	-5409
ording	-5410
▁небе	-5411
▁Мон	-5412
▁event	-5413
▁неожида	-5414
▁добы	-5415
▁разные	-5416
alk	-5417
▁усили	-5418
▁путем	-5419
стных	-5420
▁преж	-5421
тории	-5422
кипа	-5423
▁line	-5424
▁гвар	-5425
uck	-5426
▁предела	-5427
▁человеком	-5428
жат	-5429
▁демокра	-5430
▁взгляд	-5431
▁циф	-5432
тельном	-5433
тков	-5434
▁книге	-5435
▁Ap	-5436
щаться	-5437
тит	-5438
▁war	-5439
▁членов	-5440
▁Джон	-5441
▁важно	-5442
▁которыми	-5443
▁село	-5444
▁компания	-5445
луй	-5446
▁Europe	-5447
оны	-5448
▁максима	-5449
▁company	-5450
▁Сергей	-5451
▁polit	-5452
строи	-5453
шке	-5454
ball	-5455
▁сочи	-5456
oad	-5457
aster	-5458
▁учё	-5459
верь	-5460
щими	-5461
▁распоря	-5462
▁историю	-5463
iven	-5464
wards	-5465
ray	-5466
▁людьми	-5467
▁использования	-5468
ходов	-5469
веден	-5470
▁подраз	-5471
▁описы	-5472
▁опа	-5473
riend	-5474
▁ближай	-5475
▁статьи	-5476
▁поводу	-5477
▁русского	-5478
▁имели	-5479
бок	-5480
▁написал	-5481
▁вести	-5482
cember	-5483
▁every	-5484
▁изгото	-5485
▁переста	-5486
▁resp	-5487
▁ува	-5488
▁Й	-5489
▁сопроти	-5490
дон	-5491
▁виду	-5492
▁рассмотре	-5493
ript	-5494
▁процессе	-5495
▁power	-5496
▁вовсе	-5497
▁покупа	-5498
▁Европе	-5499
▁age	-5500
▁борьбы	-5501
жное	-5502
▁desc	-5503
ходе	-5504
▁всему	-5505
▁юго	-5506
▁фотографи	-5507
▁спустя	-5508
▁November	-5509
▁отношений	-5510
▁москов	-5511
▁кому	-5512
▁позиции	-5513
лями	-5514
▁условия	-5515
▁индивидуаль	-5516
▁другое	-5517
▁системе	-5518
▁солн	-5519
▁секу	-5520
▁выход	-5521
▁газе	-5522
▁запро	-5523
▁due	-5524
iety	-5525
day	-5526
▁начинает	-5527
ческому	-5528
стики	-5529
gy	-5530
▁Иван	-5531
разу	-5532
▁century	-5533
лять	-5534
▁мать	-5535
▁людям	-5536
▁необы	-5537
дал	-5538
ВА	-5539
ственном	-5540
▁президента	-5541
raft	-5542
лон	-5543
кали	-5544
ведений	-5545
▁attack	-5546
▁экспер	-5547
▁вен	-5548
▁Fl	-5549
▁обороны	-5550
▁exper	-5551
парта	-5552
▁концеп	-5553
▁av	-5554
▁December	-5555
бель	-5556
▁моя	-5557
▁знать	-5558
▁leg	-5559
itions	-5560
▁By	-5561
ides	-5562
▁band	-5563
ТАСС	-5564
▁увиде	-5565
▁веро	-5566
влять	-5567
йо	-5568
сив	-5569
ждая	-5570
▁столько	-5571
▁Почему	-5572
▁Дже	-5573
▁term	-5574
▁принять	-5575
▁станции	-5576
▁дивизи	-5577
куп	-5578
iod	-5579
▁постепенно	-5580
▁Ад	-5581
▁временем	-5582
ured	-5583
▁present	-5584
чиков	-5585
бир	-5586
rew	-5587
▁последний	-5588
▁требования	-5589
▁предыду	-5590
▁Республики	-5591
▁town	-5592
alth	-5593
▁причем	-5594
▁философи	-5595
ified	-5596
▁men	-5597
▁задачи	-5598
▁проявля	-5599
▁обрабо	-5600
▁осозна	-5601
▁death	-5602
▁Сталин	-5603
▁хро	-5604
▁брат	-5605
▁turn	-5606
▁остается	-5607
▁val	-5608
фикации	-5609
филь	-5610
нули	-5611
▁Will	-5612
▁million	-5613
▁удиви	-5614
ур	-5615
▁общем	-5616
▁коммуни	-5617
▁заслу	-5618
ott	-5619
▁цве	-5620
форм	-5621
ницей	-5622
▁чувство	-5623
▁кле	-5624
▁Ита	-5625
▁кров	-5626
▁величи	-5627
ссажи	-5628
▁неве	-5629
▁сосед	-5630
▁перегово	-5631
▁Великой	-5632
▁связь	-5633
▁held	-5634
▁фильма	-5635
дка	-5636
▁голов	-5637
вале	-5638
ун	-5639
▁пого	-5640
work	-5641
ваний	-5642
▁Госпо	-5643
ves	-5644
▁вроде	-5645
▁особы	-5646
▁большую	-5647
даго	-5648
▁final	-5649
▁Одна	-5650
▁tit	-5651
бина	-5652
▁итальян	-5653
▁таком	-5654
ively	-5655
▁наслед	-5656
par	-5657
▁Em	-5658
▁воспита	-5659
ering	-5660
нную	-5661
▁фанта	-5662
▁клуб	-5663
▁энергии	-5664
женных	-5665
▁возбу	-5666
тю	-5667
пень	-5668
▁архитек	-5669
гий	-5670
▁We	-5671
▁девя	-5672
суль	-5673
▁ясно	-5674
кри	-5675
▁jo	-5676
ling	-5677
▁King	-5678
▁зи	-5679
жела	-5680
▁came	-5681
▁информацию	-5682
сток	-5683
▁тка	-5684
Ве	-5685
▁Оста	-5686
стых	-5687
▁запи	-5688
▁поднима	-5689
").	-5690
ственную	-5691
▁Пушки	-5692
▁будем	-5693
ново	-5694
▁cor	-5695
▁former	-5696
▁наше	-5697
лку	-5698
▁Велико	-5699
▁одино	-5700
▁received	-5701
▁Потом	-5702
▁North	-5703
▁es	-5704
▁фина	-5705
▁попыт	-5706
плуа	-5707
▁выво	-5708
▁вернулся	-5709
меется	-5710
▁сына	-5711
▁полков	-5712
▁poss	-5713
вленные	-5714
лое	-5715
ненных	-5716
рхи	-5717
ждён	-5718
▁китай	-5719
▁expl	-5720
▁восстано	-5721
ches	-5722
рые	-5723
▁КП	-5724
гно	-5725
▁conf	-5726
▁Благо	-5727
▁Mc	-5728
катери	-5729
▁потен	-5730
▁империи	-5731
▁played	-5732
бин	-5733
▁общей	-5734
риаль	-5735
▁станет	-5736
▁навер	-5737
▁po	-5738
▁необходимости	-5739
Бо	-5740
▁факт	-5741
!!	-5742
▁парла	-5743
▁наказа	-5744
види	-5745
ization	-5746
▁сердце	-5747
▁Второй	-5748
▁режисс	-5749
▁стен	-5750
▁поверхности	-5751
поста	-5752
▁дове	-5753
▁имуще	-5754
шении	-5755
▁Первый	-5756
▁муниципа	-5757
rict	-5758
▁Национа	-5759
стного	-5760
▁офице	-5761
▁души	-5762
▁еврей	-5763
▁Послед	-5764
▁мысль	-5765
стической	-5766
▁Christ	-5767
akes	-5768
▁рома	-5769
▁пье	-5770
▁Кри	-5771
▁hum	-5772
▁Co	-5773
▁материаль	-5774
▁дал	-5775
ваем	-5776
лне	-5777
▁:	-5778
▁City	-5779
▁Некоторые	-5780
видно	-5781
▁обре	-5782
зды	-5783
шал	-5784
▁органов	-5785
▁выигра	-5786
▁сети	-5787
▁опо	-5788
▁писатель	-5789
▁stand	-5790
ration	-5791
▁уди	-5792
начально	-5793
▁отношение	-5794
▁прис	-5795
▁different	-5796
▁kill	-5797
▁руку	-5798
рода	-5799
▁спек	-5800
▁устанавли	-5801
▁уголов	-5802
▁опро	-5803
▁water	-5804
▁сос	-5805
▁beg	-5806
▁используется	-5807
▁круг	-5808
нется	-5809
нье	-5810
емая	-5811
▁косми	-5812
▁подума	-5813
жь	-5814
▁Отечественной	-5815
▁Александра	-5816
▁озе	-5817
▁времена	-5818
▁Car	-5819
▁природы	-5820
бль	-5821
▁направлении	-5822
▁выпуска	-5823
▁Pol	-5824
ney	-5825
бург	-5826
▁баталь	-5827
нился	-5828
▁воск	-5829
▁say	-5830
вляется	-5831
▁сборной	-5832
чев	-5833
▁месяца	-5834
Са	-5835
▁руках	-5836
▁крови	-5837
▁домой	-5838
▁шесть	-5839
ront	-5840
ниям	-5841
▁суме	-5842
▁судеб	-5843
▁кафе	-5844
▁партий	-5845
▁включая	-5846
▁качества	-5847
▁Ass	-5848
▁оба	-5849
▁проз	-5850
▁чувства	-5851
▁need	-5852
▁словами	-5853
▁сравни	-5854
▁within	-5855
ждает	-5856
▁six	-5857
долго	-5858
▁личности	-5859
▁внимания	-5860
▁относится	-5861
дных	-5862
▁раскры	-5863
▁Стра	-5864
▁fun	-5865
▁идеи	-5866
вшую	-5867
reet	-5868
ЕН	-5869
▁космо	-5870
▁iss	-5871
▁распреде	-5872
▁акт	-5873
стям	-5874
▁совета	-5875
меры	-5876
ense	-5877
кции	-5878
▁привле	-5879
▁хочу	-5880
▁странах	-5881
▁отме	-5882
надцать	-5883
▁любовь	-5884
редо	-5885
ктором	-5886
▁находятся	-5887
тим	-5888
▁приказа	-5889
▁жили	-5890
вычай	-5891
▁касается	-5892
МИ	-5893
▁причина	-5894
кров	-5895
▁вое	-5896
▁возраста	-5897
let	-5898
▁заседа	-5899
▁приходится	-5900
▁слы	-5901
▁действу	-5902
▁землю	-5903
\.	-5904
▁Har	-5905
▁письмо	-5906
alf	-5907
▁вероятно	-5908
▁children	-5909
чили	-5910
ief	-5911
▁named	-5912
▁Сейчас	-5913
▁вперед	-5914
сная	-5915
▁рису	-5916
дре	-5917
▁allow	-5918
▁par	-5919
нными	-5920
▁большим	-5921
▁срок	-5922
▁Несмотря	-5923
йдет	-5924
▁Тро	-5925
▁смысл	-5926
вшейся	-5927
бами	-5928
ster	-5929
▁сообщает	-5930
▁русский	-5931
▁подви	-5932
▁женщина	-5933
yn	-5934
▁предприятия	-5935
▁истреби	-5936
▁ам	-5937
▁зави	-5938
▁запо	-5939
▁led	-5940
▁превы	-5941
▁пала	-5942
тического	-5943
▁ТА	-5944
нность	-5945
сторон	-5946
▁карто	-5947
▁Лит	-5948
▁Санкт	-5949
Да	-5950
▁момента	-5951
▁домаш	-5952
пки	-5953
▁академи	-5954
сыпа	-5955
lege	-5956
▁trad	-5957
";	-5958
▁посред	-5959
ос	-5960
щихся	-5961
▁названием	-5962
▁Алексе	-5963
▁порядке	-5964
▁действие	-5965
▁Сам	-5966
▁вслед	-5967
▁широко	-5968
рядок	-5969
водят	-5970
▁беско	-5971
▁середине	-5972
▁трак	-5973
empt	-5974
втра	-5975
▁секрета	-5976
.-	-5977
arried	-5978
▁Англии	-5979
▁fact	-5980
▁трудо	-5981
▁Ман	-5982
▁pat	-5983
нейших	-5984
▁often	-5985
ially	-5986
▁лоша	-5987
До	-5988
суаль	-5989
▁позволи	-5990
щены	-5991
▁видеть	-5992
▁каз	-5993
▁протяжении	-5994
▁Михай	-5995
resent	-5996
▁зво	-5997
))	-5998
▁стороне	-5999
▁инициа	-6000
▁take	-6001
стана	-6002
интере	-6003
▁связан	-6004
ison	-6005
ВД	-6006
▁пресс	-6007
▁моно	-6008
▁неуда	-6009
днев	-6010
▁Может	-6011
роприя	-6012
▁результат	-6013
▁далее	-6014
▁захо	-6015
▁сда	-6016
дру	-6017
▁El	-6018
▁repl	-6019
▁дипло	-6020
ходила	-6021
ms	-6022
нена	-6023
▁находился	-6024
▁речи	-6025
▁получила	-6026
ченный	-6027
лете	-6028
▁масшта	-6029
ющийся	-6030
▁сущ	-6031
▁очи	-6032
▁новое	-6033
▁общего	-6034
▁бывает	-6035
новения	-6036
▁задача	-6037
▁built	-6038
▁post	-6039
▁друзья	-6040
▁Геор	-6041
стического	-6042
пустить	-6043
▁гри	-6044
▁республи	-6045
▁любы	-6046
▁зависит	-6047
▁мора	-6048
▁month	-6049
▁транс	-6050
▁стихи	-6051
вшегося	-6052
▁period	-6053
▁меж	-6054
▁жесто	-6055
▁prof	-6056
▁центре	-6057
нодоро	-6058
▁поступа	-6059
▁larg	-6060
товой	-6061
atter	-6062
side	-6063
кает	-6064
пно	-6065
▁Feb	-6066
▁crit	-6067
кана	-6068
"),	-6069
▁Ab	-6070
urs	-6071
стье	-6072
▁концов	-6073
▁went	-6074
▁effect	-6075
▁рабочих	-6076
▁included	-6077
▁транспорт	-6078
ards	-6079
▁площадь	-6080
▁конфлик	-6081
▁five	-6082
ruary	-6083
ологии	-6084
▁посмотре	-6085
ждается	-6086
гая	-6087
▁воду	-6088
ler	-6089
uthor	-6090
▁Екатери	-6091
мену	-6092
▁Серге	-6093
itary	-6094
▁нема	-6095
▁миллионов	-6096
тиру	-6097
▁кг	-6098
tain	-6099
▁округа	-6100
▁Многие	-6101
▁охо	-6102
▁терро	-6103
▁испыты	-6104
енси	-6105
▁Дан	-6106
▁осве	-6107
▁версии	-6108
▁Джо	-6109
ploy	-6110
▁Наи	-6111
жется	-6112
▁весе	-6113
мат	-6114
фей	-6115
▁гря	-6116
▁клет	-6117
▁родился	-6118
▁Af	-6119
▁правда	-6120
ality	-6121
▁оказалось	-6122
▁света	-6123
▁подъ	-6124
поле	-6125
гали	-6126
дные	-6127
бий	-6128
▁положения	-6129
▁избира	-6130
ИН	-6131
барди	-6132
▁отдельных	-6133
▁возрасте	-6134
▁Кла	-6135
▁глаз	-6136
▁реша	-6137
жается	-6138
.),	-6139
▁справед	-6140
▁Кур	-6141
▁литературы	-6142
▁доче	-6143
▁short	-6144
▁manag	-6145
▁Air	-6146
▁Или	-6147
rench	-6148
▁Полу	-6149
зой	-6150
▁повторя	-6151
тения	-6152
▁предупре	-6153
ead	-6154
▁пехо	-6155
▁Обра	-6156
▁марш	-6157
сторо	-6158
▁моего	-6159
▁приводит	-6160
▁эксплуа	-6161
▁announ	-6162
дного	-6163
хан	-6164
▁улы	-6165
▁считать	-6166
▁February	-6167
▁машин	-6168
стую	-6169
новен	-6170
▁улице	-6171
▁большие	-6172
▁впоследствии	-6173
▁next	-6174
▁считает	-6175
▁учили	-6176
▁веке	-6177
▁музе	-6178
ваю	-6179
▁экипа	-6180
ham	-6181
лист	-6182
▁основных	-6183
брита	-6184
▁взять	-6185
ille	-6186
▁el	-6187
▁Par	-6188
▁брать	-6189
чали	-6190
АР	-6191
ступить	-6192
ково	-6193
рово	-6194
▁яко	-6195
▁цель	-6196
▁магази	-6197
▁защиты	-6198
▁Her	-6199
▁должность	-6200
▁доб	-6201
▁страш	-6202
▁игру	-6203
горь	-6204
люби	-6205
оборот	-6206
▁building	-6207
зяй	-6208
▁тысячи	-6209
▁глава	-6210
▁among	-6211
▁красо	-6212
attle	-6213
▁программ	-6214
▁корпуса	-6215
няют	-6216
▁часа	-6217
▁ока	-6218
лены	-6219
▁vers	-6220
▁Ино	-6221
▁редко	-6222
▁поддержа	-6223
▁addition	-6224
▁Возможно	-6225
▁order	-6226
▁пригото	-6227
▁трёх	-6228
▁прида	-6229
вленных	-6230
▁Бога	-6231
вшими	-6232
▁Фу	-6233
▁few	-6234
ревнова	-6235
▁окра	-6236
▁война	-6237
▁математи	-6238
▁top	-6239
idd	-6240
▁исчез	-6241
▁буква	-6242
▁мероприя	-6243
▁политики	-6244
▁могло	-6245
▁прем	-6246
▁снима	-6247
▁клуба	-6248
ask	-6249
▁частей	-6250
▁сочета	-6251
▁Сы	-6252
▁conc	-6253
▁результаты	-6254
▁сожа	-6255
пора	-6256
▁список	-6257
▁привлека	-6258
▁раство	-6259
▁great	-6260
лую	-6261
▁пассажи	-6262
▁beh	-6263
рги	-6264
ondon	-6265
▁теоре	-6266
▁клиен	-6267
▁сведения	-6268
кура	-6269
▁бар	-6270
ument	-6271
▁Дей	-6272
▁опублико	-6273
▁казалось	-6274
▁воспринима	-6275
ched	-6276
▁Аб	-6277
ОЛ	-6278
▁bre	-6279
▁describ	-6280
печа	-6281
▁называется	-6282
▁советский	-6283
▁область	-6284
▁атмо	-6285
тельств	-6286
▁One	-6287
▁Comp	-6288
▁single	-6289
лга	-6290
▁club	-6291
▁предпринима	-6292
▁зад	-6293
▁противополо	-6294
щество	-6295
▁should	-6296
▁агре	-6297
▁патри	-6298
▁главное	-6299
дыха	-6300
▁Cal	-6301
ublic	-6302
▁вспомина	-6303
▁del	-6304
▁соору	-6305
▁народов	-6306
▁тюрь	-6307
▁гости	-6308
▁Пав	-6309
емое	-6310
дио	-6311
▁словно	-6312
▁Более	-6313
рией	-6314
▁длин	-6315
▁память	-6316
▁местах	-6317
▁изобре	-6318
▁направления	-6319
▁интеллек	-6320
▁Три	-6321
▁завод	-6322
▁Михаил	-6323
дли	-6324
▁ску	-6325
▁ассо	-6326
▁ship	-6327
▁цивили	-6328
▁Уже	-6329
мок	-6330
▁ep	-6331
ризо	-6332
▁вида	-6333
▁попыта	-6334
▁военной	-6335
▁штур	-6336
▁cr	-6337
▁кризи	-6338
Про	-6339
▁Нор	-6340
▁deb	-6341
▁port	-6342
нё	-6343
▁незна	-6344
мель	-6345
ема	-6346
равда	-6347
▁Гит	-6348
▁философ	-6349
▁копи	-6350
▁гло	-6351
▁плат	-6352
▁аэро	-6353
vious	-6354
▁оружия	-6355
▁sold	-6356
▁точ	-6357
▁юриди	-6358
мани	-6359
eder	-6360
urg	-6361
▁непосредственно	-6362
▁мер	-6363
▁claim	-6364
▁div	-6365
▁бизнес	-6366
кта	-6367
▁вспом	-6368
▁разде	-6369
apan	-6370
▁process	-6371
неве	-6372
▁рей	-6373
▁месяц	-6374
стные	-6375
▁Великобрита	-6376
▁второго	-6377
цеп	-6378
▁общи	-6379
вии	-6380
ера	-6381
▁такую	-6382
▁Итак	-6383
жала	-6384
▁церковь	-6385
▁Гру	-6386
▁Go	-6387
обла	-6388
ненно	-6389
▁слабо	-6390
▁Советского	-6391
amb	-6392
▁gl	-6393
of	-6394
▁опла	-6395
▁ответил	-6396
▁новую	-6397
▁Даль	-6398
▁выбор	-6399
▁состояния	-6400
▁based	-6401
▁скорость	-6402
▁табли	-6403
▁борьбе	-6404
▁торгов	-6405
▁одинако	-6406
▁Кали	-6407
▁прием	-6408
стая	-6409
▁большей	-6410
tended	-6411
▁посети	-6412
ятся	-6413
angu	-6414
▁установлен	-6415
▁большая	-6416
чики	-6417
▁победи	-6418
ases	-6419
тесь	-6420
ковые	-6421
▁father	-6422
▁чере	-6423
▁разгово	-6424
▁агент	-6425
щена	-6426
ograph	-6427
▁час	-6428
▁паци	-6429
▁больших	-6430
вера	-6431
блен	-6432
▁чинов	-6433
▁самоу	-6434
ae	-6435
тение	-6436
▁Austral	-6437
служ	-6438
▁perform	-6439
▁find	-6440
как	-6441
вку	-6442
леку	-6443
▁Min	-6444
Па	-6445
▁чрезвычай	-6446
▁жан	-6447
смотри	-6448
рота	-6449
▁Доб	-6450
▁equ	-6451
▁обязательно	-6452
▁мг	-6453
urther	-6454
▁sk	-6455
▁десять	-6456
▁техники	-6457
цкого	-6458
▁West	-6459
omin	-6460
▁продви	-6461
▁sent	-6462
сила	-6463
▁Дон	-6464
▁человеку	-6465
▁нач	-6466
▁школе	-6467
▁превос	-6468
▁ред	-6469
▁Москву	-6470
▁графи	-6471
▁теря	-6472
▁руководством	-6473
лича	-6474
Го	-6475
▁late	-6476
▁королев	-6477
▁опти	-6478
лович	-6479
▁серви	-6480
▁Прави	-6481
ходило	-6482
пто	-6483
▁регуляр	-6484
inning	-6485
йна	-6486
▁обстанов	-6487
▁избран	-6488
▁аналоги	-6489
▁лагер	-6490
▁силь	-6491
▁London	-6492
▁войну	-6493
▁Bar	-6494
▁аресто	-6495
▁прогре	-6496
▁project	-6497
▁Красно	-6498
▁women	-6499
▁предназна	-6500
▁мяг	-6501
▁ноги	-6502
мол	-6503
▁оказались	-6504
▁называют	-6505
щений	-6506
▁become	-6507
▁смог	-6508
▁aff	-6509
▁прово	-6510
▁Мор	-6511
▁удоволь	-6512
▁астро	-6513
▁энерги	-6514
▁эпизо	-6515
▁модель	-6516
риста	-6517
▁вес	-6518
▁педаго	-6519
▁You	-6520
свя	-6521
▁основной	-6522
бера	-6523
▁желе	-6524
▁выдви	-6525
ума	-6526
▁пару	-6527
▁расти	-6528
▁супру	-6529
▁государственной	-6530
▁Geor	-6531
▁Фор	-6532
▁фами	-6533
▁образование	-6534
гут	-6535
ждый	-6536
жную	-6537
▁init	-6538
▁боевых	-6539
гают	-6540
▁ЦК	-6541
▁read	-6542
роз	-6543
▁дево	-6544
▁good	-6545
stit	-6546
един	-6547
eter	-6548
▁резко	-6549
▁преодо	-6550
▁стрелко	-6551
▁иллю	-6552
▁мнение	-6553
posed	-6554
▁книгу	-6555
▁non	-6556
▁French	-6557
▁отношению	-6558
▁свойства	-6559
▁дочь	-6560
▁прось	-6561
▁постро	-6562
▁Тол	-6563
▁требует	-6564
нула	-6565
▁серии	-6566
▁Вар	-6567
▁первое	-6568
▁third	-6569
▁Russ	-6570
▁young	-6571
пля	-6572
▁огонь	-6573
▁счаст	-6574
▁without	-6575
▁площади	-6576
аз	-6577
кер	-6578
редото	-6579
▁Me	-6580
▁крайней	-6581
ковского	-6582
щают	-6583
▁Впрочем	-6584
рованных	-6585
▁invol	-6586
терпе	-6587
▁построен	-6588
▁короля	-6589
шений	-6590
▁герман	-6591
тную	-6592
▁service	-6593
▁экра	-6594
--------	-6595
гети	-6596
▁видно	-6597
▁общество	-6598
▁сезона	-6599
▁Count	-6600
▁зеле	-6601
снова	-6602
line	-6603
▁оправ	-6604
▁села	-6605
▁moved	-6606
Ми	-6607
▁жало	-6608
▁level	-6609
жая	-6610
жели	-6611
▁Cor	-6612
▁какая	-6613
▁брон	-6614
▁Sw	-6615
▁Коми	-6616
▁шести	-6617
▁говорится	-6618
▁Смо	-6619
▁гео	-6620
▁письма	-6621
тическим	-6622
▁РС	-6623
conom	-6624
▁компонен	-6625
против	-6626
▁экспеди	-6627
▁Международ	-6628
▁идти	-6629
▁нынеш	-6630
▁маршру	-6631
▁какого	-6632
▁попы	-6633
▁экспо	-6634
▁son	-6635
mit	-6636
▁военного	-6637
▁воспомина	-6638
▁Испо	-6639
▁оказывается	-6640
▁состава	-6641
▁Италии	-6642
▁country	-6643
лыми	-6644
▁думаю	-6645
▁Ленина	-6646
▁предвари	-6647
▁stat	-6648
▁оригина	-6649
▁пояс	-6650
▁главный	-6651
ченко	-6652
▁using	-6653
▁помочь	-6654
▁cover	-6655
▁side	-6656
cil	-6657
▁эми	-6658
▁говорили	-6659
▁плен	-6660
▁коль	-6661
▁Бог	-6662
▁схе	-6663
▁national	-6664
рика	-6665
▁собственно	-6666
▁промышленности	-6667
▁зато	-6668
▁стек	-6669
▁fac	-6670
▁крайне	-6671
▁четырех	-6672
sp	-6673
ruction	-6674
://	-6675
▁спраши	-6676
uted	-6677
▁едва	-6678
▁настрое	-6679
ilar	-6680
никах	-6681
гор	-6682
▁how	-6683
▁увидеть	-6684
▁создание	-6685
ese	-6686
▁стрем	-6687
▁however	-6688
▁чемпионата	-6689
▁original	-6690
ger	-6691
▁теку	-6692
anc	-6693
▁леген	-6694
▁убеди	-6695
▁ВВ	-6696
▁представления	-6697
▁Japan	-6698
▁Фили	-6699
▁techn	-6700
▁продолжи	-6701
ал	-6702
▁объектов	-6703
▁Был	-6704
▁края	-6705
▁наступа	-6706
▁character	-6707
вив	-6708
няли	-6709
less	-6710
▁chang	-6711
▁следующие	-6712
ample	-6713
пти	-6714
▁своё	-6715
хозяй	-6716
▁парти	-6717
▁win	-6718
▁Сов	-6719
▁вариант	-6720
▁ke	-6721
▁корабля	-6722
▁исключительно	-6723
▁Челове	-6724
▁Афри	-6725
рили	-6726
▁Кре	-6727
▁никакого	-6728
зил	-6729
▁эска	-6730
▁элемента	-6731
▁креп	-6732
▁Sec	-6733
hing	-6734
ровка	-6735
olution	-6736
▁Цер	-6737
ствий	-6738
▁Зе	-6739
ждены	-6740
жено	-6741
▁кара	-6742
льности	-6743
▁Ры	-6744
тельством	-6745
aken	-6746
▁En	-6747
▁какую	-6748
▁соревнова	-6749
▁Тут	-6750
▁include	-6751
▁железнодоро	-6752
мысле	-6753
▁Слу	-6754
▁проходит	-6755
▁втор	-6756
▁appear	-6757
▁вероят	-6758
техни	-6759
ъя	-6760
▁But	-6761
▁нарко	-6762
шению	-6763
▁успеш	-6764
▁Бри	-6765
▁Гар	-6766
▁участников	-6767
▁Ря	-6768
вляют	-6769
▁жил	-6770
▁неде	-6771
▁резер	-6772
be	-6773
▁проведе	-6774
менить	-6775
▁данном	-6776
сел	-6777
▁ке	-6778
▁крупных	-6779
▁особенности	-6780
▁che	-6781
rest	-6782
▁Сегодня	-6783
▁писать	-6784
▁пласти	-6785
▁затра	-6786
вёл	-6787
терна	-6788
▁State	-6789
▁первая	-6790
▁published	-6791
▁выделя	-6792
▁элементов	-6793
▁fore	-6794
▁трав	-6795
▁увидел	-6796
rote	-6797
дует	-6798
рованы	-6799
ковский	-6800
▁некоторое	-6801
▁понял	-6802
ords	-6803
ention	-6804
▁эволю	-6805
жена	-6806
▁порядка	-6807
кле	-6808
▁сказала	-6809
щему	-6810
▁Генера	-6811
▁природ	-6812
ests	-6813
▁отметил	-6814
ampions	-6815
▁жел	-6816
ape	-6817
▁population	-6818
▁возникает	-6819
▁Тер	-6820
поте	-6821
▁Моло	-6822
▁устройства	-6823
▁friend	-6824
шением	-6825
▁сложи	-6826
лке	-6827
▁gr	-6828
чиная	-6829
▁чемпионате	-6830
▁позднее	-6831
серва	-6832
▁млрд	-6833
▁команда	-6834
▁селе	-6835
▁спорт	-6836
▁разум	-6837
▁свободы	-6838
▁еписко	-6839
▁Перед	-6840
▁сельского	-6841
()	-6842
▁зака	-6843
▁know	-6844
полу	-6845
▁having	-6846
▁чему	-6847
▁compet	-6848
тились	-6849
▁наста	-6850
▁пребы	-6851
коль	-6852
части	-6853
ze	-6854
ream	-6855
▁Pres	-6856
▁пришел	-6857
вол	-6858
РА	-6859
▁болезни	-6860
▁млад	-6861
▁cult	-6862
лло	-6863
▁конец	-6864
▁поиска	-6865
тана	-6866
вленный	-6867
евского	-6868
йтесь	-6869
▁рассу	-6870
вёр	-6871
нном	-6872
▁поведения	-6873
▁infl	-6874
▁откуда	-6875
bl	-6876
НО	-6877
▁количества	-6878
▁These	-6879
▁учиты	-6880
▁look	-6881
▁нечто	-6882
▁рождения	-6883
▁sit	-6884
▁исследований	-6885
тье	-6886
▁сформи	-6887
▁службу	-6888
▁activ	-6889
raw	-6890
▁William	-6891
тябрь	-6892
▁полной	-6893
ency	-6894
сное	-6895
▁never	-6896
▁производство	-6897
сыла	-6898
коле	-6899
▁Роб	-6900
▁водой	-6901
стера	-6902
▁ряда	-6903
▁Изра	-6904
▁молодо	-6905
роваться	-6906
▁пусть	-6907
▁должности	-6908
▁role	-6909
▁fre	-6910
▁конкурен	-6911
ald	-6912
цио	-6913
ries	-6914
лож	-6915
lish	-6916
сюда	-6917
▁недели	-6918
▁книг	-6919
мит	-6920
▁развер	-6921
▁книга	-6922
▁окончания	-6923
▁real	-6924
▁памят	-6925
▁отдела	-6926
▁IV	-6927
▁ТАСС	-6928
ops	-6929
▁тща	-6930
▁пет	-6931
▁station	-6932
▁ох	-6933
aul	-6934
▁Поз	-6935
ань	-6936
▁деревя	-6937
▁Правда	-6938
нета	-6939
пил	-6940
▁Василь	-6941
▁начальник	-6942
▁характера	-6943
▁несо	-6944
▁Макси	-6945
▁метод	-6946
▁пусты	-6947
▁business	-6948
▁слыша	-6949
▁титу	-6950
▁задержа	-6951
чился	-6952
▁Кара	-6953
eth	-6954
▁died	-6955
▁гаран	-6956
ьев	-6957
"[	-6958
рень	-6959
думы	-6960
▁started	-6961
▁стати	-6962
▁Acc	-6963
▁tem	-6964
ниться	-6965
▁бомбарди	-6966
новение	-6967
▁пило	-6968
мому	-6969
▁нака	-6970
▁вось	-6971
▁запу	-6972
ванию	-6973
женные	-6974
▁случаев	-6975
▁спросил	-6976
▁полк	-6977
ones	-6978
▁обозна	-6979
▁Ang	-6980
arent	-6981
дете	-6982
▁наша	-6983
▁публика	-6984
▁решили	-6985
▁государство	-6986
честве	-6987
▁преобразова	-6988
▁представителей	-6989
iber	-6990
▁attempt	-6991
стен	-6992
говари	-6993
▁Med	-6994
▁восем	-6995
▁регули	-6996
нями	-6997
▁никак	-6998
▁порядок	-6999
▁укреп	-7000
личия	-7001
▁обстоятельства	-7002
Та	-7003
ole	-7004
мато	-7005
дим	-7006
дея	-7007
нар	-7008
▁текст	-7009
osp	-7010
ЕЛ	-7011
▁command	-7012
Йор	-7013
сения	-7014
▁начинается	-7015
uk	-7016
▁периода	-7017
жают	-7018
стры	-7019
▁слуша	-7020
емым	-7021
▁явно	-7022
лера	-7023
vers	-7024
ached	-7025
душ	-7026
▁факуль	-7027
▁Хи	-7028
▁выбира	-7029
рабаты	-7030
словно	-7031
▁принято	-7032
▁одному	-7033
▁реа	-7034
▁Эр	-7035
▁prote	-7036
Си	-7037
▁Андрей	-7038
▁Ир	-7039
▁Res	-7040
▁Особ	-7041
ющему	-7042
вец	-7043
▁знаком	-7044
▁сосредото	-7045
зме	-7046
▁прин	-7047
чется	-7048
val	-7049
конча	-7050
▁Земли	-7051
лиза	-7052
шина	-7053
▁законом	-7054
▁With	-7055
▁нрави	-7056
▁штаба	-7057
ttp	-7058
▁непро	-7059
▁данной	-7060
▁клад	-7061
▁каждом	-7062
чие	-7063
▁соблю	-7064
▁иностранных	-7065
bs	-7066
▁подвод	-7067
▁политической	-7068
▁Поскольку	-7069
ana	-7070
▁####	-7071
▁want	-7072
▁дре	-7073
▁history	-7074
lev	-7075
▁появились	-7076
??	-7077
▁иной	-7078
мули	-7079
▁days	-7080
▁насколько	-7081
▁educ	-7082
▁баш	-7083
▁see	-7084
▁конкур	-7085
гри	-7086
кратно	-7087
▁армия	-7088
рно	-7089
стройки	-7090
▁ву	-7091
жном	-7092
▁конферен	-7093
▁матче	-7094
▁north	-7095
▁опу	-7096
▁Кан	-7097
раб	-7098
▁Каждый	-7099
▁торже	-7100
плы	-7101
▁Рей	-7102
▁разби	-7103
льному	-7104
▁жест	-7105
сным	-7106
▁view	-7107
чник	-7108
зать	-7109
читься	-7110
▁флота	-7111
▁родствен	-7112
▁Part	-7113
▁announced	-7114
▁дворя	-7115
няются	-7116
тила	-7117
▁rad	-7118
▁рубе	-7119
▁Иногда	-7120
▁горе	-7121
▁ракет	-7122
▁tw	-7123
▁данный	-7124
▁member	-7125
▁continued	-7126
▁Рим	-7127
▁современной	-7128
▁Sup	-7129
▁коммента	-7130
▁clos	-7131
▁небольшой	-7132
▁земля	-7133
▁гос	-7134
lear	-7135
eneral	-7136
змом	-7137
▁камен	-7138
▁маги	-7139
▁направлен	-7140
май	-7141
estern	-7142
▁гим	-7143
лови	-7144
▁института	-7145
ствовала	-7146
▁Вен	-7147
ivid	-7148
▁повре	-7149
▁given	-7150
▁шах	-7151
▁иск	-7152
Ме	-7153
▁взял	-7154
толи	-7155
▁La	-7156
ories	-7157
Мы	-7158
▁let	-7159
ourn	-7160
▁дальнейшем	-7161
▁класс	-7162
▁неодно	-7163
▁ядер	-7164
ванием	-7165
▁завода	-7166
oon	-7167
rag	-7168
нете	-7169
фициаль	-7170
▁вку	-7171
▁обслужи	-7172
▁игр	-7173
▁Нача	-7174
▁himself	-7175
%.	-7176
▁получения	-7177
зиру	-7178
юр	-7179
▁води	-7180
▁исход	-7181
▁меры	-7182
▁help	-7183
▁зарабо	-7184
▁голос	-7185
▁squ	-7186
зами	-7187
▁Иванович	-7188
ested	-7189
▁членом	-7190
эль	-7191
штей	-7192
▁доли	-7193
чера	-7194
▁control	-7195
жка	-7196
воен	-7197
ino	-7198
сии	-7199
бенок	-7200
ссер	-7201
▁основании	-7202
циям	-7203
▁хозяйства	-7204
▁вами	-7205
▁активно	-7206
▁представить	-7207
▁проведения	-7208
▁перевод	-7209
▁хло	-7210
▁Министер	-7211
жим	-7212
▁записа	-7213
▁собственной	-7214
▁предложил	-7215
indows	-7216
▁Джей	-7217
бку	-7218
▁стихот	-7219
нская	-7220
▁школу	-7221
▁нерв	-7222
▁входит	-7223
ef	-7224
▁оз	-7225
aff	-7226
благо	-7227
▁wrote	-7228
щением	-7229
▁использование	-7230
▁Canad	-7231
▁считают	-7232
▁returned	-7233
▁претен	-7234
oph	-7235
▁мед	-7236
▁Москва	-7237
▁границы	-7238
▁задач	-7239
ots	-7240
▁Пока	-7241
▁list	-7242
▁трени	-7243
▁Еги	-7244
▁советских	-7245
При	-7246
▁адре	-7247
▁sw	-7248
жье	-7249
▁заключается	-7250
дю	-7251
▁Иль	-7252
берг	-7253
льность	-7254
▁достоин	-7255
▁Акаде	-7256
▁Поли	-7257
ugg	-7258
▁наоборот	-7259
▁Азии	-7260
рас	-7261
▁вынужден	-7262
▁вдоль	-7263
▁боро	-7264
кнул	-7265
▁served	-7266
▁охва	-7267
▁вру	-7268
▁best	-7269
▁сознания	-7270
▁вверх	-7271
▁неё	-7272
▁масса	-7273
▁Ак	-7274
кал	-7275
▁Ок	-7276
▁моих	-7277
▁author	-7278
Ба	-7279
▁Шта	-7280
▁собо	-7281
▁придется	-7282
',	-7283
▁автора	-7284
▁изба	-7285
▁МО	-7286
▁главного	-7287
чами	-7288
▁inform	-7289
▁научно	-7290
ментом	-7291
▁предше	-7292
▁represent	-7293
▁большеви	-7294
вё	-7295
дры	-7296
▁гене	-7297
твор	-7298
чив	-7299
ouncil	-7300
Бе	-7301
▁специ	-7302
==	-7303
ference	-7304
▁относятся	-7305
used	-7306
▁выстав	-7307
▁губернии	-7308
канчи	-7309
▁English	-7310
▁бассе	-7311
ford	-7312
сё	-7313
▁Оно	-7314
▁сексуаль	-7315
▁Очень	-7316
бели	-7317
▁tot	-7318
▁ликви	-7319
▁development	-7320
▁достижения	-7321
▁советской	-7322
▁students	-7323
reg	-7324
крови	-7325
▁православ	-7326
▁Park	-7327
oid	-7328
err	-7329
нности	-7330
▁герои	-7331
▁профессор	-7332
abor	-7333
irc	-7334
▁Президен	-7335
▁отсутствие	-7336
вились	-7337
ченной	-7338
▁дороге	-7339
ington	-7340
▁Afric	-7341
▁комитета	-7342
▁царя	-7343
▁горизо	-7344
▁налого	-7345
нила	-7346
▁common	-7347
▁Вскоре	-7348
▁деревни	-7349
▁командир	-7350
▁русские	-7351
▁инду	-7352
▁сравнению	-7353
кл	-7354
▁Спи	-7355
▁воин	-7356
▁дыха	-7357
▁побере	-7358
▁другую	-7359
▁высокой	-7360
чков	-7361
▁увели	-7362
▁поселения	-7363
▁previous	-7364
дает	-7365
▁считается	-7366
▁напи	-7367
na	-7368
▁pain	-7369
▁неделю	-7370
▁Высо	-7371
▁position	-7372
тировал	-7373
▁сухо	-7374
▁Генри	-7375
▁field	-7376
▁соответственно	-7377
надцати	-7378
ridge	-7379
▁belie	-7380
▁стратеги	-7381
▁городов	-7382
вига	-7383
ждению	-7384
▁атмосф	-7385
стым	-7386
▁does	-7387
▁somet	-7388
▁базе	-7389
▁priv	-7390
▁правильно	-7391
▁Dav	-7392
▁обратно	-7393
▁лабора	-7394
ственными	-7395
▁Наконец	-7396
езде	-7397
ius	-7398
▁здания	-7399
plic	-7400
▁оружие	-7401
▁статье	-7402
стам	-7403
▁ПО	-7404
▁портре	-7405
▁сельсо	-7406
▁Эн	-7407
▁управление	-7408
▁лице	-7409
имость	-7410
iron	-7411
▁номер	-7412
▁идея	-7413
▁выста	-7414
▁inf	-7415
▁успешно	-7416
▁компьютер	-7417
▁less	-7418
дан	-7419
▁считал	-7420
▁mag	-7421
▁dest	-7422
▁Ser	-7423
▁недавно	-7424
sequ	-7425
▁участвовал	-7426
▁Глава	-7427
щики	-7428
▁преде	-7429
▁Soc	-7430
стный	-7431
▁Жу	-7432
▁ночью	-7433
ER	-7434
▁arr	-7435
▁Ne	-7436
▁перемен	-7437
▁окончил	-7438
▁Алексей	-7439
центра	-7440
ably	-7441
▁ненави	-7442
▁Красной	-7443
▁Gl	-7444
▁бесс	-7445
forman	-7446
▁СП	-7447
ненные	-7448
▁население	-7449
▁imp	-7450
сля	-7451
▁удосто	-7452
шкой	-7453
▁повер	-7454
мыми	-7455
▁знания	-7456
▁обучения	-7457
duct	-7458
▁добра	-7459
чкой	-7460
▁начать	-7461
▁case	-7462
▁Des	-7463
▁Сла	-7464
▁стои	-7465
ВО	-7466
▁Tr	-7467
▁Коман	-7468
▁Пло	-7469
▁трево	-7470
▁поведение	-7471
▁сче	-7472
▁political	-7473
▁строительства	-7474
фов	-7475
▁процеду	-7476
▁закона	-7477
▁постра	-7478
▁песни	-7479
▁май	-7480
BC	-7481
денти	-7482
▁вышла	-7483
▁высказыва	-7484
ued	-7485
▁Россию	-7486
бая	-7487
▁воздуха	-7488
щика	-7489
▁Олимпий	-7490
ряду	-7491
▁символи	-7492
▁High	-7493
▁Rep	-7494
▁впло	-7495
стических	-7496
▁вещества	-7497
▁put	-7498
▁остальные	-7499
ровой	-7500
▁Кли	-7501
▁vill	-7502
прос	-7503
купа	-7504
▁Phil	-7505
▁принимать	-7506
кового	-7507
avy	-7508
▁сай	-7509
▁поо	-7510
ступили	-7511
▁Верховного	-7512
кость	-7513
нга	-7514
▁Дело	-7515
Се	-7516
стый	-7517
▁существования	-7518
▁потребо	-7519
▁ide	-7520
▁сообщения	-7521
▁special	-7522
artment	-7523
▁отчет	-7524
▁последних	-7525
ning	-7526
etwork	-7527
рат	-7528
▁pract	-7529
мм	-7530
▁катастро	-7531
▁прика	-7532
▁фла	-7533
▁оса	-7534
▁рост	-7535
yle	-7536
▁завтра	-7537
▁various	-7538
▁носи	-7539
AS	-7540
▁ant	-7541
▁большого	-7542
▁сила	-7543
РО	-7544
▁господ	-7545
джет	-7546
щено	-7547
▁оказалась	-7548
▁снаря	-7549
рной	-7550
▁tro	-7551
▁meet	-7552
зербай	-7553
▁гром	-7554
▁Анто	-7555
▁current	-7556
▁defe	-7557
▁###	-7558
▁ориен	-7559
Ре	-7560
зербайджа	-7561
▁x	-7562
▁определить	-7563
ination	-7564
▁названия	-7565
▁заму	-7566
▁кем	-7567
▁основные	-7568
несен	-7569
▁сопровожда	-7570
▁сожалению	-7571
▁фер	-7572
право	-7573
▁important	-7574
▁внеза	-7575
iment	-7576
▁military	-7577
▁Солн	-7578
▁силой	-7579
▁вниз	-7580
off	-7581
стика	-7582
▁заниматься	-7583
▁Японии	-7584
▁газеты	-7585
▁Сло	-7586
щаются	-7587
▁z	-7588
▁семи	-7589
▁мужчина	-7590
▁условий	-7591
▁Петербур	-7592
▁препят	-7593
▁владель	-7594
бах	-7595
▁мае	-7596
▁инженер	-7597
тном	-7598
▁паралле	-7599
▁имеется	-7600
деления	-7601
▁rese	-7602
▁оско	-7603
нью	-7604
▁подозре	-7605
▁боже	-7606
▁директор	-7607
▁поза	-7608
▁Ag	-7609
▁вопросов	-7610
omb	-7611
▁Спа	-7612
ush	-7613
▁To	-7614
нья	-7615
турой	-7616
▁San	-7617
▁реализации	-7618
▁внутренних	-7619
спонден	-7620
ither	-7621
▁вообра	-7622
зок	-7623
шили	-7624
▁нако	-7625
.;	-7626
стю	-7627
▁Ее	-7628
▁Ему	-7629
▁смотри	-7630
▁моду	-7631
ividual	-7632
▁Филип	-7633
ехали	-7634
▁Интер	-7635
▁станов	-7636
▁яй	-7637
▁отре	-7638
▁Обы	-7639
▁south	-7640
▁away	-7641
▁мужчин	-7642
▁коммер	-7643
йского	-7644
зировать	-7645
▁контроли	-7646
лива	-7647
мами	-7648
ule	-7649
▁прошлом	-7650
▁двой	-7651
▁связано	-7652
▁динами	-7653
ковым	-7654
▁парамет	-7655
▁обеспечения	-7656
▁Ст	-7657
▁император	-7658
▁пожалуй	-7659
▁желание	-7660
доне	-7661
▁ограничи	-7662
делить	-7663
▁запла	-7664
▁Петро	-7665
щер	-7666
▁доктор	-7667
ways	-7668
▁Надо	-7669
▁понятия	-7670
зацию	-7671
▁российский	-7672
▁сфере	-7673
aly	-7674
▁применения	-7675
▁Вам	-7676
▁каком	-7677
▁идей	-7678
▁чтоб	-7679
isc	-7680
▁must	-7681
▁бата	-7682
▁feature	-7683
▁неприя	-7684
▁искать	-7685
▁established	-7686
▁приходилось	-7687
носит	-7688
▁further	-7689
▁эксперимента	-7690
▁делу	-7691
▁экономики	-7692
▁строго	-7693
▁эпохи	-7694
вому	-7695
▁вечер	-7696
▁появился	-7697
ertain	-7698
▁играть	-7699
▁Суще	-7700
ogn	-7701
▁столк	-7702
▁Вене	-7703
▁инвести	-7704
icro	-7705
ivil	-7706
▁правила	-7707
▁Sm	-7708
▁содержание	-7709
utes	-7710
▁улицы	-7711
▁спектак	-7712
▁Br	-7713
▁сердца	-7714
▁оцени	-7715
▁нашем	-7716
▁остался	-7717
▁телефон	-7718
▁основы	-7719
idence	-7720
▁сва	-7721
▁главы	-7722
hold	-7723
▁caus	-7724
▁воде	-7725
▁рук	-7726
тивное	-7727
▁Reg	-7728
ope	-7729
▁начальника	-7730
▁fem	-7731
▁упраж	-7732
влял	-7733
лости	-7734
▁similar	-7735
▁Фри	-7736
первых	-7737
▁заинтере	-7738
нено	-7739
▁скорости	-7740
▁ситуация	-7741
▁intro	-7742
▁креди	-7743
▁университет	-7744
▁бук	-7745
▁Sch	-7746
вказ	-7747
▁Спе	-7748
▁потреби	-7749
▁естественно	-7750
мум	-7751
▁восприя	-7752
кол	-7753
рных	-7754
▁провести	-7755
▁Вместе	-7756
эт	-7757
▁роста	-7758
▁хол	-7759
▁full	-7760
▁эн	-7761
▁Ах	-7762
lin	-7763
▁фаши	-7764
▁руководство	-7765
▁делают	-7766
▁герцо	-7767
▁абсолютно	-7768
▁Хоро	-7769
▁дета	-7770
▁games	-7771
▁нрав	-7772
▁story	-7773
▁Act	-7774
летний	-7775
▁встречи	-7776
▁верто	-7777
▁устой	-7778
▁сезоне	-7779
roll	-7780
▁Оль	-7781
▁марте	-7782
rap	-7783
▁lim	-7784
▁times	-7785
▁Дол	-7786
щён	-7787
ights	-7788
▁степень	-7789
товых	-7790
▁ордена	-7791
▁Ци	-7792
▁славя	-7793
epend	-7794
тность	-7795
alt	-7796
▁искусство	-7797
▁influ	-7798
▁целей	-7799
▁рассказал	-7800
▁контак	-7801
▁vol	-7802
▁мозга	-7803
тяну	-7804
▁бело	-7805
▁губерна	-7806
▁друзей	-7807
▁интен	-7808
▁подготовки	-7809
▁km	-7810
▁отста	-7811
▁капитали	-7812
▁Народ	-7813
▁успеха	-7814
▁прошлого	-7815
▁текста	-7816
шены	-7817
lection	-7818
▁топли	-7819
umb	-7820
льского	-7821
▁заболевания	-7822
roup	-7823
▁юно	-7824
довой	-7825
▁бого	-7826
▁Казах	-7827
▁нём	-7828
▁бесе	-7829
▁институт	-7830
▁масло	-7831
gether	-7832
▁впечатление	-7833
▁social	-7834
wh	-7835
▁together	-7836
▁фактически	-7837
▁Дэ	-7838
▁invest	-7839
▁автомати	-7840
▁молодой	-7841
▁полиции	-7842
▁национальной	-7843
ampionship	-7844
▁немедленно	-7845
дание	-7846
▁представители	-7847
▁деревне	-7848
дне	-7849
▁particular	-7850
▁появляется	-7851
▁Без	-7852
▁lost	-7853
▁последнее	-7854
▁групп	-7855
▁элементы	-7856
▁лето	-7857
▁преступления	-7858
▁тип	-7859
порт	-7860
▁popular	-7861
▁неред	-7862
▁langu	-7863
▁production	-7864
ордина	-7865
зал	-7866
▁объекта	-7867
▁будучи	-7868
ровании	-7869
▁et	-7870
▁код	-7871
енье	-7872
▁проник	-7873
▁тему	-7874
ложений	-7875
▁матча	-7876
паде	-7877
▁головы	-7878
▁очевид	-7879
oe	-7880
▁Родился	-7881
adem	-7882
▁ident	-7883
▁хотелось	-7884
кульп	-7885
▁данного	-7886
▁узнать	-7887
веря	-7888
▁comb	-7889
▁fail	-7890
▁гне	-7891
▁XVIII	-7892
oney	-7893
лега	-7894
▁дро	-7895
▁arch	-7896
▁въ	-7897
▁Джа	-7898
▁раздра	-7899
▁half	-7900
новой	-7901
▁sol	-7902
менять	-7903
боро	-7904
эм	-7905
▁sum	-7906
▁соли	-7907
ьи	-7908
▁прио	-7909
▁Побе	-7910
▁вызывает	-7911
▁привести	-7912
▁дверь	-7913
▁здание	-7914
ying	-7915
прият	-7916
жнему	-7917
ours	-7918
▁мело	-7919
реги	-7920
▁ство	-7921
▁шел	-7922
▁био	-7923
например	-7924
▁econom	-7925
▁строительство	-7926
most	-7927
тировать	-7928
▁крат	-7929
ИТ	-7930
ara	-7931
▁ваш	-7932
▁концу	-7933
рные	-7934
▁километров	-7935
▁Евге	-7936
▁Ль	-7937
россий	-7938
▁организаций	-7939
▁Кана	-7940
оном	-7941
▁Бори	-7942
▁Ленинград	-7943
станции	-7944
рана	-7945
ising	-7946
ложил	-7947
▁последнего	-7948
▁познакоми	-7949
▁Воро	-7950
▁Дмитрий	-7951
▁этими	-7952
ут	-7953
возь	-7954
▁вопло	-7955
ционная	-7956
чок	-7957
ехать	-7958
▁январе	-7959
▁осталось	-7960
▁специально	-7961
▁сентябре	-7962
▁Хар	-7963
▁пришли	-7964
няться	-7965
▁самолета	-7966
тивным	-7967
▁тридца	-7968
▁ума	-7969
▁мерт	-7970
▁академии	-7971
▁сюда	-7972
▁августе	-7973
ФСР	-7974
ky	-7975
ЕТ	-7976
▁match	-7977
▁декабре	-7978
▁будущем	-7979
вшем	-7980
нском	-7981
▁individual	-7982
▁кладби	-7983
▁положении	-7984
▁серебря	-7985
▁cond	-7986
uit	-7987
▁career	-7988
▁российских	-7989
рована	-7990
▁general	-7991
▁новым	-7992
сме	-7993
нант	-7994
▁схва	-7995
▁вода	-7996
▁League	-7997
▁вои	-7998
▁видели	-7999
▁example	-8000
▁Иоан	-8001
▁сты	-8002
▁служи	-8003
нях	-8004
енью	-8005
стской	-8006
▁уника	-8007
cast	-8008
▁школа	-8009
▁самолет	-8010
шко	-8011
▁драма	-8012
ells	-8013
▁комиссии	-8014
▁броса	-8015
▁total	-8016
▁Воло	-8017
▁именем	-8018
▁human	-8019
▁буржу	-8020
▁hig	-8021
ципли	-8022
▁огне	-8023
▁здоро	-8024
исто	-8025
тивная	-8026
▁случайно	-8027
▁семья	-8028
оти	-8029
▁выпла	-8030
▁лекар	-8031
▁богат	-8032
рай	-8033
="	-8034
▁материалов	-8035
ционно	-8036
........	-8037
вшаяся	-8038
брать	-8039
▁born	-8040
▁среды	-8041
bor	-8042
жными	-8043
бую	-8044
тивы	-8045
▁анализа	-8046
▁created	-8047
гнуть	-8048
▁информация	-8049
▁поэт	-8050
▁голу	-8051
▁форм	-8052
▁солне	-8053
▁моги	-8054
▁самому	-8055
ances	-8056
▁шли	-8057
rem	-8058
▁шла	-8059
▁изображения	-8060
▁сор	-8061
▁РСФСР	-8062
▁половине	-8063
▁втором	-8064
AT	-8065
▁Сем	-8066
▁находились	-8067
▁мили	-8068
▁такими	-8069
pecial	-8070
▁допуска	-8071
▁While	-8072
пания	-8073
▁fire	-8074
▁знали	-8075
▁host	-8076
зию	-8077
▁победу	-8078
▁сможет	-8079
льник	-8080
▁справедливо	-8081
▁Упра	-8082
▁глазами	-8083
lex	-8084
rug	-8085
▁Петра	-8086
▁группе	-8087
граф	-8088
▁According	-8089
▁явления	-8090
▁эмоциона	-8091
▁социальной	-8092
жён	-8093
▁кан	-8094
▁ask	-8095
жие	-8096
▁осла	-8097
▁корпора	-8098
▁думать	-8099
ведён	-8100
▁глазах	-8101
leg	-8102
▁prim	-8103
▁показывает	-8104
▁поса	-8105
▁растений	-8106
▁постано	-8107
▁Само	-8108
▁сотрудников	-8109
▁выхода	-8110
▁эко	-8111
▁гидро	-8112
▁сделали	-8113
▁установить	-8114
▁усилия	-8115
▁утром	-8116
рованные	-8117
▁обществе	-8118
▁неизбе	-8119
следования	-8120
цар	-8121
▁лиш	-8122
▁старо	-8123
▁иденти	-8124
▁почув	-8125
▁способность	-8126
▁reported	-8127
▁кно	-8128
▁Иванов	-8129
менте	-8130
▁located	-8131
▁бол	-8132
хам	-8133
пси	-8134
▁сути	-8135
▁River	-8136
▁картин	-8137
▁вино	-8138
ллер	-8139
кторов	-8140
▁блю	-8141
▁Фин	-8142
▁рассе	-8143
aign	-8144
▁министер	-8145
ходом	-8146
▁pri	-8147
▁организма	-8148
▁official	-8149
▁fund	-8150
▁proper	-8151
▁прикры	-8152
▁наси	-8153
рованного	-8154
▁философии	-8155
▁decl	-8156
▁обита	-8157
▁небо	-8158
▁General	-8159
▁нередко	-8160
▁кори	-8161
▁восполь	-8162
▁целе	-8163
▁появилась	-8164
стрее	-8165
▁категории	-8166
▁performan	-8167
▁dev	-8168
▁вещей	-8169
itor	-8170
Ле	-8171
▁новая	-8172
тности	-8173
▁картины	-8174
ьет	-8175
elt	-8176
дох	-8177
▁Ат	-8178
Вы	-8179
▁двадцать	-8180
физи	-8181
▁title	-8182
лога	-8183
▁поддержку	-8184
▁партия	-8185
▁группи	-8186
▁лежит	-8187
бят	-8188
вяз	-8189
То	-8190
▁очевидно	-8191
▁сайт	-8192
rain	-8193
▁записи	-8194
▁Виль	-8195
▁Per	-8196
▁стихотво	-8197
▁группу	-8198
▁известный	-8199
деся	-8200
▁заметил	-8201
выше	-8202
▁выполнения	-8203
▁grad	-8204
▁лучших	-8205
AR	-8206
▁indust	-8207
▁House	-8208
▁республики	-8209
▁послу	-8210
▁князя	-8211
▁прояви	-8212
▁International	-8213
стого	-8214
шают	-8215
▁community	-8216
▁подобных	-8217
▁aut	-8218
▁силами	-8219
▁связыва	-8220
жащих	-8221
страи	-8222
ays	-8223
▁миру	-8224
ica	-8225
мети	-8226
▁Наиболее	-8227
▁your	-8228
▁Всего	-8229
▁отка	-8230
▁разнообраз	-8231
▁Институ	-8232
▁Великобритании	-8233
▁используют	-8234
▁уточ	-8235
▁виды	-8236
▁намере	-8237
ett	-8238
ЛА	-8239
▁Созда	-8240
▁foot	-8241
ющейся	-8242
тик	-8243
rated	-8244
▁Рис	-8245
▁Северной	-8246
ences	-8247
▁приблизи	-8248
▁deg	-8249
ленные	-8250
▁однажды	-8251
нилось	-8252
щали	-8253
тацию	-8254
стка	-8255
▁взрос	-8256
льт	-8257
▁Нов	-8258
▁остров	-8259
▁vict	-8260
▁традиции	-8261
страции	-8262
▁представитель	-8263
▁современных	-8264
▁опи	-8265
тяги	-8266
▁тенден	-8267
▁погру	-8268
нские	-8269
▁технологии	-8270
▁проме	-8271
пах	-8272
iol	-8273
irl	-8274
рованный	-8275
hib	-8276
▁Street	-8277
ee	-8278
▁Бор	-8279
▁получает	-8280
▁epis	-8281
льский	-8282
▁авиации	-8283
евский	-8284
▁Далее	-8285
▁Америки	-8286
▁grow	-8287
▁причине	-8288
ened	-8289
▁нашу	-8290
▁едино	-8291
▁конфи	-8292
▁considered	-8293
▁ребенок	-8294
▁Зи	-8295
формы	-8296
▁переход	-8297
▁представление	-8298
In	-8299
▁мра	-8300
▁документов	-8301
▁стрель	-8302
ступила	-8303
▁самая	-8304
yl	-8305
▁размер	-8306
чками	-8307
▁body	-8308
охра	-8309
▁College	-8310
мона	-8311
▁hold	-8312
▁making	-8313
▁пространства	-8314
дится	-8315
▁октябре	-8316
▁глубоко	-8317
▁содержит	-8318
▁покло	-8319
вающих	-8320
▁struct	-8321
here	-8322
▁bas	-8323
▁оппози	-8324
▁England	-8325
лант	-8326
ссию	-8327
▁фоне	-8328
▁никакой	-8329
▁переу	-8330
▁others	-8331
!..	-8332
▁документы	-8333
▁выстре	-8334
▁ведом	-8335
▁ord	-8336
▁привет	-8337
▁пище	-8338
▁too	-8339
вило	-8340
▁вследствие	-8341
ource	-8342
▁отстав	-8343
▁горы	-8344
▁Извест	-8345
▁вечером	-8346
▁невы	-8347
▁вернуться	-8348
▁участия	-8349
▁небольшо	-8350
▁генерала	-8351
нуться	-8352
▁profess	-8353
▁безопас	-8354
▁научных	-8355
▁histor	-8356
▁самолетов	-8357
гант	-8358
▁гвардей	-8359
кос	-8360
тными	-8361
▁реф	-8362
▁ВВС	-8363
▁члены	-8364
▁испра	-8365
пку	-8366
▁продукции	-8367
▁строе	-8368
мию	-8369
▁Che	-8370
▁опыта	-8371
прежнему	-8372
ferred	-8373
▁Кита	-8374
▁обши	-8375
▁контроль	-8376
▁сма	-8377
рный	-8378
▁From	-8379
▁worked	-8380
▁Art	-8381
▁литературе	-8382
▁предложения	-8383
дё	-8384
▁одер	-8385
▁mother	-8386
▁началась	-8387
дации	-8388
aining	-8389
▁упомя	-8390
pite	-8391
лию	-8392
вами	-8393
▁сосу	-8394
▁природе	-8395
чила	-8396
жом	-8397
▁Автор	-8398
▁origin	-8399
iting	-8400
▁President	-8401
▁имела	-8402
▁спец	-8403
ma	-8404
▁brother	-8405
▁разговор	-8406
▁разработчи	-8407
стром	-8408
вшему	-8409
▁квали	-8410
oyal	-8411
▁Pe	-8412
▁методы	-8413
▁Mon	-8414
рье	-8415
▁газо	-8416
цвет	-8417
▁министр	-8418
▁Ска	-8419
▁рукой	-8420
▁преимущественно	-8421
▁якобы	-8422
▁Army	-8423
фом	-8424
nder	-8425
▁будущего	-8426
▁фабри	-8427
▁сопер	-8428
▁руб	-8429
▁week	-8430
▁лейте	-8431
▁требуется	-8432
жья	-8433
зму	-8434
▁мужчины	-8435
▁joined	-8436
▁East	-8437
▁плю	-8438
▁скульп	-8439
net	-8440
нились	-8441
▁Было	-8442
▁медленно	-8443
▁структуры	-8444
▁строй	-8445
▁разъ	-8446
▁обли	-8447
▁основания	-8448
▁стари	-8449
бан	-8450
▁low	-8451
Об	-8452
▁site	-8453
пуль	-8454
▁хво	-8455
▁существование	-8456
▁working	-8457
▁зару	-8458
▁gave	-8459
▁биологи	-8460
кости	-8461
▁)	-8462
▁принадлежит	-8463
евна	-8464
▁appoint	-8465
▁передачи	-8466
пок	-8467
▁душе	-8468
▁знаем	-8469
▁артиллерий	-8470
тес	-8471
mp	-8472
▁ground	-8473
▁спорта	-8474
▁аэрод	-8475
▁верши	-8476
▁Много	-8477
▁обык	-8478
▁третий	-8479
несли	-8480
▁театр	-8481
▁гимна	-8482
▁руками	-8483
▁предложение	-8484
▁окончательно	-8485
гон	-8486
ИК	-8487
▁arg	-8488
▁пенси	-8489
▁грамо	-8490
пии	-8491
▁ключе	-8492
▁броне	-8493
▁once	-8494
▁ассоциа	-8495
▁ситуацию	-8496
▁test	-8497
▁прими	-8498
▁местных	-8499
органи	-8500
▁провинции	-8501
▁Фер	-8502
▁правил	-8503
▁Нау	-8504
▁ночи	-8505
▁оформ	-8506
▁лицом	-8507
▁специфи	-8508
дие	-8509
ждением	-8510
▁Port	-8511
▁фильме	-8512
ological	-8513
▁устраи	-8514
кора	-8515
▁зага	-8516
▁замы	-8517
▁углу	-8518
▁сюжет	-8519
▁князь	-8520
era	-8521
▁назвать	-8522
дая	-8523
▁снаб	-8524
▁Ac	-8525
▁Эй	-8526
▁дели	-8527
▁заказ	-8528
▁прия	-8529
▁любого	-8530
▁договор	-8531
▁опер	-8532
рет	-8533
▁ауди	-8534
▁характеризу	-8535
▁апреле	-8536
▁министра	-8537
▁романа	-8538
▁associ	-8539
▁интервью	-8540
▁обез	-8541
oor	-8542
пр	-8543
▁выступал	-8544
▁лета	-8545
ww	-8546
жима	-8547
▁энергети	-8548
▁вплоть	-8549
▁agre	-8550
▁уско	-8551
▁отметить	-8552
▁Али	-8553
зне	-8554
▁пункт	-8555
ogle	-8556
urb	-8557
запад	-8558
▁version	-8559
▁our	-8560
▁летом	-8561
лакти	-8562
▁round	-8563
▁light	-8564
field	-8565
▁mater	-8566
▁зре	-8567
тори	-8568
▁front	-8569
▁занимает	-8570
▁strong	-8571
▁знак	-8572
мян	-8573
▁Some	-8574
▁пры	-8575
▁примеру	-8576
▁объект	-8577
▁контроля	-8578
▁попытки	-8579
▁главных	-8580
▁чай	-8581
▁Соб	-8582
▁стоял	-8583
сек	-8584
▁Red	-8585
▁видит	-8586
▁Владими	-8587
▁employ	-8588
сна	-8589
▁заканчи	-8590
логия	-8591
бет	-8592
▁нега	-8593
▁препара	-8594
▁Два	-8595
▁добавить	-8596
▁Char	-8597
▁колхо	-8598
ideo	-8599
падает	-8600
▁вез	-8601
▁июне	-8602
Как	-8603
▁полицей	-8604
▁звание	-8605
▁восемь	-8606
▁телеви	-8607
▁proble	-8608
▁государств	-8609
шинство	-8610
▁обусло	-8611
▁relations	-8612
▁государственный	-8613
кке	-8614
▁tradition	-8615
▁Rec	-8616
▁политических	-8617
ware	-8618
▁рассчиты	-8619
▁чувству	-8620
льской	-8621
зве	-8622
▁функциона	-8623
▁возвы	-8624
графии	-8625
aper	-8626
▁шан	-8627
ствования	-8628
сматри	-8629
▁County	-8630
▁играл	-8631
▁родителей	-8632
▁победы	-8633
гене	-8634
▁шаг	-8635
uel	-8636
▁консу	-8637
%,	-8638
коман	-8639
▁молоде	-8640
▁История	-8641
▁вклад	-8642
ису	-8643
пта	-8644
▁июле	-8645
рк	-8646
ctor	-8647
тическая	-8648
гин	-8649
▁отказыва	-8650
▁днев	-8651
▁стены	-8652
▁Тор	-8653
▁Украине	-8654
▁Бал	-8655
▁курс	-8656
▁пр	-8657
▁включает	-8658
▁музей	-8659
▁король	-8660
вающие	-8661
стано	-8662
▁способности	-8663
▁происхождения	-8664
▁пытался	-8665
▁программа	-8666
▁cost	-8667
▁http	-8668
Это	-8669
▁Потому	-8670
▁пан	-8671
▁становятся	-8672
▁организация	-8673
▁изменя	-8674
ношения	-8675
чия	-8676
▁ван	-8677
▁taken	-8678
iers	-8679
мно	-8680
▁мимо	-8681
▁described	-8682
лай	-8683
▁моби	-8684
▁Church	-8685
▁употребля	-8686
▁отличи	-8687
тинен	-8688
▁квадра	-8689
Ли	-8690
тропо	-8691
▁produced	-8692
стное	-8693
▁заместитель	-8694
жий	-8695
▁необходимость	-8696
▁наличие	-8697
▁используются	-8698
горе	-8699
▁приложения	-8700
раста	-8701
▁engine	-8702
▁бывший	-8703
▁свете	-8704
▁работают	-8705
мас	-8706
▁able	-8707
НК	-8708
ально	-8709
тельстве	-8710
▁миллиар	-8711
▁wife	-8712
▁преподава	-8713
▁игре	-8714
щались	-8715
now	-8716
▁сознание	-8717
▁although	-8718
nect	-8719
▁aver	-8720
▁Бли	-8721
▁sugg	-8722
▁Юго	-8723
▁прису	-8724
▁Где	-8725
▁граф	-8726
▁прекрасно	-8727
▁мин	-8728
▁Луч	-8729
▁Бан	-8730
▁команд	-8731
▁выйти	-8732
ченного	-8733
▁exist	-8734
▁пространство	-8735
пуск	-8736
▁облег	-8737
жало	-8738
▁вопросам	-8739
▁показать	-8740
▁бесконе	-8741
▁герой	-8742
▁отдельные	-8743
▁кораблей	-8744
▁рынке	-8745
▁достато	-8746
ari	-8747
▁программи	-8748
▁колон	-8749
▁посвящен	-8750
▁Джор	-8751
▁веру	-8752
▁Орден	-8753
▁гля	-8754
▁отличается	-8755
зит	-8756
▁евреев	-8757
чают	-8758
▁France	-8759
▁процессов	-8760
▁Dep	-8761
▁saw	-8762
▁корабль	-8763
женной	-8764
▁Пара	-8765
▁бизне	-8766
щиеся	-8767
тров	-8768
чеб	-8769
▁Stud	-8770
рского	-8771
▁посту	-8772
▁географи	-8773
▁Ники	-8774
▁suff	-8775
ique	-8776
▁вдох	-8777
▁дают	-8778
▁другая	-8779
________	-8780
лил	-8781
▁Ste	-8782
▁штаб	-8783
▁самостоятельно	-8784
▁mat	-8785
▁press	-8786
▁военные	-8787
IN	-8788
▁подле	-8789
▁успех	-8790
▁Индии	-8791
▁ССР	-8792
▁премьер	-8793
▁free	-8794
▁этапе	-8795
▁"...	-8796
▁ноябре	-8797
мся	-8798
▁feat	-8799
▁спокойно	-8800
▁Ber	-8801
▁months	-8802
▁куп	-8803
щению	-8804
▁заранее	-8805
▁цело	-8806
▁нагруз	-8807
▁брата	-8808
пустил	-8809
▁Сталина	-8810
ishing	-8811
▁сму	-8812
▁корпус	-8813
craft	-8814
▁всеоб	-8815
▁разработки	-8816
▁умира	-8817
▁крестья	-8818
щался	-8819
▁жены	-8820
▁городского	-8821
▁говор	-8822
▁понятие	-8823
▁боевой	-8824
неров	-8825
нулась	-8826
защи	-8827
▁назвал	-8828
зий	-8829
▁rev	-8830
совой	-8831
▁коме	-8832
▁счастли	-8833
спекти	-8834
▁little	-8835
▁mer	-8836
▁государственных	-8837
▁seen	-8838
▁married	-8839
▁товаров	-8840
▁пон	-8841
▁капитан	-8842
вершен	-8843
▁mult	-8844
сев	-8845
▁сход	-8846
▁молодых	-8847
▁church	-8848
▁Mich	-8849
▁органы	-8850
нулись	-8851
▁председатель	-8852
▁создании	-8853
▁императора	-8854
▁Париже	-8855
▁Подоб	-8856
▁signific	-8857
логов	-8858
▁здра	-8859
▁сериа	-8860
▁Бре	-8861
go	-8862
▁Бен	-8863
кала	-8864
▁диза	-8865
вана	-8866
▁сложно	-8867
▁рассказ	-8868
▁opened	-8869
ровала	-8870
▁выпуск	-8871
▁across	-8872
▁излу	-8873
▁щи	-8874
▁героя	-8875
▁night	-8876
▁владе	-8877
▁опубликова	-8878
▁объяснить	-8879
▁Московской	-8880
▁массы	-8881
▁синте	-8882
▁сообщили	-8883
▁головой	-8884
▁хочется	-8885
риф	-8886
ционе	-8887
зоб	-8888
▁буквально	-8889
▁будущее	-8890
▁аргу	-8891
aps	-8892
▁typ	-8893
эк	-8894
▁феврале	-8895
▁стади	-8896
▁компаний	-8897
▁домов	-8898
▁plan	-8899
▁отдыха	-8900
▁Помимо	-8901
OS	-8902
▁чрезвычайно	-8903
▁главной	-8904
▁don	-8905
▁areas	-8906
aut	-8907
▁достой	-8908
▁обеспечить	-8909
яз	-8910
▁грузо	-8911
▁Фло	-8912
доби	-8913
▁Тот	-8914
▁услыша	-8915
▁поезд	-8916
Ин	-8917
▁дали	-8918
▁Испании	-8919
туда	-8920
▁обоих	-8921
▁началось	-8922
▁потери	-8923
▁голове	-8924
.[	-8925
▁приказ	-8926
▁связаны	-8927
▁исключением	-8928
▁войсками	-8929
▁разда	-8930
▁works	-8931
▁блоки	-8932
▁вашей	-8933
▁Хе	-8934
экономи	-8935
пред	-8936
▁America	-8937
▁продолжал	-8938
ющегося	-8939
▁нашли	-8940
созна	-8941
▁возро	-8942
▁простой	-8943
fic	-8944
хоро	-8945
жин	-8946
▁нарушения	-8947
ровано	-8948
▁mot	-8949
шена	-8950
▁приняли	-8951
▁жидко	-8952
ждали	-8953
▁армию	-8954
пь	-8955
▁Люди	-8956
▁беспла	-8957
▁существуют	-8958
сор	-8959
play	-8960
ani	-8961
▁чуде	-8962
чти	-8963
▁party	-8964
стива	-8965
▁англича	-8966
▁particip	-8967
▁eas	-8968
▁отобра	-8969
▁обладает	-8970
▁black	-8971
year	-8972
hern	-8973
фак	-8974
▁порта	-8975
етесь	-8976
десят	-8977
ought	-8978
лено	-8979
ведены	-8980
▁любом	-8981
▁road	-8982
▁правления	-8983
▁практике	-8984
▁возле	-8985
▁ваши	-8986
▁прочита	-8987
стным	-8988
▁Владимира	-8989
▁СМИ	-8990
▁Чемпи	-8991
сную	-8992
▁пожи	-8993
ills	-8994
▁зачем	-8995
▁расстре	-8996
▁начинают	-8997
вят	-8998
▁гипоте	-8999
▁концер	-9000
▁Предста	-9001
▁окре	-9002
▁Dr	-9003
▁причин	-9004
▁воспроиз	-9005
uf	-9006
▁Windows	-9007
▁My	-9008
▁знают	-9009
▁откло	-9010
▁Hol	-9011
▁последней	-9012
▁Особенно	-9013
▁хуже	-9014
ports	-9015
▁дале	-9016
lected	-9017
▁avail	-9018
ьми	-9019
▁предска	-9020
▁добиться	-9021
▁престо	-9022
▁питания	-9023
▁Кам	-9024
▁НА	-9025
▁modern	-9026
▁coll	-9027
▁Первая	-9028
ваку	-9029
stand	-9030
▁дисципли	-9031
сибо	-9032
лкой	-9033
ждал	-9034
▁переи	-9035
▁forces	-9036
▁поступ	-9037
▁campaign	-9038
леты	-9039
▁Пор	-9040
▁сотни	-9041
▁поставить	-9042
▁самолё	-9043
гих	-9044
▁воздух	-9045
▁Василий	-9046
▁отделения	-9047
▁восстанови	-9048
ators	-9049
▁темно	-9050
дешь	-9051
▁страну	-9052
▁причиной	-9053
▁фунда	-9054
▁рынка	-9055
▁удовлетво	-9056
▁осторо	-9057
нивер	-9058
▁последствия	-9059
ault	-9060
вторых	-9061
▁пошел	-9062
▁показал	-9063
лел	-9064
▁спаса	-9065
▁отправился	-9066
▁поддержки	-9067
▁представляют	-9068
Петербур	-9069
гора	-9070
тилась	-9071
▁ten	-9072
▁журнала	-9073
▁жители	-9074
видимому	-9075
▁премии	-9076
чается	-9077
▁дочери	-9078
рие	-9079
▁служил	-9080
▁начиная	-9081
▁ter	-9082
ournal	-9083
▁Mor	-9084
▁Div	-9085
▁Армии	-9086
▁метро	-9087
дерни	-9088
lands	-9089
▁Cour	-9090
▁Киев	-9091
▁ров	-9092
▁room	-9093
▁столе	-9094
levision	-9095
▁смогли	-9096
▁диск	-9097
▁предпри	-9098
▁видим	-9099
▁предстоя	-9100
центри	-9101
▁нужны	-9102
нером	-9103
рка	-9104
Ку	-9105
▁Пом	-9106
где	-9107
▁установки	-9108
▁хотели	-9109
▁подробно	-9110
рона	-9111
▁навы	-9112
▁приходит	-9113
дку	-9114
▁сот	-9115
жество	-9116
▁быстрее	-9117
▁rail	-9118
▁попал	-9119
▁successful	-9120
сан	-9121
▁подклю	-9122
вока	-9123
itive	-9124
rick	-9125
▁Нам	-9126
▁запол	-9127
▁занимался	-9128
▁скри	-9129
▁полномо	-9130
▁продуктов	-9131
шено	-9132
▁машину	-9133
руются	-9134
▁контр	-9135
фера	-9136
▁овла	-9137
▁договора	-9138
жку	-9139
▁Мария	-9140
Де	-9141
▁ce	-9142
▁большинстве	-9143
▁склады	-9144
▁ведет	-9145
носить	-9146
рованной	-9147
водить	-9148
▁Том	-9149
диться	-9150
реи	-9151
▁вырази	-9152
▁колеба	-9153
▁ава	-9154
щина	-9155
▁fight	-9156
▁Южной	-9157
▁подобные	-9158
▁Яро	-9159
возгла	-9160
ленный	-9161
горит	-9162
▁уезда	-9163
oted	-9164
▁выглядит	-9165
istic	-9166
▁Thom	-9167
▁жизнью	-9168
▁АН	-9169
ад	-9170
теров	-9171
▁сообра	-9172
▁подда	-9173
▁Человек	-9174
▁подход	-9175
бит	-9176
▁capt	-9177
ential	-9178
▁материалы	-9179
▁мен	-9180
годно	-9181
▁учреждения	-9182
▁режим	-9183
▁Roman	-9184
▁читать	-9185
icle	-9186
▁комплекс	-9187
▁нашел	-9188
рони	-9189
▁американский	-9190
▁чёр	-9191
ament	-9192
▁Исполь	-9193
ha	-9194
▁большинства	-9195
ченным	-9196
▁лидер	-9197
▁research	-9198
itte	-9199
без	-9200
▁смотреть	-9201
стети	-9202
▁архе	-9203
▁следующем	-9204
▁автобу	-9205
▁hy	-9206
▁иных	-9207
▁Val	-9208
▁хотят	-9209
летов	-9210
▁developed	-9211
▁расстоянии	-9212
▁broad	-9213
▁ски	-9214
ensive	-9215
▁занял	-9216
▁секун	-9217
зон	-9218
▁напротив	-9219
▁поступил	-9220
?!	-9221
▁раско	-9222
cript	-9223
roy	-9224
▁мужа	-9225
вающий	-9226
лица	-9227
вокуп	-9228
▁ближе	-9229
рои	-9230
▁вице	-9231
▁видимо	-9232
▁арен	-9233
time	-9234
▁художник	-9235
▁думал	-9236
ведении	-9237
▁пределах	-9238
▁Оде	-9239
▁Бого	-9240
▁hous	-9241
ковы	-9242
▁контек	-9243
▁целях	-9244
▁ответственность	-9245
iding	-9246
▁James	-9247
pon	-9248
вляя	-9249
▁Крым	-9250
▁enc	-9251
▁fall	-9252
▁офицеров	-9253
▁mid	-9254
зиди	-9255
▁appeared	-9256
глу	-9257
men	-9258
▁ног	-9259
▁тури	-9260
▁лес	-9261
▁остались	-9262
▁мусуль	-9263
▁Associ	-9264
▁поез	-9265
▁дорогу	-9266
▁пошли	-9267
монт	-9268
▁лё	-9269
▁изменений	-9270
▁приста	-9271
▁followed	-9272
▁выходит	-9273
▁contract	-9274
кут	-9275
ership	-9276
стрий	-9277
▁сегодняш	-9278
▁Ай	-9279
▁машина	-9280
▁Иису	-9281
▁человеческого	-9282
▁веществ	-9283
▁известных	-9284
кина	-9285
диа	-9286
▁развитии	-9287
ON	-9288
рпи	-9289
▁Ян	-9290
▁профи	-9291
щет	-9292
▁поэта	-9293
hel	-9294
▁глоба	-9295
ждена	-9296
▁кавале	-9297
▁самим	-9298
▁Сначала	-9299
▁Такие	-9300
▁конститу	-9301
▁посмотреть	-9302
кен	-9303
▁еха	-9304
▁ада	-9305
▁социальных	-9306
груп	-9307
▁река	-9308
ландии	-9309
▁private	-9310
▁Сиби	-9311
кать	-9312
ёз	-9313
oo	-9314
▁источник	-9315
▁подру	-9316
▁impro	-9317
ability	-9318
▁Благодаря	-9319
▁неправи	-9320
▁Ваши	-9321
iddle	-9322
▁Париж	-9323
▁случилось	-9324
От	-9325
outher	-9326
ceed	-9327
▁университете	-9328
▁запуска	-9329
▁причины	-9330
▁сбо	-9331
▁come	-9332
▁собе	-9333
▁процентов	-9334
▁контракт	-9335
▁крово	-9336
▁средней	-9337
▁мене	-9338
▁служит	-9339
голов	-9340
▁подлин	-9341
▁George	-9342
▁номе	-9343
ama	-9344
следование	-9345
▁наличи	-9346
▁Григо	-9347
▁современного	-9348
head	-9349
▁искрен	-9350
▁минима	-9351
▁произведений	-9352
▁способом	-9353
кома	-9354
▁award	-9355
▁Официаль	-9356
dom	-9357
нув	-9358
нал	-9359
кур	-9360
еремо	-9361
порта	-9362
▁решений	-9363
▁крупные	-9364
▁яв	-9365
▁region	-9366
▁ход	-9367
▁определения	-9368
чны	-9369
▁бюро	-9370
дная	-9371
▁порт	-9372
acy	-9373
▁living	-9374
руя	-9375
Лу	-9376
▁диплома	-9377
▁результатов	-9378
▁вывод	-9379
▁пишу	-9380
▁ярко	-9381
▁успо	-9382
льф	-9383
▁рука	-9384
Ви	-9385
▁молит	-9386
orthern	-9387
▁Объ	-9388
лева	-9389
▁совместно	-9390
▁Ура	-9391
▁пытается	-9392
куро	-9393
▁European	-9394
▁статус	-9395
▁анализ	-9396
▁действовать	-9397
▁боли	-9398
▁relig	-9399
лейте	-9400
▁алкого	-9401
▁Ниж	-9402
челове	-9403
ico	-9404
цах	-9405
РИ	-9406
▁live	-9407
▁тщательно	-9408
жны	-9409
▁Pal	-9410
▁живет	-9411
▁готовы	-9412
▁Rober	-9413
▁любов	-9414
▁мою	-9415
бление	-9416
▁кровь	-9417
▁страхо	-9418
▁dam	-9419
▁немало	-9420
▁вашего	-9421
▁пале	-9422
rought	-9423
▁реке	-9424
▁связанные	-9425
эта	-9426
put	-9427
▁писателя	-9428
▁архите	-9429
▁cou	-9430
▁одни	-9431
eum	-9432
нят	-9433
Ни	-9434
▁километ	-9435
▁царь	-9436
▁высоте	-9437
новенно	-9438
▁испа	-9439
▁соответствует	-9440
itch	-9441
aughter	-9442
▁прият	-9443
▁Rich	-9444
▁промежу	-9445
▁свыше	-9446
▁Black	-9447
рма	-9448
жите	-9449
hod	-9450
хой	-9451
▁обоснова	-9452
нав	-9453
▁хотите	-9454
▁learn	-9455
анали	-9456
бления	-9457
▁изменить	-9458
▁зале	-9459
▁похоро	-9460
gress	-9461
outhern	-9462
уре	-9463
чом	-9464
▁охот	-9465
▁меда	-9466
▁командира	-9467
▁Google	-9468
▁пуле	-9469
▁материал	-9470
▁дав	-9471
▁взаим	-9472
▁Павел	-9473
▁mem	-9474
▁атом	-9475
мс	-9476
▁повсе	-9477
▁затруд	-9478
жешь	-9479
▁веков	-9480
▁человечества	-9481
▁Indian	-9482
новых	-9483
▁педагоги	-9484
▁Николая	-9485
▁Кубка	-9486
ael	-9487
▁Гали	-9488
вшимся	-9489
▁дух	-9490
▁Сим	-9491
рома	-9492
▁остальных	-9493
▁Although	-9494
юре	-9495
гляды	-9496
▁стоимость	-9497
▁направление	-9498
▁целый	-9499
ай	-9500
ницах	-9501
▁remained	-9502
града	-9503
▁операций	-9504
▁душа	-9505
▁коммуника	-9506
▁вопроса	-9507
▁консерва	-9508
стки	-9509
хождения	-9510
▁Яко	-9511
тео	-9512
▁recogn	-9513
▁ste	-9514
▁нашим	-9515
▁br	-9516
▁постанов	-9517
ES	-9518
▁разобра	-9519
▁принцип	-9520
доволь	-9521
▁понятно	-9522
▁реальности	-9523
ьера	-9524
зион	-9525
▁поколения	-9526
▁наблюдения	-9527
▁bo	-9528
▁письмен	-9529
ping	-9530
▁телефо	-9531
Те	-9532
кови	-9533
▁cast	-9534
▁огня	-9535
▁gen	-9536
▁Шо	-9537
▁Ван	-9538
▁function	-9539
aged	-9540
▁посредством	-9541
рым	-9542
▁услуг	-9543
▁играет	-9544
ibr	-9545
▁обма	-9546
minist	-9547
▁обязанности	-9548
▁талант	-9549
****	-9550
▁ано	-9551
рядо	-9552
▁местного	-9553
▁создан	-9554
слей	-9555
ковая	-9556
▁насчиты	-9557
▁upon	-9558
жаться	-9559
udd	-9560
▁задачу	-9561
водит	-9562
▁лечения	-9563
▁привя	-9564
▁ошибки	-9565
брасы	-9566
зах	-9567
hers	-9568
▁бак	-9569
▁похоже	-9570
НА	-9571
▁живут	-9572
▁красно	-9573
▁неожиданно	-9574
▁laun	-9575
▁разбира	-9576
▁дина	-9577
▁ничто	-9578
няка	-9579
чне	-9580
▁Company	-9581
oice	-9582
▁координа	-9583
▁объем	-9584
▁ответственности	-9585
▁терми	-9586
язы	-9587
▁создал	-9588
▁сыграл	-9589
ится	-9590
тел	-9591
▁останавли	-9592
▁material	-9593
▁скан	-9594
▁Австра	-9595
руссии	-9596
▁специалистов	-9597
▁говорю	-9598
ект	-9599
▁Инди	-9600
▁Петр	-9601
▁бюджет	-9602
▁thought	-9603
▁финанси	-9604
▁rul	-9605
▁Ant	-9606
▁следующее	-9607
▁кое	-9608
▁ез	-9609
▁Op	-9610
▁Име	-9611
▁мани	-9612
igned	-9613
▁вспы	-9614
рэ	-9615
блу	-9616
▁приез	-9617
▁data	-9618
▁сообщение	-9619
▁центром	-9620
▁предприятий	-9621
▁compos	-9622
▁release	-9623
▁Эд	-9624
▁Израи	-9625
сро	-9626
▁своём	-9627
▁неоднократно	-9628
▁избежать	-9629
▁молеку	-9630
▁команде	-9631
▁написать	-9632
▁наверное	-9633
▁Олимпийских	-9634
▁служить	-9635
▁программу	-9636
▁ren	-9637
дующий	-9638
▁гармо	-9639
▁озера	-9640
▁doc	-9641
▁separ	-9642
▁определяется	-9643
▁оценки	-9644
ваемых	-9645
AC	-9646
▁formed	-9647
▁играх	-9648
близи	-9649
▁укре	-9650
дика	-9651
elling	-9652
▁cross	-9653
дила	-9654
ID	-9655
▁ею	-9656
▁внутренней	-9657
лился	-9658
числи	-9659
▁Большо	-9660
▁словом	-9661
▁карьеру	-9662
▁study	-9663
▁помимо	-9664
кона	-9665
▁типи	-9666
▁Джу	-9667
▁дебю	-9668
▁pay	-9669
▁противостоя	-9670
▁связанных	-9671
asing	-9672
▁медаль	-9673
▁структур	-9674
▁Мер	-9675
▁смысла	-9676
жнее	-9677
▁вертика	-9678
▁суть	-9679
▁нужен	-9680
▁закончи	-9681
▁магни	-9682
жан	-9683
ремя	-9684
▁Позже	-9685
▁функциони	-9686
▁осуществляется	-9687
▁ve	-9688
▁вышли	-9689
ыска	-9690
чин	-9691
▁помогает	-9692
всегда	-9693
грации	-9694
▁отношениях	-9695
▁sex	-9696
▁заря	-9697
▁идут	-9698
▁адрес	-9699
▁Cap	-9700
тари	-9701
▁far	-9702
▁Юрий	-9703
▁прину	-9704
дным	-9705
тельностью	-9706
▁провёл	-9707
sel	-9708
▁пройти	-9709
ville	-9710
▁Мэ	-9711
▁Рай	-9712
ava	-9713
▁предусмотре	-9714
▁Sam	-9715
▁office	-9716
▁Бере	-9717
▁discover	-9718
▁hon	-9719
▁городской	-9720
▁тема	-9721
▁посёл	-9722
▁средневе	-9723
щь	-9724
ллиген	-9725
шали	-9726
▁зача	-9727
фер	-9728
▁желу	-9729
вия	-9730
дум	-9731
▁сумму	-9732
▁траге	-9733
▁опере	-9734
▁сеть	-9735
▁Jew	-9736
▁рациона	-9737
▁устройство	-9738
▁исте	-9739
▁чел	-9740
▁двери	-9741
▁прогно	-9742
▁gun	-9743
▁anim	-9744
▁голосо	-9745
▁актри	-9746
▁обеща	-9747
cle	-9748
▁российской	-9749
ненный	-9750
cer	-9751
▁угле	-9752
▁заба	-9753
face	-9754
▁комбина	-9755
▁городах	-9756
▁сказ	-9757
▁линей	-9758
▁газет	-9759
слова	-9760
ответ	-9761
емом	-9762
лектро	-9763
дания	-9764
▁бара	-9765
▁рынок	-9766
▁ато	-9767
▁accept	-9768
▁Большинство	-9769
▁player	-9770
▁понимать	-9771
муни	-9772
▁инструк	-9773
ЛИ	-9774
▁фар	-9775
ществи	-9776
▁получается	-9777
▁периоди	-9778
торами	-9779
▁устро	-9780
▁демонстри	-9781
▁несом	-9782
ply	-9783
▁nov	-9784
▁available	-9785
рного	-9786
▁пона	-9787
▁written	-9788
▁tre	-9789
▁Зо	-9790
▁принимает	-9791
▁бывшего	-9792
▁активи	-9793
▁внешней	-9794
▁phys	-9795
▁тера	-9796
▁следовательно	-9797
ems	-9798
▁предпочита	-9799
▁здоровья	-9800
метри	-9801
▁эфи	-9802
▁полном	-9803
▁орби	-9804
▁скром	-9805
▁зим	-9806
нх	-9807
▁нужда	-9808
▁Off	-9809
▁president	-9810
▁stated	-9811
▁апо	-9812
▁Вся	-9813
viron	-9814
▁сохранить	-9815
▁Однажды	-9816
▁Тай	-9817
ude	-9818
▁Sim	-9819
▁военный	-9820
мец	-9821
▁мон	-9822
▁подобно	-9823
спорт	-9824
▁занятия	-9825
olic	-9826
▁качество	-9827
▁зай	-9828
▁работников	-9829
▁Разу	-9830
▁насле	-9831
▁бабу	-9832
▁номина	-9833
▁market	-9834
▁Республи	-9835
▁понрави	-9836
▁музыки	-9837
▁вошли	-9838
ждено	-9839
▁статей	-9840
▁администрации	-9841
▁Шве	-9842
▁материала	-9843
▁собственности	-9844
▁Council	-9845
▁earl	-9846
▁следующим	-9847
▁circ	-9848
▁диску	-9849
▁старший	-9850
▁леса	-9851
▁Московского	-9852
▁обознача	-9853
▁человеческой	-9854
back	-9855
▁солнце	-9856
▁единственный	-9857
▁information	-9858
▁костю	-9859
▁интенсив	-9860
▁пользователей	-9861
▁валю	-9862
шель	-9863
ненной	-9864
▁идеологи	-9865
▁foc	-9866
скохозяй	-9867
змы	-9868
ЕНИ	-9869
▁self	-9870
нится	-9871
▁рак	-9872
▁вырабо	-9873
леть	-9874
ges	-9875
▁соединения	-9876
▁век	-9877
▁der	-9878
▁заверши	-9879
▁характеристи	-9880
декс	-9881
▁теория	-9882
ming	-9883
▁интересно	-9884
▁change	-9885
▁законы	-9886
ляется	-9887
▁разделе	-9888
▁Виктор	-9889
▁реакции	-9890
▁If	-9891
водятся	-9892
▁отказался	-9893
жих	-9894
тило	-9895
▁killed	-9896
▁эм	-9897
▁зарубе	-9898
▁упро	-9899
▁contrib	-9900
▁ученые	-9901
▁Америке	-9902
▁минуту	-9903
▁трудом	-9904
▁советского	-9905
▁официально	-9906
тят	-9907
гром	-9908
urity	-9909
▁узнал	-9910
▁потенциаль	-9911
▁points	-9912
ковь	-9913
iforn	-9914
▁диамет	-9915
Ch	-9916
▁влияния	-9917
▁санк	-9918
▁кожи	-9919
▁началом	-9920
▁американских	-9921
▁двое	-9922
▁becom	-9923
лость	-9924
rup	-9925
▁Меня	-9926
▁significant	-9927
▁призыва	-9928
рея	-9929
▁red	-9930
▁бла	-9931
▁многое	-9932
рены	-9933
▁прибыли	-9934
▁турец	-9935
занти	-9936
▁собственного	-9937
▁Воен	-9938
▁недель	-9939
▁территорию	-9940
▁Кстати	-9941
▁сквозь	-9942
▁Cup	-9943
▁востор	-9944
van	-9945
▁ценно	-9946
▁открытия	-9947
вах	-9948
щины	-9949
▁XVII	-9950
"?	-9951
▁hard	-9952
▁entire	-9953
гка	-9954
▁review	-9955
▁черты	-9956
▁восьми	-9957
▁воздухе	-9958
ющимся	-9959
▁Брю	-9960
▁Анато	-9961
▁дважды	-9962
ловой	-9963
▁signed	-9964
ваны	-9965
▁чемпион	-9966
▁возоб	-9967
ressed	-9968
▁врага	-9969
▁молча	-9970
▁ущер	-9971
▁Руси	-9972
▁close	-9973
▁танков	-9974
▁Обычно	-9975
▁кот	-9976
ври	-9977
▁eventually	-9978
▁Paul	-9979
▁эпоху	-9980
▁access	-9981
▁всякого	-9982
регистри	-9983
дке	-9984
unt	-9985
рский	-9986
▁музыкан	-9987
▁экзем	-9988
▁бух	-9989
▁местности	-9990
▁Соеди	-9991
▁НК	-9992
▁совокуп	-9993
▁international	-9994
▁вступа	-9995
▁око	-9996
сант	-9997
▁зал	-9998
▁участок	-9999
сован	-10000
▁выступает	-10001
▁международных	-10002
▁сосе	-10003
▁российского	-10004
▁treat	-10005
▁знаете	-10006
▁бою	-10007
▁металли	-10008
▁собственных	-10009
▁слабы	-10010
▁Бур	-10011
▁своеобраз	-10012
▁продолжает	-10013
▁великого	-10014
▁каждая	-10015
▁проводить	-10016
др	-10017
▁назначения	-10018
▁Герой	-10019
▁дя	-10020
▁источников	-10021
▁спут	-10022
▁либера	-10023
клопе	-10024
▁average	-10025
▁Group	-10026
▁общественного	-10027
▁assist	-10028
▁окна	-10029
▁court	-10030
АО	-10031
▁знаний	-10032
▁увле	-10033
▁католи	-10034
▁минуты	-10035
▁происходя	-10036
./	-10037
ам	-10038
▁either	-10039
▁перспекти	-10040
▁Tra	-10041
▁Hen	-10042
▁Mag	-10043
ровая	-10044
▁polic	-10045
тиве	-10046
лков	-10047
▁приба	-10048
▁подверга	-10049
▁language	-10050
лизова	-10051
▁храм	-10052
▁going	-10053
▁Кни	-10054
кнуть	-10055
▁fell	-10056
▁стадии	-10057
▁придума	-10058
▁КПСС	-10059
▁оставить	-10060
▁достиг	-10061
▁education	-10062
▁Union	-10063
▁девушка	-10064
▁страх	-10065
▁вир	-10066
▁погре	-10067
▁brought	-10068
medi	-10069
мога	-10070
▁лест	-10071
▁крова	-10072
▁содержания	-10073
▁несчаст	-10074
imately	-10075
▁описание	-10076
▁ООН	-10077
gin	-10078
▁выборах	-10079
▁рассказывает	-10080
▁independ	-10081
дию	-10082
▁использованием	-10083
▁ресурсов	-10084
▁Californ	-10085
▁тяжело	-10086
▁достигну	-10087
жна	-10088
▁Republic	-10089
▁past	-10090
▁половины	-10091
▁Лей	-10092
aces	-10093
тологи	-10094
▁Lou	-10095
▁отряд	-10096
▁reb	-10097
циал	-10098
▁судов	-10099
▁карты	-10100
▁quest	-10101
▁inj	-10102
▁кладбище	-10103
▁угодно	-10104
пами	-10105
▁свободу	-10106
▁ука	-10107
дора	-10108
▁общее	-10109
юзе	-10110
▁Перво	-10111
▁сцене	-10112
рена	-10113
▁Мари	-10114
лат	-10115
▁eight	-10116
▁неприят	-10117
▁tour	-10118
▁развитию	-10119
▁сомнения	-10120
▁fav	-10121
хова	-10122
ниаль	-10123
теле	-10124
вшееся	-10125
▁применение	-10126
ликт	-10127
▁темы	-10128
▁офицер	-10129
▁немецких	-10130
▁Стро	-10131
ification	-10132
ilities	-10133
нциклопе	-10134
ements	-10135
▁decided	-10136
▁Несколько	-10137
кля	-10138
▁пришла	-10139
ствующих	-10140
▁инфра	-10141
▁Im	-10142
зли	-10143
▁acqu	-10144
▁национального	-10145
▁Вас	-10146
▁запас	-10147
▁страна	-10148
▁одоб	-10149
▁марки	-10150
▁бригады	-10151
▁эффект	-10152
▁дож	-10153
▁провозгла	-10154
▁Китай	-10155
▁стой	-10156
▁наступление	-10157
▁нужна	-10158
▁тормо	-10159
сет	-10160
▁частично	-10161
▁throughout	-10162
▁Наз	-10163
▁behind	-10164
▁процессы	-10165
▁India	-10166
▁осмо	-10167
женного	-10168
нат	-10169
▁Сво	-10170
▁озна	-10171
еве	-10172
▁rather	-10173
▁вв	-10174
▁Первой	-10175
▁think	-10176
шит	-10177
▁интерфей	-10178
▁Пусть	-10179
▁проблему	-10180
▁почита	-10181
▁легче	-10182
▁называли	-10183
▁вижу	-10184
▁расста	-10185
▁Первые	-10186
▁Азербайджа	-10187
▁творчества	-10188
▁духа	-10189
▁construction	-10190
пка	-10191
нау	-10192
▁решить	-10193
▁будете	-10194
▁араб	-10195
▁вле	-10196
▁training	-10197
▁среднем	-10198
▁родители	-10199
▁интернет	-10200
▁пак	-10201
ТО	-10202
чиком	-10203
Кор	-10204
▁got	-10205
зили	-10206
▁стаби	-10207
▁фронт	-10208
PI	-10209
недель	-10210
▁prot	-10211
▁полю	-10212
цуз	-10213
дился	-10214
▁Вале	-10215
конструк	-10216
▁прошли	-10217
▁напол	-10218
РУ	-10219
unic	-10220
▁Наполе	-10221
хими	-10222
▁выполнять	-10223
сим	-10224
пин	-10225
▁основу	-10226
▁предусматри	-10227
▁Борис	-10228
▁выде	-10229
▁Hall	-10230
▁species	-10231
▁сильнее	-10232
▁прямой	-10233
▁effort	-10234
▁David	-10235
▁полуо	-10236
разуме	-10237
▁Мат	-10238
неры	-10239
▁police	-10240
▁душу	-10241
змов	-10242
wood	-10243
йдя	-10244
▁фраг	-10245
▁проигра	-10246
▁потря	-10247
▁ресто	-10248
▁гли	-10249
▁оча	-10250
▁стру	-10251
aves	-10252
▁services	-10253
йский	-10254
ковый	-10255
зри	-10256
▁California	-10257
▁Такое	-10258
uture	-10259
▁спло	-10260
▁серде	-10261
твра	-10262
aint	-10263
▁Mac	-10264
▁полный	-10265
гим	-10266
add	-10267
▁Mil	-10268
▁удержа	-10269
▁possible	-10270
▁насла	-10271
▁Николаевич	-10272
селение	-10273
▁almost	-10274
▁проро	-10275
▁режима	-10276
▁выступления	-10277
бке	-10278
▁Распо	-10279
ittee	-10280
</	-10281
▁VI	-10282
iation	-10283
▁аспек	-10284
▁буты	-10285
▁социально	-10286
рованию	-10287
▁позицию	-10288
▁рит	-10289
▁Эк	-10290
▁базы	-10291
▁помню	-10292
тору	-10293
▁exec	-10294
вилась	-10295
▁сверху	-10296
▁функций	-10297
▁процессо	-10298
▁встречается	-10299
▁Такой	-10300
чён	-10301
▁привело	-10302
▁среде	-10303
номо	-10304
водство	-10305
▁сказано	-10306
▁влиянием	-10307
пили	-10308
▁древне	-10309
ederal	-10310
РЕ	-10311
▁изучения	-10312
▁least	-10313
▁являлся	-10314
▁поверхность	-10315
▁dou	-10316
▁шту	-10317
AN	-10318
▁встречаются	-10319
▁директора	-10320
▁interest	-10321
▁object	-10322
▁lik	-10323
▁health	-10324
▁крупней	-10325
▁involved	-10326
▁рейти	-10327
НР	-10328
▁wid	-10329
▁кух	-10330
▁Тра	-10331
▁soon	-10332
▁друж	-10333
ength	-10334
▁Святого	-10335
▁Древ	-10336
Петербург	-10337
▁Петербург	-10338
▁events	-10339
▁пут	-10340
стические	-10341
▁повышен	-10342
▁среднего	-10343
▁товар	-10344
▁фено	-10345
▁Бай	-10346
▁provided	-10347
▁тихо	-10348
▁делам	-10349
вится	-10350
iqu	-10351
ander	-10352
▁руководитель	-10353
▁sound	-10354
▁Party	-10355
atural	-10356
▁отвечает	-10357
зво	-10358
rab	-10359
▁Стре	-10360
▁благодар	-10361
вина	-10362
стрии	-10363
▁Пример	-10364
▁force	-10365
▁присвое	-10366
дук	-10367
▁художника	-10368
▁subject	-10369
▁железной	-10370
▁МОСК	-10371
▁bar	-10372
▁япон	-10373
жества	-10374
▁Сара	-10375
▁base	-10376
▁училище	-10377
▁газа	-10378
▁выя	-10379
▁stri	-10380
▁осна	-10381
aching	-10382
▁recorded	-10383
товые	-10384
▁испан	-10385
sec	-10386
▁делом	-10387
▁type	-10388
▁пациен	-10389
▁di	-10390
▁существенно	-10391
▁первонача	-10392
▁плате	-10393
▁принимал	-10394
▁народного	-10395
голо	-10396
▁Откры	-10397
▁поражения	-10398
▁Court	-10399
опера	-10400
ready	-10401
ounter	-10402
▁цены	-10403
▁product	-10404
▁сельскохозяй	-10405
ционное	-10406
зовы	-10407
▁Карл	-10408
рья	-10409
▁населё	-10410
▁делега	-10411
▁"«	-10412
▁дога	-10413
serv	-10414
образи	-10415
▁конструкции	-10416
▁сказали	-10417
▁разрабаты	-10418
▁фирмы	-10419
▁любит	-10420
▁переговоры	-10421
▁вкус	-10422
ki	-10423
▁действует	-10424
▁surv	-10425
▁Ma	-10426
ходу	-10427
зирован	-10428
▁respons	-10429
▁древних	-10430
▁острове	-10431
▁size	-10432
▁лам	-10433
▁церемо	-10434
▁нев	-10435
▁правом	-10436
▁телевиде	-10437
▁Pat	-10438
▁торговли	-10439
inese	-10440
вленной	-10441
▁детали	-10442
▁Mal	-10443
▁тонн	-10444
▁взрыв	-10445
▁борьбу	-10446
▁пространстве	-10447
str	-10448
»;	-10449
▁высокого	-10450
▁Cont	-10451
▁hom	-10452
▁рабочего	-10453
▁Любо	-10454
Что	-10455
▁might	-10456
нив	-10457
▁банков	-10458
▁Зве	-10459
▁объявил	-10460
▁хокке	-10461
▁высшей	-10462
▁aud	-10463
▁борьба	-10464
▁вторая	-10465
▁выражение	-10466
▁лиде	-10467
▁ученых	-10468
▁благополу	-10469
▁race	-10470
▁писателей	-10471
▁viol	-10472
авто	-10473
▁покой	-10474
▁многом	-10475
▁stop	-10476
▁предотвра	-10477
фона	-10478
стная	-10479
▁Royal	-10480
▁Mary	-10481
▁орке	-10482
дное	-10483
reek	-10484
▁нравится	-10485
▁способен	-10486
▁четырёх	-10487
▁Гон	-10488
▁фронте	-10489
▁мель	-10490
▁cop	-10491
▁оптими	-10492
chie	-10493
▁масла	-10494
стар	-10495
▁performance	-10496
▁Division	-10497
▁режиме	-10498
▁картина	-10499
тало	-10500
▁часы	-10501
пел	-10502
▁намного	-10503
▁esc	-10504
▁рыба	-10505
для	-10506
▁печати	-10507
▁пья	-10508
▁groups	-10509
▁track	-10510
КП	-10511
тическое	-10512
▁happ	-10513
ровку	-10514
▁набор	-10515
▁делал	-10516
▁pot	-10517
▁полное	-10518
▁keep	-10519
▁Харь	-10520
▁самих	-10521
вляли	-10522
▁слегка	-10523
▁обно	-10524
▁шири	-10525
▁Спо	-10526
▁village	-10527
▁Сен	-10528
чее	-10529
▁Nor	-10530
такт	-10531
▁проектов	-10532
▁пери	-10533
▁Ам	-10534
▁совеща	-10535
▁русском	-10536
▁алгорит	-10537
▁Тихо	-10538
▁штра	-10539
▁вере	-10540
▁Je	-10541
▁методов	-10542
▁подро	-10543
мене	-10544
▁Осо	-10545
▁принадлежа	-10546
▁шпи	-10547
▁оборудования	-10548
▁эваку	-10549
▁принципи	-10550
▁ощущение	-10551
▁Китая	-10552
▁каждому	-10553
▁Эль	-10554
▁опасности	-10555
▁собственные	-10556
▁районах	-10557
▁интеллиген	-10558
▁Наде	-10559
бь	-10560
▁планеты	-10561
▁интересы	-10562
▁астроно	-10563
▁работой	-10564
itect	-10565
▁теми	-10566
▁Город	-10567
▁морской	-10568
▁посте	-10569
▁бал	-10570
мысли	-10571
band	-10572
▁дивизия	-10573
▁госпита	-10574
▁МОСКВА	-10575
▁немцев	-10576
ago	-10577
▁video	-10578
▁дорога	-10579
ГУ	-10580
муля	-10581
▁Australia	-10582
▁переписи	-10583
▁входят	-10584
▁Петров	-10585
▁Универ	-10586
▁подчерки	-10587
▁дворе	-10588
▁председателя	-10589
▁осуществи	-10590
▁интересов	-10591
▁изображение	-10592
▁рано	-10593
▁миллиона	-10594
▁интерпре	-10595
▁идеаль	-10596
▁стиле	-10597
▁Sl	-10598
▁приказал	-10599
союз	-10600
ёра	-10601
ционным	-10602
револю	-10603
ненного	-10604
▁white	-10605
berg	-10606
гули	-10607
▁выступил	-10608
▁miss	-10609
это	-10610
▁возможностей	-10611
ехала	-10612
Если	-10613
▁Христа	-10614
▁независимо	-10615
▁Mr	-10616
ources	-10617
▁интересу	-10618
▁берега	-10619
мут	-10620
bert	-10621
▁conduct	-10622
▁Прежде	-10623
ане	-10624
iction	-10625
▁настаи	-10626
▁провел	-10627
▁имена	-10628
▁картину	-10629
мова	-10630
тером	-10631
жеб	-10632
▁пропо	-10633
нуне	-10634
ores	-10635
▁Jack	-10636
▁блестя	-10637
▁руководства	-10638
▁женой	-10639
▁Дар	-10640
▁оскор	-10641
▁star	-10642
▁формирования	-10643
▁супер	-10644
ённых	-10645
▁respect	-10646
▁episode	-10647
▁Академии	-10648
▁reve	-10649
▁ответа	-10650
▁автори	-10651
▁резо	-10652
раясь	-10653
▁программе	-10654
▁размыш	-10655
▁Germany	-10656
▁воздействия	-10657
▁мужи	-10658
▁строя	-10659
▁тренер	-10660
ждают	-10661
▁Просто	-10662
▁открыто	-10663
▁Оба	-10664
▁вторы	-10665
erous	-10666
▁Дне	-10667
▁саха	-10668
▁еги	-10669
сомо	-10670
▁оболо	-10671
▁Serv	-10672
▁network	-10673
▁try	-10674
▁имеются	-10675
▁бег	-10676
▁God	-10677
▁ген	-10678
set	-10679
▁интеллектуаль	-10680
▁известен	-10681
▁Горь	-10682
▁французский	-10683
нты	-10684
▁температура	-10685
▁звезды	-10686
▁Анти	-10687
▁универса	-10688
▁транспор	-10689
▁China	-10690
▁бронзо	-10691
▁Mart	-10692
ствовало	-10693
▁другому	-10694
▁Западной	-10695
▁appointed	-10696
▁брю	-10697
ev	-10698
ИД	-10699
кончался	-10700
граде	-10701
▁добавил	-10702
▁депутатов	-10703
ткой	-10704
стане	-10705
▁Един	-10706
брал	-10707
▁ожи	-10708
▁всякий	-10709
▁храма	-10710
леров	-10711
▁создавать	-10712
▁грани	-10713
▁key	-10714
▁performed	-10715
тиков	-10716
▁Wash	-10717
▁итогам	-10718
▁никого	-10719
▁leading	-10720
ET	-10721
▁Bel	-10722
ЭС	-10723
▁neg	-10724
▁сущности	-10725
▁Импера	-10726
▁тяжё	-10727
дёт	-10728
ij	-10729
дыва	-10730
энер	-10731
▁считали	-10732
▁Свет	-10733
apt	-10734
Ар	-10735
▁хлеб	-10736
▁Фё	-10737
▁идею	-10738
▁помещения	-10739
book	-10740
▁проде	-10741
▁pur	-10742
нялись	-10743
виков	-10744
лят	-10745
▁PS	-10746
▁конференции	-10747
▁phot	-10748
▁партизан	-10749
▁прибо	-10750
▁оставил	-10751
▁Vir	-10752
▁оттуда	-10753
▁Анна	-10754
пель	-10755
▁разумеется	-10756
▁наиболь	-10757
▁produc	-10758
vironment	-10759
нис	-10760
▁передать	-10761
шала	-10762
теры	-10763
▁лока	-10764
▁тести	-10765
тран	-10766
летнего	-10767
itz	-10768
▁break	-10769
anish	-10770
▁вряд	-10771
ression	-10772
▁уте	-10773
▁континен	-10774
▁зарегистри	-10775
шеб	-10776
▁слове	-10777
▁ждать	-10778
incip	-10779
▁воли	-10780
менту	-10781
▁model	-10782
▁Мен	-10783
▁недостаточно	-10784
▁completed	-10785
not	-10786
▁Уо	-10787
▁английский	-10788
rel	-10789
▁участник	-10790
atory	-10791
нося	-10792
▁составляют	-10793
зю	-10794
▁языков	-10795
▁семейства	-10796
▁иду	-10797
▁вмеша	-10798
▁полного	-10799
▁явление	-10800
▁смеша	-10801
▁поражение	-10802
▁научной	-10803
▁судьба	-10804
манов	-10805
правед	-10806
▁Новый	-10807
▁выро	-10808
EC	-10809
cis	-10810
▁никому	-10811
довал	-10812
▁рекоменду	-10813
▁ill	-10814
Ва	-10815
▁любил	-10816
▁подс	-10817
▁Dist	-10818
▁открыл	-10819
▁очередной	-10820
▁накло	-10821
▁opt	-10822
▁боях	-10823
▁Ган	-10824
▁loss	-10825
чко	-10826
▁состоянию	-10827
гона	-10828
▁удержи	-10829
▁Дю	-10830
▁минера	-10831
▁гибели	-10832
полков	-10833
гере	-10834
▁XVI	-10835
▁лёг	-10836
лине	-10837
▁переименова	-10838
▁account	-10839
▁патро	-10840
▁money	-10841
▁эстети	-10842
▁медали	-10843
▁household	-10844
▁длиной	-10845
▁используя	-10846
▁прие	-10847
▁method	-10848
aries	-10849
таны	-10850
дона	-10851
▁технологий	-10852
▁разделя	-10853
▁орденом	-10854
▁находилась	-10855
▁изде	-10856
▁election	-10857
▁топо	-10858
▁deal	-10859
▁комнате	-10860
▁днем	-10861
▁сахар	-10862
Бу	-10863
▁Чар	-10864
▁многочисленные	-10865
▁Неу	-10866
емую	-10867
▁великоле	-10868
▁героев	-10869
льти	-10870
▁зоны	-10871
▁вчера	-10872
американ	-10873
зора	-10874
▁Ответ	-10875
▁подходя	-10876
▁кварта	-10877
airs	-10878
▁перешёл	-10879
▁династи	-10880
стет	-10881
▁Причем	-10882
▁собаки	-10883
рении	-10884
чала	-10885
▁civil	-10886
▁states	-10887
▁instead	-10888
▁пау	-10889
года	-10890
▁action	-10891
ift	-10892
▁Жен	-10893
▁потерпе	-10894
▁board	-10895
▁альтерна	-10896
▁Марии	-10897
▁округ	-10898
вете	-10899
▁религии	-10900
воды	-10901
▁криста	-10902
▁зар	-10903
▁плана	-10904
бии	-10905
▁Жан	-10906
щенный	-10907
▁Интере	-10908
▁благород	-10909
национа	-10910
▁визи	-10911
▁восхи	-10912
рений	-10913
тала	-10914
▁минимум	-10915
stitute	-10916
leb	-10917
aled	-10918
▁Ивана	-10919
ДР	-10920
▁critic	-10921
aker	-10922
сий	-10923
▁успел	-10924
следу	-10925
▁конечном	-10926
демокра	-10927
▁Мек	-10928
инг	-10929
▁средство	-10930
▁regular	-10931
ving	-10932
▁Золо	-10933
▁ваше	-10934
▁работали	-10935
Су	-10936
фт	-10937
▁lo	-10938
▁Вместо	-10939
▁Дума	-10940
▁Вя	-10941
▁объекты	-10942
▁Дер	-10943
▁порой	-10944
▁побу	-10945
▁подразделения	-10946
▁незначи	-10947
▁террори	-10948
тельству	-10949
нку	-10950
▁provide	-10951
▁демо	-10952
▁Крем	-10953
sych	-10954
▁Вну	-10955
▁Королев	-10956
▁мотива	-10957
▁occur	-10958
▁изменение	-10959
▁твердо	-10960
mb	-10961
▁Пан	-10962
▁Конститу	-10963
▁концентра	-10964
▁общий	-10965
▁west	-10966
▁отверсти	-10967
▁будь	-10968
тическими	-10969
▁моди	-10970
▁lab	-10971
▁hit	-10972
▁Хан	-10973
oke	-10974
▁пользоваться	-10975
▁пунктов	-10976
туга	-10977
▁finished	-10978
▁pers	-10979
хии	-10980
▁cut	-10981
▁патриар	-10982
▁Other	-10983
▁законов	-10984
▁гран	-10985
▁союза	-10986
▁east	-10987
▁Отец	-10988
▁гумани	-10989
iff	-10990
▁That	-10991
▁театре	-10992
зидиума	-10993
щенных	-10994
▁волны	-10995
▁Ву	-10996
▁accom	-10997
▁Йо	-10998
▁Вален	-10999
▁кода	-11000
▁added	-11001
▁навсегда	-11002
▁mean	-11003
довых	-11004
▁способны	-11005
▁subsequ	-11006
▁television	-11007
▁Аф	-11008
ka	-11009
▁СС	-11010
▁прибе	-11011
▁вопросу	-11012
▁поздно	-11013
▁напада	-11014
oul	-11015
▁департа	-11016
▁поход	-11017
▁Досто	-11018
iles	-11019
▁методи	-11020
▁nec	-11021
▁став	-11022
мирал	-11023
тками	-11024
▁already	-11025
▁мама	-11026
▁немцы	-11027
▁пости	-11028
начале	-11029
▁рис	-11030
▁боло	-11031
▁чувстви	-11032
▁Союз	-11033
▁комплекса	-11034
▁Sen	-11035
мили	-11036
▁винов	-11037
▁корабли	-11038
шься	-11039
▁space	-11040
▁Леони	-11041
▁stre	-11042
▁гиб	-11043
▁Вне	-11044
▁Право	-11045
▁Dem	-11046
▁Позд	-11047
▁Финля	-11048
▁побы	-11049
ГБ	-11050
▁mar	-11051
ьте	-11052
▁воскрес	-11053
ждую	-11054
▁рыб	-11055
тент	-11056
▁parent	-11057
▁certain	-11058
▁Лан	-11059
▁взаимодействия	-11060
▁высоты	-11061
▁продукты	-11062
ГО	-11063
▁Выс	-11064
▁реаги	-11065
▁выбора	-11066
сками	-11067
▁адвока	-11068
▁asked	-11069
▁иные	-11070
▁купить	-11071
▁выжи	-11072
▁rights	-11073
▁Американ	-11074
▁промы	-11075
▁назван	-11076
▁использует	-11077
▁имея	-11078
▁уровнем	-11079
▁указывает	-11080
▁бомбардиров	-11081
pecially	-11082
тельны	-11083
▁авторов	-11084
▁иско	-11085
▁fig	-11086
провод	-11087
пев	-11088
кета	-11089
ани	-11090
▁clear	-11091
▁всяком	-11092
▁Христо	-11093
▁обру	-11094
тт	-11095
▁деше	-11096
сне	-11097
▁враже	-11098
▁told	-11099
isl	-11100
▁появления	-11101
▁Hist	-11102
▁Washington	-11103
Хо	-11104
▁поэзии	-11105
▁Мед	-11106
▁американской	-11107
▁Окон	-11108
▁второе	-11109
▁плоско	-11110
▁воро	-11111
▁общественных	-11112
щийся	-11113
▁тамо	-11114
▁Мои	-11115
▁Japanese	-11116
▁общения	-11117
▁признать	-11118
▁экономической	-11119
▁Гос	-11120
▁клетки	-11121
▁получать	-11122
▁модерни	-11123
▁allowed	-11124
тится	-11125
▁серьёз	-11126
степен	-11127
▁Mark	-11128
уго	-11129
▁itself	-11130
ux	-11131
▁песен	-11132
▁блок	-11133
ston	-11134
▁Часть	-11135
▁лицен	-11136
▁нераз	-11137
▁Член	-11138
▁суток	-11139
зву	-11140
▁необходимые	-11141
ume	-11142
▁планы	-11143
▁playing	-11144
▁состоялась	-11145
▁политика	-11146
▁шка	-11147
бек	-11148
▁пола	-11149
unk	-11150
▁комисса	-11151
▁Нем	-11152
▁Center	-11153
ченное	-11154
мета	-11155
ёлок	-11156
▁consist	-11157
▁расчет	-11158
▁Нико	-11159
ades	-11160
чины	-11161
▁моим	-11162
ведена	-11163
▁съе	-11164
▁молодё	-11165
▁зали	-11166
лум	-11167
▁мясо	-11168
льше	-11169
▁докла	-11170
▁бизнеса	-11171
▁Северо	-11172
▁нали	-11173
▁появляются	-11174
▁outside	-11175
▁relationship	-11176
AM	-11177
▁мероприятия	-11178
▁Canada	-11179
▁импуль	-11180
▁титул	-11181
▁designed	-11182
▁Вашинг	-11183
▁range	-11184
sw	-11185
▁нежели	-11186
ospital	-11187
▁Don	-11188
▁Chinese	-11189
мить	-11190
▁возму	-11191
ify	-11192
▁сезон	-11193
пали	-11194
▁студентов	-11195
чна	-11196
дении	-11197
▁атаки	-11198
Пу	-11199
слава	-11200
жского	-11201
▁Alex	-11202
▁крае	-11203
▁средствами	-11204
▁daughter	-11205
ateg	-11206
▁First	-11207
▁Met	-11208
▁Предпо	-11209
▁ran	-11210
▁связана	-11211
▁версия	-11212
риях	-11213
▁позволяют	-11214
▁внезапно	-11215
▁travel	-11216
▁симпто	-11217
▁гале	-11218
ocr	-11219
ТАР	-11220
▁масте	-11221
грамма	-11222
▁Пушкина	-11223
▁Association	-11224
▁выборов	-11225
▁точку	-11226
▁экза	-11227
верен	-11228
▁сон	-11229
alls	-11230
Ки	-11231
▁Всё	-11232
мма	-11233
▁живых	-11234
▁посёлок	-11235
ъем	-11236
▁искусств	-11237
виду	-11238
ющаяся	-11239
▁отказаться	-11240
▁Швей	-11241
▁style	-11242
▁граду	-11243
▁разведки	-11244
▁сложности	-11245
▁пробу	-11246
▁conv	-11247
▁Angel	-11248
▁убийства	-11249
▁исследователь	-11250
▁юге	-11251
▁Библи	-11252
плек	-11253
▁счёт	-11254
▁предметы	-11255
▁биографи	-11256
▁командованием	-11257
▁miles	-11258
Все	-11259
▁траги	-11260
▁бессо	-11261
▁понимаю	-11262
▁Органи	-11263
▁бумаги	-11264
▁usually	-11265
▁разво	-11266
бл	-11267
utive	-11268
▁Верх	-11269
ples	-11270
▁камер	-11271
▁reached	-11272
▁птиц	-11273
OR	-11274
бей	-11275
IS	-11276
▁Championship	-11277
▁крей	-11278
тивов	-11279
▁МВД	-11280
▁войско	-11281
▁ребя	-11282
▁орудий	-11283
▁Ранее	-11284
▁гигант	-11285
▁расположены	-11286
▁гражданской	-11287
▁блока	-11288
ump	-11289
▁погло	-11290
худ	-11291
▁замуж	-11292
жек	-11293
▁Одно	-11294
▁Вин	-11295
КС	-11296
▁бен	-11297
▁типов	-11298
зыв	-11299
шите	-11300
▁countries	-11301
пис	-11302
▁liter	-11303
▁вступил	-11304
МА	-11305
лян	-11306
▁совершил	-11307
щенные	-11308
▁издания	-11309
▁Впервые	-11310
▁конфликт	-11311
▁проверки	-11312
торе	-11313
цкой	-11314
▁основным	-11315
▁goal	-11316
estival	-11317
▁показали	-11318
▁ово	-11319
▁неот	-11320
пал	-11321
▁термин	-11322
▁воле	-11323
▁врач	-11324
▁Ника	-11325
▁Bra	-11326
▁creat	-11327
▁better	-11328
▁везде	-11329
▁бер	-11330
▁системой	-11331
▁schools	-11332
▁реб	-11333
▁мифо	-11334
▁немецкий	-11335
шками	-11336
▁bi	-11337
▁полковник	-11338
▁mount	-11339
▁давать	-11340
▁известны	-11341
▁Paris	-11342
ustom	-11343
▁огра	-11344
▁сх	-11345
▁прибыл	-11346
▁зао	-11347
▁вход	-11348
▁Фон	-11349
▁элемент	-11350
▁зерка	-11351
▁монастыря	-11352
▁ветер	-11353
▁журнал	-11354
▁охла	-11355
▁Результа	-11356
▁банка	-11357
▁Tom	-11358
гура	-11359
уса	-11360
▁прошел	-11361
ids	-11362
льда	-11363
▁запись	-11364
▁балан	-11365
▁сцен	-11366
▁Christian	-11367
ЛО	-11368
imate	-11369
тивную	-11370
рки	-11371
фина	-11372
▁группой	-11373
▁таин	-11374
ception	-11375
▁Mex	-11376
▁диссер	-11377
▁seven	-11378
ваи	-11379
▁Ear	-11380
▁существа	-11381
сот	-11382
тация	-11383
▁Мой	-11384
▁mass	-11385
▁Украин	-11386
alled	-11387
шенных	-11388
▁приви	-11389
▁сопротивление	-11390
чешь	-11391
зни	-11392
▁give	-11393
▁услуги	-11394
ibility	-11395
дают	-11396
▁структура	-11397
▁Road	-11398
▁новом	-11399
▁голова	-11400
▁недостато	-11401
▁погибли	-11402
▁прости	-11403
▁сутки	-11404
▁aircraft	-11405
▁огромное	-11406
▁внед	-11407
▁международного	-11408
тирован	-11409
▁веща	-11410
▁боги	-11411
thing	-11412
▁парламент	-11413
▁предлагает	-11414
▁пытались	-11415
фикси	-11416
▁общественной	-11417
▁Маль	-11418
▁заключения	-11419
▁сборную	-11420
литься	-11421
▁проф	-11422
шенко	-11423
▁корреспонден	-11424
▁Charles	-11425
▁термина	-11426
▁лежа	-11427
▁пусто	-11428
▁великий	-11429
тория	-11430
▁настоящий	-11431
▁предметов	-11432
▁сталки	-11433
▁Жиз	-11434
▁станция	-11435
ait	-11436
▁Ира	-11437
скры	-11438
▁секретарь	-11439
▁Law	-11440
честву	-11441
▁army	-11442
▁regard	-11443
▁свободно	-11444
▁посоль	-11445
▁атаку	-11446
▁Cong	-11447
▁Земле	-11448
▁транспорта	-11449
gen	-11450
▁«"	-11451
▁concern	-11452
▁жив	-11453
▁ВС	-11454
cing	-11455
ционную	-11456
севдо	-11457
туи	-11458
▁подве	-11459
▁TV	-11460
▁натура	-11461
utions	-11462
▁состоялся	-11463
▁бог	-11464
пления	-11465
▁непоня	-11466
▁преобла	-11467
сение	-11468
▁имущества	-11469
ёв	-11470
поля	-11471
aval	-11472
▁сумел	-11473
тры	-11474
▁радика	-11475
▁инструмента	-11476
▁sus	-11477
▁давление	-11478
ficult	-11479
▁stage	-11480
▁Архи	-11481
▁gradu	-11482
▁зоне	-11483
▁растения	-11484
вим	-11485
▁always	-11486
▁ске	-11487
han	-11488
▁бюдже	-11489
▁швед	-11490
▁Robert	-11491
ipp	-11492
▁принципе	-11493
стический	-11494
▁орден	-11495
шер	-11496
soft	-11497
▁сообща	-11498
▁нейтра	-11499
▁впрочем	-11500
▁чувств	-11501
CA	-11502
▁делали	-11503
цвета	-11504
▁Int	-11505
▁разговари	-11506
▁масси	-11507
▁рассказать	-11508
▁разрешения	-11509
rian	-11510
▁базо	-11511
Из	-11512
▁забил	-11513
▁Основные	-11514
▁Great	-11515
▁скоростью	-11516
▁Mer	-11517
▁Вой	-11518
▁Большой	-11519
▁обучение	-11520
ires	-11521
▁Times	-11522
▁утро	-11523
гности	-11524
▁голоса	-11525
▁Мю	-11526
▁job	-11527
чнее	-11528
▁хватает	-11529
▁единственным	-11530
▁аван	-11531
▁национали	-11532
▁наци	-11533
▁сомне	-11534
рим	-11535
▁required	-11536
▁писто	-11537
▁содей	-11538
▁Зак	-11539
▁ey	-11540
▁обмен	-11541
жаются	-11542
▁статья	-11543
▁So	-11544
▁replaced	-11545
▁Play	-11546
▁прошед	-11547
!)	-11548
▁придержи	-11549
▁День	-11550
▁секунд	-11551
▁защиту	-11552
▁отва	-11553
нюдь	-11554
▁останов	-11555
фикация	-11556
▁собесед	-11557
▁хода	-11558
▁фикси	-11559
▁пищи	-11560
▁Micro	-11561
▁робо	-11562
▁бре	-11563
▁обработки	-11564
▁напом	-11565
▁Одним	-11566
▁зажи	-11567
▁допусти	-11568
КО	-11569
▁Thomas	-11570
▁утверждает	-11571
фек	-11572
▁груди	-11573
▁личность	-11574
▁заку	-11575
▁механизм	-11576
дового	-11577
▁Sal	-11578
▁вод	-11579
▁оза	-11580
▁температуры	-11581
▁Игорь	-11582
▁выбрать	-11583
▁founded	-11584
▁прошла	-11585
▁подряд	-11586
▁буль	-11587
▁уса	-11588
▁скажем	-11589
▁plann	-11590
▁investig	-11591
▁наве	-11592
▁achie	-11593
▁стояли	-11594
▁альбо	-11595
ites	-11596
▁старых	-11597
ИЙ	-11598
▁шум	-11599
▁оставался	-11600
чивость	-11601
▁move	-11602
▁правой	-11603
ИА	-11604
▁tax	-11605
azine	-11606
▁ракеты	-11607
▁конц	-11608
▁цивилизации	-11609
▁wind	-11610
▁Иоси	-11611
▁occup	-11612
▁смени	-11613
ili	-11614
▁спасти	-11615
говой	-11616
▁определение	-11617
▁письме	-11618
дена	-11619
::	-11620
text	-11621
ненным	-11622
▁культура	-11623
▁экспедиции	-11624
▁Мир	-11625
▁Администра	-11626
▁рассматривать	-11627
▁difficult	-11628
▁крепости	-11629
сель	-11630
мора	-11631
▁meas	-11632
▁Сере	-11633
▁situ	-11634
▁ценности	-11635
▁границу	-11636
▁кине	-11637
▁above	-11638
▁автоном	-11639
▁зарпла	-11640
▁featured	-11641
▁курса	-11642
▁рассчита	-11643
▁White	-11644
▁Жа	-11645
▁получают	-11646
▁столетия	-11647
никова	-11648
▁Tex	-11649
▁мышления	-11650
▁ране	-11651
ющееся	-11652
▁хиру	-11653
вьте	-11654
▁выражения	-11655
▁серий	-11656
▁food	-11657
▁UK	-11658
▁севере	-11659
▁непло	-11660
▁пострада	-11661
▁газета	-11662
▁pred	-11663
чника	-11664
▁охраны	-11665
нек	-11666
▁соль	-11667
▁Bay	-11668
▁декора	-11669
▁пригово	-11670
▁пожела	-11671
▁детьми	-11672
▁опасность	-11673
▁собрания	-11674
▁кали	-11675
бия	-11676
цева	-11677
hood	-11678
▁желания	-11679
▁американского	-11680
▁настой	-11681
▁музея	-11682
▁учитель	-11683
▁этно	-11684
▁окно	-11685
▁кано	-11686
▁среду	-11687
▁Кру	-11688
oviet	-11689
▁Шар	-11690
▁поток	-11691
("	-11692
uter	-11693
▁центральной	-11694
испо	-11695
▁возникают	-11696
▁звезд	-11697
▁подобного	-11698
▁надея	-11699
▁whose	-11700
▁миром	-11701
▁расстояние	-11702
▁taking	-11703
▁редак	-11704
▁упразд	-11705
▁службе	-11706
▁хре	-11707
▁австрий	-11708
чим	-11709
▁here	-11710
▁обер	-11711
▁Trans	-11712
▁урав	-11713
▁первен	-11714
gr	-11715
бое	-11716
▁яро	-11717
лд	-11718
▁сена	-11719
▁ходу	-11720
▁Оче	-11721
▁imm	-11722
совет	-11723
▁матч	-11724
▁big	-11725
▁introduced	-11726
▁заявление	-11727
ляли	-11728
▁Греции	-11729
▁обратился	-11730
▁расту	-11731
▁contin	-11732
▁третьего	-11733
▁откров	-11734
▁Gr	-11735
block	-11736
▁director	-11737
▁визу	-11738
▁compan	-11739
▁иное	-11740
▁комнату	-11741
▁movement	-11742
вшуюся	-11743
▁отделение	-11744
▁future	-11745
▁языком	-11746
▁незакон	-11747
ковать	-11748
лям	-11749
вут	-11750
▁диалек	-11751
▁Первое	-11752
▁превосход	-11753
лона	-11754
▁Советской	-11755
лланд	-11756
▁стоят	-11757
щаясь	-11758
uz	-11759
тарь	-11760
▁симпа	-11761
пия	-11762
action	-11763
▁стоимости	-11764
cks	-11765
▁судьбы	-11766
▁индей	-11767
▁испытания	-11768
дется	-11769
key	-11770
▁сторона	-11771
▁уйти	-11772
ченная	-11773
жской	-11774
▁флот	-11775
▁Гражда	-11776
▁destroy	-11777
burg	-11778
Кра	-11779
▁хороший	-11780
▁идеа	-11781
▁мото	-11782
смотрим	-11783
▁наличии	-11784
▁поможет	-11785
▁Александрович	-11786
хождение	-11787
ведением	-11788
▁bur	-11789
▁инфраструк	-11790
▁поговори	-11791
▁уво	-11792
▁Писа	-11793
▁фотографии	-11794
▁towards	-11795
▁перехода	-11796
▁girl	-11797
▁исследование	-11798
▁стремление	-11799
носят	-11800
▁определяет	-11801
▁столицы	-11802
▁приехал	-11803
стор	-11804
arily	-11805
▁Красного	-11806
▁Since	-11807
▁ура	-11808
▁выдержа	-11809
▁Рича	-11810
▁боле	-11811
▁Лондоне	-11812
▁приспособ	-11813
▁вещь	-11814
▁purch	-11815
▁Коло	-11816
▁shows	-11817
▁вызвать	-11818
▁размере	-11819
▁здоровье	-11820
▁друже	-11821
▁проще	-11822
ios	-11823
▁опе	-11824
ground	-11825
▁непрерыв	-11826
▁понимает	-11827
▁course	-11828
▁especially	-11829
▁largest	-11830
▁статью	-11831
▁защит	-11832
▁мнения	-11833
тового	-11834
▁несу	-11835
▁den	-11836
▁социального	-11837
▁посыла	-11838
▁наряду	-11839
order	-11840
▁определён	-11841
▁теп	-11842
▁встрече	-11843
▁ВМ	-11844
▁пони	-11845
▁невер	-11846
▁база	-11847
▁Такая	-11848
▁благоприят	-11849
▁образа	-11850
▁каждое	-11851
▁настоящего	-11852
▁Сю	-11853
сид	-11854
потре	-11855
▁сде	-11856
ao	-11857
▁инфек	-11858
▁иного	-11859
▁этап	-11860
▁block	-11861
▁выполнить	-11862
▁создает	-11863
▁quick	-11864
пети	-11865
▁равен	-11866
▁enough	-11867
▁Дом	-11868
раиль	-11869
▁значительной	-11870
▁players	-11871
ancial	-11872
▁консульта	-11873
▁случаи	-11874
▁штата	-11875
▁сельсовета	-11876
▁черно	-11877
рила	-11878
▁Игра	-11879
▁Богу	-11880
▁следующих	-11881
▁Mad	-11882
▁сцены	-11883
уголь	-11884
▁каждым	-11885
▁Китае	-11886
ешься	-11887
▁стиль	-11888
▁battle	-11889
шне	-11890
▁placed	-11891
▁увеличе	-11892
▁пропаган	-11893
▁Кол	-11894
▁Произ	-11895
▁обеих	-11896
ned	-11897
▁акций	-11898
жник	-11899
▁writing	-11900
хло	-11901
▁стремя	-11902
▁земель	-11903
▁доход	-11904
▁гарни	-11905
▁кстати	-11906
▁мусульман	-11907
▁попросил	-11908
▁кампании	-11909
▁Участ	-11910
▁верно	-11911
duction	-11912
▁близко	-11913
▁записы	-11914
чному	-11915
▁Cath	-11916
▁prison	-11917
▁госу	-11918
clus	-11919
▁oppos	-11920
Пи	-11921
▁количестве	-11922
▁напоминает	-11923
номер	-11924
▁king	-11925
мать	-11926
ленная	-11927
▁оказаться	-11928
▁памятник	-11929
▁берег	-11930
arliam	-11931
▁мудро	-11932
roid	-11933
▁Rail	-11934
Рус	-11935
▁специальных	-11936
кои	-11937
?..	-11938
▁Department	-11939
▁radio	-11940
хин	-11941
▁Буду	-11942
нической	-11943
ya	-11944
board	-11945
дзе	-11946
вляются	-11947
ода	-11948
еруса	-11949
▁понимание	-11950
▁Руко	-11951
▁соци	-11952
rown	-11953
▁использовали	-11954
син	-11955
▁впереди	-11956
▁дерева	-11957
▁face	-11958
▁sat	-11959
гне	-11960
ложении	-11961
mercial	-11962
▁высоких	-11963
▁исключа	-11964
▁done	-11965
▁прочих	-11966
▁Польши	-11967
твори	-11968
шенные	-11969
▁Кэ	-11970
▁rock	-11971
емости	-11972
▁Михайлович	-11973
▁заметить	-11974
▁похи	-11975
▁Разве	-11976
▁поми	-11977
▁скажу	-11978
▁ограничения	-11979
ser	-11980
▁Бель	-11981
новский	-11982
▁тобой	-11983
ube	-11984
▁Нужно	-11985
icated	-11986
▁горизонта	-11987
кабу	-11988
▁Tw	-11989
▁учения	-11990
лёт	-11991
▁создана	-11992
ension	-11993
▁поставил	-11994
▁draw	-11995
▁фундамента	-11996
▁батальона	-11997
▁Другие	-11998
▁Современ	-11999
▁соч	-12000
▁sil	-12001
atre	-12002
несла	-12003
▁скла	-12004
▁Часто	-12005
▁отчая	-12006
▁Октябрь	-12007
▁насы	-12008
▁выступ	-12009
тике	-12010
▁найден	-12011
ype	-12012
▁Лин	-12013
▁рот	-12014
▁Do	-12015
▁высокий	-12016
лили	-12017
▁hor	-12018
▁frequ	-12019
aring	-12020
▁достовер	-12021
▁исторических	-12022
▁Обла	-12023
▁понимания	-12024
▁абстра	-12025
irth	-12026
▁каждую	-12027
▁любое	-12028
▁jud	-12029
▁акции	-12030
▁отмечает	-12031
irt	-12032
нувшись	-12033
▁отнюдь	-12034
▁невозмо	-12035
▁фестива	-12036
▁выве	-12037
▁выса	-12038
annel	-12039
▁учился	-12040
спа	-12041
▁предложе	-12042
▁обнаружил	-12043
▁зла	-12044
▁душев	-12045
мур	-12046
ляция	-12047
Cl	-12048
▁давления	-12049
▁Ir	-12050
▁счастье	-12051
▁проверя	-12052
таясь	-12053
гря	-12054
▁отече	-12055
▁важных	-12056
atives	-12057
▁реме	-12058
▁объединения	-12059
юри	-12060
▁образе	-12061
▁издание	-12062
стическая	-12063
▁Михаила	-12064
▁Вз	-12065
▁Ham	-12066
▁woman	-12067
фан	-12068
▁бывают	-12069
ilies	-12070
▁обоб	-12071
▁мною	-12072
▁регулярно	-12073
▁районов	-12074
▁оре	-12075
▁оставаться	-12076
▁командование	-12077
▁Tur	-12078
itar	-12079
arliament	-12080
ИЯ	-12081
женным	-12082
▁подходит	-12083
▁различными	-12084
▁дорог	-12085
▁Gold	-12086
▁гипер	-12087
▁дерево	-12088
▁Russian	-12089
▁организм	-12090
▁Социали	-12091
▁Кро	-12092
▁банки	-12093
▁вина	-12094
▁Award	-12095
use	-12096
праши	-12097
▁Rad	-12098
▁оставалось	-12099
▁сестра	-12100
▁remov	-12101
▁конфликта	-12102
▁Стани	-12103
▁читал	-12104
▁Vol	-12105
▁Ещё	-12106
▁начались	-12107
́н	-12108
нейшие	-12109
▁Тех	-12110
▁улыб	-12111
▁банк	-12112
▁Над	-12113
Ан	-12114
▁Белоруссии	-12115
вик	-12116
▁шоссе	-12117
▁служеб	-12118
asion	-12119
oper	-12120
▁Хорошо	-12121
▁farm	-12122
петь	-12123
▁вернуть	-12124
▁причинам	-12125
ДА	-12126
▁Время	-12127
▁Петербурге	-12128
▁камень	-12129
▁веб	-12130
▁Население	-12131
umn	-12132
uild	-12133
▁контакт	-12134
▁Спу	-12135
▁видом	-12136
▁фильмов	-12137
рева	-12138
▁ладо	-12139
▁факты	-12140
▁веры	-12141
▁соглашения	-12142
▁лучший	-12143
▁выполнение	-12144
▁Больше	-12145
▁девушки	-12146
▁св	-12147
▁кван	-12148
▁Frank	-12149
▁важным	-12150
ibrary	-12151
▁замени	-12152
жке	-12153
▁занимал	-12154
▁позволит	-12155
▁несомненно	-12156
▁Роберт	-12157
▁Western	-12158
▁обстре	-12159
▁См	-12160
люблен	-12161
selves	-12162
пуга	-12163
▁wanted	-12164
▁остаются	-12165
▁закре	-12166
▁левой	-12167
▁themselves	-12168
▁administ	-12169
▁Лишь	-12170
▁клиентов	-12171
▁объе	-12172
Ла	-12173
▁Иса	-12174
▁учетом	-12175
hem	-12176
▁пределы	-12177
бал	-12178
▁распространение	-12179
▁работо	-12180
слом	-12181
▁beginning	-12182
▁диапа	-12183
▁матчей	-12184
▁Необходи	-12185
зло	-12186
▁работала	-12187
rael	-12188
▁Министерства	-12189
▁Одновременно	-12190
▁Inter	-12191
▁страха	-12192
▁прока	-12193
▁звё	-12194
▁Green	-12195
▁старый	-12196
▁представлен	-12197
▁океана	-12198
idents	-12199
▁музыку	-12200
▁больных	-12201
▁окончании	-12202
▁нарушение	-12203
rey	-12204
▁Васильевич	-12205
▁district	-12206
пры	-12207
АС	-12208
▁create	-12209
▁сотрудники	-12210
▁двигателя	-12211
▁свидетельствует	-12212
▁Евгений	-12213
▁protect	-12214
▁регионе	-12215
right	-12216
▁моде	-12217
▁evidence	-12218
▁female	-12219
▁media	-12220
▁expect	-12221
▁debut	-12222
▁connect	-12223
irm	-12224
▁культуре	-12225
▁взяли	-12226
слуши	-12227
▁продолжать	-12228
▁парламента	-12229
▁выбро	-12230
стили	-12231
▁Henry	-12232
▁избра	-12233
▁нере	-12234
чностью	-12235
▁вар	-12236
▁результатом	-12237
▁Вопрос	-12238
▁via	-12239
▁примени	-12240
шенный	-12241
▁наука	-12242
▁наименова	-12243
▁дорого	-12244
▁политике	-12245
▁штат	-12246
▁зачастую	-12247
▁Президиума	-12248
lim	-12249
стема	-12250
▁пови	-12251
Кон	-12252
▁входя	-12253
▁детям	-12254
▁связей	-12255
▁print	-12256
питы	-12257
сках	-12258
Му	-12259
▁friends	-12260
▁кофе	-12261
тному	-12262
▁Club	-12263
▁ябло	-12264
▁разы	-12265
▁задума	-12266
overnor	-12267
▁физики	-12268
уме	-12269
▁типо	-12270
новича	-12271
▁plant	-12272
▁Island	-12273
▁появление	-12274
▁изначально	-12275
▁болезнь	-12276
▁функция	-12277
▁дифф	-12278
▁parts	-12279
▁европейских	-12280
▁вечера	-12281
▁whom	-12282
▁держать	-12283
▁increased	-12284
▁обращения	-12285
▁determ	-12286
▁окружающей	-12287
▁Поня	-12288
PS	-12289
▁любые	-12290
▁sch	-12291
▁попол	-12292
"...	-12293
▁кирпи	-12294
▁услов	-12295
▁changed	-12296
▁заявля	-12297
▁Обо	-12298
▁Michael	-12299
▁личного	-12300
тивными	-12301
моно	-12302
▁ряде	-12303
▁рев	-12304
▁убы	-12305
▁целиком	-12306
▁рецеп	-12307
▁взры	-12308
▁собрать	-12309
▁Soviet	-12310
▁Pri	-12311
вающей	-12312
ляют	-12313
▁детства	-12314
▁зафикси	-12315
ym	-12316
▁иу	-12317
▁заводе	-12318
▁ушел	-12319
▁особого	-12320
▁живой	-12321
▁вело	-12322
тащи	-12323
▁Гей	-12324
▁асси	-12325
▁президентом	-12326
веси	-12327
▁насеко	-12328
▁полета	-12329
▁заблу	-12330
▁сделано	-12331
▁features	-12332
▁месту	-12333
▁изли	-12334
▁крыла	-12335
▁занимается	-12336
▁sem	-12337
▁Варша	-12338
▁Society	-12339
▁эксплуатации	-12340
▁лед	-12341
▁Many	-12342
▁Тан	-12343
▁собак	-12344
icles	-12345
▁самую	-12346
▁попасть	-12347
▁отряда	-12348
▁принятия	-12349
asons	-12350
▁Сама	-12351
▁графа	-12352
▁проведен	-12353
▁выру	-12354
▁десятки	-12355
рва	-12356
▁фили	-12357
▁immedi	-12358
▁политику	-12359
▁народу	-12360
ЕВ	-12361
▁борту	-12362
▁percent	-12363
▁сидя	-12364
дневно	-12365
▁устойчи	-12366
▁Длина	-12367
▁Лев	-12368
like	-12369
стыми	-12370
▁Значит	-12371
▁love	-12372
▁физической	-12373
iter	-12374
тины	-12375
▁нормы	-12376
▁верхов	-12377
▁факторов	-12378
фана	-12379
▁экстре	-12380
▁Follow	-12381
мея	-12382
если	-12383
▁внутреннего	-12384
▁беремен	-12385
▁подписал	-12386
▁Луи	-12387
▁люблю	-12388
▁проверить	-12389
стон	-12390
▁драго	-12391
▁Основа	-12392
▁пойти	-12393
▁мони	-12394
зываться	-12395
емыми	-12396
▁созданию	-12397
пова	-12398
▁Pet	-12399
▁feet	-12400
Че	-12401
▁пру	-12402
▁исчеза	-12403
▁Стар	-12404
▁лов	-12405
▁обуча	-12406
водится	-12407
▁mur	-12408
вляться	-12409
▁прокуро	-12410
▁написано	-12411
▁твое	-12412
▁Wil	-12413
рожден	-12414
ренный	-12415
АЗ	-12416
asc	-12417
▁линия	-12418
▁arm	-12419
▁lower	-12420
▁ответить	-12421
▁потер	-12422
▁немно	-12423
женная	-12424
unn	-12425
▁дворян	-12426
▁первич	-12427
isk	-12428
▁островов	-12429
▁отличаются	-12430
▁использовании	-12431
▁сидел	-12432
ерархи	-12433
▁открыть	-12434
▁Grand	-12435
▁смогут	-12436
▁устре	-12437
▁turned	-12438
▁экземпля	-12439
▁ткани	-12440
стских	-12441
▁внимательно	-12442
▁турнира	-12443
▁опубликован	-12444
arter	-12445
▁вражде	-12446
▁раб	-12447
стинк	-12448
▁thus	-12449
▁стер	-12450
▁songs	-12451
▁строки	-12452
▁аппарата	-12453
MS	-12454
▁boy	-12455
шной	-12456
▁проявления	-12457
ствующие	-12458
oring	-12459
▁французского	-12460
жутся	-12461
ography	-12462
▁прозра	-12463
▁перейти	-12464
▁собою	-12465
▁двадцати	-12466
▁меньшей	-12467
▁волости	-12468
▁instit	-12469
mon	-12470
зина	-12471
▁Вообще	-12472
льци	-12473
▁Россией	-12474
▁ворота	-12475
▁экипажа	-12476
▁актуаль	-12477
▁доступа	-12478
▁Син	-12479
▁exam	-12480
▁African	-12481
леб	-12482
ands	-12483
▁укры	-12484
ranch	-12485
▁понимал	-12486
▁исполнения	-12487
▁abs	-12488
▁выполня	-12489
▁ошибок	-12490
▁шер	-12491
▁дебютировал	-12492
▁фору	-12493
▁мозг	-12494
oz	-12495
яр	-12496
▁Восточной	-12497
▁надпись	-12498
▁ваших	-12499
▁Были	-12500
▁Two	-12501
гается	-12502
фрикан	-12503
▁расширя	-12504
▁Никто	-12505
▁Смолен	-12506
▁сравнительно	-12507
▁пределами	-12508
▁Степа	-12509
Th	-12510
▁Vict	-12511
терии	-12512
▁армией	-12513
▁оси	-12514
линд	-12515
▁подзем	-12516
▁выбран	-12517
▁пограни	-12518
▁преу	-12519
ваемые	-12520
▁Mod	-12521
▁super	-12522
▁наступления	-12523
▁местные	-12524
зости	-12525
▁ухуд	-12526
ровке	-12527
дкой	-12528
▁боевые	-12529
elled	-12530
▁переговоров	-12531
▁верхней	-12532
шок	-12533
▁bene	-12534
деква	-12535
▁Ильи	-12536
зиат	-12537
лайн	-12538
▁lack	-12539
▁согласился	-12540
штейн	-12541
▁бытия	-12542
▁автоматически	-12543
▁сыном	-12544
▁Свер	-12545
ведь	-12546
olf	-12547
▁Just	-12548
▁emb	-12549
▁higher	-12550
▁Список	-12551
эф	-12552
▁Весь	-12553
▁square	-12554
▁value	-12555
▁принципы	-12556
▁начальником	-12557
▁means	-12558
▁происходило	-12559
▁порази	-12560
▁линию	-12561
чём	-12562
▁земе	-12563
▁экономического	-12564
хожу	-12565
▁Тимо	-12566
▁park	-12567
▁prob	-12568
▁осталась	-12569
тирует	-12570
▁западной	-12571
▁военнослу	-12572
▁английского	-12573
IT	-12574
▁каме	-12575
▁получилось	-12576
▁профессора	-12577
▁central	-12578
джер	-12579
▁подразуме	-12580
ИИ	-12581
Га	-12582
▁Сибири	-12583
льм	-12584
▁Расска	-12585
▁телекана	-12586
думан	-12587
▁метода	-12588
▁Rock	-12589
▁психологии	-12590
▁ended	-12591
следователь	-12592
▁общих	-12593
▁discuss	-12594
кии	-12595
▁Smith	-12596
▁предполагает	-12597
нели	-12598
ильям	-12599
▁воспри	-12600
▁автомобиля	-12601
▁леги	-12602
▁elected	-12603
ною	-12604
▁feel	-12605
▁lay	-12606
новым	-12607
▁отъ	-12608
▁буржуаз	-12609
▁Гитлер	-12610
▁observ	-12611
▁следовало	-12612
▁журнале	-12613
aur	-12614
▁architect	-12615
▁участники	-12616
▁Cons	-12617
▁подготовке	-12618
▁немецкой	-12619
▁прице	-12620
тинг	-12621
ergy	-12622
ланти	-12623
▁заро	-12624
▁grand	-12625
▁novel	-12626
▁труп	-12627
▁постав	-12628
ленного	-12629
▁девять	-12630
ровского	-12631
▁Турции	-12632
();	-12633
АТО	-12634
▁true	-12635
▁известного	-12636
▁кости	-12637
ida	-12638
▁стр	-12639
▁приго	-12640
▁машине	-12641
ula	-12642
▁systems	-12643
▁разработке	-12644
▁тяго	-12645
▁princip	-12646
▁document	-12647
▁Следова	-12648
▁суббо	-12649
▁units	-12650
▁подобное	-12651
▁Following	-12652
▁маленький	-12653
▁ходить	-12654
Ло	-12655
▁просла	-12656
▁врагов	-12657
▁середины	-12658
▁Роман	-12659
цени	-12660
▁отдельно	-12661
▁Обе	-12662
▁тира	-12663
ternal	-12664
▁эволюции	-12665
▁напеча	-12666
▁?	-12667
▁звезда	-12668
▁pie	-12669
▁Jos	-12670
▁точка	-12671
▁солдаты	-12672
гала	-12673
▁earlier	-12674
hi	-12675
▁черта	-12676
▁терпе	-12677
бие	-12678
ровался	-12679
▁расположена	-12680
ises	-12681
▁кусо	-12682
▁предпоч	-12683
▁некоторым	-12684
▁максимально	-12685
▁доказыва	-12686
▁Ital	-12687
▁автомобиль	-12688
▁исходя	-12689
▁пушки	-12690
▁движении	-12691
▁Вселенной	-12692
▁взрыва	-12693
▁собака	-12694
▁достичь	-12695
ствование	-12696
ристокра	-12697
▁Елиза	-12698
▁according	-12699
▁Президент	-12700
▁passed	-12701
ллы	-12702
▁властей	-12703
▁комитет	-12704
▁Louis	-12705
▁спря	-12706
▁обнаружили	-12707
лес	-12708
▁лучшим	-12709
chan	-12710
▁decision	-12711
▁одежды	-12712
▁Кер	-12713
ider	-12714
▁советские	-12715
▁результатам	-12716
мед	-12717
▁personal	-12718
enced	-12719
▁кло	-12720
▁высшего	-12721
▁Матери	-12722
▁football	-12723
▁оли	-12724
▁обеспечивает	-12725
вица	-12726
▁уступа	-12727
▁industry	-12728
▁пункта	-12729
▁продоволь	-12730
▁Дере	-12731
...>	-12732
рока	-12733
▁Оп	-12734
▁Нар	-12735
▁событие	-12736
▁выиграл	-12737
▁критери	-12738
▁log	-12739
▁Алла	-12740
▁многочисленных	-12741
▁характеристики	-12742
▁step	-12743
▁Университе	-12744
▁продукт	-12745
▁художников	-12746
▁exc	-12747
▁Тар	-12748
▁символ	-12749
▁лы	-12750
▁важное	-12751
▁ваго	-12752
▁forced	-12753
▁карте	-12754
▁разоча	-12755
ОО	-12756
▁лесу	-12757
▁обыкновен	-12758
▁риск	-12759
▁волосы	-12760
▁ЕС	-12761
▁ремон	-12762
▁броси	-12763
ливый	-12764
▁представляется	-12765
▁stay	-12766
меся	-12767
▁sett	-12768
ренных	-12769
road	-12770
▁реклам	-12771
▁необ	-12772
▁источники	-12773
▁здраво	-12774
чах	-12775
▁Сирии	-12776
pan	-12777
стере	-12778
▁Rev	-12779
▁газете	-12780
▁Впоследствии	-12781
еписко	-12782
▁Lat	-12783
купи	-12784
▁Позднее	-12785
▁ведут	-12786
▁футболист	-12787
▁двер	-12788
▁драматур	-12789
ксу	-12790
▁заби	-12791
▁массу	-12792
▁четко	-12793
десяти	-12794
▁troops	-12795
▁глубине	-12796
och	-12797
▁актёр	-12798
сец	-12799
▁орудия	-12800
▁границе	-12801
▁грома	-12802
▁gra	-12803
▁специальные	-12804
▁Путин	-12805
▁говорилось	-12806
▁использовал	-12807
▁виртуаль	-12808
▁магистра	-12809
ocal	-12810
▁нефти	-12811
▁моем	-12812
▁сад	-12813
нгви	-12814
▁расче	-12815
▁ир	-12816
чках	-12817
▁fif	-12818
eks	-12819
▁проби	-12820
лизации	-12821
▁Institute	-12822
▁тремя	-12823
▁взаимоот	-12824
▁признаки	-12825
уэ	-12826
oud	-12827
личество	-12828
▁звания	-12829
▁Bill	-12830
резать	-12831
omm	-12832
▁участием	-12833
▁cit	-12834
тивном	-12835
сена	-12836
▁розы	-12837
▁Сын	-12838
▁Россий	-12839
ession	-12840
▁молодого	-12841
чева	-12842
внокоман	-12843
▁политические	-12844
▁Peter	-12845
▁kind	-12846
▁общим	-12847
▁листь	-12848
▁Тю	-12849
▁документ	-12850
МО	-12851
Ти	-12852
OM	-12853
вный	-12854
▁saf	-12855
лец	-12856
▁fle	-12857
▁Academ	-12858
▁старые	-12859
▁перспек	-12860
мите	-12861
▁capital	-12862
kn	-12863
▁клеток	-12864
▁threat	-12865
нилась	-12866
▁Константин	-12867
▁Джона	-12868
▁освобождения	-12869
unity	-12870
▁реку	-12871
▁посад	-12872
▁рее	-12873
лично	-12874
rial	-12875
▁начался	-12876
▁Существует	-12877
▁Сева	-12878
стояние	-12879
▁заслужи	-12880
ala	-12881
pire	-12882
ita	-12883
▁весной	-12884
▁деятельностью	-12885
uments	-12886
▁ора	-12887
▁изви	-12888
▁извле	-12889
▁Воору	-12890
▁закономер	-12891
▁делается	-12892
монстри	-12893
▁высокие	-12894
▁требований	-12895
зрения	-12896
▁originally	-12897
▁беру	-12898
▁классов	-12899
▁расстрой	-12900
▁золото	-12901
день	-12902
▁Er	-12903
▁нав	-12904
▁Зу	-12905
▁Летом	-12906
▁репре	-12907
драв	-12908
▁text	-12909
▁составил	-12910
▁технических	-12911
▁ощущения	-12912
vert	-12913
▁something	-12914
ключения	-12915
щенной	-12916
▁отсюда	-12917
▁пользователя	-12918
▁хлеба	-12919
▁hours	-12920
▁размеров	-12921
▁поддерживать	-12922
▁summer	-12923
▁cred	-12924
▁спортсме	-12925
▁ворот	-12926
зуется	-12927
▁трибу	-12928
▁сби	-12929
▁активности	-12930
pose	-12931
▁Mount	-12932
▁Сти	-12933
ero	-12934
▁прогу	-12935
▁поддержке	-12936
▁Australian	-12937
▁Fin	-12938
▁Действи	-12939
▁разными	-12940
▁успехом	-12941
чих	-12942
▁cand	-12943
▁папа	-12944
mar	-12945
▁exhib	-12946
▁mach	-12947
▁Иеруса	-12948
▁anc	-12949
вершенно	-12950
▁осенью	-12951
нны	-12952
▁bank	-12953
▁interview	-12954
▁мяте	-12955
▁neigh	-12956
▁rank	-12957
▁Мака	-12958
▁prevent	-12959
▁уходит	-12960
▁Разумеется	-12961
подоб	-12962
▁Scott	-12963
совершен	-12964
▁зуб	-12965
▁русским	-12966
▁произведение	-12967
▁расходы	-12968
уз	-12969
▁гордо	-12970
▁ошиб	-12971
тека	-12972
▁имело	-12973
Йорк	-12974
▁перевоз	-12975
hab	-12976
фель	-12977
▁клима	-12978
▁семина	-12979
▁аппарат	-12980
▁caused	-12981
▁Ze	-12982
▁политический	-12983
Исто	-12984
▁заказа	-12985
▁служа	-12986
▁Arch	-12987
▁размера	-12988
▁потерял	-12989
▁происше	-12990
▁emer	-12991
▁псевдо	-12992
aught	-12993
▁артиллерии	-12994
▁французской	-12995
▁Tor	-12996
▁резиден	-12997
EN	-12998
▁повлия	-12999
▁Уз	-13000
▁applic	-13001
▁построить	-13002
▁вел	-13003
▁ваша	-13004
▁сбро	-13005
▁заслуги	-13006
▁любопыт	-13007
▁Кен	-13008
▁мост	-13009
▁Israel	-13010
▁медлен	-13011
▁Richard	-13012
▁канала	-13013
▁center	-13014
дений	-13015
▁рекорд	-13016
▁ничем	-13017
▁сколь	-13018
риться	-13019
▁файл	-13020
вной	-13021
Он	-13022
ini	-13023
▁квартире	-13024
▁какими	-13025
▁остаться	-13026
▁targ	-13027
▁ов	-13028
▁Music	-13029
▁Most	-13030
▁Нео	-13031
▁Minister	-13032
▁звук	-13033
▁повседнев	-13034
пать	-13035
▁Тео	-13036
▁старого	-13037
▁Памя	-13038
▁Боб	-13039
▁носит	-13040
▁враждеб	-13041
рку	-13042
стах	-13043
▁чужо	-13044
▁natural	-13045
▁сдви	-13046
▁опаса	-13047
US	-13048
▁третьей	-13049
▁свето	-13050
lying	-13051
▁соглашение	-13052
ровались	-13053
▁Лат	-13054
▁trib	-13055
▁Церкви	-13056
TV	-13057
▁конгре	-13058
▁пля	-13059
здо	-13060
вето	-13061
▁угол	-13062
▁тридцать	-13063
Мар	-13064
▁уезд	-13065
вне	-13066
ъю	-13067
▁слышал	-13068
▁взро	-13069
▁яи	-13070
циан	-13071
▁nar	-13072
лял	-13073
▁cal	-13074
▁волшеб	-13075
▁роско	-13076
талки	-13077
▁приблизительно	-13078
▁принес	-13079
▁страницы	-13080
iled	-13081
▁орган	-13082
▁источником	-13083
It	-13084
▁потребу	-13085
▁Mont	-13086
Ди	-13087
name	-13088
▁consider	-13089
воро	-13090
ённый	-13091
нному	-13092
▁Кей	-13093
▁следующего	-13094
▁оружием	-13095
▁покрови	-13096
▁шар	-13097
▁концепции	-13098
▁Отсюда	-13099
▁вынуждены	-13100
▁Central	-13101
▁напряжения	-13102
mod	-13103
▁солнца	-13104
▁хранения	-13105
▁тысяче	-13106
▁Мало	-13107
▁pen	-13108
gl	-13109
▁участке	-13110
▁реализова	-13111
▁operations	-13112
▁qual	-13113
▁подска	-13114
▁мелко	-13115
▁снять	-13116
▁скор	-13117
▁Сар	-13118
▁пользователь	-13119
▁заметно	-13120
▁обвинения	-13121
▁загру	-13122
▁traditional	-13123
bour	-13124
▁издели	-13125
воло	-13126
▁приготовления	-13127
▁scored	-13128
▁Солнца	-13129
▁старой	-13130
▁путём	-13131
▁Not	-13132
▁моему	-13133
сибир	-13134
▁находит	-13135
▁талан	-13136
▁section	-13137
▁науке	-13138
трибу	-13139
стся	-13140
нков	-13141
АК	-13142
▁отвра	-13143
▁mix	-13144
▁нападения	-13145
▁выводу	-13146
▁Новгород	-13147
▁amount	-13148
ena	-13149
берт	-13150
казом	-13151
▁спать	-13152
▁вспомнить	-13153
▁зная	-13154
▁adop	-13155
▁привели	-13156
ano	-13157
▁штурмо	-13158
▁Super	-13159
▁израиль	-13160
лите	-13161
▁пары	-13162
▁несколькими	-13163
▁рыбы	-13164
▁представлены	-13165
▁Уильям	-13166
▁монастырь	-13167
лот	-13168
▁просве	-13169
▁семью	-13170
▁взор	-13171
▁функцию	-13172
»:	-13173
▁территориаль	-13174
▁Уэ	-13175
▁Глу	-13176
▁sen	-13177
▁distrib	-13178
▁немецкого	-13179
▁Day	-13180
рывно	-13181
▁сюже	-13182
▁позиций	-13183
▁Григорь	-13184
▁архитектуры	-13185
▁засе	-13186
▁тен	-13187
▁environment	-13188
▁началу	-13189
▁цветов	-13190
▁Francis	-13191
▁знание	-13192
▁врача	-13193
▁коде	-13194
▁останется	-13195
▁передает	-13196
стил	-13197
▁экологи	-13198
▁commercial	-13199
▁обладают	-13200
▁construct	-13201
▁специалисты	-13202
▁упомяну	-13203
▁рабочие	-13204
▁вож	-13205
▁Худо	-13206
▁восстания	-13207
▁нов	-13208
▁величай	-13209
▁аку	-13210
▁народных	-13211
▁небольшие	-13212
▁Авгу	-13213
ренно	-13214
▁жар	-13215
▁устройств	-13216
▁дополнительные	-13217
▁попытка	-13218
▁Бела	-13219
▁фаль	-13220
izing	-13221
▁Диа	-13222
▁вызва	-13223
▁удара	-13224
▁спуска	-13225
▁мла	-13226
▁Востока	-13227
▁подумал	-13228
ченными	-13229
▁Sing	-13230
▁лейтенант	-13231
▁Los	-13232
ношение	-13233
▁явлений	-13234
▁Цар	-13235
▁определенные	-13236
▁командой	-13237
▁измерения	-13238
▁наказания	-13239
рисо	-13240
▁includes	-13241
▁лагере	-13242
▁структуру	-13243
▁тесно	-13244
▁понадоби	-13245
▁league	-13246
▁избы	-13247
▁компанией	-13248
▁лучшие	-13249
▁celeb	-13250
▁управлять	-13251
▁Есте	-13252
▁Австралии	-13253
▁решением	-13254
▁ремонт	-13255
▁Берлин	-13256
▁проходил	-13257
▁моне	-13258
▁воздействие	-13259
▁приема	-13260
▁технику	-13261
рист	-13262
▁пребывания	-13263
▁политического	-13264
▁извести	-13265
eph	-13266
мали	-13267
▁coast	-13268
▁энергию	-13269
рованием	-13270
▁нра	-13271
▁secret	-13272
ванге	-13273
▁spent	-13274
ufact	-13275
▁пари	-13276
хим	-13277
▁вблизи	-13278
▁Груп	-13279
▁арестован	-13280
▁вя	-13281
▁Патри	-13282
▁постара	-13283
пке	-13284
▁cy	-13285
▁мелких	-13286
▁инстинк	-13287
▁Счита	-13288
формули	-13289
▁buildings	-13290
▁авторы	-13291
▁claimed	-13292
▁деревья	-13293
▁Microsoft	-13294
▁wood	-13295
▁гряз	-13296
▁известные	-13297
спор	-13298
▁огромный	-13299
▁игроков	-13300
▁Доро	-13301
▁Петрович	-13302
▁гон	-13303
кове	-13304
▁дья	-13305
▁заключение	-13306
▁increase	-13307
▁Вос	-13308
▁Oper	-13309
▁Государственной	-13310
▁Гро	-13311
жок	-13312
▁наре	-13313
▁появилось	-13314
бовать	-13315
дир	-13316
Ком	-13317
▁longer	-13318
▁недалеко	-13319
▁охваты	-13320
▁свадь	-13321
емость	-13322
▁городом	-13323
преки	-13324
▁Мекси	-13325
▁брак	-13326
▁яйца	-13327
▁обыча	-13328
▁собрание	-13329
▁владения	-13330
▁кредит	-13331
▁поспе	-13332
▁зимой	-13333
ga	-13334
▁Хру	-13335
сообраз	-13336
▁выго	-13337
▁пришло	-13338
▁Арме	-13339
▁приложение	-13340
▁Первым	-13341
▁Пробле	-13342
▁System	-13343
▁братьев	-13344
гиба	-13345
▁способы	-13346
▁определенной	-13347
▁рассказывал	-13348
▁долю	-13349
▁магазин	-13350
▁странно	-13351
▁Европей	-13352
вероят	-13353
▁открыт	-13354
▁Великого	-13355
▁разработан	-13356
анг	-13357
▁внешне	-13358
▁властью	-13359
onse	-13360
▁возможных	-13361
erve	-13362
▁награждён	-13363
▁раска	-13364
▁карта	-13365
▁голосов	-13366
Лю	-13367
▁озеро	-13368
▁маркси	-13369
▁Пушкин	-13370
▁поры	-13371
нических	-13372
ams	-13373
тику	-13374
▁Ца	-13375
сном	-13376
▁путей	-13377
▁Знамени	-13378
▁believed	-13379
arriage	-13380
▁уез	-13381
▁meeting	-13382
▁Зато	-13383
▁попере	-13384
▁Бел	-13385
▁Camp	-13386
obal	-13387
▁следующей	-13388
▁неблаго	-13389
▁серьезно	-13390
ственному	-13391
▁Швейца	-13392
▁счё	-13393
▁открытие	-13394
▁свидетельство	-13395
▁drop	-13396
▁District	-13397
▁active	-13398
▁территория	-13399
▁economic	-13400
▁Apple	-13401
▁Олег	-13402
▁<...>	-13403
▁проч	-13404
▁задачей	-13405
▁повести	-13406
▁лиги	-13407
ворить	-13408
тара	-13409
▁Уи	-13410
▁Церковь	-13411
▁constit	-13412
quote	-13413
▁Болга	-13414
▁морских	-13415
▁реальность	-13416
▁прокура	-13417
▁Муж	-13418
▁фоль	-13419
▁увлека	-13420
изм	-13421
istry	-13422
▁Post	-13423
▁потра	-13424
hest	-13425
пала	-13426
▁автором	-13427
пейской	-13428
▁подверг	-13429
▁Почти	-13430
▁деревьев	-13431
дт	-13432
▁констру	-13433
▁термо	-13434
▁выяснилось	-13435
Con	-13436
uge	-13437
->	-13438
▁количеством	-13439
▁персонажей	-13440
ровский	-13441
▁провод	-13442
▁Chic	-13443
▁продемонстри	-13444
▁состоял	-13445
▁Bur	-13446
▁пей	-13447
▁Продол	-13448
▁определенных	-13449
▁leave	-13450
▁property	-13451
porary	-13452
▁учителя	-13453
▁Кня	-13454
----------------	-13455
▁очереди	-13456
▁Венг	-13457
▁верить	-13458
▁vot	-13459
эффици	-13460
▁поселение	-13461
▁bring	-13462
▁word	-13463
вален	-13464
▁собственный	-13465
▁News	-13466
▁idea	-13467
рят	-13468
▁отказ	-13469
▁закреп	-13470
▁prior	-13471
нялся	-13472
▁Слова	-13473
▁беспокой	-13474
▁кален	-13475
цена	-13476
лизма	-13477
ферен	-13478
Золо	-13479
лизм	-13480
▁пое	-13481
▁Open	-13482
класс	-13483
▁полную	-13484
стин	-13485
▁books	-13486
▁gold	-13487
▁defeated	-13488
сными	-13489
▁усилий	-13490
▁срока	-13491
▁читатель	-13492
▁множества	-13493
▁крест	-13494
▁иерархи	-13495
▁Фрей	-13496
mitted	-13497
▁нейро	-13498
▁Spanish	-13499
▁республикан	-13500
error	-13501
▁Фридри	-13502
▁сильный	-13503
▁сложных	-13504
▁судо	-13505
▁отцом	-13506
ими	-13507
inter	-13508
▁Закон	-13509
ros	-13510
▁пирами	-13511
жались	-13512
▁Хор	-13513
▁заставить	-13514
▁оборудование	-13515
uty	-13516
сюду	-13517
blockquote	-13518
▁Соло	-13519
▁Ben	-13520
▁сигнал	-13521
тво	-13522
▁повышения	-13523
▁Яковле	-13524
▁институте	-13525
▁столице	-13526
▁четвёр	-13527
▁практики	-13528
▁сервер	-13529
▁возвращается	-13530
▁разнови	-13531
▁описания	-13532
люб	-13533
▁месторо	-13534
▁детстве	-13535
▁истины	-13536
▁Squ	-13537
▁поу	-13538
owers	-13539
▁испытаний	-13540
▁идёт	-13541
▁Press	-13542
▁многим	-13543
▁называть	-13544
сист	-13545
based	-13546
▁Fort	-13547
▁Сколько	-13548
теро	-13549
SS	-13550
▁пробе	-13551
▁квартиру	-13552
▁годами	-13553
▁generally	-13554
ации	-13555
чивать	-13556
Ar	-13557
▁Virgin	-13558
▁sometimes	-13559
▁кад	-13560
▁народной	-13561
▁цикла	-13562
▁сообщила	-13563
▁достигает	-13564
▁самолеты	-13565
▁считаю	-13566
▁нашему	-13567
▁source	-13568
▁покинул	-13569
AL	-13570
▁упор	-13571
▁молодые	-13572
▁областях	-13573
▁богов	-13574
▁staff	-13575
▁issue	-13576
▁проходят	-13577
мину	-13578
▁грудь	-13579
▁присла	-13580
▁issues	-13581
▁выборы	-13582
▁companies	-13583
▁набо	-13584
▁Афи	-13585
▁армий	-13586
▁Пле	-13587
▁договори	-13588
▁известной	-13589
▁structure	-13590
▁собран	-13591
▁Умер	-13592
▁личной	-13593
чел	-13594
▁пропор	-13595
▁practice	-13596
▁лири	-13597
▁мечта	-13598
▁руке	-13599
▁Её	-13600
▁северной	-13601
хах	-13602
▁одних	-13603
▁saying	-13604
▁формули	-13605
дность	-13606
▁Теле	-13607
слежи	-13608
▁коп	-13609
вард	-13610
▁улицу	-13611
ging	-13612
▁посу	-13613
▁подра	-13614
▁Ничего	-13615
▁VII	-13616
▁воспользоваться	-13617
▁du	-13618
▁religious	-13619
▁Работа	-13620
change	-13621
▁кризиса	-13622
рда	-13623
▁shot	-13624
▁втори	-13625
▁реконструк	-13626
▁библиотеки	-13627
AF	-13628
▁Miss	-13629
▁живописи	-13630
▁цена	-13631
▁находиться	-13632
▁Брази	-13633
▁провели	-13634
mark	-13635
▁river	-13636
▁кула	-13637
▁комнаты	-13638
▁attend	-13639
▁крыль	-13640
▁национальных	-13641
▁откро	-13642
ционном	-13643
▁Africa	-13644
тивность	-13645
форд	-13646
сой	-13647
▁нефте	-13648
лаз	-13649
рением	-13650
гана	-13651
▁attended	-13652
▁потребности	-13653
▁участвовать	-13654
▁Bec	-13655
дис	-13656
▁Хай	-13657
▁legal	-13658
новского	-13659
лимпиа	-13660
▁возможным	-13661
▁require	-13662
▁подпо	-13663
▁things	-13664
▁точек	-13665
▁Пожа	-13666
▁Hill	-13667
▁шабло	-13668
▁чудови	-13669
▁слой	-13670
ционер	-13671
▁Расс	-13672
▁сопоста	-13673
зам	-13674
▁trade	-13675
▁армей	-13676
ходится	-13677
▁перечисле	-13678
▁сумма	-13679
Ру	-13680
▁особой	-13681
чивости	-13682
▁радость	-13683
het	-13684
хами	-13685
▁Британ	-13686
▁рабочий	-13687
▁собор	-13688
▁убить	-13689
▁equip	-13690
СП	-13691
▁opening	-13692
▁зданий	-13693
plement	-13694
▁короле	-13695
▁руководителей	-13696
▁standard	-13697
▁experience	-13698
▁строить	-13699
▁трудности	-13700
▁response	-13701
▁поиск	-13702
iences	-13703
▁накануне	-13704
нического	-13705
▁Del	-13706
ste	-13707
▁собственную	-13708
▁побережье	-13709
▁complex	-13710
▁whole	-13711
▁доказательства	-13712
▁канал	-13713
▁птицы	-13714
▁доктора	-13715
ria	-13716
▁латин	-13717
▁лидера	-13718
▁местом	-13719
▁reason	-13720
▁крупнейших	-13721
cher	-13722
inent	-13723
▁аристокра	-13724
yth	-13725
▁смя	-13726
ведено	-13727
дача	-13728
rief	-13729
▁возникновения	-13730
▁Официальный	-13731
▁языках	-13732
▁перео	-13733
тью	-13734
заи	-13735
▁отчасти	-13736
▁изгна	-13737
▁проника	-13738
▁territ	-13739
тельному	-13740
▁Чемпиона	-13741
▁news	-13742
▁arrived	-13743
▁высших	-13744
▁турнире	-13745
доль	-13746
водства	-13747
▁возникла	-13748
▁Direct	-13749
▁возраст	-13750
▁prem	-13751
▁следы	-13752
▁следствие	-13753
▁называет	-13754
inary	-13755
▁victory	-13756
▁батальон	-13757
▁исторической	-13758
нину	-13759
▁чудо	-13760
настоя	-13761
▁Зачем	-13762
▁ball	-13763
▁опира	-13764
▁Фото	-13765
▁решила	-13766
изе	-13767
ваете	-13768
▁подели	-13769
дых	-13770
▁отставку	-13771
▁соответствующие	-13772
▁эскадри	-13773
▁всяких	-13774
ёром	-13775
▁anti	-13776
▁changes	-13777
▁defend	-13778
▁заседании	-13779
чести	-13780
▁топлива	-13781
вики	-13782
ua	-13783
зацией	-13784
▁Черно	-13785
фия	-13786
▁surround	-13787
ксе	-13788
▁grant	-13789
▁выгод	-13790
▁Ev	-13791
▁надежды	-13792
▁суммы	-13793
▁долгое	-13794
ols	-13795
▁particularly	-13796
▁запом	-13797
чились	-13798
мане	-13799
▁cat	-13800
▁пуль	-13801
▁Около	-13802
▁председателем	-13803
пит	-13804
▁вооружение	-13805
▁мане	-13806
▁noted	-13807
▁Окончил	-13808
праве	-13809
▁опровер	-13810
orial	-13811
▁самоубий	-13812
▁автомобилей	-13813
▁смертью	-13814
▁продажи	-13815
rus	-13816
▁fourth	-13817
▁weeks	-13818
▁Татья	-13819
▁Museum	-13820
низу	-13821
usband	-13822
▁finally	-13823
▁лодки	-13824
▁первоначально	-13825
жев	-13826
цова	-13827
▁Круп	-13828
▁побо	-13829
▁пролета	-13830
ОД	-13831
▁student	-13832
РГ	-13833
▁ens	-13834
▁running	-13835
▁возглавил	-13836
▁хотим	-13837
чеством	-13838
▁положить	-13839
пустили	-13840
▁неопреде	-13841
▁мило	-13842
▁whether	-13843
▁Валь	-13844
▁отсутствия	-13845
earch	-13846
▁осе	-13847
▁неизвестно	-13848
▁последним	-13849
▁грам	-13850
▁позволило	-13851
▁гит	-13852
▁ул	-13853
▁Sir	-13854
▁городу	-13855
▁focus	-13856
истори	-13857
▁Victor	-13858
west	-13859
▁обеспечение	-13860
Пер	-13861
▁армя	-13862
▁terms	-13863
▁Какие	-13864
▁высказа	-13865
▁primary	-13866
▁arrest	-13867
▁Викто	-13868
▁изучение	-13869
▁necess	-13870
▁татар	-13871
IC	-13872
▁реально	-13873
▁недоволь	-13874
▁organization	-13875
дец	-13876
▁сражения	-13877
▁leader	-13878
▁литература	-13879
тиву	-13880
▁broadcast	-13881
▁financial	-13882
▁схо	-13883
▁degree	-13884
▁Встре	-13885
▁драгоцен	-13886
▁интересо	-13887
▁lived	-13888
▁Later	-13889
▁операция	-13890
anks	-13891
▁ущерб	-13892
тури	-13893
▁действиях	-13894
▁подхода	-13895
▁Commission	-13896
▁Web	-13897
▁факультет	-13898
▁особое	-13899
▁Следует	-13900
▁ориенти	-13901
▁Германия	-13902
ничество	-13903
▁различия	-13904
▁transport	-13905
▁зон	-13906
▁рассла	-13907
reme	-13908
▁studies	-13909
▁внут	-13910
лита	-13911
▁составляла	-13912
ренной	-13913
енса	-13914
▁older	-13915
нио	-13916
aily	-13917
▁предъ	-13918
▁принят	-13919
▁юг	-13920
▁Вторая	-13921
▁шоу	-13922
▁отры	-13923
▁рек	-13924
ulated	-13925
▁приведен	-13926
▁multip	-13927
▁соверша	-13928
▁духовной	-13929
▁вариантов	-13930
▁применяется	-13931
▁Bo	-13932
▁укло	-13933
▁квартиры	-13934
▁mission	-13935
фра	-13936
▁пуска	-13937
▁белых	-13938
▁любят	-13939
хослова	-13940
▁танки	-13941
▁преследова	-13942
▁получив	-13943
antic	-13944
▁наверняка	-13945
нический	-13946
▁complet	-13947
▁нечего	-13948
▁передви	-13949
▁экономических	-13950
▁страшно	-13951
▁Ниже	-13952
▁Норве	-13953
ствию	-13954
▁романе	-13955
▁эс	-13956
казывается	-13957
круг	-13958
нель	-13959
▁важные	-13960
скри	-13961
'.	-13962
▁лист	-13963
irit	-13964
рованная	-13965
Pro	-13966
дев	-13967
▁большими	-13968
▁Гитлера	-13969
▁заявления	-13970
▁огромные	-13971
itt	-13972
▁пассажиров	-13973
▁олимпий	-13974
▁руководителя	-13975
▁гвардии	-13976
▁недав	-13977
press	-13978
▁независимости	-13979
▁нож	-13980
▁бороться	-13981
▁Эду	-13982
▁teams	-13983
iance	-13984
▁offered	-13985
▁тяж	-13986
нические	-13987
▁императри	-13988
вятся	-13989
▁пункты	-13990
▁Gra	-13991
▁Председа	-13992
▁уделя	-13993
▁сжа	-13994
▁Нидер	-13995
▁кури	-13996
▁нижней	-13997
Ну	-13998
▁капитала	-13999
хие	-14000
▁Африки	-14001
▁expand	-14002
▁carried	-14003
▁выигры	-14004
▁сообщества	-14005
летней	-14006
▁scient	-14007
фии	-14008
теру	-14009
▁Долго	-14010
▁дворец	-14011
ml	-14012
▁упоминается	-14013
вяза	-14014
▁Force	-14015
▁противопоста	-14016
нто	-14017
▁номера	-14018
▁преем	-14019
▁обмена	-14020
▁Вспо	-14021
▁десятков	-14022
▁Congress	-14023
▁обстоятельств	-14024
щиком	-14025
▁духе	-14026
▁Земля	-14027
▁решать	-14028
▁епар	-14029
▁спла	-14030
▁плодо	-14031
▁dead	-14032
сны	-14033
́ть	-14034
▁злоу	-14035
▁числу	-14036
▁XIV	-14037
▁dom	-14038
▁supported	-14039
▁вторую	-14040
▁южной	-14041
▁международной	-14042
pre	-14043
ledge	-14044
олог	-14045
▁question	-14046
▁visit	-14047
▁сферы	-14048
▁promot	-14049
▁бир	-14050
▁проявляется	-14051
▁failed	-14052
▁length	-14053
▁мастера	-14054
▁дю	-14055
хая	-14056
▁достоинства	-14057
▁человеке	-14058
ИС	-14059
мович	-14060
▁золотой	-14061
▁Дра	-14062
▁большее	-14063
вида	-14064
▁дорогой	-14065
▁Император	-14066
▁двора	-14067
▁подчеркнул	-14068
▁Востоке	-14069
ager	-14070
▁сопротивления	-14071
▁округе	-14072
itter	-14073
▁дикта	-14074
▁Героя	-14075
ненное	-14076
▁трое	-14077
▁remain	-14078
▁complete	-14079
▁хорошие	-14080
чья	-14081
▁policy	-14082
▁сроки	-14083
▁Rob	-14084
▁историк	-14085
▁доказать	-14086
▁спас	-14087
▁древней	-14088
циден	-14089
▁лопа	-14090
▁Севасто	-14091
ренные	-14092
▁скончался	-14093
▁бюджета	-14094
▁ассоциации	-14095
припа	-14096
▁дат	-14097
▁поисках	-14098
нён	-14099
▁Catholic	-14100
▁location	-14101
▁date	-14102
▁demon	-14103
▁characters	-14104
▁Главное	-14105
▁различи	-14106
▁veh	-14107
▁Название	-14108
▁Отно	-14109
▁приписы	-14110
▁Риме	-14111
Фран	-14112
▁Киеве	-14113
▁природа	-14114
▁Atl	-14115
▁Du	-14116
▁Трои	-14117
возмо	-14118
▁Сергея	-14119
▁Афгани	-14120
▁забро	-14121
▁Сове	-14122
▁ежедневно	-14123
,-	-14124
▁вошел	-14125
▁hot	-14126
ровых	-14127
▁матер	-14128
▁рези	-14129
▁хозяйство	-14130
▁примере	-14131
▁Румы	-14132
▁Неда	-14133
▁инструмент	-14134
▁CD	-14135
▁убит	-14136
▁лагеря	-14137
▁производстве	-14138
▁малей	-14139
▁additional	-14140
▁poor	-14141
▁УК	-14142
▁подар	-14143
uman	-14144
▁удовольствие	-14145
▁пьесы	-14146
зона	-14147
▁norm	-14148
▁families	-14149
well	-14150
▁_	-14151
ненная	-14152
▁годом	-14153
▁проекты	-14154
▁бассей	-14155
▁возвращения	-14156
▁нала	-14157
▁небольших	-14158
▁вор	-14159
tra	-14160
▁предположить	-14161
спект	-14162
▁жену	-14163
▁сул	-14164
▁lines	-14165
▁вопросом	-14166
▁моро	-14167
▁критики	-14168
▁рефлек	-14169
▁реформы	-14170
тельна	-14171
▁умо	-14172
▁Грузии	-14173
▁стремится	-14174
▁остатки	-14175
▁физических	-14176
матери	-14177
▁Божи	-14178
▁принципа	-14179
▁today	-14180
▁awarded	-14181
нёс	-14182
ech	-14183
down	-14184
ничества	-14185
▁произошла	-14186
▁ge	-14187
Ха	-14188
plied	-14189
▁беспре	-14190
ils	-14191
ken	-14192
▁Under	-14193
▁грави	-14194
▁сел	-14195
▁Всем	-14196
менной	-14197
зование	-14198
Пре	-14199
АП	-14200
▁Большая	-14201
▁упла	-14202
▁parents	-14203
берга	-14204
▁свойств	-14205
▁Town	-14206
▁leaving	-14207
ющимися	-14208
вающая	-14209
▁имеем	-14210
▁сформули	-14211
▁основан	-14212
▁публикации	-14213
▁чувствовал	-14214
▁Крыма	-14215
жерт	-14216
▁решению	-14217
▁прошлое	-14218
вке	-14219
▁ежегодно	-14220
▁заболеваний	-14221
▁торо	-14222
▁радости	-14223
▁Карла	-14224
гера	-14225
▁неизбежно	-14226
▁concept	-14227
▁тропи	-14228
▁оценить	-14229
▁выяви	-14230
▁призёр	-14231
▁Тран	-14232
undred	-14233
▁стере	-14234
тельница	-14235
рием	-14236
▁фона	-14237
мощ	-14238
дала	-14239
very	-14240
▁падения	-14241
▁частиц	-14242
▁мальчик	-14243
vey	-14244
▁Despite	-14245
▁оккупа	-14246
rd	-14247
▁твой	-14248
▁союзников	-14249
▁учиться	-14250
▁инструментов	-14251
▁дабы	-14252
виль	-14253
▁проводится	-14254
▁школ	-14255
ca	-14256
▁зас	-14257
▁обращение	-14258
ato	-14259
▁detail	-14260
▁длина	-14261
▁entered	-14262
▁rate	-14263
bers	-14264
▁Марк	-14265
▁РК	-14266
▁песня	-14267
▁установлены	-14268
▁суде	-14269
слуша	-14270
▁лагерь	-14271
▁основного	-14272
▁варианты	-14273
▁Пау	-14274
▁созданы	-14275
стройка	-14276
▁подразделе	-14277
пут	-14278
illa	-14279
▁жизне	-14280
▁прой	-14281
▁библиотека	-14282
▁felt	-14283
графия	-14284
▁услы	-14285
▁смотря	-14286
чников	-14287
▁упражнения	-14288
lam	-14289
▁сайта	-14290
дились	-14291
▁seem	-14292
▁обратиться	-14293
▁closed	-14294
▁Chicago	-14295
▁Star	-14296
вленного	-14297
▁batt	-14298
правления	-14299
BS	-14300
ees	-14301
▁husband	-14302
▁белорус	-14303
▁гостей	-14304
▁точнее	-14305
▁cases	-14306
▁Всемир	-14307
▁раздели	-14308
▁существовать	-14309
▁заменить	-14310
ровской	-14311
▁большом	-14312
▁энергия	-14313
▁теорию	-14314
▁пищу	-14315
▁Михайлов	-14316
▁регистрации	-14317
▁ослож	-14318
▁Гран	-14319
edy	-14320
▁любых	-14321
▁Спустя	-14322
▁Bet	-14323
▁ликвиди	-14324
▁Действительно	-14325
▁энциклопе	-14326
▁уга	-14327
AD	-14328
вес	-14329
мара	-14330
bit	-14331
ровок	-14332
▁How	-14333
▁culture	-14334
телен	-14335
▁партию	-14336
▁увидели	-14337
standing	-14338
▁foreign	-14339
▁fort	-14340
президен	-14341
▁применять	-14342
▁наблюдать	-14343
▁dig	-14344
▁швей	-14345
▁разведыва	-14346
▁западных	-14347
▁восприятия	-14348
▁знаешь	-14349
▁chall	-14350
▁хочешь	-14351
▁ядра	-14352
ares	-14353
▁счастью	-14354
▁Главный	-14355
▁границ	-14356
ura	-14357
▁освое	-14358
▁опуска	-14359
▁внутрь	-14360
▁бои	-14361
▁теме	-14362
зирует	-14363
▁временно	-14364
▁Бру	-14365
▁Говоря	-14366
▁helped	-14367
▁previously	-14368
▁индий	-14369
▁Казан	-14370
гнали	-14371
▁военную	-14372
====	-14373
▁товарища	-14374
церы	-14375
▁показывают	-14376
▁развивается	-14377
▁сотрудник	-14378
▁распространения	-14379
▁рабочей	-14380
▁соответствующих	-14381
▁ля	-14382
дности	-14383
▁Другой	-14384
нома	-14385
▁Голо	-14386
▁сотрудничества	-14387
▁династии	-14388
AP	-14389
▁Саха	-14390
▁всякой	-14391
▁Пя	-14392
▁professional	-14393
́й	-14394
▁реальной	-14395
▁Донец	-14396
▁отлично	-14397
astern	-14398
▁искусстве	-14399
▁cause	-14400
▁винова	-14401
▁учреждений	-14402
▁Навер	-14403
▁чём	-14404
▁половину	-14405
▁источника	-14406
▁Вороне	-14407
▁Dis	-14408
▁парень	-14409
▁возь	-14410
▁требуют	-14411
▁проходили	-14412
▁ru	-14413
▁замок	-14414
зависи	-14415
▁limited	-14416
▁Пен	-14417
▁здравоохра	-14418
льников	-14419
▁раду	-14420
▁influence	-14421
▁стояла	-14422
▁связ	-14423
ny	-14424
веди	-14425
▁окажется	-14426
▁защите	-14427
▁убийство	-14428
▁энерго	-14429
▁понедель	-14430
eds	-14431
▁island	-14432
граммы	-14433
▁фонда	-14434
uan	-14435
▁проведение	-14436
▁списке	-14437
▁ср	-14438
▁назем	-14439
▁Дани	-14440
писание	-14441
▁Penn	-14442
▁размеры	-14443
щадь	-14444
▁внешних	-14445
шень	-14446
▁вторым	-14447
▁масштаб	-14448
▁флаг	-14449
▁анге	-14450
▁custom	-14451
▁взгляды	-14452
▁yet	-14453
лк	-14454
▁епископ	-14455
▁наблюдается	-14456
▁пить	-14457
odes	-14458
▁Эдуар	-14459
▁Battle	-14460
▁способов	-14461
mission	-14462
▁candid	-14463
tained	-14464
▁Сек	-14465
▁организацию	-14466
▁великолеп	-14467
orning	-14468
▁прися	-14469
ИЧ	-14470
▁архитектур	-14471
▁хищ	-14472
▁персонажа	-14473
АЛ	-14474
▁мероприятий	-14475
▁пытаются	-14476
евича	-14477
▁полным	-14478
▁отвечал	-14479
▁Але	-14480
▁рос	-14481
▁problems	-14482
ota	-14483
▁кише	-14484
чники	-14485
▁улыба	-14486
▁масс	-14487
▁поверхно	-14488
▁мэ	-14489
▁капитана	-14490
▁массив	-14491
▁XII	-14492
▁didn	-14493
▁направля	-14494
стречу	-14495
▁смотрит	-14496
▁случая	-14497
▁Гай	-14498
▁сия	-14499
▁второ	-14500
▁Year	-14501
▁увеличение	-14502
▁teac	-14503
▁раздел	-14504
▁minutes	-14505
нару	-14506
▁разря	-14507
▁college	-14508
▁невероят	-14509
ченную	-14510
▁сож	-14511
▁тря	-14512
itation	-14513
няла	-14514
▁route	-14515
rast	-14516
▁перерабо	-14517
enc	-14518
▁Француз	-14519
▁carry	-14520
тира	-14521
▁Second	-14522
рующих	-14523
▁тракта	-14524
▁премия	-14525
шков	-14526
тости	-14527
▁попытался	-14528
онер	-14529
▁безусловно	-14530
▁words	-14531
извест	-14532
стского	-14533
▁Fore	-14534
olk	-14535
▁сидит	-14536
началу	-14537
▁жду	-14538
▁Рома	-14539
▁судить	-14540
▁боеприпа	-14541
▁energy	-14542
▁востоке	-14543
known	-14544
▁Бон	-14545
▁мелкие	-14546
▁мисси	-14547
▁найде	-14548
женность	-14549
▁Шек	-14550
▁трам	-14551
▁Film	-14552
▁Italian	-14553
▁повышение	-14554
▁Израиля	-14555
ona	-14556
лились	-14557
бла	-14558
ola	-14559
▁launched	-14560
▁activities	-14561
▁рисо	-14562
▁перепи	-14563
▁вошла	-14564
нское	-14565
времен	-14566
▁обрабаты	-14567
▁единого	-14568
▁уничтожить	-14569
▁ценностей	-14570
язви	-14571
▁волю	-14572
▁общие	-14573
▁чемпионат	-14574
cont	-14575
house	-14576
▁Следу	-14577
стности	-14578
вные	-14579
новые	-14580
▁агентства	-14581
▁удастся	-14582
▁разрешение	-14583
довые	-14584
▁majority	-14585
▁Опера	-14586
ённые	-14587
▁IP	-14588
▁тени	-14589
▁инциден	-14590
▁Mel	-14591
▁глупо	-14592
▁Бро	-14593
▁Over	-14594
▁пузы	-14595
▁силах	-14596
▁разгро	-14597
▁конфигура	-14598
▁силе	-14599
▁некогда	-14600
▁отдать	-14601
▁продолжали	-14602
▁восстановить	-14603
▁утверждал	-14604
▁manufact	-14605
▁прийти	-14606
▁архиеписко	-14607
мского	-14608
▁гол	-14609
▁disp	-14610
▁Ter	-14611
▁человеческих	-14612
▁newsp	-14613
▁дворов	-14614
время	-14615
reland	-14616
ваемый	-14617
▁вооружения	-14618
Запад	-14619
▁хотела	-14620
Корр	-14621
уна	-14622
▁заим	-14623
▁colon	-14624
▁удается	-14625
▁стимули	-14626
▁Медаль	-14627
▁высоту	-14628
▁ft	-14629
▁increasing	-14630
▁Work	-14631
iring	-14632
▁золота	-14633
▁доброволь	-14634
▁Харак	-14635
!!!	-14636
▁признаков	-14637
▁Committee	-14638
▁Сту	-14639
▁познания	-14640
▁режиссёр	-14641
cel	-14642
▁некий	-14643
▁anal	-14644
▁вероятность	-14645
▁individuals	-14646
сылки	-14647
▁зрителей	-14648
▁присвоено	-14649
▁белый	-14650
▁концерт	-14651
▁Дании	-14652
▁ие	-14653
▁Government	-14654
▁birth	-14655
▁establish	-14656
вающего	-14657
ously	-14658
мести	-14659
▁растя	-14660
▁мн	-14661
ients	-14662
unicip	-14663
▁Ара	-14664
▁ногу	-14665
зрение	-14666
▁новыми	-14667
▁серти	-14668
Ри	-14669
▁играют	-14670
▁полтора	-14671
рованным	-14672
вети	-14673
▁Kn	-14674
логом	-14675
ication	-14676
▁создали	-14677
▁имущество	-14678
▁Кле	-14679
▁научного	-14680
▁группо	-14681
▁ценность	-14682
▁передал	-14683
Re	-14684
▁метра	-14685
▁larger	-14686
isions	-14687
▁современные	-14688
шний	-14689
▁племян	-14690
▁представлял	-14691
▁сорок	-14692
▁Робер	-14693
▁нагре	-14694
▁Пале	-14695
▁игрок	-14696
▁фрак	-14697
▁некое	-14698
▁Java	-14699
▁Боже	-14700
▁приу	-14701
▁стиля	-14702
▁угла	-14703
▁ученый	-14704
▁remains	-14705
▁кап	-14706
мал	-14707
▁областей	-14708
дятся	-14709
▁товары	-14710
сня	-14711
▁Меди	-14712
▁праздник	-14713
▁Another	-14714
▁лаборатории	-14715
▁святого	-14716
▁горь	-14717
ishop	-14718
urt	-14719
▁ногами	-14720
▁Cast	-14721
▁учеников	-14722
▁производится	-14723
лежа	-14724
ection	-14725
верху	-14726
нейший	-14727
▁родилась	-14728
ьез	-14729
▁runs	-14730
стике	-14731
▁shown	-14732
▁тел	-14733
жур	-14734
▁командиром	-14735
▁Эсто	-14736
▁гитлеров	-14737
▁лошадей	-14738
▁Андрея	-14739
▁побережья	-14740
▁заместителем	-14741
менов	-14742
▁commission	-14743
▁associated	-14744
▁quickly	-14745
станови	-14746
▁сведений	-14747
▁моменты	-14748
риев	-14749
▁appearance	-14750
▁археологи	-14751
▁египет	-14752
▁likely	-14753
ального	-14754
▁продукта	-14755
▁зона	-14756
▁справа	-14757
▁родной	-14758
▁Швеции	-14759
кварти	-14760
лана	-14761
▁взрослых	-14762
▁сохранения	-14763
движи	-14764
▁диагности	-14765
▁счастья	-14766
▁train	-14767
▁кандидат	-14768
гота	-14769
▁участка	-14770
▁численность	-14771
▁schol	-14772
нори	-14773
▁Жизнь	-14774
▁заставляет	-14775
див	-14776
▁отрасли	-14777
▁директором	-14778
СКА	-14779
жников	-14780
▁депутат	-14781
▁society	-14782
следовать	-14783
▁произошел	-14784
▁составляло	-14785
▁Франция	-14786
▁Kingdom	-14787
доста	-14788
▁мирового	-14789
ложили	-14790
▁послал	-14791
▁Жо	-14792
▁сми	-14793
валь	-14794
▁старше	-14795
▁raised	-14796
▁Последний	-14797
▁Прем	-14798
▁отвле	-14799
шенной	-14800
▁любую	-14801
▁платить	-14802
▁смотрел	-14803
бурга	-14804
▁смесь	-14805
▁transl	-14806
▁велико	-14807
stant	-14808
▁Тя	-14809
▁промышленность	-14810
тав	-14811
ваемого	-14812
▁coach	-14813
тизма	-14814
▁mess	-14815
▁инве	-14816
▁Давайте	-14817
бам	-14818
▁близких	-14819
▁осад	-14820
▁учение	-14821
▁НАТО	-14822
▁монархи	-14823
культур	-14824
▁status	-14825
inner	-14826
бурге	-14827
делать	-14828
▁кризис	-14829
ML	-14830
▁приняла	-14831
▁делах	-14832
▁лей	-14833
▁чрезмер	-14834
▁завершения	-14835
▁экстра	-14836
org	-14837
▁talk	-14838
▁collection	-14839
▁похода	-14840
▁нос	-14841
ОС	-14842
▁Academy	-14843
▁предстоит	-14844
▁winning	-14845
▁очков	-14846
▁лиши	-14847
▁сило	-14848
▁изобрета	-14849
торию	-14850
▁Код	-14851
unction	-14852
ado	-14853
▁маг	-14854
▁независимость	-14855
▁Стали	-14856
▁мощности	-14857
▁Ростов	-14858
▁одо	-14859
графа	-14860
▁Ус	-14861
стине	-14862
▁division	-14863
▁Service	-14864
▁Каре	-14865
▁отдел	-14866
Ге	-14867
▁огнем	-14868
ровую	-14869
▁исполнение	-14870
длов	-14871
▁numerous	-14872
▁Миро	-14873
берна	-14874
хангель	-14875
▁Kore	-14876
chen	-14877
▁отвеча	-14878
▁входили	-14879
▁метео	-14880
ону	-14881
датель	-14882
▁Военно	-14883
▁Центральной	-14884
▁высоким	-14885
небре	-14886
▁becoming	-14887
▁командования	-14888
▁Калифор	-14889
комо	-14890
▁цита	-14891
бова	-14892
зади	-14893
▁IS	-14894
▁иску	-14895
▁неба	-14896
ано	-14897
▁soldiers	-14898
▁установлено	-14899
▁просил	-14900
▁предложен	-14901
▁Проце	-14902
▁сно	-14903
▁Следовательно	-14904
▁безна	-14905
тическую	-14906
▁воинов	-14907
▁третье	-14908
ЕМ	-14909
▁деталей	-14910
▁простых	-14911
▁разным	-14912
▁дому	-14913
вис	-14914
▁вечно	-14915
▁Мол	-14916
▁heavy	-14917
ул	-14918
▁Константино	-14919
▁сочинения	-14920
▁антропо	-14921
▁Found	-14922
▁initially	-14923
ложена	-14924
▁животные	-14925
▁составляли	-14926
▁необходимых	-14927
▁агрессив	-14928
▁фигуры	-14929
▁брака	-14930
▁Буд	-14931
▁здании	-14932
▁друзьями	-14933
▁Тома	-14934
летел	-14935
▁northern	-14936
▁ресурсы	-14937
ватель	-14938
▁Фак	-14939
▁занять	-14940
▁битвы	-14941
▁charg	-14942
▁разобраться	-14943
▁takes	-14944
ties	-14945
стря	-14946
▁битве	-14947
venue	-14948
Анд	-14949
ellig	-14950
▁феода	-14951
▁виру	-14952
▁адап	-14953
▁военным	-14954
▁половина	-14955
▁собирается	-14956
▁Новой	-14957
▁водоро	-14958
▁карьеры	-14959
▁Русской	-14960
▁активность	-14961
▁манипу	-14962
rupt	-14963
товый	-14964
▁столо	-14965
гряз	-14966
▁языки	-14967
za	-14968
▁Ада	-14969
▁частных	-14970
сипе	-14971
enth	-14972
▁старшего	-14973
inet	-14974
IV	-14975
▁Texas	-14976
зиа	-14977
▁решает	-14978
▁столкну	-14979
ждо	-14980
▁происхождение	-14981
Петербурге	-14982
▁карту	-14983
▁кинемато	-14984
▁станут	-14985
▁heart	-14986
▁просит	-14987
▁заняла	-14988
▁образы	-14989
▁собора	-14990
моро	-14991
▁готовности	-14992
пте	-14993
▁обсужда	-14994
▁inn	-14995
▁nature	-14996
луб	-14997
зывает	-14998
▁благода	-14999
load	-15000
▁цикл	-15001
▁распозна	-15002
▁подпи	-15003
▁enem	-15004
▁makes	-15005
▁Павла	-15006
▁декла	-15007
▁построена	-15008
▁Pac	-15009
▁crew	-15010
▁органа	-15011
тину	-15012
▁многими	-15013
▁сете	-15014
▁знала	-15015
▁southern	-15016
ada	-15017
▁манев	-15018
▁смогла	-15019
▁отсутствии	-15020
▁ОБ	-15021
▁отсутствует	-15022
▁пошла	-15023
▁выступать	-15024
▁programs	-15025
ффи	-15026
ок	-15027
▁independent	-15028
▁сбли	-15029
▁предшествен	-15030
гай	-15031
▁происходят	-15032
▁federal	-15033
▁path	-15034
▁ошибо	-15035
▁Out	-15036
▁крепость	-15037
▁ведения	-15038
нём	-15039
исследователь	-15040
▁коры	-15041
▁Господь	-15042
▁крупный	-15043
▁организовать	-15044
▁мобили	-15045
▁подготовку	-15046
▁Мей	-15047
▁Angeles	-15048
▁напряжение	-15049
▁approx	-15050
▁Вильгель	-15051
▁выделе	-15052
▁Статья	-15053
щенного	-15054
▁Face	-15055
▁обезья	-15056
▁mention	-15057
anta	-15058
▁ждет	-15059
▁Клю	-15060
▁танка	-15061
▁умол	-15062
▁увеличить	-15063
▁белые	-15064
hat	-15065
▁голланд	-15066
▁лошади	-15067
▁иным	-15068
▁коэффици	-15069
rim	-15070
▁Скоро	-15071
ОМ	-15072
▁общая	-15073
▁долг	-15074
▁домини	-15075
тино	-15076
▁box	-15077
▁мышцы	-15078
▁природу	-15079
дную	-15080
▁грана	-15081
▁пройдет	-15082
▁affect	-15083
суди	-15084
▁регистра	-15085
▁nearly	-15086
Би	-15087
жался	-15088
▁слева	-15089
▁революция	-15090
▁needed	-15091
▁меняется	-15092
see	-15093
Ста	-15094
▁прочие	-15095
▁базу	-15096
▁привиле	-15097
▁восстановления	-15098
▁доля	-15099
▁расходов	-15100
▁репута	-15101
▁мемо	-15102
▁despite	-15103
▁нормально	-15104
▁gre	-15105
▁оборони	-15106
чилась	-15107
▁вышло	-15108
▁компанию	-15109
▁Old	-15110
▁Елена	-15111
light	-15112
▁Уче	-15113
▁правду	-15114
тивности	-15115
▁неподви	-15116
▁судьбу	-15117
▁перевода	-15118
▁мыслей	-15119
▁Наталь	-15120
inux	-15121
▁бывших	-15122
oms	-15123
▁unit	-15124
▁выдели	-15125
illed	-15126
проек	-15127
Ты	-15128
▁выпи	-15129
▁Новая	-15130
▁related	-15131
▁settle	-15132
шкин	-15133
▁theory	-15134
▁дири	-15135
▁формирование	-15136
▁правительством	-15137
▁преобра	-15138
▁adj	-15139
▁Book	-15140
▁комфор	-15141
▁phil	-15142
▁реакция	-15143
кают	-15144
ening	-15145
спира	-15146
▁ложки	-15147
▁manager	-15148
▁Этим	-15149
▁акцен	-15150
▁ориента	-15151
щенно	-15152
▁ввести	-15153
▁покинуть	-15154
▁животного	-15155
чье	-15156
▁торпе	-15157
▁клиента	-15158
▁Mos	-15159
▁стола	-15160
▁rap	-15161
ables	-15162
▁SS	-15163
▁dire	-15164
▁принимают	-15165
образие	-15166
▁тесто	-15167
▁решительно	-15168
▁новому	-15169
▁вычисли	-15170
▁компенса	-15171
▁комите	-15172
▁cle	-15173
▁волну	-15174
▁командовал	-15175
мита	-15176
▁сознании	-15177
▁судно	-15178
▁больного	-15179
рели	-15180
▁proposed	-15181
▁общины	-15182
▁маркет	-15183
ЕК	-15184
▁душ	-15185
▁государством	-15186
▁ико	-15187
▁Ага	-15188
▁частях	-15189
▁поняли	-15190
▁нагля	-15191
▁потребность	-15192
чам	-15193
▁редактор	-15194
▁обойти	-15195
▁problem	-15196
istan	-15197
▁Ol	-15198
▁практику	-15199
▁предприятие	-15200
▁Лав	-15201
чаются	-15202
▁Запада	-15203
нуло	-15204
▁описывает	-15205
▁кожу	-15206
▁читателя	-15207
▁доклад	-15208
▁Речь	-15209
▁протеста	-15210
▁получится	-15211
▁коллеги	-15212
▁чтения	-15213
бат	-15214
▁кожа	-15215
▁Нидерлан	-15216
рная	-15217
▁Spe	-15218
▁флан	-15219
▁ведущих	-15220
мам	-15221
▁лидеров	-15222
▁главная	-15223
▁способствует	-15224
▁переводе	-15225
".[	-15226
▁возме	-15227
▁Fre	-15228
▁Профе	-15229
▁deep	-15230
▁Pre	-15231
▁ГУ	-15232
▁ехать	-15233
▁blood	-15234
логических	-15235
▁тотчас	-15236
гр	-15237
▁голосом	-15238
▁sea	-15239
▁воспоминания	-15240
▁films	-15241
▁эго	-15242
новей	-15243
▁механизма	-15244
▁исторического	-15245
полномо	-15246
▁pick	-15247
▁сильным	-15248
▁высота	-15249
▁демонстра	-15250
▁приговор	-15251
('	-15252
фран	-15253
▁Ольга	-15254
▁поклон	-15255
▁войн	-15256
шни	-15257
▁Sun	-15258
▁меню	-15259
▁списка	-15260
▁компе	-15261
▁Джек	-15262
▁minor	-15263
▁psych	-15264
▁competition	-15265
▁depend	-15266
▁сделала	-15267
▁способно	-15268
▁дала	-15269
▁массовой	-15270
скре	-15271
▁plans	-15272
▁Была	-15273
enty	-15274
вленная	-15275
▁walk	-15276
▁полноцен	-15277
▁mom	-15278
▁двигаться	-15279
нора	-15280
▁behav	-15281
▁жертв	-15282
▁male	-15283
▁дне	-15284
▁chief	-15285
▁обстоятельствах	-15286
▁Австрии	-15287
был	-15288
▁wide	-15289
▁берет	-15290
созда	-15291
▁прочим	-15292
▁дополнительных	-15293
▁Mill	-15294
▁работах	-15295
гнать	-15296
▁общую	-15297
кову	-15298
▁атрибу	-15299
▁восточной	-15300
изо	-15301
▁звуки	-15302
сило	-15303
кори	-15304
нор	-15305
▁движений	-15306
▁Brown	-15307
bed	-15308
▁почет	-15309
▁изя	-15310
▁лечение	-15311
utch	-15312
зента	-15313
▁ordered	-15314
▁specific	-15315
муа	-15316
▁ships	-15317
▁продю	-15318
▁soft	-15319
▁вырос	-15320
▁сильное	-15321
ренного	-15322
вному	-15323
▁англо	-15324
тип	-15325
▁распа	-15326
меха	-15327
▁лихо	-15328
вных	-15329
▁Новосибир	-15330
▁рыно	-15331
пление	-15332
▁захваты	-15333
▁просьбой	-15334
шины	-15335
ras	-15336
acing	-15337
▁поезда	-15338
▁бессозна	-15339
жер	-15340
▁изъя	-15341
▁прод	-15342
▁признание	-15343
fit	-15344
▁тока	-15345
▁действием	-15346
▁Lord	-15347
▁особый	-15348
▁сани	-15349
▁Стан	-15350
▁дистан	-15351
▁plat	-15352
реть	-15353
▁судна	-15354
▁попали	-15355
▁цилинд	-15356
▁Види	-15357
BA	-15358
la	-15359
▁внешнего	-15360
▁непол	-15361
▁клиент	-15362
▁женщину	-15363
сериа	-15364
▁парк	-15365
▁русская	-15366
▁Соответ	-15367
▁Board	-15368
▁исследователи	-15369
▁XIII	-15370
▁сущность	-15371
▁членами	-15372
▁лек	-15373
кото	-15374
ЕЙ	-15375
▁составила	-15376
▁Britain	-15377
▁принимали	-15378
▁вышед	-15379
мены	-15380
▁министерства	-15381
▁Democr	-15382
дзи	-15383
▁хорошего	-15384
▁поощ	-15385
веду	-15386
▁Ros	-15387
▁Sur	-15388
▁известным	-15389
▁Jewish	-15390
▁Lake	-15391
зыка	-15392
NA	-15393
▁Анатолий	-15394
▁распада	-15395
▁дизай	-15396
▁More	-15397
▁commit	-15398
▁citiz	-15399
▁Russia	-15400
▁Martin	-15401
вее	-15402
битра	-15403
▁закону	-15404
▁считая	-15405
▁Уча	-15406
▁пиро	-15407
▁эксперти	-15408
▁реже	-15409
▁Бара	-15410
▁пога	-15411
▁дата	-15412
▁просмо	-15413
▁даст	-15414
▁Нельзя	-15415
▁continue	-15416
▁телевизион	-15417
▁conditions	-15418
▁confl	-15419
▁изделия	-15420
жина	-15421
▁корабле	-15422
▁mind	-15423
рек	-15424
▁else	-15425
ueen	-15426
rig	-15427
▁pil	-15428
▁отдал	-15429
▁понимают	-15430
▁эффективности	-15431
▁каль	-15432
▁быст	-15433
▁американские	-15434
▁важную	-15435
▁единиц	-15436
▁допу	-15437
▁мальчи	-15438
оба	-15439
несения	-15440
▁Белару	-15441
▁компьютера	-15442
▁depart	-15443
▁получение	-15444
жённых	-15445
ingu	-15446
КИ	-15447
▁развитием	-15448
▁алле	-15449
маном	-15450
▁куби	-15451
▁гомо	-15452
▁medical	-15453
▁says	-15454
▁Института	-15455
▁схемы	-15456
ап	-15457
ship	-15458
▁седь	-15459
женное	-15460
▁Дона	-15461
▁депре	-15462
▁Входит	-15463
▁выделить	-15464
col	-15465
▁подрост	-15466
[...]
