<unk>	0
<s>	0
</s>	0
<0x00>	0
<0x01>	0
<0x02>	0
<0x03>	0
<0x04>	0
<0x05>	0
<0x06>	0
<0x07>	0
<0x08>	0
<0x09>	0
<0x0A>	0
<0x0B>	0
<0x0C>	0
<0x0D>	0
<0x0E>	0
<0x0F>	0
<0x10>	0
<0x11>	0
<0x12>	0
<0x13>	0
<0x14>	0
<0x15>	0
<0x16>	0
<0x17>	0
<0x18>	0
<0x19>	0
<0x1A>	0
<0x1B>	0
<0x1C>	0
<0x1D>	0
<0x1E>	0
<0x1F>	0
<0x20>	0
<0x21>	0
<0x22>	0
<0x23>	0
<0x24>	0
<0x25>	0
<0x26>	0
<0x27>	0
<0x28>	0
<0x29>	0
<0x2A>	0
<0x2B>	0
<0x2C>	0
<0x2D>	0
<0x2E>	0
<0x2F>	0
<0x30>	0
<0x31>	0
<0x32>	0
<0x33>	0
<0x34>	0
<0x35>	0
<0x36>	0
<0x37>	0
<0x38>	0
<0x39>	0
<0x3A>	0
<0x3B>	0
<0x3C>	0
<0x3D>	0
<0x3E>	0
<0x3F>	0
<0x40>	0
<0x41>	0
<0x42>	0
<0x43>	0
<0x44>	0
<0x45>	0
<0x46>	0
<0x47>	0
<0x48>	0
<0x49>	0
<0x4A>	0
<0x4B>	0
<0x4C>	0
<0x4D>	0
<0x4E>	0
<0x4F>	0
<0x50>	0
<0x51>	0
<0x52>	0
<0x53>	0
<0x54>	0
<0x55>	0
<0x56>	0
<0x57>	0
<0x58>	0
<0x59>	0
<0x5A>	0
<0x5B>	0
<0x5C>	0
<0x5D>	0
<0x5E>	0
<0x5F>	0
<0x60>	0
<0x61>	0
<0x62>	0
<0x63>	0
<0x64>	0
<0x65>	0
<0x66>	0
<0x67>	0
<0x68>	0
<0x69>	0
<0x6A>	0
<0x6B>	0
<0x6C>	0
<0x6D>	0
<0x6E>	0
<0x6F>	0
<0x70>	0
<0x71>	0
<0x72>	0
<0x73>	0
<0x74>	0
<0x75>	0
<0x76>	0
<0x77>	0
<0x78>	0
<0x79>	0
<0x7A>	0
<0x7B>	0
<0x7C>	0
<0x7D>	0
<0x7E>	0
<0x7F>	0
<0x80>	0
<0x81>	0
<0x82>	0
<0x83>	0
<0x84>	0
<0x85>	0
<0x86>	0
<0x87>	0
<0x88>	0
<0x89>	0
<0x8A>	0
<0x8B>	0
<0x8C>	0
<0x8D>	0
<0x8E>	0
<0x8F>	0
<0x90>	0
<0x91>	0
<0x92>	0
<0x93>	0
<0x94>	0
<0x95>	0
<0x96>	0
<0x97>	0
<0x98>	0
<0x99>	0
<0x9A>	0
<0x9B>	0
<0x9C>	0
<0x9D>	0
<0x9E>	0
<0x9F>	0
<0xA0>	0
<0xA1>	0
<0xA2>	0
<0xA3>	0
<0xA4>	0
<0xA5>	0
<0xA6>	0
<0xA7>	0
<0xA8>	0
<0xA9>	0
<0xAA>	0
<0xAB>	0
<0xAC>	0
<0xAD>	0
<0xAE>	0
<0xAF>	0
<0xB0>	0
<0xB1>	0
<0xB2>	0
<0xB3>	0
<0xB4>	0
<0xB5>	0
<0xB6>	0
<0xB7>	0
<0xB8>	0
<0xB9>	0
<0xBA>	0
<0xBB>	0
<0xBC>	0
<0xBD>	0
<0xBE>	0
<0xBF>	0
<0xC0>	0
<0xC1>	0
<0xC2>	0
<0xC3>	0
<0xC4>	0
<0xC5>	0
<0xC6>	0
<0xC7>	0
<0xC8>	0
<0xC9>	0
<0xCA>	0
<0xCB>	0
<0xCC>	0
<0xCD>	0
<0xCE>	0
<0xCF>	0
<0xD0>	0
<0xD1>	0
<0xD2>	0
<0xD3>	0
<0xD4>	0
<0xD5>	0
<0xD6>	0
<0xD7>	0
<0xD8>	0
<0xD9>	0
<0xDA>	0
<0xDB>	0
<0xDC>	0
<0xDD>	0
<0xDE>	0
<0xDF>	0
<0xE0>	0
<0xE1>	0
<0xE2>	0
<0xE3>	0
<0xE4>	0
<0xE5>	0
<0xE6>	0
<0xE7>	0
<0xE8>	0
<0xE9>	0
<0xEA>	0
<0xEB>	0
<0xEC>	0
<0xED>	0
<0xEE>	0
<0xEF>	0
<0xF0>	0
<0xF1>	0
<0xF2>	0
<0xF3>	0
<0xF4>	0
<0xF5>	0
<0xF6>	0
<0xF7>	0
<0xF8>	0
<0xF9>	0
<0xFA>	0
<0xFB>	0
<0xFC>	0
<0xFD>	0
<0xFE>	0
<0xFF>	0
,	-3.02765
.	-3.30187
▁	-3.36338
▁в	-4.12365
▁и	-4.21618
а	-4.5569
1	-4.57572
-	-4.87341
▁на	-4.89157
0	-4.93252
▁the	-4.98892
▁с	-5.01277
е	-5.08697
▁не	-5.1251
2	-5.13016
s	-5.1447
9	-5.26309
и	-5.2783
▁-	-5.3858
▁"	-5.3964
▁по	-5.47261
▁что	-5.55735
у	-5.56768
ы	-5.58457
▁of	-5.62608
м	-5.64977
▁(	-5.69685
▁В	-5.70476
▁and	-5.75172
3	-5.75803
5	-5.78078
:	-5.79309
8	-5.82208
4	-5.83441
о	-5.86235
"	-5.87327
ом	-5.90195
▁in	-5.90823
▁к	-5.92245
▁за	-5.92812
ов	-5.95483
▁to	-5.95793
▁из	-5.98057
6	-5.98371
7	-6.01543
▁от	-6.03364
▁a	-6.08245
▁как	-6.13746
▁о	-6.1726
)	-6.20787
й	-6.21056
х	-6.23516
▁—	-6.31523
▁у	-6.31998
▁«	-6.33386
▁его	-6.35966
▁а	-6.36693
▁для	-6.38007
я	-6.43195
;	-6.47753
▁при	-6.48198
▁он	-6.49068
ой	-6.53734
▁до	-6.56733
ных	-6.5834
'	-6.61265
▁это	-6.61547
▁С	-6.63066
ные	-6.63876
▁was	-6.65457
ся	-6.66148
ной	-6.69478
ный	-6.70259
▁года	-6.70572
ами	-6.71794
▁но	-6.7212
▁или	-6.75563
▁же	-6.77289
▁был	-6.77563
▁я	-6.78324
ми	-6.79066
ю	-6.80284
го	-6.80299
▁вы	-6.82668
▁А	-6.83061
▁то	-6.84113
▁все	-6.85068
▁под	-6.85798
▁И	-6.86479
ки	-6.86577
ed	-6.86696
▁The	-6.90644
?	-6.91948
ного	-6.92051
ка	-6.93399
но	-6.93754
ing	-6.93881
▁было	-6.93985
с	-6.95584
»	-6.95641
▁for	-6.96868
▁так	-6.9744
ет	-6.97724
то	-6.98301
".	-6.9911
ия	-7.02982
▁их	-7.04174
ли	-7.05514
▁году	-7.05732
).	-7.05996
ная	-7.0756
▁as	-7.07982
",	-7.1043
▁про	-7.12165
▁on	-7.12333
▁with	-7.1255
▁that	-7.13284
на	-7.13881
в	-7.14308
▁is	-7.15765
▁только	-7.16043
▁На	-7.17724
ах	-7.18632
▁со	-7.18708
▁По	-7.18728
ным	-7.19169
л	-7.21687
▁раз	-7.2264
т	-7.2329
!	-7.24737
▁by	-7.25069
▁бы	-7.2567
ть	-7.25942
▁время	-7.2595
),	-7.27265
▁мы	-7.28234
▁они	-7.31902
▁Но	-7.32017
ого	-7.32652
▁были	-7.33224
▁г	-7.33426
▁во	-7.33702
d	-7.33945
ии	-7.34017
▁К	-7.37128
▁об	-7.37303
ий	-7.3769
...	-7.38818
ая	-7.39054
▁чтобы	-7.39059
ное	-7.42716
ие	-7.43453
/	-7.44201
▁уже	-7.44642
▁также	-7.45281
ку	-7.46621
▁когда	-7.46647
▁Я	-7.4781
▁была	-7.48282
ых	-7.48662
ской	-7.49458
ам	-7.49777
ем	-7.4999
▁his	-7.49992
▁которые	-7.51438
▁at	-7.51549
ную	-7.51658
▁У	-7.52157
▁того	-7.53148
ь	-7.53368
ей	-7.53441
▁from	-7.53508
er	-7.53585
▁ее	-7.54171
ского	-7.54691
▁может	-7.55889
▁пере	-7.56777
▁том	-7.57895
▁этом	-7.58761
ию	-7.58875
▁In	-7.58962
e	-7.59201
за	-7.59449
▁более	-7.59523
н	-7.61203
▁еще	-7.61471
y	-7.61643
▁после	-7.61795
t	-7.61809
▁если	-7.61916
▁она	-7.62094
▁М	-7.62243
ые	-7.62362
ок	-7.62909
▁he	-7.62991
ский	-7.64216
ла	-7.66104
▁быть	-7.66122
ый	-7.66154
n	-7.67047
».	-7.67283
▁этого	-7.67591
ly	-7.67828
▁который	-7.68688
▁можно	-7.68855
▁без	-7.6972
ном	-7.701
▁есть	-7.70698
не	-7.70975
к	-7.718
▁где	-7.72675
▁Он	-7.7304
▁чем	-7.74102
▁ни	-7.74124
▁О	-7.75514
ить	-7.75712
▁Не	-7.75989
д	-7.76866
▁будет	-7.77656
▁лет	-7.78063
▁were	-7.78117
▁При	-7.78989
ют	-7.79181
▁Это	-7.79586
▁ли	-7.80042
ым	-7.8013
ке	-7.80162
ными	-7.81101
▁an	-7.82446
ется	-7.82666
ую	-7.83841
В	-7.8427
▁меня	-7.84854
▁тем	-7.85129
▁За	-7.85499
▁be	-7.86314
▁даже	-7.86341
a	-7.87717
]	-7.87926
▁it	-7.88118
▁A	-7.88139
▁очень	-7.8817
▁т	-7.88616
al	-7.89304
▁себя	-7.90639
ит	-7.91705
»,	-7.91757
▁ему	-7.92069
▁мне	-7.92482
С	-7.93088
▁I	-7.93553
▁них	-7.93742
им	-7.96797
▁had	-7.96822
▁человек	-7.99365
сти	-7.99657
▁which	-7.99905
o	-7.99916
▁Г	-8.00382
p	-8.00668
му	-8.00943
лись	-8.01009
▁П	-8.01242
▁S	-8.01975
i	-8.02269
▁между	-8.02515
▁всех	-8.04811
р	-8.04922
та	-8.04978
▁are	-8.05154
ен	-8.05547
по	-8.06753
▁один	-8.07283
▁всего	-8.07391
б	-8.07459
ло	-8.07534
▁России	-8.08127
п	-8.08261
ться	-8.08309
▁жизни	-8.09663
th	-8.10702
▁Если	-8.10771
▁через	-8.11745
ны	-8.11767
▁этой	-8.12195
▁нас	-8.12297
▁Как	-8.13006
es	-8.1368
▁этот	-8.14394
ская	-8.15491
ое	-8.15608
▁or	-8.16496
▁Б	-8.16653
лся	-8.17405
от	-8.17525
ских	-8.17526
▁He	-8.17529
▁него	-8.17633
▁является	-8.17817
ни	-8.17874
in	-8.18481
▁своей	-8.186
г	-8.1888
ются	-8.18966
▁несколько	-8.19028
или	-8.19159
их	-8.19347
ин	-8.2064
▁над	-8.21162
_	-8.21413
▁Д	-8.21511
▁n	-8.22052
%	-8.22564
▁которых	-8.22959
▁им	-8.23201
▁много	-8.23386
▁not	-8.24095
▁рас	-8.24183
▁себе	-8.24499
▁нет	-8.24757
▁больше	-8.25473
ности	-8.25492
▁кто	-8.26394
▁эти	-8.26953
ском	-8.27671
ч	-8.27781
ил	-8.28404
ские	-8.28554
▁[	-8.28903
ков	-8.29151
▁their	-8.2944
▁перед	-8.29556
▁лишь	-8.29673
▁Т	-8.30033
(	-8.30157
▁re	-8.31244
ность	-8.31265
ъ	-8.31743
ко	-8.32344
▁also	-8.32518
r	-8.3263
▁просто	-8.32959
▁которая	-8.33351
▁Так	-8.33829
▁времени	-8.33851
▁стал	-8.33941
лась	-8.33968
▁После	-8.34406
кой	-8.34898
▁but	-8.35673
▁человека	-8.35746
ш	-8.35917
S	-8.35931
А	-8.36063
▁Н	-8.36087
▁her	-8.37329
▁свою	-8.37466
▁которой	-8.38118
▁людей	-8.38442
▁других	-8.38542
▁has	-8.38652
▁против	-8.38685
ят	-8.3885
▁области	-8.38968
▁have	-8.39102
or	-8.39408
те	-8.40338
▁first	-8.4074
▁своих	-8.40795
да	-8.41445
▁два	-8.41612
вер	-8.41619
сть	-8.42718
▁C	-8.42838
▁там	-8.42905
▁this	-8.43095
он	-8.43581
▁образом	-8.43619
▁Однако	-8.4376
▁Ф	-8.4412
▁Вы	-8.44563
К	-8.45311
▁могут	-8.45627
▁год	-8.46077
М	-8.46238
▁день	-8.46925
ал	-8.47149
Б	-8.47164
m	-8.4748
▁Для	-8.47863
ле	-8.47993
u	-8.48707
▁P	-8.48775
c	-8.48909
▁этих	-8.49209
▁one	-8.49281
▁случае	-8.49482
ния	-8.4959
ль	-8.49781
▁who	-8.50025
ж	-8.50341
▁своего	-8.50508
▁Все	-8.50529
ля	-8.51432
ать	-8.5153
▁No	-8.51944
▁сам	-8.52046
▁те	-8.52635
▁двух	-8.52969
b	-8.53156
овой	-8.53292
▁Л	-8.53418
f	-8.53716
ком	-8.54177
ев	-8.54407
▁войны	-8.54985
ф	-8.55086
ись	-8.55096
▁ты	-8.55993
▁its	-8.56009
▁свои	-8.5604
▁B	-8.56724
▁части	-8.57101
ние	-8.57204
О	-8.57624
▁место	-8.57642
га	-8.57664
▁её	-8.57792
▁всегда	-8.57926
▁Да	-8.57976
l	-8.58419
ers	-8.58441
▁потому	-8.58649
▁F	-8.58826
Д	-8.5898
▁been	-8.59042
▁три	-8.59351
▁работы	-8.59712
▁Мы	-8.59832
▁часть	-8.59881
▁тогда	-8.59977
▁де	-8.60005
▁they	-8.60117
скую	-8.60503
▁которого	-8.60668
▁вот	-8.60897
▁de	-8.61012
▁здесь	-8.61099
▁тот	-8.6127
з	-8.61345
ения	-8.61423
ыми	-8.61665
ion	-8.61744
▁Во	-8.62329
h	-8.6299
▁–	-8.63052
ась	-8.63136
цы	-8.63593
▁нужно	-8.63642
ение	-8.6366
▁пред	-8.63848
▁Из	-8.63863
▁Про	-8.64212
▁собой	-8.65086
re	-8.65252
ди	-8.65362
ство	-8.65637
▁СССР	-8.66092
ова	-8.66136
▁тех	-8.66278
▁Когда	-8.66598
en	-8.6673
▁д	-8.66816
▁D	-8.66989
k	-8.67013
лось	-8.67144
g	-8.67144
B	-8.67145
▁Об	-8.67357
мер	-8.67476
ation	-8.67523
▁G	-8.67622
▁именно	-8.67677
▁да	-8.67748
▁two	-8.67801
▁мира	-8.67971
Г	-8.68102
▁одной	-8.68142
C	-8.68614
ному	-8.68908
▁хотя	-8.6897
▁нам	-8.68972
▁мир	-8.68977
▁Они	-8.6954
ц	-8.6969
▁США	-8.69717
ти	-8.69774
—	-8.69876
an	-8.69895
▁Р	-8.69937
▁сказал	-8.70157
ер	-8.7032
П	-8.70436
▁E	-8.7071
▁стороны	-8.70728
▁ним	-8.70975
ну	-8.71224
▁вместе	-8.71229
▁почти	-8.71483
ское	-8.71621
▁такой	-8.71782
▁all	-8.71791
▁От	-8.71829
из	-8.71847
▁жизнь	-8.72032
ма	-8.72543
ник	-8.72567
ре	-8.73239
ец	-8.73314
▁города	-8.7339
ив	-8.73444
▁W	-8.73523
▁люди	-8.73582
вы	-8.73592
са	-8.73734
ст	-8.73763
▁около	-8.73918
ва	-8.73956
ским	-8.73996
до	-8.74048
▁До	-8.74268
▁затем	-8.7433
ар	-8.74568
st	-8.75123
▁имеет	-8.75186
▁м	-8.75244
ar	-8.7531
▁надо	-8.7576
on	-8.75791
Н	-8.75838
▁out	-8.75884
▁would	-8.75906
▁должны	-8.75928
[	-8.75928
▁п	-8.75997
▁потом	-8.76162
ты	-8.76508
▁N	-8.76636
x	-8.76655
▁должен	-8.76699
али	-8.76835
ясь	-8.77127
▁другие	-8.77422
▁over	-8.77487
ня	-8.77672
le	-8.77916
ось	-8.77952
▁Ш	-8.78028
овых	-8.78067
ор	-8.78111
▁ничего	-8.78157
▁into	-8.78165
us	-8.78301
▁одно	-8.78361
▁after	-8.78431
▁Что	-8.78475
▁she	-8.78897
▁It	-8.78916
▁time	-8.78972
▁чего	-8.79156
▁other	-8.79207
тер	-8.79434
D	-8.79674
ic	-8.79865
ья	-8.79979
И	-8.80178
▁ко	-8.80577
ман	-8.80653
ками	-8.80736
▁другой	-8.80761
T	-8.80908
У	-8.8091
▁p	-8.80964
▁тоже	-8.81303
▁T	-8.81412
ту	-8.81644
);	-8.81723
▁пре	-8.81784
▁up	-8.81891
ца	-8.81896
▁M	-8.81963
ра	-8.82167
z	-8.82202
▁пока	-8.82616
▁ней	-8.82745
▁теперь	-8.8281
▁состав	-8.83362
ина	-8.83549
▁которое	-8.84358
ства	-8.84374
Т	-8.84628
▁качестве	-8.84636
▁вас	-8.84765
▁R	-8.8486
▁дело	-8.85011
ист	-8.85073
▁K	-8.85283
▁одного	-8.85468
▁конце	-8.85497
▁свой	-8.85516
ша	-8.85595
A	-8.85815
▁H	-8.85927
▁период	-8.86002
де	-8.86288
▁вам	-8.86477
про	-8.86639
ри	-8.86759
▁часто	-8.86766
▁связи	-8.87348
▁/	-8.87571
el	-8.87945
▁more	-8.88031
ием	-8.88102
иться	-8.88304
▁однако	-8.88608
цев	-8.88718
▁будут	-8.88786
ости	-8.88814
▁менее	-8.88999
▁истории	-8.89022
мен	-8.89089
▁Она	-8.89273
овые	-8.89551
▁=	-8.89653
▁гор	-8.89662
▁кон	-8.89681
▁him	-8.89773
▁века	-8.89955
▁Х	-8.901
Ф	-8.90419
▁when	-8.90498
▁др	-8.90708
▁само	-8.90722
▁can	-8.90871
ис	-8.90892
вин	-8.90914
▁среди	-8.9108
▁момент	-8.91407
об	-8.91431
▁город	-8.91462
id	-8.91545
▁Э	-8.9169
че	-8.91717
▁э	-8.91728
во	-8.91764
▁всем	-8.92342
ск	-8.92454
▁пор	-8.92772
▁годы	-8.9295
▁стали	-8.93632
при	-8.93662
▁например	-8.93732
▁свое	-8.9375
▁мог	-8.9382
▁тому	-8.94031
ость	-8.94115
▁вопрос	-8.94185
Я	-8.94267
at	-8.94356
ду	-8.94612
man	-8.94697
▁лучше	-8.94756
ос	-8.94865
▁ре	-8.95226
▁new	-8.95326
ических	-8.95506
▁Со	-8.9581
▁тут	-8.95929
▁этим	-8.95967
▁эта	-8.96162
H	-8.962
▁котором	-8.96402
▁прав	-8.96461
it	-8.96466
▁эту	-8.9656
▁всё	-8.96956
is	-8.97065
▁Под	-8.97089
▁Его	-8.97283
▁какой	-8.97985
▁своим	-8.9802
▁км	-8.98317
▁хорошо	-8.98688
ической	-8.98748
▁слова	-8.99098
▁Вот	-8.99331
ча	-8.99499
ик	-8.99667
ут	-8.99917
▁сейчас	-9.00015
▁системы	-9.00062
▁род	-9.00216
G	-9.00492
тор	-9.00566
▁On	-9.00689
▁течение	-9.0082
▁страны	-9.00901
нее	-9.0109
F	-9.01264
▁ещё	-9.01458
>	-9.01908
ится	-9.02063
▁тысяч	-9.02263
▁L	-9.02476
▁свет	-9.0264
▁первый	-9.02781
▁друг	-9.02831
▁сделать	-9.02964
to	-9.02984
▁таких	-9.03417
▁числе	-9.03444
▁особенно	-9.03559
ба	-9.03582
па	-9.03919
il	-9.0436
ите	-9.04409
ia	-9.04465
▁получил	-9.04524
ировать	-9.04672
ель	-9.04704
▁результате	-9.05014
w	-9.05059
ат	-9.05299
ился	-9.05443
▁власти	-9.05455
P	-9.05471
▁Е	-9.05972
ум	-9.06195
▁армии	-9.06373
ус	-9.06387
code	-9.06581
▁воз	-9.06637
прав	-9.07123
▁две	-9.07228
ги	-9.07378
ive	-9.07508
▁c	-9.07724
▁оно	-9.07759
▁only	-9.08021
би	-9.08021
▁сразу	-9.08259
▁поэтому	-9.08288
▁которую	-9.08489
ne	-9.0867
▁U	-9.08724
же	-9.08767
ней	-9.08994
▁То	-9.09547
▁New	-9.09606
▁II	-9.09628
мет	-9.09646
▁no	-9.09652
ющих	-9.09799
мы	-9.09803
▁помощью	-9.09821
▁необходимо	-9.09995
лен	-9.10079
▁about	-9.10161
ity	-9.10305
▁достаточно	-9.10533
▁такие	-9.10554
▁стран	-9.10565
▁виде	-9.10611
се	-9.10667
Л	-9.10671
▁where	-9.10796
▁сказать	-9.10814
нов	-9.10925
▁никогда	-9.1095
▁следует	-9.11062
ому	-9.11098
ников	-9.11127
▁years	-9.11417
et	-9.11443
▁This	-9.11549
▁Ре	-9.11608
нибудь	-9.11647
▁f	-9.11701
ist	-9.11819
▁говорит	-9.12075
▁O	-9.12106
ации	-9.12582
▁характер	-9.12625
▁ж	-9.12871
▁б	-9.1298
▁дома	-9.13026
чи	-9.13285
N	-9.13346
▁сил	-9.13396
▁территории	-9.13655
▁быстро	-9.13744
ические	-9.1389
▁совершенно	-9.13938
▁than	-9.14032
ье	-9.14046
ry	-9.1437
▁$	-9.14477
ан	-9.14675
ний	-9.14933
L	-9.14997
▁дня	-9.15285
▁начале	-9.15376
▁возможность	-9.15656
▁there	-9.15894
▁мало	-9.15916
▁начала	-9.15917
▁Ж	-9.16069
▁under	-9.16151
▁Re	-9.1667
M	-9.16765
раз	-9.1677
▁роль	-9.16926
▁конечно	-9.16967
▁Ю	-9.17248
▁второй	-9.1749
▁самом	-9.17506
ает	-9.17589
I	-9.17633
▁дела	-9.17793
▁ей	-9.1791
▁работу	-9.1811
вид	-9.18151
▁начал	-9.18156
Э	-9.18378
▁каждый	-9.18394
▁таким	-9.18447
вод	-9.18465
ment	-9.18493
ового	-9.18526
▁V	-9.18527
▁вообще	-9.18603
W	-9.18864
▁одна	-9.18894
▁them	-9.18925
▁право	-9.18936
▁поскольку	-9.19253
ического	-9.19259
▁З	-9.19493
▁р	-9.19546
ton	-9.19549
си	-9.19574
▁then	-9.19709
▁районе	-9.19725
▁имени	-9.19788
▁some	-9.19831
▁развития	-9.19874
▁либо	-9.19996
▁группы	-9.2008
ющий	-9.20177
ent	-9.20225
▁made	-9.20254
ика	-9.20257
▁such	-9.20329
na	-9.20333
▁Поэтому	-9.20428
▁during	-9.20467
!"	-9.20599
гу	-9.2066
li	-9.20804
Р	-9.20903
▁мая	-9.21008
ur	-9.211
▁РФ	-9.21132
ический	-9.21315
▁so	-9.21316
▁J	-9.21505
чин	-9.21525
ры	-9.21537
▁возможно	-9.21588
ate	-9.216
▁такое	-9.21757
].	-9.2176
▁стало	-9.21769
▁внимание	-9.21912
ились	-9.2212
te	-9.22127
▁находится	-9.22153
ir	-9.22461
v	-9.22511
▁Александр	-9.22568
су	-9.22584
ian	-9.22626
▁("	-9.22774
▁between	-9.23016
По	-9.23074
нии	-9.23165
son	-9.23185
ши	-9.23198
▁детей	-9.23287
▁стала	-9.23335
se	-9.23452
▁одним	-9.23587
вар	-9.23598
▁многие	-9.23649
ович	-9.23758
лож	-9.23779
▁деятельности	-9.23925
ация	-9.23968
▁обычно	-9.24009
am	-9.2401
▁Кроме	-9.24138
ян	-9.24171
▁месте	-9.24235
ве	-9.24244
▁компании	-9.2432
либо	-9.24445
▁действия	-9.25064
▁бес	-9.25304
▁смерти	-9.2532
э	-9.25533
▁ведь	-9.25595
▁снова	-9.25666
▁этому	-9.2584
▁многих	-9.25896
▁деле	-9.25962
▁июля	-9.26068
лю	-9.26418
лад	-9.26442
ro	-9.26481
▁самого	-9.26689
овать	-9.26725
▁Ну	-9.26794
▁most	-9.26809
ро	-9.26861
Е	-9.26882
▁used	-9.26913
▁работа	-9.2701
ией	-9.27069
▁класс	-9.27098
▁наиболее	-9.27187
R	-9.27198
▁всей	-9.27296
ющие	-9.27504
ie	-9.27547
K	-9.27604
ine	-9.27717
=	-9.2774
▁un	-9.27884
ики	-9.27913
▁сентября	-9.28076
ta	-9.28214
▁могли	-9.28215
ше	-9.28274
скому	-9.28346
▁later	-9.28605
▁опыт	-9.28749
▁должно	-9.28759
▁организации	-9.28837
ках	-9.28987
▁количество	-9.29197
▁июня	-9.29249
V	-9.29252
ью	-9.29258
▁августа	-9.29298
ул	-9.29388
ила	-9.294
ter	-9.2944
стр	-9.29554
ическая	-9.29609
▁выше	-9.29882
▁пар	-9.29919
иль	-9.30067
E	-9.3007
кон	-9.30134
▁являются	-9.30345
▁part	-9.30357
дер	-9.30411
▁генерал	-9.30434
▁делать	-9.30496
▁марта	-9.30528
▁дней	-9.30646
▁Ар	-9.30697
▁совсем	-9.30702
це	-9.30741
▁октября	-9.30789
▁степени	-9.3083
▁нем	-9.30889
▁января	-9.30971
▁нашей	-9.31043
ста	-9.31148
▁которым	-9.31157
▁почему	-9.31344
able	-9.31366
лин	-9.31401
бер	-9.31498
Ч	-9.31583
▁three	-9.3171
▁ответ	-9.31725
▁As	-9.31888
▁дел	-9.32082
ран	-9.32307
со	-9.32342
▁составе	-9.32353
▁She	-9.32363
оз	-9.32414
Ш	-9.32648
▁вид	-9.3275
ешь	-9.32964
▁being	-9.33048
мо	-9.33139
ники	-9.3327
▁силы	-9.33279
Х	-9.33313
▁прежде	-9.33332
▁назад	-9.33377
лы	-9.33426
лу	-9.3368
▁должна	-9.33795
▁годах	-9.33968
▁некоторые	-9.34088
ary	-9.34243
▁участие	-9.34407
▁декабря	-9.34466
de	-9.34518
ход	-9.34538
йте	-9.3469
▁годов	-9.35046
▁та	-9.3509
▁сегодня	-9.3516
ён	-9.35265
▁Ли	-9.35364
▁решение	-9.35472
▁мире	-9.35609
▁района	-9.35636
▁пол	-9.35703
▁St	-9.35773
▁большой	-9.36045
▁стоит	-9.36102
ха	-9.36216
▁места	-9.36469
▁управления	-9.36617
пер	-9.3665
З	-9.36736
▁полностью	-9.36752
ич	-9.36761
овым	-9.368
▁легко	-9.36963
▁апреля	-9.37051
▁well	-9.37149
as	-9.37177
▁той	-9.37194
▁интерес	-9.37213
▁суд	-9.37385
age	-9.37387
▁you	-9.37406
▁права	-9.37695
▁данных	-9.37699
▁слишком	-9.37824
▁всю	-9.37828
ant	-9.37898
▁значение	-9.3796
co	-9.3797
?"	-9.38066
▁происходит	-9.38208
ника	-9.38285
▁мере	-9.38297
▁центр	-9.38342
ант	-9.38525
▁through	-9.38694
▁действительно	-9.38768
▁гг	-9.3885
▁цвет	-9.39057
ve	-9.3913
▁использовать	-9.39211
овая	-9.39316
▁пути	-9.39539
▁прямо	-9.39586
▁такого	-9.39812
▁became	-9.39997
▁against	-9.40005
уз	-9.40072
▁первой	-9.40078
▁ноября	-9.40172
▁ф	-9.40174
ек	-9.40213
▁ряд	-9.40356
▁many	-9.40422
ическое	-9.40511
▁народ	-9.4053
под	-9.40554
▁ними	-9.40784
▁воды	-9.40815
▁типа	-9.4091
▁while	-9.41228
▁нельзя	-9.41282
▁общества	-9.41437
ch	-9.41724
▁процесс	-9.41901
▁will	-9.41981
▁минут	-9.42052
▁государства	-9.42062
▁движения	-9.42315
▁тебя	-9.42399
енный	-9.42583
▁Ч	-9.42654
ид	-9.42721
▁work	-9.43
▁имя	-9.43305
▁полу	-9.43347
▁удалось	-9.43349
▁равно	-9.43401
▁войск	-9.43449
лей	-9.43563
▁тыс	-9.43585
▁Раз	-9.43625
ают	-9.43754
▁Ко	-9.43813
▁La	-9.43815
▁year	-9.44
▁before	-9.44092
▁руки	-9.44172
▁people	-9.44214
лов	-9.44273
▁населения	-9.44358
▁дом	-9.44488
ница	-9.44488
ско	-9.44504
альные	-9.4452
▁Co	-9.44572
ски	-9.44641
▁часов	-9.44838
um	-9.44839
the	-9.44873
▁иногда	-9.4518
ол	-9.45226
est	-9.45305
▁отношения	-9.45409
стью	-9.45668
▁различных	-9.45808
ала	-9.45859
▁пер	-9.45881
▁партии	-9.45957
▁ту	-9.46025
▁название	-9.46245
▁автор	-9.46437
род	-9.46622
be	-9.46656
ге	-9.46713
▁труд	-9.46792
▁мой	-9.46834
▁do	-9.47052
бо	-9.47113
▁Кон	-9.47136
▁end	-9.47181
▁постоянно	-9.47275
▁новые	-9.4736
▁самых	-9.47418
образ	-9.47474
рис	-9.47553
▁городе	-9.47623
▁весьма	-9.47899
▁февраля	-9.47917
▁своем	-9.47995
▁весь	-9.48057
▁if	-9.48084
▁вполне	-9.48188
кам	-9.48225
▁становится	-9.48243
▁said	-9.48267
▁Вер	-9.48271
ma	-9.48298
▁анти	-9.4837
стро	-9.48374
бу	-9.48386
▁Москве	-9.4864
ера	-9.48834
▁работе	-9.4898
O	-9.49084
▁некоторых	-9.49095
▁какие	-9.49255
▁новых	-9.49364
▁известно	-9.49514
▁After	-9.49551
▁ст	-9.49572
стер	-9.49579
вший	-9.49651
дан	-9.49696
ви	-9.49774
▁имеют	-9.49806
рон	-9.49857
▁проект	-9.4991
ним	-9.50108
▁Тем	-9.50115
▁could	-9.50124
▁season	-9.50298
шей	-9.5033
ении	-9.50372
▁>	-9.50373
▁довольно	-9.50388
сь	-9.50399
цион	-9.50429
▁практически	-9.50468
ies	-9.50552
сон	-9.50628
тон	-9.50635
lo	-9.50677
▁система	-9.50745
▁second	-9.50804
пис	-9.50817
▁куда	-9.50834
За	-9.50916
альный	-9.50961
од	-9.50977
▁реки	-9.5099
ели	-9.51016
▁писал	-9.51048
▁возможности	-9.51064
▁ди	-9.51152
▁вновь	-9.51153
▁информации	-9.51236
илась	-9.51267
▁Кар	-9.51353
▁кроме	-9.51441
▁Ни	-9.51452
▁трех	-9.51466
▁Этот	-9.51489
▁долго	-9.51567
▁Кор	-9.51659
ance	-9.51707
зем	-9.5177
▁самым	-9.51968
▁конца	-9.52067
▁разных	-9.52077
▁кор	-9.5221
▁both	-9.52228
▁co	-9.52566
енные	-9.52623
▁Российской	-9.52624
аль	-9.52721
ру	-9.53026
ul	-9.53031
▁back	-9.53167
ак	-9.53184
ri	-9.53242
ях	-9.53433
▁зрения	-9.53548
▁одном	-9.5359
ел	-9.53721
▁Владимир	-9.53779
На	-9.5391
up	-9.53933
кин	-9.5404
▁основе	-9.54066
жа	-9.54079
▁dis	-9.54162
ент	-9.54167
▁including	-9.54376
жи	-9.54594
▁кого	-9.54595
▁меньше	-9.54641
▁культуры	-9.54646
U	-9.5472
ден	-9.54808
▁нового	-9.54832
ями	-9.54881
▁четыре	-9.54907
ra	-9.54911
лет	-9.55103
▁тебе	-9.55172
▁*	-9.55188
▁рода	-9.55276
▁//	-9.55368
▁решения	-9.55519
ров	-9.55535
▁b	-9.55615
▁Таким	-9.55671
▁De	-9.557
▁деньги	-9.55861
▁па	-9.55869
▁новый	-9.5598
▁самой	-9.56051
она	-9.56112
воз	-9.56233
▁книги	-9.56304
▁Эти	-9.56366
▁Ма	-9.564
▁помощи	-9.56401
енко	-9.56402
▁ч	-9.56492
ated	-9.56497
..."	-9.56549
▁\-	-9.56552
▁точно	-9.56576
▁нескольких	-9.56655
▁con	-9.56682
кая	-9.56815
▁we	-9.56819
▁точки	-9.5684
▁способ	-9.56889
`	-9.56938
итель	-9.56974
ступ	-9.57206
▁Теперь	-9.57279
▁значит	-9.57289
▁удар	-9.57331
▁закон	-9.57365
▁мысли	-9.57419
▁никто	-9.5761
▁вокруг	-9.57616
▁At	-9.57713
▁образ	-9.57891
▁найти	-9.58031
▁Здесь	-9.58037
▁Украины	-9.5805
▁наши	-9.58077
▁язык	-9.58106
ющей	-9.58113
▁film	-9.58127
▁условиях	-9.5815
изм	-9.58185
▁t	-9.58306
изма	-9.58387
go	-9.58404
▁идет	-9.58527
▁счет	-9.58558
▁Су	-9.58607
min	-9.58627
▁сторону	-9.58672
▁очередь	-9.58674
▁готов	-9.58688
▁Ла	-9.58714
▁одну	-9.58767
▁X	-9.58859
▁план	-9.58925
▁pre	-9.58993
▁тела	-9.59061
▁работать	-9.59115
▁средств	-9.59303
нет	-9.59362
▁решил	-9.59447
▁Al	-9.59459
▁Ц	-9.59531
▁these	-9.59662
▁Те	-9.59747
ющим	-9.59768
▁электро	-9.59834
▁стар	-9.59887
▁цен	-9.59908
pe	-9.59912
▁st	-9.59946
▁сильно	-9.59989
юсь	-9.60071
▁наших	-9.60217
ска	-9.60279
бор	-9.60284
X	-9.60293
▁число	-9.60303
ad	-9.60454
тся	-9.6055
▁'	-9.60561
▁первого	-9.60613
чен	-9.60639
чат	-9.6068
▁положение	-9.60718
▁United	-9.60734
нуть	-9.61008
▁ум	-9.61018
▁Затем	-9.61033
▁me	-9.61099
▁работал	-9.61185
▁внутри	-9.61198
▁стать	-9.61226
▁слово	-9.61247
▁d	-9.61402
▁впервые	-9.61452
▁глаза	-9.61597
▁н	-9.61646
▁путь	-9.61697
▁наук	-9.61857
im	-9.62113
▁пять	-9.62131
▁ходе	-9.62241
▁столь	-9.62249
мин	-9.62253
оп	-9.62314
▁рядом	-9.62395
▁кино	-9.62454
ева	-9.62466
▁данным	-9.62477
▁Например	-9.6256
▁уж	-9.62705
▁American	-9.62715
▁немного	-9.62763
▁частности	-9.62786
▁самое	-9.62932
▁пост	-9.62946
ga	-9.6296
вал	-9.63157
▁ш	-9.63185
me	-9.63279
ды	-9.63398
ill	-9.63488
no	-9.63644
ce	-9.63725
лом	-9.63832
▁War	-9.6385
▁назначен	-9.63888
альных	-9.63992
▁земли	-9.6405
j	-9.64064
▁млн	-9.64096
▁Пере	-9.64237
▁Также	-9.64278
ическую	-9.64365
▁team	-9.64418
лан	-9.64475
▁Германии	-9.6451
ём	-9.6454
▁отношении	-9.6455
▁своими	-9.64606
ism	-9.64738
▁радио	-9.64749
▁any	-9.64769
ун	-9.64809
ty	-9.64814
▁словам	-9.64828
ut	-9.64888
▁until	-9.64896
▁m	-9.64942
▁могу	-9.64966
ni	-9.6508
▁район	-9.65157
▁проблемы	-9.65159
land	-9.65162
▁Мар	-9.65221
ёр	-9.65254
инг	-9.65323
▁рублей	-9.65428
люб	-9.65512
▁Франции	-9.6559
▁бед	-9.65609
▁море	-9.65626
▁друга	-9.65751
▁Эта	-9.65756
▁благодаря	-9.65835
▁Мо	-9.65949
▁пе	-9.66027
▁same	-9.66118
▁Ру	-9.66263
sh	-9.66278
▁составляет	-9.66287
нь	-9.66296
кий	-9.66387
▁получить	-9.66505
▁говорить	-9.66654
енных	-9.66746
▁примерно	-9.66749
▁сделал	-9.6675
▁вер	-9.66778
▁поэт	-9.6686
▁number	-9.66882
след	-9.66957
ря	-9.67074
ol	-9.67087
хо	-9.67273
уд	-9.67328
▁матери	-9.67437
▁кол	-9.67477
un	-9.67506
лив	-9.67563
▁own	-9.67563
▁знаю	-9.6769
▁граждан	-9.67749
▁стране	-9.6781
ган	-9.67822
os	-9.6783
▁Федерации	-9.67835
▁use	-9.67899
la	-9.67966
▁иметь	-9.67969
сто	-9.68029
нес	-9.68034
скими	-9.68103
ha	-9.68276
мат	-9.68286
The	-9.6832
ав	-9.68367
▁Там	-9.68476
▁одновременно	-9.68614
ции	-9.68695
овый	-9.68719
альная	-9.68739
▁наш	-9.6876
▁заявил	-9.68871
▁Пол	-9.68872
тель	-9.68892
▁говорил	-9.68954
▁противника	-9.69054
рен	-9.69074
эн	-9.69102
куп	-9.6922
▁выход	-9.69249
▁called	-9.69252
▁did	-9.69283
ост	-9.69297
▁сколько	-9.69496
▁сын	-9.69535
▁known	-9.69571
▁like	-9.69685
▁сами	-9.69814
▁солдат	-9.69917
▁Ты	-9.70099
▁факт	-9.70139
истов	-9.70145
ющего	-9.70248
▁будто	-9.70272
▁другим	-9.70375
зы	-9.7049
▁поле	-9.70547
▁мол	-9.70728
▁работ	-9.7079
▁речь	-9.70872
пи	-9.70999
▁средства	-9.71003
его	-9.71029
▁исследования	-9.71131
▁public	-9.71134
and	-9.71164
Ж	-9.7121
▁лица	-9.71235
▁may	-9.71301
▁кажется	-9.71316
▁`	-9.7144
▁found	-9.71464
▁Тогда	-9.71597
ству	-9.71649
кова	-9.71692
▁каждого	-9.71702
▁жил	-9.71728
▁мест	-9.71761
▁нему	-9.71809
гре	-9.71939
▁They	-9.72051
тан	-9.72131
▁Га	-9.72223
▁новой	-9.72264
▁улица	-9.7234
da	-9.72413
▁May	-9.72475
ван	-9.72534
ины	-9.72609
сов	-9.72611
▁слов	-9.72625
таки	-9.72633
▁ген	-9.72655
́	-9.72669
▁другими	-9.72762
▁school	-9.72777
жен	-9.72804
вшие	-9.72804
▁силу	-9.72805
▁имел	-9.72841
▁home	-9.72873
▁позволяет	-9.72876
▁изменения	-9.72955
▁основном	-9.73017
фа	-9.73025
▁церкви	-9.73088
▁вместо	-9.73109
▁народа	-9.73148
▁нашего	-9.73149
ция	-9.73186
гор	-9.73288
ирование	-9.73406
овал	-9.73417
▁name	-9.7345
▁Ле	-9.73466
J	-9.73506
▁клуб	-9.73591
▁целью	-9.73674
▁принял	-9.73694
▁Чтобы	-9.73888
▁войска	-9.74094
▁set	-9.7412
com	-9.74157
▁Z	-9.74261
▁первых	-9.74396
▁ранее	-9.74396
▁early	-9.74465
▁отдел	-9.74519
mo	-9.74637
поль	-9.74654
ot	-9.74657
▁University	-9.7469
▁began	-9.74732
вит	-9.74738
▁производства	-9.74741
бы	-9.74748
зна	-9.74797
om	-9.7481
ca	-9.74838
ший	-9.74843
дел	-9.74885
ща	-9.74898
▁команды	-9.75006
▁Ме	-9.75121
▁безопасности	-9.75174
фер	-9.7519
ru	-9.7523
▁наконец	-9.75275
▁фильм	-9.75278
▁правило	-9.75293
▁действий	-9.75335
ир	-9.75344
▁Ma	-9.75356
▁существует	-9.75421
▁игры	-9.75437
тов	-9.75504
пре	-9.75523
год	-9.75538
▁what	-9.75581
ll	-9.75648
мир	-9.7565
▁Мне	-9.75678
зи	-9.75697
вших	-9.75732
ложен	-9.75747
ее	-9.75774
пор	-9.75786
▁ком	-9.75789
кор	-9.75806
нер	-9.7584
▁случай	-9.75852
▁дальше	-9.75874
▁данные	-9.75898
▁цели	-9.75923
▁Нет	-9.75926
▁роли	-9.75968
нос	-9.75996
гер	-9.76053
▁пресс	-9.76065
▁роман	-9.76154
▁состоянии	-9.76206
▁Le	-9.76238
▁Только	-9.76245
sa	-9.76308
дж	-9.76373
▁состояние	-9.76537
▁Бо	-9.76656
▁Европы	-9.76841
▁смысл	-9.76842
тро	-9.76861
том	-9.7688
▁For	-9.77078
▁формы	-9.77164
ge	-9.77213
▁To	-9.77307
ous	-9.77473
▁four	-9.77636
Не	-9.77674
▁нее	-9.77675
вен	-9.77698
ющая	-9.77701
▁government	-9.7773
ена	-9.77748
стан	-9.77876
▁Бар	-9.77883
▁представляет	-9.77897
жал	-9.77915
ting	-9.78043
▁An	-9.78349
▁см	-9.78395
ацию	-9.78404
Ц	-9.78412
шего	-9.78417
▁мнению	-9.78517
зе	-9.78542
ению	-9.78701
цов	-9.78816
▁самый	-9.78851
▁моря	-9.78861
he	-9.78898
▁several	-9.78918
чер	-9.7894
▁раньше	-9.78954
▁Де	-9.79003
атор	-9.79007
дар	-9.79047
op	-9.79189
▁Ка	-9.79202
▁Ro	-9.79288
лон	-9.79311
шие	-9.79356
ang	-9.79409
▁языка	-9.79412
▁Се	-9.79508
ими	-9.79512
▁Ал	-9.79561
пад	-9.79579
▁президент	-9.79584
бе	-9.79609
ё	-9.79623
▁вес	-9.79698
стве	-9.79706
тен	-9.79814
см	-9.79845
▁состоит	-9.79847
▁Примечания	-9.79866
кан	-9.79892
do	-9.79893
▁#	-9.79899
ража	-9.79934
ще	-9.79936
▁главным	-9.79949
▁машин	-9.80029
▁далеко	-9.80031
пере	-9.80217
▁off	-9.80279
▁мировой	-9.80306
▁York	-9.80309
▁Бер	-9.80348
ление	-9.80432
▁целом	-9.80437
▁любой	-9.80483
▁давно	-9.80589
ted	-9.80608
▁Ан	-9.80624
мор	-9.8069
▁мин	-9.80724
ание	-9.80742
▁вопросы	-9.80748
▁тип	-9.8082
▁образования	-9.80886
гар	-9.80901
▁линии	-9.80906
▁вз	-9.80909
ину	-9.81097
▁понять	-9.81138
лер	-9.81141
▁другом	-9.81157
▁бо	-9.81181
▁city	-9.8122
▁хотел	-9.81237
Y	-9.81242
▁ибо	-9.81336
▁пришлось	-9.81383
▁лиц	-9.81413
▁труда	-9.81514
▁группа	-9.8158
▁Са	-9.81645
▁<	-9.81661
▁John	-9.81666
▁Мал	-9.8168
▁area	-9.81683
ностью	-9.8175
раж	-9.81774
▁случаях	-9.81973
")	-9.82032
ланд	-9.82065
▁Иван	-9.82073
▁развитие	-9.82194
▁Та	-9.82197
▁множество	-9.82247
пол	-9.82319
▁because	-9.82384
per	-9.82387
вест	-9.82441
▁школы	-9.82454
▁трудно	-9.82477
един	-9.82492
▁след	-9.82543
▁down	-9.8272
ятся	-9.82723
▁своему	-9.82787
▁которому	-9.82802
▁женщин	-9.82804
▁говоря	-9.82872
▁относительно	-9.82899
ирует	-9.82964
ших	-9.83043
▁World	-9.83224
der	-9.83254
▁настоящее	-9.83313
ницы	-9.83335
▁муж	-9.83391
▁state	-9.83427
▁л	-9.83687
▁работает	-9.83701
твор	-9.83883
▁брат	-9.83906
рас	-9.83923
▁первые	-9.83984
▁деятельность	-9.83995
▁long	-9.84017
ировал	-9.84074
▁man	-9.8409
сен	-9.841
▁совет	-9.84106
▁искусства	-9.84132
▁Mar	-9.84212
иков	-9.84464
▁власть	-9.845
чик	-9.84507
рат	-9.84587
▁ситуации	-9.84609
яв	-9.84763
▁мед	-9.84768
▁скоро	-9.84797
▁систем	-9.84798
▁актив	-9.84891
▁умер	-9.84924
ень	-9.84936
ирования	-9.85023
▁Через	-9.85099
▁создан	-9.85175
▁Ха	-9.85296
луч	-9.85318
▁Con	-9.85328
▁лес	-9.85356
▁игр	-9.85419
▁написал	-9.85426
▁правительства	-9.85477
▁However	-9.8549
▁ин	-9.85587
▁life	-9.85639
▁pro	-9.857
▁war	-9.85705
▁per	-9.85719
▁Кол	-9.8572
▁скорее	-9.85739
▁Еще	-9.85763
▁благо	-9.85785
▁первую	-9.85794
▁метров	-9.85851
▁стол	-9.85909
ген	-9.85927
▁His	-9.86082
▁Именно	-9.8623
les	-9.86234
▁соответствии	-9.86244
рез	-9.86356
▁вод	-9.86381
▁моей	-9.86389
▁значительно	-9.86391
ley	-9.86447
вед	-9.86465
▁пишет	-9.86519
#	-9.86594
▁took	-9.86695
▁опять	-9.86718
▁ясно	-9.86764
▁There	-9.86878
▁невозможно	-9.86906
▁e	-9.86961
▁Хотя	-9.86979
▁непосредственно	-9.87014
кс	-9.87044
▁чуть	-9.87174
дов	-9.87178
▁деревня	-9.87233
▁срок	-9.8735
▁философ	-9.87394
▁комплекс	-9.87395
▁сад	-9.87427
▁первым	-9.87483
▁пяти	-9.87491
сел	-9.87521
рей	-9.8756
▁game	-9.87617
ac	-9.87753
▁текст	-9.87831
▁член	-9.87847
▁III	-9.87859
чь	-9.87951
▁family	-9.87979
Ю	-9.88039
ическом	-9.88058
*	-9.8807
▁вдруг	-9.88098
▁метод	-9.88122
▁Be	-9.88151
▁взгляд	-9.88179
▁Ra	-9.88202
▁времен	-9.88245
▁земле	-9.88282
▁большинство	-9.88325
ling	-9.88364
▁рамках	-9.88418
▁двумя	-9.88425
форм	-9.88575
ard	-9.88645
ило	-9.8865
▁сайте	-9.88652
▁руб	-9.88667
ence	-9.8869
ци	-9.8883
▁правильно	-9.88865
▁уровня	-9.88882
три	-9.88901
пар	-9.88937
▁доступ	-9.88948
▁Рас	-9.88962
говор	-9.88986
▁приказ	-9.8902
▁форме	-9.89037
▁коп	-9.89043
▁Хо	-9.89096
▁знал	-9.89128
▁жить	-9.89135
▁now	-9.89204
▁high	-9.89323
▁Пред	-9.8934
▁жителей	-9.89401
▁несмотря	-9.89413
▁Pa	-9.8944
мент	-9.89455
дав	-9.89479
ания	-9.89572
работ	-9.89575
лит	-9.89733
ler	-9.89769
▁гораздо	-9.89867
емых	-9.89908
▁States	-9.89958
нем	-9.89965
▁символ	-9.89971
▁союз	-9.90003
руч	-9.90007
▁Один	-9.90146
▁проекта	-9.90155
▁делает	-9.9022
щ	-9.90277
▁такая	-9.90314
▁другого	-9.90326
▁ради	-9.90381
▁создания	-9.90387
▁эффект	-9.90401
пут	-9.90415
▁Сам	-9.90438
▁Совета	-9.90482
▁place	-9.90505
исты	-9.90578
▁each	-9.90616
▁позже	-9.90625
вол	-9.90631
▁Ку	-9.90647
▁тело	-9.90672
▁знает	-9.90748
вшись	-9.90759
▁говорят	-9.90792
ite	-9.90799
▁group	-9.90805
▁главе	-9.90822
▁недо	-9.90831
изации	-9.90927
▁голову	-9.90957
▁Ведь	-9.90961
▁театр	-9.90968
ow	-9.90984
▁компьютер	-9.91055
созна	-9.91124
▁around	-9.91196
▁теле	-9.91209
вой	-9.91364
▁Ha	-9.9139
рабатыва	-9.91612
out	-9.91639
▁Ис	-9.91644
ts	-9.91692
▁помощь	-9.91693
эр	-9.91699
▁g	-9.91801
ti	-9.9187
▁сама	-9.91911
▁уровне	-9.91923
▁отличие	-9.91933
▁код	-9.91971
ана	-9.9199
ете	-9.91998
кол	-9.92015
▁system	-9.92026
di	-9.92074
▁local	-9.92201
▁ниже	-9.92232
rs	-9.92255
▁Ра	-9.9229
▁форм	-9.92365
▁последние	-9.92458
овский	-9.92464
чка	-9.92523
телей	-9.92531
бит	-9.92543
▁since	-9.92568
▁направлен	-9.92574
кар	-9.92607
▁договор	-9.92644
овое	-9.92665
▁обо	-9.92674
▁series	-9.92779
цеп	-9.92848
рус	-9.92886
рам	-9.9292
стоя	-9.92935
бр	-9.92949
▁Мин	-9.92989
▁v	-9.93014
▁долларов	-9.9302
альной	-9.93063
▁di	-9.9313
▁Ту	-9.93148
▁движение	-9.93175
▁сторон	-9.93219
▁day	-9.93266
емся	-9.93292
▁Их	-9.93301
▁left	-9.93352
▁порт	-9.93354
ур	-9.93388
▁Союза	-9.93404
лез	-9.93508
▁теории	-9.93529
▁значения	-9.93529
▁ма	-9.9361
хи	-9.93691
▁сначала	-9.93691
▁каким	-9.93716
ice	-9.93757
енной	-9.9376
▁Гор	-9.93829
цию	-9.9393
гран	-9.93941
▁русской	-9.93943
▁анализ	-9.93943
сы	-9.93984
▁компания	-9.94018
▁программы	-9.94101
ьных	-9.94216
вести	-9.94237
ёт	-9.94333
▁начали	-9.94424
ню	-9.94434
▁дороги	-9.94455
▁история	-9.94535
ою	-9.94549
нул	-9.94563
лич	-9.94575
▁глаз	-9.94628
▁Москвы	-9.94703
▁команд	-9.94729
▁[/	-9.94753
ющихся	-9.94756
hi	-9.94817
▁дни	-9.9484
▁переход	-9.94878
▁операции	-9.94941
▁групп	-9.95011
мест	-9.95048
▁Мор	-9.95192
▁make	-9.95215
▁проблем	-9.95267
▁животных	-9.953
va	-9.95326
нию	-9.95377
▁Li	-9.9538
фи	-9.95396
▁круг	-9.95457
▁самые	-9.95502
теля	-9.95586
▁причин	-9.95611
▁дать	-9.95625
фе	-9.9566
▁вскоре	-9.95689
ka	-9.95747
▁плат	-9.95872
▁very	-9.95898
▁Россия	-9.95902
▁отец	-9.96013
▁женщины	-9.96022
▁телефон	-9.96034
▁месяцев	-9.96097
▁денег	-9.96107
▁университета	-9.96135
▁транспорт	-9.96144
▁August	-9.96155
▁my	-9.96251
▁расположен	-9.96254
▁Согласно	-9.9627
овую	-9.96271
кро	-9.963
цами	-9.96332
▁кур	-9.96386
▁ночь	-9.9643
▁Па	-9.96552
▁инженер	-9.96574
ap	-9.96625
▁высоко	-9.9665
▁исход	-9.96721
▁честь	-9.9682
▁released	-9.96835
▁сообщил	-9.96994
ления	-9.97001
▁раздел	-9.97076
▁отца	-9.97124
езд	-9.97191
▁могла	-9.97242
▁хоть	-9.97266
▁граф	-9.97348
▁иначе	-9.97348
строен	-9.97355
ig	-9.97365
нич	-9.97399
▁начало	-9.97408
сер	-9.97462
ud	-9.97523
сад	-9.97599
fe	-9.97616
дор	-9.97621
став	-9.97626
▁суда	-9.97662
▁still	-9.97706
▁Европе	-9.9774
вес	-9.97779
▁революции	-9.97798
▁last	-9.97815
▁означает	-9.97821
▁русских	-9.9789
con	-9.979
▁согласно	-9.97944
▁общем	-9.97948
▁ответил	-9.97959
▁чаще	-9.97988
▁семьи	-9.98017
оль	-9.98037
▁South	-9.98082
стра	-9.98096
чу	-9.98112
▁September	-9.98154
ther	-9.98204
▁Me	-9.98216
ющее	-9.98262
▁фон	-9.98347
▁just	-9.98405
ань	-9.98414
▁плен	-9.98429
ед	-9.98431
вшего	-9.98466
▁National	-9.98542
▁женщина	-9.98584
тра	-9.98615
кие	-9.98616
▁языке	-9.98626
▁полка	-9.98696
ьные	-9.98751
ally	-9.98751
▁March	-9.98787
▁June	-9.98792
аж	-9.98822
▁Ди	-9.98839
▁лицо	-9.98846
▁семье	-9.98904
быт	-9.98922
▁дивизии	-9.98977
▁head	-9.98977
ness	-9.99008
▁мер	-9.9902
▁любви	-9.99051
ьная	-9.99053
▁зависимости	-9.99074
ключ	-9.99142
▁Конечно	-9.99198
▁смысле	-9.99213
шая	-9.9924
▁назван	-9.99303
▁числа	-9.99307
дал	-9.99334
▁бур	-9.99349
▁берегу	-9.99378
▁фронта	-9.99464
▁погиб	-9.99493
▁Бог	-9.99514
ест	-9.99652
бин	-9.99675
▁выбор	-9.99697
▁видел	-9.99704
\	-9.99705
▁стандарт	-9.99737
шим	-9.99751
ует	-9.99814
дель	-9.99864
▁видов	-9.99929
▁систему	-9.99945
▁Sa	-9.99981
▁черт	-9.99986
▁постепенно	-10.0002
зер	-10.0009
mon	-10.0014
▁час	-10.0025
one	-10.0025
▁пункт	-10.0029
ово	-10.0032
▁туда	-10.0035
▁доме	-10.0039
тив	-10.004
▁сих	-10.0042
▁важно	-10.0043
коп	-10.0045
▁album	-10.0049
▁установлен	-10.005
ec	-10.0055
▁поля	-10.006
ез	-10.0073
ряд	-10.0073
кер	-10.0077
▁October	-10.0079
▁мужчин	-10.008
▁бу	-10.008
nd	-10.0082
▁гол	-10.0087
▁those	-10.009
end	-10.0091
▁мор	-10.0091
▁памяти	-10.0091
▁результат	-10.0093
▁никак	-10.0095
▁ста	-10.0096
ster	-10.01
щие	-10.0105
io	-10.0107
Й	-10.0107
▁частью	-10.0108
▁world	-10.0122
олог	-10.013
зов	-10.0131
ip	-10.0133
tra	-10.0136
ало	-10.0138
вел	-10.0138
шу	-10.0141
цией	-10.0142
▁line	-10.0152
оф	-10.0154
ak	-10.0156
▁основан	-10.0159
▁времена	-10.0168
▁завод	-10.017
▁Среди	-10.0173
▁return	-10.0181
щий	-10.0181
▁первом	-10.0182
▁Mo	-10.0194
тели	-10.0197
тин	-10.0198
ized	-10.0212
буд	-10.0216
▁каждой	-10.0225
▁Man	-10.0226
▁уровень	-10.0229
▁Даже	-10.0231
▁произошло	-10.0233
▁перемен	-10.0238
ex	-10.024
▁науки	-10.0245
▁another	-10.0255
▁можем	-10.0256
▁XIX	-10.0259
зор	-10.026
▁оказался	-10.0266
емые	-10.0268
ож	-10.0277
ишь	-10.0281
ям	-10.029
ата	-10.0292
еть	-10.0296
зд	-10.0297
▁подход	-10.0298
▁избран	-10.0301
▁show	-10.0305
▁Есть	-10.0314
ub	-10.0315
▁way	-10.0317
▁Кур	-10.0317
▁дети	-10.0323
▁мысль	-10.0324
чки	-10.0325
▁стен	-10.0326
▁термин	-10.0333
▁влияние	-10.0333
▁July	-10.0334
▁сердце	-10.034
▁резко	-10.0345
▁мм	-10.0349
▁Ar	-10.0349
нием	-10.0354
▁British	-10.0356
▁никаких	-10.0357
▁крест	-10.0358
▁спор	-10.0361
▁Bo	-10.0363
▁какое	-10.0363
▁January	-10.037
▁обязательно	-10.0375
▁During	-10.0379
ас	-10.0384
▁much	-10.0399
▁знаком	-10.0404
▁итоге	-10.0408
▁вечер	-10.0418
▁en	-10.0428
▁вышел	-10.0441
▁оп	-10.0441
▁настолько	-10.0445
реш	-10.0445
клад	-10.0449
▁службы	-10.0451
▁программ	-10.0454
▁различные	-10.0463
▁северо	-10.0468
▁Можно	-10.047
▁following	-10.0478
▁центра	-10.0481
очка	-10.0484
▁нос	-10.0485
▁water	-10.0488
▁дает	-10.0488
дет	-10.0489
▁голос	-10.0489
▁Кто	-10.0492
tic	-10.0492
tor	-10.0494
▁April	-10.0496
res	-10.0497
▁School	-10.0507
щих	-10.0508
▁функции	-10.051
▁месяц	-10.052
▁создать	-10.0522
▁коллектив	-10.0522
ish	-10.0522
ять	-10.0529
др	-10.0534
▁When	-10.054
уют	-10.0544
▁Николай	-10.0545
▁получили	-10.0547
ическим	-10.0548
▁духов	-10.0548
▁due	-10.0549
▁следующий	-10.0555
▁won	-10.0565
▁вещи	-10.0569
ован	-10.0572
▁ракет	-10.0573
▁правительство	-10.0576
▁село	-10.0578
▁large	-10.0578
ating	-10.058
▁начинает	-10.0581
телем	-10.0595
рос	-10.0595
▁корпус	-10.0597
чит	-10.06
▁ребенка	-10.0601
щу	-10.0603
way	-10.0605
▁хочет	-10.0614
▁мои	-10.0615
▁Na	-10.0618
▁войне	-10.0622
ci	-10.0624
чет	-10.0624
▁плохо	-10.0624
▁%	-10.0625
енного	-10.0635
▁пример	-10.0636
▁XX	-10.0638
▁начальник	-10.0639
▁машины	-10.0639
▁материал	-10.0641
вшихся	-10.0641
▁отношение	-10.0642
▁связь	-10.0644
▁шаг	-10.0646
den	-10.0653
▁всеми	-10.0655
плат	-10.0657
▁Виктор	-10.0657
овского	-10.0658
▁событий	-10.0661
▁ужас	-10.0665
▁крас	-10.0671
▁нужны	-10.0683
▁большое	-10.0697
вор	-10.0701
▁million	-10.0703
▁военных	-10.0708
▁раза	-10.0708
▁можете	-10.0712
▁цель	-10.0716
▁even	-10.0717
▁каких	-10.0718
▁мной	-10.0719
▁вида	-10.0726
▁письмо	-10.0732
▁чисто	-10.0733
que	-10.0733
▁события	-10.0735
▁жив	-10.0735
ke	-10.0742
аться	-10.0744
▁Ho	-10.0747
▁order	-10.0748
цу	-10.0749
▁часа	-10.0764
ТАСС	-10.0765
▁спросил	-10.0774
▁путем	-10.0778
ред	-10.0778
▁видео	-10.0779
mer	-10.0781
стей	-10.0786
▁along	-10.0791
()	-10.0794
дон	-10.0794
em	-10.08
ure	-10.0805
ah	-10.0812
▁Би	-10.0815
ack	-10.0815
line	-10.0815
▁company	-10.0832
ring	-10.0835
▁Сергей	-10.0835
▁полк	-10.0843
▁Сталин	-10.0843
▁членов	-10.0846
by	-10.085
щая	-10.0852
▁книге	-10.0859
юр	-10.0859
▁историю	-10.0865
▁документ	-10.0866
▁процесса	-10.0869
▁опер	-10.0871
▁людьми	-10.0873
▁дис	-10.0873
▁использования	-10.0874
▁рост	-10.0888
ад	-10.0889
▁Петр	-10.0892
▁почт	-10.0895
▁again	-10.0907
▁Михаил	-10.0908
жу	-10.0909
▁поводу	-10.091
▁сто	-10.091
▁русского	-10.0918
▁support	-10.0921
▁side	-10.0922
▁условия	-10.0934
ьный	-10.0936
▁которыми	-10.0936
▁самолет	-10.095
▁блок	-10.095
▁смог	-10.0953
▁main	-10.0954
▁вовсе	-10.0955
▁крестьян	-10.0958
▁борьбы	-10.0959
▁спустя	-10.096
▁фото	-10.0962
▁правил	-10.0963
▁статьи	-10.0966
ck	-10.0969
▁объем	-10.0971
эт	-10.0973
крас	-10.0976
▁November	-10.0979
▁Ло	-10.098
▁Гер	-10.0981
▁разные	-10.0983
ial	-10.0983
▁ру	-10.0984
▁отношений	-10.0984
▁класса	-10.099
▁позиции	-10.0993
au	-10.0994
шин	-10.1002
▁music	-10.1005
▁разговор	-10.1006
▁человеком	-10.1006
lin	-10.1009
▁имели	-10.1012
▁станет	-10.1013
▁men	-10.1014
сп	-10.1017
<	-10.102
▁другое	-10.1022
▁принять	-10.1022
▁Пер	-10.1024
очки	-10.1029
▁виду	-10.103
▁l	-10.1033
time	-10.1034
▁сосед	-10.1042
кал	-10.1044
▁людям	-10.1044
▁вариант	-10.1056
▁North	-10.1059
▁Совет	-10.1063
▁мать	-10.1066
▁процессе	-10.1068
лага	-10.1075
▁пят	-10.1079
бан	-10.108
▁power	-10.108
▁утра	-10.1085
▁посвящен	-10.1085
▁century	-10.1088
▁лично	-10.109
▁обороны	-10.1091
▁системе	-10.1094
▁буду	-10.1094
▁December	-10.1099
ившись	-10.1111
▁моя	-10.1112
▁Че	-10.1113
▁знать	-10.1122
▁Люб	-10.1122
sk	-10.1124
▁президента	-10.1132
част	-10.1141
▁станции	-10.1142
руж	-10.1143
▁столько	-10.1148
▁кому	-10.1153
▁номер	-10.1153
▁Car	-10.1153
▁band	-10.1156
▁последний	-10.1159
▁временем	-10.1161
▁form	-10.1162
▁Se	-10.1164
ук	-10.1166
чей	-10.1167
▁приводит	-10.1169
▁came	-10.1169
▁Республики	-10.1171
▁Почему	-10.1173
▁car	-10.1183
▁перевод	-10.1186
▁причем	-10.1187
▁Потом	-10.1188
▁age	-10.1188
▁всему	-10.1188
лиз	-10.1189
▁death	-10.119
брос	-10.1192
▁Ka	-10.1193
▁остается	-10.1202
эй	-10.1202
енная	-10.1202
▁Po	-10.1209
зу	-10.1213
▁лист	-10.1215
▁get	-10.1216
крат	-10.1219
▁вероятно	-10.1224
▁задачи	-10.1226
▁взял	-10.1231
▁Pro	-10.1233
▁small	-10.1238
▁Великой	-10.1239
▁война	-10.1242
▁увидел	-10.1243
▁held	-10.1244
ается	-10.1249
▁Может	-10.126
▁вне	-10.1263
▁авто	-10.1266
▁вроде	-10.1273
▁большую	-10.1273
▁отметил	-10.128
▁пользу	-10.1281
▁селе	-10.1283
▁town	-10.1285
инского	-10.1306
пы	-10.1307
▁зло	-10.1307
▁different	-10.1308
мал	-10.1311
▁single	-10.1312
▁энергии	-10.1313
▁land	-10.1314
▁месяца	-10.1317
ион	-10.1318
инский	-10.1327
▁final	-10.1334
как	-10.1341
что	-10.1342
ical	-10.1343
ино	-10.1344
▁информацию	-10.1345
готов	-10.1345
▁вести	-10.1358
ions	-10.1365
вшийся	-10.1368
▁рассказал	-10.1375
▁понял	-10.138
▁цвета	-10.1381
ений	-10.1382
полн	-10.1384
енным	-10.1385
▁будем	-10.1386
▁улице	-10.1388
пр	-10.139
▁ран	-10.1391
▁Y	-10.1392
ху	-10.1402
▁received	-10.1404
men	-10.1407
▁церковь	-10.141
ner	-10.1412
▁добро	-10.1413
▁крайне	-10.1418
▁вернулся	-10.1419
▁вывод	-10.1424
▁считает	-10.1424
▁края	-10.1426
жив	-10.1429
▁ну	-10.143
мысл	-10.1431
ide	-10.1432
▁исключительно	-10.1441
ct	-10.1445
▁Лит	-10.1455
тар	-10.1456
▁империи	-10.1466
▁торгов	-10.1466
▁дал	-10.1466
▁сына	-10.1469
▁...	-10.147
▁played	-10.1477
▁Пре	-10.148
▁необходимости	-10.1484
▁сбор	-10.1484
▁Лу	-10.1485
▁писатель	-10.1486
хот	-10.1487
ship	-10.1491
▁общей	-10.1491
город	-10.1492
▁Второй	-10.1493
▁округа	-10.1496
▁поверхности	-10.1497
ham	-10.1498
еж	-10.1498
▁Первый	-10.151
казан	-10.1511
▁Ор	-10.1511
our	-10.1516
кую	-10.1522
дра	-10.1533
▁модели	-10.1535
мар	-10.1536
лем	-10.1539
▁баз	-10.1541
бил	-10.1541
less	-10.1543
vi	-10.1544
уль	-10.1553
▁Некоторые	-10.1557
▁City	-10.1559
▁Lo	-10.1562
▁Ми	-10.1563
all	-10.1565
▁Между	-10.1572
▁специально	-10.1572
▁сети	-10.1575
груз	-10.1575
▁успешно	-10.1577
ors	-10.158
▁холод	-10.1582
ора	-10.1582
▁органов	-10.1583
▁область	-10.1587
▁мастер	-10.1594
▁секрет	-10.1595
▁нес	-10.1607
▁фильма	-10.1611
▁используется	-10.1616
▁Отечественной	-10.1622
▁природы	-10.1626
▁руку	-10.1627
▁север	-10.1629
▁Ри	-10.163
ву	-10.1633
▁Ин	-10.1635
▁крови	-10.1639
рев	-10.1642
▁командир	-10.1643
▁направлении	-10.1646
▁христиан	-10.1646
▁Мир	-10.1649
▁взять	-10.165
▁сборной	-10.1667
душ	-10.1667
▁художник	-10.1668
нные	-10.1668
▁руках	-10.1673
бра	-10.1681
▁Сан	-10.1681
▁w	-10.1684
▁рад	-10.1684
▁включая	-10.1685
▁Do	-10.1692
рик	-10.1692
▁Ман	-10.1694
▁домой	-10.1694
пу	-10.1696
▁ограничен	-10.1701
▁знак	-10.1701
▁внимания	-10.1705
▁личности	-10.1708
▁members	-10.1709
▁относится	-10.1715
ций	-10.1723
▁идеи	-10.1725
ким	-10.1728
▁игра	-10.1735
bo	-10.1737
▁авиа	-10.1741
▁любовь	-10.1742
▁книг	-10.1743
ющиеся	-10.1751
▁хочу	-10.1752
▁состояния	-10.1759
▁within	-10.1759
аз	-10.1762
▁находятся	-10.1762
▁касается	-10.177
wa	-10.1772
▁большим	-10.1772
▁странах	-10.1785
▁землю	-10.1788
▁разум	-10.1789
▁сообщает	-10.179
▁US	-10.179
ver	-10.1791
▁children	-10.1795
▁приходится	-10.1795
int	-10.1803
▁вперед	-10.1803
▁нами	-10.1804
▁сайт	-10.1807
▁named	-10.1811
нут	-10.1813
▁Нью	-10.1814
цен	-10.1821
▁Санкт	-10.1823
▁Несмотря	-10.1826
▁написан	-10.1833
▁души	-10.1834
▁Мон	-10.1834
▁Сейчас	-10.184
▁словами	-10.184
▁русский	-10.1842
шка	-10.1848
мед	-10.1849
▁By	-10.1849
▁предприятия	-10.1852
▁Дж	-10.1852
):	-10.1859
▁k	-10.1864
vo	-10.1871
мон	-10.1872
ением	-10.1887
▁Александра	-10.1889
▁take	-10.1889
илось	-10.1891
▁боль	-10.1893
▁письма	-10.1902
▁порядке	-10.1902
▁таком	-10.1905
▁air	-10.1906
▁El	-10.1911
▁com	-10.1912
si	-10.1913
▁середине	-10.1916
▁речи	-10.1917
▁запас	-10.1921
▁Англии	-10.1924
▁карт	-10.1931
оч	-10.1938
▁often	-10.194
▁страх	-10.1942
щего	-10.1946
▁Иванович	-10.1948
▁семей	-10.1952
▁протяжении	-10.1956
▁император	-10.1956
▁юго	-10.1967
▁прием	-10.1969
ват	-10.1971
▁университет	-10.1974
▁названием	-10.1975
▁фигур	-10.1978
пас	-10.1979
▁role	-10.1982
сом	-10.1983
▁широко	-10.1983
▁действие	-10.1989
▁участвовал	-10.1991
ach	-10.1993
▁опубликован	-10.1993
▁норм	-10.2
креп	-10.2004
▁возник	-10.201
▁далее	-10.201
руш	-10.2014
ального	-10.2021
▁sub	-10.2022
▁шесть	-10.2025
▁Сер	-10.2026
▁построен	-10.2032
▁находился	-10.2033
енд	-10.2034
▁прекрасно	-10.2036
вшей	-10.2037
ations	-10.2038
▁масштаб	-10.2042
":	-10.2046
▁стороне	-10.2048
▁зависит	-10.2048
▁Бел	-10.206
▁курс	-10.2064
▁видеть	-10.2066
▁указан	-10.2072
▁рез	-10.2073
▁новое	-10.2074
▁period	-10.2075
▁тепл	-10.2077
▁контракт	-10.208
ёл	-10.2082
▁бывает	-10.2082
ике	-10.2083
▁концов	-10.2084
▁мнение	-10.2088
▁встреча	-10.2091
▁качества	-10.2092
▁built	-10.2098
▁голов	-10.2103
щей	-10.2104
▁задач	-10.2105
▁открыл	-10.211
▁Ба	-10.2112
▁связан	-10.2114
▁тепло	-10.2114
ium	-10.2114
▁штаб	-10.2118
▁five	-10.2119
▁went	-10.2121
▁рабочих	-10.2126
▁sp	-10.213
ходит	-10.2132
▁included	-10.2133
▁post	-10.2144
net	-10.2145
▁All	-10.2147
▁Или	-10.2149
▁возрасте	-10.2151
ток	-10.2151
ура	-10.2155
▁Ba	-10.2156
днев	-10.2157
▁Многие	-10.2157
▁произведения	-10.2157
гин	-10.2159
▁миллионов	-10.2159
▁абсолютно	-10.2167
▁явно	-10.2172
ально	-10.2177
▁Ново	-10.2179
▁версии	-10.2182
q	-10.2187
▁Марк	-10.219
ложить	-10.219
▁чувств	-10.2191
▁правда	-10.2191
▁идеал	-10.2194
▁принцип	-10.2197
вр	-10.2198
\.	-10.2199
▁трёх	-10.22
▁Перед	-10.2205
▁родился	-10.2209
▁оказалось	-10.2209
▁late	-10.2214
ог	-10.2215
Ка	-10.2219
▁ключ	-10.2221
▁должность	-10.2221
▁воду	-10.2223
▁став	-10.2226
▁центре	-10.2228
▁вкус	-10.2229
▁отдельных	-10.2229
▁вынужден	-10.2229
▁led	-10.2231
▁корпуса	-10.2238
▁San	-10.224
▁поход	-10.2242
▁German	-10.2242
▁Три	-10.2248
▁положения	-10.225
▁литературы	-10.2251
▁объект	-10.2254
ирован	-10.2254
пт	-10.2254
▁получила	-10.2256
▁проблема	-10.226
воль	-10.2273
щим	-10.2274
еп	-10.2288
▁Бу	-10.2289
pa	-10.2291
▁моего	-10.2294
ai	-10.2295
▁принято	-10.2296
log	-10.2296
рад	-10.2301
▁February	-10.2301
▁научно	-10.2304
▁общего	-10.2306
▁большие	-10.2316
▁Бр	-10.2317
▁next	-10.2318
▁фронт	-10.2319
▁совета	-10.2319
▁мар	-10.2321
тр	-10.2323
▁воин	-10.2324
▁former	-10.2325
бел	-10.233
▁building	-10.233
▁впоследствии	-10.2332
▁Her	-10.2336
▁адрес	-10.2336
▁основных	-10.2336
▁маг	-10.2346
▁аппарат	-10.2348
▁производство	-10.2354
").	-10.2355
▁Ге	-10.2362
▁Возможно	-10.2364
▁кг	-10.2365
▁окончил	-10.2368
▁считать	-10.2368
▁защиты	-10.2371
▁металл	-10.2371
чив	-10.2372
ари	-10.2376
▁бизнес	-10.2377
▁веке	-10.238
▁неудач	-10.2384
дом	-10.2386
ning	-10.2393
▁among	-10.2393
▁волн	-10.2395
лог	-10.2397
ителя	-10.2399
▁институт	-10.2399
▁рис	-10.2401
▁поступил	-10.2405
▁сыграл	-10.2411
лег	-10.2412
ue	-10.2421
▁One	-10.2421
тай	-10.2427
еров	-10.2428
▁реклам	-10.2433
▁формул	-10.2437
▁шум	-10.2439
вшиеся	-10.2443
▁народов	-10.2443
ющую	-10.2445
we	-10.2448
ица	-10.2449
▁получен	-10.2449
центр	-10.2453
▁few	-10.2454
▁son	-10.2455
сим	-10.2459
уш	-10.2461
▁склон	-10.2462
tro	-10.2462
▁population	-10.2465
▁пришел	-10.2469
вшая	-10.2473
▁Мак	-10.2474
пе	-10.2482
▁могло	-10.2486
▁частей	-10.2486
▁политики	-10.2488
▁список	-10.249
ier	-10.2491
▁чемпионата	-10.2495
▁представитель	-10.2499
▁Ta	-10.25
▁противо	-10.2503
od	-10.2505
▁раствор	-10.2509
▁команда	-10.2514
ell	-10.2515
▁жена	-10.2517
▁чувства	-10.252
▁казалось	-10.2522
▁самостоятельно	-10.2523
▁бар	-10.2527
ители	-10.2534
▁камен	-10.2536
▁результаты	-10.2537
▁называется	-10.2542
▁major	-10.2543
бл	-10.2543
▁советский	-10.2544
▁предложил	-10.2548
▁book	-10.2558
▁club	-10.2558
▁тысячи	-10.2559
▁Эр	-10.2561
ведение	-10.2564
▁should	-10.2571
▁Бор	-10.2571
▁знания	-10.2572
"[	-10.2573
▁главное	-10.2581
Да	-10.2583
▁bo	-10.2586
▁Более	-10.2589
анию	-10.2591
▁глава	-10.2594
▁al	-10.2599
▁play	-10.2606
▁света	-10.2608
▁память	-10.2611
▁продолжал	-10.2612
государственного	-10.2615
порт	-10.2616
ались	-10.2616
▁набор	-10.2618
▁премьер	-10.2619
ick	-10.2629
ара	-10.2636
▁Итак	-10.264
▁Vi	-10.2642
▁форму	-10.2643
▁доктор	-10.2643
▁риск	-10.2646
▁запад	-10.2652
альным	-10.2653
пло	-10.2654
▁мил	-10.2657
tal	-10.2664
ицы	-10.2666
▁Бога	-10.2666
▁словно	-10.2671
очный	-10.2672
▁местах	-10.2676
▁Джон	-10.2679
ировали	-10.2679
действ	-10.2679
кур	-10.2685
▁Уже	-10.2689
▁оружия	-10.2696
▁Bar	-10.2698
▁бой	-10.2698
▁пара	-10.2698
метр	-10.27
▁военной	-10.2701
▁форма	-10.2704
альную	-10.2708
▁предмет	-10.2721
▁представлен	-10.2722
▁окончательно	-10.2724
ологии	-10.2724
▁второго	-10.2724
инов	-10.2727
гон	-10.2729
red	-10.273
▁команду	-10.2732
act	-10.2734
▁корм	-10.2739
▁Пар	-10.2752
емый	-10.2754
▁design	-10.2754
▁описан	-10.2755
gen	-10.2755
▁go	-10.2756
▁канал	-10.2758
▁father	-10.2764
▁Стра	-10.2764
▁меж	-10.2769
▁la	-10.2769
▁We	-10.277
▁видно	-10.2771
▁Советского	-10.2775
Про	-10.2775
ves	-10.2776
ушка	-10.2778
dy	-10.2779
уса	-10.278
▁новую	-10.2783
хан	-10.2789
▁скорость	-10.279
▁взят	-10.2792
ee	-10.2796
▁контроль	-10.2796
▁борьбе	-10.2804
ств	-10.2806
рю	-10.2807
▁тур	-10.2808
ируют	-10.2816
▁ныне	-10.2816
▁Ки	-10.282
иш	-10.282
син	-10.2821
эм	-10.2823
▁клуба	-10.2827
cent	-10.2827
▁большая	-10.2829
▁острова	-10.283
▁ex	-10.2832
▁дар	-10.2834
▁книга	-10.2837
fa	-10.2839
рак	-10.2841
граф	-10.2844
ab	-10.2845
▁service	-10.2853
▁кредит	-10.2853
▁больших	-10.2854
▁такую	-10.2864
▁села	-10.2865
бли	-10.2872
mp	-10.2873
▁армия	-10.2881
▁режим	-10.2883
▁сезона	-10.2883
ены	-10.2883
тур	-10.2886
веч	-10.2888
той	-10.2891
▁Ро	-10.2891
▁Ос	-10.2892
▁national	-10.2893
▁кар	-10.2894
▁чувство	-10.2896
/.	-10.2897
джи	-10.2898
▁обратно	-10.2899
▁короля	-10.2901
лев	-10.2902
▁London	-10.2907
ana	-10.2911
▁поведение	-10.2912
ируем	-10.2913
▁десять	-10.2913
▁Лев	-10.2914
▁техники	-10.2918
▁Им	-10.2926
▁театра	-10.2927
";	-10.2931
▁Москву	-10.2932
▁профессор	-10.2937
▁based	-10.2937
лик	-10.2945
ацией	-10.295
za	-10.2951
▁become	-10.2954
▁показал	-10.296
▁Ru	-10.2961
▁готовы	-10.2962
▁наше	-10.2962
▁побед	-10.2964
▁модель	-10.2964
▁большей	-10.2965
овыми	-10.2967
▁танков	-10.2967
▁четырех	-10.2969
▁руководством	-10.2972
▁школе	-10.2974
port	-10.2975
▁women	-10.2977
чев	-10.2981
гр	-10.2982
евич	-10.2982
▁думаю	-10.2989
▁Автор	-10.2989
▁Тут	-10.2992
▁редко	-10.2995
▁войну	-10.2997
▁окруж	-10.3001
▁оказались	-10.3001
▁называют	-10.3002
▁задача	-10.3004
▁праздник	-10.3009
ине	-10.301
▁пр	-10.3013
▁совершен	-10.3023
▁порядка	-10.3032
ьян	-10.3032
▁смерть	-10.3033
▁глубоко	-10.3038
▁требует	-10.3038
▁образование	-10.3039
▁основной	-10.3039
▁house	-10.3051
▁поставлен	-10.3052
side	-10.3053
▁государственной	-10.3058
▁предназначен	-10.3058
▁объекта	-10.306
▁га	-10.3067
▁сер	-10.3069
▁боевых	-10.3074
нев	-10.3078
▁six	-10.3078
▁з	-10.3079
▁Без	-10.308
ens	-10.3083
дин	-10.3084
ns	-10.3084
ay	-10.3086
▁естественно	-10.3088
ps	-10.3089
▁help	-10.3089
▁военно	-10.3091
▁ЦК	-10.3093
▁good	-10.3093
вали	-10.3093
▁Тур	-10.3099
сте	-10.3107
▁class	-10.3109
▁French	-10.3109
▁Был	-10.3109
жил	-10.3113
▁Си	-10.3113
ger	-10.3114
▁отношению	-10.3114
ba	-10.3115
цем	-10.3124
бен	-10.3125
ho	-10.3131
▁серии	-10.3133
▁эпизод	-10.3133
ард	-10.3135
▁общество	-10.3135
▁огонь	-10.3136
▁дочь	-10.3137
▁see	-10.3138
▁площади	-10.314
che	-10.3147
▁капитан	-10.3147
▁without	-10.3151
▁Впрочем	-10.3152
▁книгу	-10.3153
вет	-10.3154
▁third	-10.3155
▁считал	-10.3156
▁директор	-10.3157
▁первое	-10.3158
▁So	-10.316
шки	-10.3161
▁Стар	-10.317
▁крайней	-10.317
▁near	-10.317
суд	-10.3182
▁желание	-10.3183
▁non	-10.3191
▁партий	-10.3195
нима	-10.3197
десят	-10.3198
▁бег	-10.3201
каз	-10.3202
ьев	-10.3203
pp	-10.3204
▁moved	-10.3205
▁Пу	-10.3206
▁State	-10.3208
▁point	-10.3211
ес	-10.3213
▁ноги	-10.3218
▁control	-10.3222
▁Go	-10.3225
▁Род	-10.3225
▁Фа	-10.3233
▁идти	-10.3236
илл	-10.3237
▁Gu	-10.3237
],	-10.3239
▁боя	-10.3241
станов	-10.3242
▁маршрут	-10.3244
пет	-10.3247
▁Хар	-10.3247
яр	-10.3249
▁видим	-10.3251
▁рот	-10.3251
▁Ти	-10.3251
йтесь	-10.3252
вели	-10.3252
еля	-10.3256
▁занима	-10.3258
ющими	-10.3261
▁говорится	-10.3262
евой	-10.3263
▁Италии	-10.3266
▁country	-10.3269
▁полно	-10.3272
▁оказывается	-10.3273
▁двор	-10.3274
▁военного	-10.3277
▁помочь	-10.3278
▁главный	-10.3283
▁проходит	-10.3283
▁West	-10.3285
▁using	-10.3286
▁обе	-10.3293
мел	-10.3294
▁сделан	-10.3295
▁труб	-10.3298
▁вся	-10.3302
пит	-10.3305
▁промышленности	-10.3305
▁человеку	-10.3309
▁близ	-10.3309
так	-10.331
ong	-10.3314
://	-10.3316
рит	-10.3317
▁флот	-10.3319
▁рук	-10.3319
пред	-10.332
▁comp	-10.3322
▁создание	-10.3323
▁едва	-10.3327
ита	-10.3328
▁Антон	-10.3335
рав	-10.3335
▁услуг	-10.3338
"),	-10.334
▁увидеть	-10.3343
▁мод	-10.3344
знач	-10.3354
▁however	-10.3355
▁original	-10.3357
▁нерв	-10.3358
При	-10.3358
ляр	-10.3359
▁Запад	-10.3359
▁своё	-10.336
▁Ленина	-10.3366
▁стрел	-10.3371
▁забот	-10.3374
▁кос	-10.3377
атель	-10.338
▁орган	-10.3381
▁объектов	-10.3382
▁говорили	-10.3388
▁следующие	-10.339
▁Му	-10.3397
нин	-10.3398
▁интернет	-10.3401
▁представления	-10.3403
▁short	-10.3407
▁корабля	-10.3408
▁how	-10.3413
av	-10.3413
▁автомат	-10.3414
▁шар	-10.3418
▁заказ	-10.3419
щи	-10.3422
eg	-10.3424
▁никакого	-10.3427
▁include	-10.3427
▁Ne	-10.3432
gu	-10.3433
▁right	-10.3434
▁банк	-10.3434
▁тяжело	-10.3435
▁проведен	-10.3442
▁строго	-10.3444
▁Ca	-10.3448
нный	-10.3451
учен	-10.3454
▁идея	-10.3455
▁данном	-10.3455
▁дальнейшем	-10.3456
▁артист	-10.3458
ology	-10.3458
sen	-10.3461
▁дух	-10.3462
row	-10.347
нова	-10.3471
▁активно	-10.3472
▁воздух	-10.3472
▁вред	-10.3476
ведения	-10.3476
ьной	-10.3477
▁выпуска	-10.3489
▁случайно	-10.3491
▁Бур	-10.3494
▁здания	-10.3496
▁present	-10.3501
▁пап	-10.3502
гн	-10.3502
леп	-10.3503
▁экс	-10.3507
▁участников	-10.3508
▁проб	-10.351
▁крупных	-10.3514
▁особенности	-10.3518
▁пояс	-10.3519
▁вос	-10.3522
▁первая	-10.3528
▁Ga	-10.3529
лён	-10.3533
ess	-10.3537
▁акт	-10.3546
▁некоторое	-10.3547
▁published	-10.355
ством	-10.3551
▁писать	-10.3551
ber	-10.3553
рем	-10.3555
▁элементов	-10.3556
▁поток	-10.3559
▁доклад	-10.356
итесь	-10.3563
вая	-10.3563
лес	-10.3564
▁Сегодня	-10.3566
mi	-10.3569
хар	-10.3569
ren	-10.357
▁выполнен	-10.3576
▁Мат	-10.3578
▁статус	-10.3579
▁mo	-10.3581
▁возникает	-10.3582
ko	-10.3583
▁очевидно	-10.3585
▁млрд	-10.36
▁деятель	-10.3601
▁бомб	-10.3602
ительно	-10.3605
▁свободы	-10.3606
▁позднее	-10.3607
▁top	-10.3611
Ма	-10.3615
led	-10.3618
▁сельского	-10.362
▁вклад	-10.3623
▁having	-10.3628
▁сложно	-10.3632
▁участник	-10.3633
бле	-10.3633
▁чемпионате	-10.3634
▁болезни	-10.364
пел	-10.3644
▁какая	-10.3647
цвет	-10.3647
▁окончания	-10.3647
▁inter	-10.3651
▁остров	-10.3654
ался	-10.3654
ction	-10.3656
гл	-10.3657
tion	-10.366
▁song	-10.3664
▁рассказ	-10.3666
▁ряда	-10.3673
▁hand	-10.3676
▁конец	-10.3677
pro	-10.3678
смотр	-10.3682
▁King	-10.3682
▁Гол	-10.3684
▁организован	-10.3684
▁сюжет	-10.3684
▁структур	-10.3691
▁жертв	-10.3691
▁какого	-10.3693
▁образован	-10.3698
ny	-10.37
▁штат	-10.37
▁играл	-10.37
▁human	-10.3704
▁количества	-10.3704
▁откуда	-10.3706
ником	-10.3713
▁исследований	-10.3714
▁какую	-10.3714
▁These	-10.3717
▁явля	-10.3719
▁мозг	-10.3719
РА	-10.3727
▁поведения	-10.3728
▁службу	-10.3736
▁института	-10.3739
▁транс	-10.374
▁вели	-10.3742
состоя	-10.3747
▁выражен	-10.3761
остью	-10.3764
▁station	-10.3767
иров	-10.3769
▁страш	-10.377
▁рождения	-10.377
▁Dr	-10.3774
вать	-10.3776
▁пусть	-10.3776
ически	-10.3777
▁действ	-10.3778
руб	-10.3783
▁нечто	-10.3784
жим	-10.3785
▁должности	-10.3786
▁водой	-10.3788
▁Пан	-10.379
тельный	-10.3791
▁полной	-10.3792
▁development	-10.3796
▁признан	-10.3797
▁tri	-10.3808
движ	-10.381
ins	-10.3812
▁арест	-10.3821
▁возраст	-10.3821
▁фактически	-10.3823
▁матче	-10.3826
▁размер	-10.3828
сек	-10.383
▁совместно	-10.384
▁автора	-10.3841
▁Гу	-10.3849
▁недели	-10.385
▁немедленно	-10.3852
▁открыт	-10.3856
ities	-10.3856
▁конфликт	-10.3858
▁Per	-10.3858
▁нож	-10.3859
овали	-10.386
▁кот	-10.3863
гра	-10.3863
▁попал	-10.3868
рож	-10.3869
▁титул	-10.3873
▁выступал	-10.3875
цер	-10.3876
▁организация	-10.3886
▁Правда	-10.3886
▁But	-10.3887
щее	-10.3888
▁started	-10.3895
ическими	-10.3898
▁died	-10.3898
▁министр	-10.3903
ight	-10.3905
fi	-10.3905
фор	-10.3908
▁журналист	-10.3908
изация	-10.3909
▁статье	-10.391
▁состава	-10.3911
▁момента	-10.3913
ful	-10.3916
пят	-10.392
▁успех	-10.3927
шен	-10.3931
▁представителей	-10.3933
Z	-10.3936
▁title	-10.3938
▁богат	-10.394
ag	-10.3949
▁рыб	-10.3949
хват	-10.395
▁Карл	-10.3951
ung	-10.3951
▁решили	-10.3952
▁шт	-10.3952
if	-10.3953
▁порядок	-10.3953
чек	-10.3958
▁государство	-10.396
▁IV	-10.3966
▁случаев	-10.3967
▁With	-10.3968
числен	-10.3969
кле	-10.3979
▁концерт	-10.3979
ja	-10.3982
▁Гре	-10.3982
▁начать	-10.3983
▁example	-10.3986
ьте	-10.3987
▁этап	-10.3989
▁цикл	-10.399
▁уверен	-10.3991
▁отряд	-10.3992
КА	-10.3996
▁дверь	-10.3998
меш	-10.4002
▁art	-10.4004
▁начинается	-10.4009
нт	-10.4009
▁Дон	-10.4012
▁каждом	-10.4019
▁возраста	-10.4021
▁начина	-10.403
ten	-10.4032
▁звезд	-10.4032
gi	-10.4036
▁Андрей	-10.4036
▁Земли	-10.404
ющийся	-10.4043
▁se	-10.4044
меча	-10.4046
▁Jo	-10.4048
▁автомобиль	-10.4052
иями	-10.4057
har	-10.4059
ake	-10.406
▁данной	-10.4061
ограф	-10.4061
▁веществ	-10.4062
▁иностранных	-10.4064
▁Pi	-10.4065
▁every	-10.4072
▁Поскольку	-10.4078
▁Кара	-10.4085
▁представить	-10.4088
чных	-10.4091
вшим	-10.4093
▁сказала	-10.4094
▁history	-10.4095
▁появились	-10.4096
дорож	-10.41
▁дипломат	-10.41
▁культур	-10.41
вич	-10.4102
▁process	-10.4105
стар	-10.4107
ative	-10.4111
▁плот	-10.4113
слав	-10.4115
▁Кат	-10.4116
▁насколько	-10.4117
тей	-10.4117
▁флота	-10.4119
▁одному	-10.4122
▁политической	-10.4122
▁шести	-10.4123
▁Каждый	-10.4129
▁Su	-10.4133
▁ремонт	-10.4134
▁служил	-10.4142
▁контакт	-10.4143
▁ход	-10.4146
важ	-10.4149
▁announced	-10.4149
▁member	-10.4152
▁экран	-10.4153
Мы	-10.4155
▁ТАСС	-10.4156
▁серьезно	-10.4158
▁земель	-10.4159
▁Иногда	-10.4161
▁масс	-10.4167
▁чему	-10.4172
онос	-10.4172
▁данный	-10.4173
▁современной	-10.4175
▁continued	-10.4179
▁Air	-10.4182
иф	-10.4182
енное	-10.4185
▁небольшой	-10.4188
bi	-10.4192
▁самолета	-10.4195
▁days	-10.4197
▁штаба	-10.4201
▁втором	-10.4204
▁педагог	-10.4205
▁best	-10.4207
▁given	-10.4213
прос	-10.4214
▁отчет	-10.4216
дали	-10.4217
▁political	-10.4227
очных	-10.4233
▁never	-10.4234
зин	-10.4236
▁version	-10.4236
▁мотив	-10.4239
▁храм	-10.4241
▁view	-10.4244
▁Гар	-10.4244
доб	-10.4247
▁Ch	-10.4248
▁периода	-10.4254
летний	-10.4258
oc	-10.4258
▁устройства	-10.4261
▁himself	-10.4265
▁h	-10.4269
▁сила	-10.4269
▁спокойно	-10.4272
▁пи	-10.4272
▁получения	-10.4278
▁пу	-10.4281
▁существ	-10.4299
▁пал	-10.4303
▁Th	-10.4305
план	-10.4307
▁заметил	-10.4309
▁использование	-10.4313
▁кр	-10.4313
▁основании	-10.4314
Как	-10.4315
▁Рис	-10.432
вшейся	-10.4323
▁строительство	-10.4324
ki	-10.4324
▁free	-10.433
▁входит	-10.4331
▁членом	-10.4333
ron	-10.4334
▁проведения	-10.4334
очные	-10.4335
ада	-10.4339
ina	-10.4339
▁правила	-10.4341
king	-10.4341
▁run	-10.4341
▁wrote	-10.4342
▁меры	-10.4343
▁собственной	-10.4343
фф	-10.4346
ключа	-10.4347
▁Союз	-10.435
▁героя	-10.4351
▁считают	-10.4351
▁быт	-10.4352
рок	-10.4359
рожден	-10.4362
▁returned	-10.4362
все	-10.4363
▁снег	-10.4369
amp	-10.437
▁определить	-10.4371
кат	-10.4371
▁школу	-10.4373
ируется	-10.4375
▁советских	-10.4375
нского	-10.4377
▁разработан	-10.4378
нув	-10.438
▁предложение	-10.438
тек	-10.4381
▁границы	-10.4381
кус	-10.4383
▁бор	-10.4384
form	-10.4385
▁заключается	-10.4387
свобод	-10.4387
▁источник	-10.4389
▁old	-10.4396
▁Ком	-10.4399
бол	-10.4401
▁прошлом	-10.4402
▁охран	-10.4402
lar	-10.4404
▁Азии	-10.4406
▁характера	-10.4411
▁сознания	-10.4411
▁отрица	-10.4412
▁Чи	-10.4412
был	-10.4418
▁принимал	-10.4419
▁ситуация	-10.4424
▁комитета	-10.4424
зр	-10.4424
фт	-10.4425
▁served	-10.4427
▁наоборот	-10.4427
mb	-10.4428
▁Орден	-10.4434
▁мое	-10.4434
▁принимать	-10.4435
▁Кра	-10.4436
ding	-10.4438
▁ярко	-10.4442
▁Москва	-10.4443
▁недостаточно	-10.4443
ven	-10.4451
овод	-10.4453
▁чел	-10.4456
▁журнал	-10.4458
еб	-10.446
▁придется	-10.4462
▁резерв	-10.4463
▁трав	-10.4468
кра	-10.4469
tan	-10.4471
▁главного	-10.4471
▁стан	-10.4475
лист	-10.4477
set	-10.4478
▁нрав	-10.448
▁моих	-10.4481
▁соответственно	-10.4486
▁вдоль	-10.4488
▁чемпион	-10.4494
ments	-10.4496
▁любил	-10.4496
▁губернии	-10.4497
▁Вас	-10.4498
▁Мер	-10.45
▁относятся	-10.45
▁городов	-10.4503
ске	-10.4505
▁медленно	-10.4506
▁Очень	-10.451
▁диск	-10.4511
голов	-10.4512
▁English	-10.4514
▁хозяйства	-10.4516
▁вызывает	-10.4517
▁отсутствие	-10.4517
▁достижения	-10.4517
▁Воз	-10.4518
br	-10.4519
▁вода	-10.4519
▁будущем	-10.452
▁Особенно	-10.4521
▁распространен	-10.4525
▁собира	-10.4528
ял	-10.453
lan	-10.4531
▁актер	-10.4533
lic	-10.4534
▁советской	-10.4538
пов	-10.4539
▁ma	-10.4544
▁наша	-10.4552
▁students	-10.4552
▁неё	-10.4554
▁win	-10.4559
бить	-10.456
иан	-10.4564
▁царя	-10.4567
▁Park	-10.4568
сан	-10.4569
бар	-10.457
бед	-10.4571
▁деревни	-10.4574
▁Вскоре	-10.4575
мя	-10.4576
▁раст	-10.4578
▁case	-10.458
ft	-10.4581
▁русские	-10.4582
▁сравнению	-10.4582
мана	-10.459
▁неожиданно	-10.4592
▁вверх	-10.4592
pl	-10.4594
▁test	-10.4595
▁закона	-10.4597
шир	-10.4597
▁выпуск	-10.4597
▁прошлого	-10.46
няя	-10.46
▁меди	-10.4602
▁дороге	-10.4604
▁разве	-10.4604
▁деревне	-10.4605
▁поселения	-10.4606
▁сверх	-10.4608
▁production	-10.461
▁стихи	-10.461
▁впечатление	-10.4614
шее	-10.4614
ks	-10.4615
ниц	-10.4616
mm	-10.4616
▁неделю	-10.4621
чист	-10.4623
▁другую	-10.4628
▁здание	-10.4629
▁считается	-10.463
бри	-10.4631
крыл	-10.4632
▁высокой	-10.4637
пил	-10.4638
▁оружие	-10.4643
чем	-10.4643
альное	-10.4646
виз	-10.4647
▁ch	-10.4648
▁Пока	-10.4652
▁социально	-10.4652
пущен	-10.4653
▁спас	-10.4656
▁управление	-10.4657
ator	-10.4658
▁law	-10.466
▁Наконец	-10.4661
▁Тро	-10.4666
▁верх	-10.4667
of	-10.4668
▁position	-10.4668
▁вход	-10.4674
▁край	-10.468
▁площадь	-10.4681
кина	-10.4681
▁Иванов	-10.4685
▁отдела	-10.4686
селен	-10.4688
▁портрет	-10.4691
▁Тер	-10.4691
▁жест	-10.4692
▁пилот	-10.4694
▁Чу	-10.4696
бежал	-10.4697
▁делают	-10.4697
▁Lu	-10.4697
▁недавно	-10.4709
▁книж	-10.4712
топ	-10.4714
▁open	-10.4714
▁сознание	-10.4716
сель	-10.4716
▁основания	-10.4718
▁сезон	-10.4719
dr	-10.4722
▁хлеб	-10.4727
▁взрыв	-10.4729
ительный	-10.473
▁total	-10.4734
▁Константин	-10.4735
▁базе	-10.4736
▁ad	-10.4739
ких	-10.4739
▁объявил	-10.474
▁поезд	-10.4741
▁Ленин	-10.4746
und	-10.4749
▁record	-10.4752
ore	-10.4753
$	-10.4753
▁Алексей	-10.4758
▁ночью	-10.4762
пустил	-10.4763
▁население	-10.4764
hy	-10.4771
еры	-10.4774
▁Глава	-10.478
ош	-10.478
▁цел	-10.4782
еле	-10.4782
▁Красной	-10.4782
▁Some	-10.4789
▁обучения	-10.4795
лия	-10.4802
▁реша	-10.4805
▁микро	-10.4807
тика	-10.481
▁дорога	-10.4813
енную	-10.4813
▁сведения	-10.4813
низ	-10.4815
ложил	-10.482
ителей	-10.482
mark	-10.482
▁строительства	-10.4821
▁песни	-10.4823
▁light	-10.4824
▁result	-10.483
▁представлял	-10.483
po	-10.4832
пись	-10.4836
ual	-10.4841
▁Россию	-10.4843
▁вышла	-10.4843
qui	-10.4844
▁создал	-10.4846
▁вступил	-10.4847
ИТ	-10.4851
▁Or	-10.4853
▁остальные	-10.486
▁вызов	-10.4865
▁психолог	-10.4865
ченко	-10.4865
ума	-10.4866
аются	-10.4871
▁расчет	-10.4872
первых	-10.4876
ходил	-10.4876
▁плав	-10.4876
▁памятник	-10.4877
▁семья	-10.4884
▁Го	-10.4889
▁звук	-10.4889
▁Верховного	-10.4893
слов	-10.4894
▁земля	-10.4895
▁существования	-10.49
▁bar	-10.4906
мышлен	-10.4906
▁##	-10.4909
▁сообщения	-10.4909
▁получив	-10.4909
▁special	-10.491
▁http	-10.4912
ливо	-10.4913
▁би	-10.4913
пал	-10.4913
▁последних	-10.4914
мена	-10.4928
зон	-10.4928
▁существенно	-10.4928
▁добавил	-10.4929
▁пита	-10.4929
▁чрезвычайно	-10.4933
▁думал	-10.4939
▁пан	-10.4942
▁various	-10.4943
▁офицер	-10.4945
бой	-10.4947
▁south	-10.4949
▁Бен	-10.4949
▁большого	-10.495
▁field	-10.4953
▁склад	-10.4953
▁Кри	-10.4955
▁And	-10.4959
▁Дело	-10.496
▁воздуха	-10.496
▁оказалась	-10.4961
▁###	-10.4965
лун	-10.4965
Об	-10.4966
нят	-10.4966
▁наличие	-10.4975
▁другу	-10.4981
действительности	-10.4984
▁основные	-10.499
old	-10.4991
обра	-10.4994
▁тре	-10.4995
▁сожалению	-10.4997
▁region	-10.4997
аций	-10.4997
▁social	-10.4998
▁долг	-10.4998
уча	-10.4998
▁important	-10.5002
истор	-10.5003
▁направления	-10.5004
▁Hu	-10.5005
▁military	-10.5005
вяз	-10.5005
▁начальника	-10.5007
жда	-10.5011
▁Японии	-10.5012
▁заниматься	-10.5017
▁товар	-10.5018
стях	-10.502
▁условий	-10.502
глав	-10.5021
хим	-10.5022
тес	-10.503
▁газеты	-10.5035
▁мост	-10.5041
ено	-10.5041
vis	-10.5042
▁мае	-10.5043
дол	-10.5044
▁названия	-10.5044
▁внутренних	-10.5047
▁реализации	-10.5048
предел	-10.5052
▁River	-10.5054
▁пожар	-10.5055
▁клиент	-10.5056
▁Центр	-10.5059
▁принят	-10.5061
▁роз	-10.5063
ьного	-10.5065
▁силой	-10.5065
▁fire	-10.507
val	-10.5072
▁стр	-10.5073
▁стоял	-10.5074
ода	-10.5078
▁Ему	-10.5078
▁further	-10.5083
▁меч	-10.5085
▁general	-10.5086
▁ног	-10.5086
▁баб	-10.5087
▁Кал	-10.5088
▁Da	-10.5088
▁research	-10.5088
ze	-10.5092
екс	-10.5092
ании	-10.5096
nes	-10.5096
▁имеется	-10.51
▁совершил	-10.5101
▁Рим	-10.5102
ory	-10.5103
▁start	-10.5106
tu	-10.5109
▁обеспечения	-10.5109
▁указ	-10.511
щен	-10.5112
▁away	-10.5115
лам	-10.5116
▁Человек	-10.5116
▁put	-10.5116
▁Sch	-10.512
ari	-10.5121
▁подробно	-10.5123
▁вниз	-10.5128
▁элемент	-10.513
▁российский	-10.513
▁Надо	-10.5131
▁career	-10.5131
ile	-10.5131
▁связано	-10.5132
▁сфере	-10.5132
▁применения	-10.5134
▁match	-10.5136
▁играть	-10.5139
▁искать	-10.5139
нс	-10.5139
Ме	-10.5141
▁established	-10.5146
▁приходилось	-10.515
▁must	-10.5151
От	-10.5153
▁содержание	-10.5154
▁понятия	-10.5155
▁фа	-10.5156
rain	-10.5156
▁вопросов	-10.5159
▁экономики	-10.5161
▁завода	-10.5161
▁независимо	-10.5163
▁назвал	-10.5164
▁появился	-10.5166
▁слабо	-10.5169
жит	-10.5169
▁образов	-10.5173
▁груз	-10.5177
например	-10.5178
енно	-10.5178
▁less	-10.5178
▁остро	-10.5179
нцев	-10.518
▁Вал	-10.5183
▁пару	-10.5183
▁full	-10.5184
▁бок	-10.5185
▁близко	-10.5186
▁рынка	-10.5189
▁эпохи	-10.519
▁дав	-10.519
арт	-10.5192
▁интересно	-10.5195
зо	-10.5195
▁сердца	-10.5197
▁занял	-10.5197
▁остался	-10.5202
▁north	-10.5202
▁Вос	-10.5202
ование	-10.5203
емой	-10.5209
▁улицы	-10.521
айте	-10.5211
СК	-10.5212
уг	-10.5218
▁similar	-10.5221
дать	-10.5223
аф	-10.5223
▁главы	-10.5226
▁представление	-10.5232
▁мозга	-10.5233
▁скорости	-10.5235
шь	-10.5235
▁Ак	-10.5238
▁ваш	-10.5241
▁идей	-10.5247
лок	-10.5247
рин	-10.5248
тики	-10.5248
▁получает	-10.5251
▁Вместе	-10.5255
потреб	-10.5256
▁закрыт	-10.5258
▁марте	-10.5263
▁ордена	-10.5264
▁провести	-10.5268
▁нашем	-10.5272
▁занимал	-10.5273
иях	-10.5276
роп	-10.5279
ise	-10.5281
пин	-10.5281
держан	-10.5283
cal	-10.5285
▁Ri	-10.5287
▁оба	-10.5288
рыв	-10.5289
▁story	-10.5292
▁немало	-10.5294
▁делу	-10.5296
▁игру	-10.5299
▁пакет	-10.5299
▁административно	-10.5302
▁пришли	-10.5304
▁способны	-10.5304
▁half	-10.5309
▁государств	-10.531
▁несчаст	-10.5313
▁court	-10.5313
писан	-10.5314
▁General	-10.5314
▁мальчик	-10.5317
ible	-10.5319
▁lead	-10.532
чёт	-10.532
нная	-10.5323
▁Ее	-10.5326
▁встречи	-10.5327
▁миф	-10.533
▁лишен	-10.5333
▁актёр	-10.5333
▁строк	-10.5338
▁целей	-10.5339
▁Шу	-10.5342
▁небес	-10.5345
имо	-10.5348
▁друзей	-10.5353
прежнему	-10.5356
▁тщательно	-10.5359
▁сезоне	-10.536
▁подготовки	-10.5361
▁Кам	-10.5361
▁Оно	-10.5362
имен	-10.5365
▁инструмент	-10.5367
▁оста	-10.5369
нк	-10.537
▁project	-10.537
овка	-10.537
▁километров	-10.537
рес	-10.5372
▁разно	-10.5373
▁повтор	-10.5375
▁школа	-10.5376
шт	-10.5376
▁заболевания	-10.5379
▁небо	-10.5383
чувств	-10.5385
ику	-10.5387
▁бюджет	-10.5387
▁видимо	-10.5388
стоян	-10.539
▁нём	-10.5392
▁Ст	-10.5394
▁понятие	-10.5394
аш	-10.5398
▁together	-10.5398
bin	-10.5402
▁показывает	-10.5402
▁полиции	-10.5404
▁games	-10.5405
▁броне	-10.5406
lu	-10.5409
▁character	-10.5409
▁представители	-10.5411
▁искусство	-10.5411
Ле	-10.5412
верх	-10.5412
▁национальной	-10.5414
▁появляется	-10.5415
▁кем	-10.5415
▁молодой	-10.5415
▁последнее	-10.5417
▁футбол	-10.5417
▁lost	-10.5419
▁du	-10.5419
▁преступления	-10.5421
▁ор	-10.5421
дает	-10.5422
▁роста	-10.5422
ительные	-10.5423
бир	-10.5425
▁использовал	-10.5426
арь	-10.5426
▁Di	-10.5429
▁будучи	-10.5432
▁суб	-10.5432
пан	-10.5433
▁km	-10.5436
тельных	-10.5437
▁флаг	-10.5438
▁прос	-10.5438
▁Ko	-10.5441
▁требования	-10.5445
▁Родился	-10.5451
▁Эд	-10.5451
▁цифр	-10.5452
▁хотелось	-10.5456
еев	-10.5456
ock	-10.5456
▁буквально	-10.5457
Ан	-10.5458
▁элементы	-10.5458
▁обще	-10.5459
▁данного	-10.5459
▁узнать	-10.5462
коль	-10.5463
▁августе	-10.5465
▁провод	-10.5465
In	-10.5468
▁демократ	-10.5477
▁Bi	-10.5478
▁гости	-10.5479
▁Закон	-10.5479
овской	-10.5479
мес	-10.5481
▁креп	-10.5484
тягива	-10.5487
▁атом	-10.5492
ложения	-10.5492
▁головы	-10.5499
▁собран	-10.5501
▁young	-10.5501
уха	-10.5501
дут	-10.5502
а́	-10.5503
▁любит	-10.5504
▁воде	-10.551
han	-10.5511
rus	-10.5513
▁XVIII	-10.5513
▁десяти	-10.5514
▁Пе	-10.5519
стрел	-10.5521
тал	-10.5524
▁труп	-10.5525
day	-10.5527
онов	-10.5532
▁чтоб	-10.5534
▁борт	-10.5535
▁материала	-10.5537
▁январе	-10.5538
▁League	-10.5539
▁концу	-10.5539
▁привести	-10.554
вшегося	-10.5542
▁live	-10.5544
▁бога	-10.5545
дается	-10.5546
▁организаций	-10.5548
▁Бе	-10.5551
▁герои	-10.5552
▁Street	-10.5552
жение	-10.5555
▁great	-10.5556
▁House	-10.5558
ass	-10.5559
su	-10.5563
▁школ	-10.5564
▁поиск	-10.5564
▁шла	-10.5566
▁горяч	-10.5568
▁непо	-10.5568
▁Mon	-10.5568
бек	-10.5571
▁руководство	-10.5571
▁последнего	-10.5571
field	-10.5576
kin	-10.5577
▁Дмитрий	-10.5578
дум	-10.5578
ея	-10.5585
ug	-10.5585
▁занят	-10.5586
пп	-10.5586
▁Роберт	-10.5588
▁ан	-10.559
▁сентябре	-10.5591
▁усилия	-10.5591
▁осталось	-10.5592
▁следующем	-10.5593
="	-10.5593
▁желез	-10.5595
▁новым	-10.5597
▁регион	-10.5598
▁Sp	-10.5606
▁business	-10.5606
пуст	-10.5607
▁function	-10.5608
▁академии	-10.561
жден	-10.5614
▁Суд	-10.5614
▁декабре	-10.5615
▁делал	-10.5618
▁запрет	-10.5619
ьным	-10.5623
▁семи	-10.5625
▁жир	-10.5626
▁журнала	-10.5626
▁парламент	-10.5627
ists	-10.563
сет	-10.5633
ition	-10.5633
зен	-10.5636
▁семь	-10.5636
▁лег	-10.5639
hu	-10.5642
ьную	-10.5642
▁российских	-10.5642
даль	-10.5643
▁положении	-10.5644
▁языков	-10.5644
спе	-10.5649
▁каса	-10.5651
▁сход	-10.5652
дро	-10.5652
▁сюда	-10.5655
▁едино	-10.5662
ms	-10.5663
▁Свет	-10.5663
▁перспектив	-10.5664
ev	-10.5666
cre	-10.5667
▁обществе	-10.5671
▁комиссии	-10.5674
▁ба	-10.5674
фон	-10.5676
▁надежн	-10.5679
ИН	-10.5679
соб	-10.568
▁times	-10.568
▁program	-10.5681
▁именем	-10.5682
ings	-10.5684
▁though	-10.5693
▁существование	-10.5698
дают	-10.5702
▁причине	-10.5702
звуч	-10.5703
▁Рад	-10.5704
́р	-10.5704
▁текста	-10.5707
▁сможет	-10.5707
▁Чем	-10.5709
▁Roman	-10.5712
▁your	-10.5712
▁газ	-10.5716
Ре	-10.5717
▁материалов	-10.5718
▁вещества	-10.572
▁среды	-10.5722
▁принимает	-10.5723
▁информация	-10.5727
гас	-10.573
▁Город	-10.5731
бат	-10.5731
ающий	-10.5733
▁created	-10.5733
▁Ги	-10.5738
▁собак	-10.5744
▁славян	-10.5744
▁вызван	-10.5746
▁доход	-10.5747
▁РСФСР	-10.575
▁установить	-10.5755
▁отлича	-10.5756
▁находились	-10.5757
▁кавалер	-10.5757
py	-10.576
▁половине	-10.5763
▁While	-10.5765
▁волос	-10.5765
▁зуб	-10.5767
▁East	-10.5767
▁видели	-10.5768
▁turn	-10.577
ушки	-10.5771
▁France	-10.5773
ified	-10.5774
▁изображения	-10.5778
▁повторя	-10.578
▁According	-10.578
▁office	-10.5781
▁Вам	-10.5785
sta	-10.5787
▁явления	-10.5789
▁птиц	-10.5789
мут	-10.579
▁рек	-10.5792
росс	-10.5796
▁окна	-10.5797
▁растений	-10.5801
▁ПО	-10.5802
▁социальной	-10.5806
▁ten	-10.5806
▁born	-10.5809
цам	-10.581
pi	-10.5816
sis	-10.5818
▁лежит	-10.5819
▁обязан	-10.5819
▁know	-10.582
▁письме	-10.5821
▁группе	-10.5821
▁нередко	-10.5822
▁сотрудников	-10.5824
▁победу	-10.5824
▁глазами	-10.5829
▁утром	-10.5831
▁Cha	-10.5833
ивший	-10.5833
АР	-10.5833
▁преимущественно	-10.5833
▁Ду	-10.5834
тельные	-10.5835
▁located	-10.5837
▁шут	-10.5839
▁reported	-10.584
▁хор	-10.584
▁сути	-10.5842
▁особо	-10.5843
▁видит	-10.5846
▁сделали	-10.585
опис	-10.5851
ration	-10.5852
кла	-10.5855
▁College	-10.5855
▁знач	-10.5859
числ	-10.586
▁глазах	-10.586
▁сборник	-10.5861
▁думать	-10.5861
▁наблюда	-10.5862
▁сигнал	-10.5868
▁знали	-10.5871
▁появилась	-10.5871
▁категории	-10.5872
рт	-10.5874
▁Тре	-10.5874
▁философии	-10.5875
вис	-10.5875
ek	-10.5877
дем	-10.5878
▁вещей	-10.5878
▁узнал	-10.5878
джа	-10.5885
▁пространство	-10.5886
▁сан	-10.5886
сот	-10.5888
▁International	-10.589
▁комитет	-10.589
▁тонн	-10.5895
ску	-10.5897
шеств	-10.5898
клон	-10.5899
▁новая	-10.59
▁поддержку	-10.5904
▁двадцать	-10.5906
▁продукт	-10.5907
▁партия	-10.5908
ично	-10.5908
▁High	-10.591
▁способность	-10.5914
▁картины	-10.5916
АН	-10.5916
бур	-10.5917
for	-10.5918
▁футболист	-10.5918
▁искусств	-10.592
▁записи	-10.5921
▁Кир	-10.5922
▁романа	-10.5931
▁Ян	-10.5933
▁самому	-10.5933
▁Pe	-10.5935
▁натур	-10.5936
▁лучших	-10.5939
▁хвост	-10.594
▁известный	-10.594
▁звание	-10.5945
▁развива	-10.5946
▁выполнения	-10.5946
▁князя	-10.5947
▁попросил	-10.5951
▁community	-10.5951
▁этими	-10.5951
▁век	-10.5952
▁подобных	-10.5955
защит	-10.5957
gg	-10.5962
mar	-10.5962
▁ха	-10.5963
▁ред	-10.5965
эк	-10.5966
ида	-10.5966
▁Наиболее	-10.5967
▁используют	-10.5967
▁устройств	-10.5968
▁Мил	-10.5975
▁Великобритании	-10.5977
▁налогов	-10.5978
▁республики	-10.5983
▁Ad	-10.5983
▁j	-10.5984
▁солнце	-10.5986
▁такими	-10.599
▁здоров	-10.5992
ey	-10.5993
▁Вид	-10.5993
▁Борис	-10.5995
▁real	-10.5996
▁читал	-10.5998
▁группу	-10.5998
ром	-10.5999
▁голуб	-10.6
вое	-10.6003
▁Чер	-10.6004
дент	-10.6005
▁Act	-10.6006
▁Can	-10.6008
пон	-10.6009
▁Мари	-10.6011
▁Северной	-10.6012
▁однажды	-10.6012
▁чист	-10.6012
van	-10.6019
!..	-10.602
зол	-10.6021
▁силами	-10.6024
ization	-10.6028
▁традиции	-10.603
▁шли	-10.6031
bl	-10.6032
</	-10.6033
▁смеш	-10.6034
▁архив	-10.6036
унд	-10.6038
▁President	-10.604
▁современных	-10.604
вторых	-10.6043
фин	-10.6046
равн	-10.6049
▁тему	-10.6049
▁технологии	-10.6052
жат	-10.6053
парт	-10.6054
ап	-10.6055
▁камер	-10.6056
подоб	-10.6059
▁Всего	-10.6059
емого	-10.6063
▁свойства	-10.6064
есть	-10.6065
▁стиле	-10.6068
ford	-10.6071
▁авиации	-10.6072
▁выиграл	-10.6072
▁Далее	-10.6072
▁Америки	-10.6075
▁тест	-10.6075
▁врага	-10.6077
▁Fa	-10.6078
▁статья	-10.6079
▁восемь	-10.6079
ьер	-10.6081
тик	-10.6082
▁met	-10.6083
▁ребенок	-10.6084
Это	-10.6085
▁представляют	-10.6086
▁considered	-10.6089
▁официально	-10.609
▁содержит	-10.6094
▁Ex	-10.6094
▁губ	-10.6102
▁anti	-10.6105
▁программа	-10.6106
▁Ок	-10.6106
ou	-10.6109
▁октябре	-10.6112
очной	-10.6116
▁выступил	-10.6118
▁пуст	-10.612
печат	-10.612
▁village	-10.6121
пат	-10.6125
▁England	-10.6127
▁Ni	-10.6127
▁документов	-10.6129
▁сыр	-10.6129
sum	-10.6133
▁самолетов	-10.6135
▁жар	-10.6139
▁вследствие	-10.6141
▁Cor	-10.6141
ath	-10.6142
яет	-10.6144
яс	-10.6144
tr	-10.6146
▁ВВС	-10.6147
▁making	-10.6149
▁опыта	-10.615
Ар	-10.615
▁выстрел	-10.615
▁араб	-10.6154
▁никакой	-10.6155
▁участия	-10.6156
ьи	-10.6157
ходить	-10.6157
▁успеха	-10.6161
wood	-10.6161
▁Май	-10.6164
▁вернуться	-10.6166
несли	-10.6168
▁site	-10.6169
▁генерала	-10.6171
▁научных	-10.6173
▁любим	-10.6176
▁episode	-10.6179
▁самая	-10.6179
ложение	-10.6182
тел	-10.6182
▁фоне	-10.6187
▁молод	-10.6189
▁продукции	-10.6191
▁документы	-10.6194
▁партизан	-10.6194
ируя	-10.6195
▁литературе	-10.6196
▁включает	-10.6196
▁вечером	-10.6198
▁гидро	-10.6199
▁врач	-10.6199
▁организма	-10.62
учи	-10.6202
▁From	-10.6203
▁mother	-10.6203
▁плане	-10.6206
▁опор	-10.6207
иц	-10.6207
▁пространства	-10.6209
▁body	-10.6209
▁природе	-10.6211
ya	-10.6212
▁гон	-10.6213
ants	-10.6215
▁interest	-10.6217
▁Петра	-10.6219
▁началась	-10.6219
▁миру	-10.6221
яется	-10.6223
▁working	-10.6224
талкива	-10.6225
маз	-10.6227
▁attack	-10.6233
▁worked	-10.6236
▁священник	-10.6236
gar	-10.6238
▁предложения	-10.6238
▁приговор	-10.6244
▁существу	-10.6245
▁писателя	-10.6249
▁выхода	-10.6249
▁Church	-10.6249
▁зато	-10.625
бран	-10.6251
▁собственно	-10.6257
ище	-10.6259
рек	-10.6259
нести	-10.6261
▁направление	-10.6262
▁too	-10.6263
▁последствия	-10.6264
ney	-10.6265
▁отказ	-10.6267
▁члены	-10.6267
▁якобы	-10.6268
▁принадлежит	-10.6268
▁Army	-10.627
▁сервис	-10.627
▁будущего	-10.6271
цел	-10.6271
веща	-10.6276
▁непри	-10.6278
▁предложен	-10.6278
▁Народ	-10.6279
▁night	-10.628
▁занимает	-10.6283
▁оборот	-10.6283
▁i	-10.6283
▁come	-10.6286
▁Mc	-10.6289
пле	-10.6293
▁Было	-10.6296
▁интересов	-10.63
▁машина	-10.6302
сты	-10.6305
▁ле	-10.6305
▁joined	-10.6305
щую	-10.6306
▁рукой	-10.6308
прям	-10.6309
▁требуется	-10.631
▁знаем	-10.6312
ради	-10.6315
▁оператор	-10.6315
▁шел	-10.6318
зим	-10.632
▁Максим	-10.6322
етесь	-10.6323
▁Тот	-10.6323
▁бал	-10.6324
ear	-10.6325
▁market	-10.6325
▁служит	-10.6327
▁виды	-10.6327
нский	-10.633
▁gave	-10.633
▁методы	-10.6332
рь	-10.6336
▁имела	-10.6336
▁продуктов	-10.6337
▁приходит	-10.6337
реж	-10.6339
▁следующим	-10.6343
гляд	-10.6346
▁река	-10.6347
▁определён	-10.6347
▁фин	-10.6354
gra	-10.6355
▁домов	-10.6357
▁структуры	-10.6359
кли	-10.636
▁горы	-10.6361
▁назвать	-10.6361
▁мужчины	-10.6362
▁передачи	-10.6371
▁our	-10.6372
▁минимум	-10.6374
▁аэродром	-10.6375
▁обнаружил	-10.6376
▁gr	-10.6376
шую	-10.6376
▁обмен	-10.6378
стой	-10.6379
▁князь	-10.638
тельно	-10.638
▁третий	-10.638
▁En	-10.638
эл	-10.6383
arm	-10.6383
▁Indian	-10.6385
▁перенос	-10.6385
жд	-10.6386
▁прибыл	-10.6389
▁лице	-10.6389
▁ситуацию	-10.6393
ело	-10.6395
▁провинции	-10.6398
нской	-10.6399
▁study	-10.6401
▁Ja	-10.6402
▁апреле	-10.6403
▁руками	-10.6404
▁Ев	-10.6405
▁отметить	-10.6406
lock	-10.6406
▁Николаевич	-10.6407
▁America	-10.6412
йского	-10.6412
▁once	-10.6412
ik	-10.6415
▁сахар	-10.6416
несен	-10.6416
▁епископ	-10.6418
ica	-10.6426
▁местных	-10.6431
▁живот	-10.6433
▁проход	-10.644
ever	-10.6441
гад	-10.6441
тру	-10.6441
▁front	-10.6441
верну	-10.6442
▁грамот	-10.6444
▁любого	-10.6447
▁спорта	-10.6449
▁мужчина	-10.645
▁угол	-10.6451
▁ground	-10.6454
тя	-10.6455
▁выражение	-10.6457
▁составлен	-10.6457
▁ночи	-10.6462
▁интервью	-10.6463
▁магазин	-10.6465
ph	-10.6474
ология	-10.6475
▁вплоть	-10.6476
▁регулярно	-10.6476
До	-10.648
▁картин	-10.6481
теле	-10.6485
▁брак	-10.6487
▁потеря	-10.6488
cr	-10.6491
▁батальон	-10.6491
▁trans	-10.6492
производ	-10.6492
▁понят	-10.6493
▁удач	-10.6493
ающие	-10.6494
▁июне	-10.6495
▁others	-10.6497
волюцион	-10.6499
▁звон	-10.65
▁Новгород	-10.65
АТ	-10.6503
▁Киев	-10.6504
ТО	-10.6505
▁ро	-10.6507
▁контроля	-10.6508
▁добавить	-10.6509
▁подобно	-10.651
▁попытки	-10.6512
▁средне	-10.6513
▁person	-10.6514
телю	-10.6516
▁Mi	-10.652
▁sent	-10.6521
▁стоя	-10.6521
▁заместитель	-10.6521
▁главных	-10.6525
▁fact	-10.6526
rd	-10.6526
лат	-10.6526
▁куб	-10.6529
▁мимо	-10.6529
▁George	-10.653
▁св	-10.6531
▁похожи	-10.6535
▁лейтенант	-10.6536
▁колхоз	-10.6538
▁массив	-10.654
▁организм	-10.654
▁лицом	-10.6543
▁созда	-10.6543
фо	-10.6543
мур	-10.6544
rt	-10.6546
▁Украине	-10.6549
▁грех	-10.6553
сона	-10.6554
▁выпущен	-10.6555
▁июле	-10.6555
▁государственный	-10.6557
кры	-10.6559
чика	-10.656
▁политических	-10.6562
нд	-10.6563
qu	-10.6564
car	-10.6564
▁Дом	-10.6567
▁анализа	-10.657
зя	-10.6575
get	-10.6575
▁ар	-10.6575
▁оставил	-10.6576
▁примеру	-10.6578
▁County	-10.6581
▁лок	-10.6582
▁фильме	-10.6583
▁Роман	-10.6584
▁addition	-10.6584
ницу	-10.6585
иста	-10.6588
▁родителей	-10.6588
класс	-10.6588
ich	-10.6588
▁Париже	-10.6589
▁понятно	-10.659
сил	-10.659
▁app	-10.6591
пада	-10.6596
▁лед	-10.6597
▁достиг	-10.66
▁Te	-10.6601
берг	-10.6604
▁нашу	-10.6608
американ	-10.6608
▁магнит	-10.6611
мах	-10.6612
▁Джо	-10.6612
▁могил	-10.6612
яз	-10.6613
ward	-10.6614
▁король	-10.6615
▁сме	-10.6615
▁запрос	-10.6616
ving	-10.6616
▁договора	-10.662
▁сотни	-10.6623
ize	-10.6624
▁Ша	-10.6625
▁музей	-10.6627
▁Ше	-10.6627
▁происхождения	-10.6628
▁et	-10.6629
давать	-10.6631
▁пытался	-10.6631
▁sl	-10.6632
tain	-10.6632
▁способности	-10.6636
▁становятся	-10.6638
▁уезд	-10.6638
енс	-10.6639
трен	-10.6639
▁победы	-10.6641
tin	-10.6643
▁seven	-10.6644
▁тренер	-10.6646
шел	-10.6647
▁объяснить	-10.6648
оцен	-10.6651
▁round	-10.6651
▁taken	-10.6653
▁described	-10.6653
off	-10.6658
пл	-10.6659
дач	-10.6659
▁produced	-10.6659
лить	-10.666
▁необходимость	-10.6662
▁планет	-10.6665
▁помощник	-10.6665
ast	-10.6666
▁механизм	-10.6668
▁сеть	-10.6668
дроб	-10.667
Вы	-10.6671
▁используются	-10.6679
▁стены	-10.6681
▁wife	-10.6682
▁приложения	-10.6685
▁изменить	-10.6685
▁капитал	-10.6687
▁работают	-10.6689
Йорк	-10.6691
▁бывший	-10.6693
▁although	-10.6696
▁private	-10.6698
▁История	-10.6698
year	-10.6698
▁r	-10.6698
оне	-10.6699
▁сообщение	-10.67
▁Потому	-10.6701
▁does	-10.6704
▁руко	-10.6705
▁release	-10.6713
чиков	-10.6713
▁Тор	-10.6715
▁pa	-10.6719
лоб	-10.672
count	-10.672
▁выйти	-10.6721
организ	-10.6722
▁Где	-10.6724
евский	-10.6726
▁вопросам	-10.673
▁герой	-10.6732
▁отдельные	-10.6732
▁рынке	-10.6732
ящих	-10.6734
овская	-10.6736
▁кораблей	-10.674
тки	-10.6743
▁показать	-10.6744
▁живет	-10.6745
орт	-10.6746
▁евреев	-10.6747
▁авторитет	-10.6748
▁отличается	-10.675
крыт	-10.675
зелен	-10.6751
пресс	-10.6758
▁корабль	-10.6758
▁старт	-10.676
ius	-10.6763
▁найден	-10.6764
▁saw	-10.6764
▁выгод	-10.677
есс	-10.6773
резан	-10.6773
▁оригинальн	-10.6773
ound	-10.6774
▁Gra	-10.6774
дея	-10.6774
▁букв	-10.6778
▁раб	-10.6779
▁Жан	-10.6781
▁наступление	-10.6784
ave	-10.6785
тракт	-10.6785
тяж	-10.679
▁первоначально	-10.679
▁Ju	-10.6791
▁произ	-10.6797
▁качество	-10.6798
▁My	-10.68
▁ноябре	-10.68
охран	-10.6801
ерн	-10.6804
▁рассказывает	-10.6804
▁поворот	-10.6804
арх	-10.6805
тип	-10.6806
▁чай	-10.6807
▁обладает	-10.681
▁частично	-10.6812
▁военные	-10.6815
▁заранее	-10.6815
▁идеолог	-10.6815
алл	-10.6817
рош	-10.6818
▁товаров	-10.6823
иса	-10.6825
▁неизвестно	-10.6825
знаком	-10.6827
боль	-10.6829
▁самим	-10.6829
▁разработки	-10.683
▁контр	-10.683
▁успел	-10.6831
▁поднима	-10.6833
▁производитель	-10.6834
пла	-10.6836
▁боевой	-10.6838
струк	-10.6838
▁little	-10.6839
▁Индии	-10.6839
нулся	-10.6842
▁Ge	-10.6843
уя	-10.6844
▁процессов	-10.6845
воен	-10.6845
блюд	-10.6848
▁months	-10.6848
▁государственных	-10.6849
▁married	-10.6851
▁сел	-10.6854
▁рассказывал	-10.6855
▁похоже	-10.6856
▁другая	-10.6858
▁seen	-10.6858
гал	-10.6861
▁church	-10.6862
▁ново	-10.6862
нит	-10.6863
▁свят	-10.6864
▁городского	-10.6866
цин	-10.6867
▁рос	-10.6867
рел	-10.6871
ons	-10.6871
уж	-10.6871
▁молодых	-10.6871
cor	-10.6875
burg	-10.6876
▁нашел	-10.6877
▁этапе	-10.6877
▁потенциал	-10.6878
chi	-10.6882
▁реформ	-10.6884
▁level	-10.6885
ade	-10.6886
вай	-10.6889
▁создании	-10.6891
▁уч	-10.6892
▁Син	-10.6899
видимому	-10.6901
▁across	-10.6904
▁игрок	-10.6905
▁феврале	-10.6905
▁описание	-10.6909
▁коммун	-10.6909
▁собрал	-10.6909
▁opened	-10.6912
Мар	-10.6912
очку	-10.6914
никами	-10.6916
▁Никол	-10.6919
▁девушка	-10.692
▁ССР	-10.6921
▁Московской	-10.6922
лав	-10.6923
▁органы	-10.6925
can	-10.6926
use	-10.6929
▁покинул	-10.6932
чить	-10.6934
щик	-10.6935
▁будущее	-10.6935
▁You	-10.6937
▁арестован	-10.6938
лян	-10.6939
ющейся	-10.6944
▁компаний	-10.6944
▁хозяйств	-10.6947
▁Помимо	-10.6947
▁полковник	-10.6948
▁веков	-10.695
айн	-10.6951
vers	-10.6951
стат	-10.6954
▁хочется	-10.6955
▁success	-10.6956
и́	-10.6957
▁Париж	-10.6957
cl	-10.6957
фу	-10.6957
▁обеспечить	-10.6958
▁головой	-10.6958
▁приняли	-10.6959
охот	-10.6962
▁close	-10.6962
▁главной	-10.6964
▁пород	-10.6964
▁thought	-10.6964
▁Мол	-10.6966
▁Оста	-10.6966
▁массы	-10.6972
▁редактор	-10.6972
▁stage	-10.6973
▁каз	-10.6973
рид	-10.6974
▁архитектор	-10.6974
▁Хан	-10.6975
▁Испании	-10.6975
▁убит	-10.6977
▁потери	-10.6977
▁слуша	-10.6978
▁аргумент	-10.6979
▁common	-10.6979
▁обоих	-10.698
▁ума	-10.6983
▁подписал	-10.6984
▁началось	-10.6984
▁проводить	-10.6985
▁жены	-10.6987
ческой	-10.6989
▁исключением	-10.6994
▁party	-10.6995
нных	-10.6996
▁European	-10.6997
▁Кан	-10.6998
▁Петров	-10.7002
▁ад	-10.7002
▁строя	-10.7003
▁Королев	-10.7003
шек	-10.7005
▁летом	-10.7005
▁регистр	-10.7006
▁William	-10.7006
▁сервер	-10.7008
▁любом	-10.701
ix	-10.7012
чный	-10.7013
▁Сталина	-10.7013
▁председатель	-10.7015
▁вашей	-10.702
▁армию	-10.7022
▁круп	-10.7024
▁event	-10.7028
▁нашли	-10.7028
▁существуют	-10.7029
▁нарушения	-10.7031
▁сообщили	-10.7033
общ	-10.7034
▁связаны	-10.7035
▁Пушкин	-10.7037
▁lo	-10.7038
▁министра	-10.7038
▁black	-10.7041
▁modern	-10.7043
▁свете	-10.7046
линг	-10.7046
▁боли	-10.7046
▁брата	-10.705
ker	-10.7051
чные	-10.7052
▁ваши	-10.7053
▁низ	-10.7053
руд	-10.7054
▁road	-10.7054
овом	-10.7055
▁практике	-10.7059
▁правления	-10.7059
вание	-10.7061
инга	-10.7061
анг	-10.7067
очного	-10.7067
▁голове	-10.7069
▁Крас	-10.7069
ЕН	-10.7069
▁швед	-10.7069
▁начинают	-10.707
ейн	-10.7072
▁Люди	-10.7073
▁войсками	-10.7076
▁СМИ	-10.7076
▁внезапно	-10.7076
роз	-10.7078
слан	-10.7079
▁Св	-10.708
str	-10.7081
ris	-10.7082
▁дам	-10.7089
▁Windows	-10.7092
▁хуже	-10.7092
▁последней	-10.7093
▁Член	-10.7094
▁возле	-10.7094
ture	-10.7095
▁Эн	-10.7097
▁ведет	-10.7099
▁ответственность	-10.7099
▁стимул	-10.7105
▁явление	-10.7106
▁гром	-10.7107
▁матч	-10.7107
▁знают	-10.7107
мб	-10.7108
▁добиться	-10.7108
▁зачем	-10.7109
▁запах	-10.711
▁areas	-10.7111
▁полос	-10.7112
▁питания	-10.7112
аешь	-10.7115
ывают	-10.7117
▁Первая	-10.7117
▁Sc	-10.7117
ставил	-10.7117
дя	-10.7117
▁престол	-10.7124
▁чувствовал	-10.7125
полит	-10.7127
▁Ах	-10.7129
лина	-10.7129
▁campaign	-10.7131
▁пассажир	-10.7132
Мо	-10.7133
▁Сто	-10.7135
▁счастлив	-10.7136
?!	-10.714
▁озера	-10.7142
▁расход	-10.7142
▁Василий	-10.7143
▁устройство	-10.7146
труд	-10.7147
▁выглядит	-10.7149
▁отделения	-10.715
кров	-10.7153
▁term	-10.7154
▁вагон	-10.7155
▁Har	-10.7155
▁поставить	-10.7156
▁дают	-10.7157
wi	-10.7158
скор	-10.7158
%.	-10.7159
▁works	-10.7159
тельного	-10.716
▁поддержки	-10.7164
▁Ча	-10.7168
аны	-10.717
▁contract	-10.717
ray	-10.7171
▁отправился	-10.7172
▁читать	-10.7173
▁Mac	-10.7173
лоп	-10.7174
игр	-10.7175
let	-10.7175
▁Ленинград	-10.7175
▁жители	-10.7176
▁дочери	-10.7176
▁премии	-10.7177
лли	-10.7177
▁forces	-10.7178
▁Red	-10.718
▁выходит	-10.718
▁причиной	-10.718
▁командира	-10.7182
пустить	-10.7182
▁Армии	-10.7183
▁Рус	-10.7184
▁мою	-10.7185
▁отдал	-10.7186
них	-10.7189
▁изменение	-10.7189
▁Зна	-10.719
▁экипаж	-10.7191
▁состоял	-10.7191
▁пошел	-10.7191
▁соль	-10.7192
▁Pre	-10.7195
▁императора	-10.7196
ования	-10.7198
шев	-10.7199
▁игре	-10.7201
▁Эй	-10.7204
▁намерен	-10.7205
▁hit	-10.7205
back	-10.7206
▁установки	-10.7211
▁James	-10.7213
iz	-10.7214
▁смогли	-10.7215
▁округ	-10.7217
герман	-10.7217
нюю	-10.7219
▁быстрее	-10.7222
▁дев	-10.7225
ОР	-10.7228
▁ship	-10.723
плав	-10.723
ела	-10.7238
шёл	-10.7241
ностей	-10.7242
монт	-10.7243
ran	-10.7246
добр	-10.7246
▁простой	-10.7246
tre	-10.725
▁аналог	-10.725
▁дву	-10.7253
▁большинстве	-10.7256
▁занимался	-10.7261
▁открыто	-10.7264
sch	-10.7264
▁истинно	-10.7264
мот	-10.7265
ичный	-10.7268
нц	-10.727
▁Вол	-10.7273
ическому	-10.7274
▁начиная	-10.7274
▁чудес	-10.7275
▁Том	-10.7276
▁слав	-10.7279
рия	-10.728
▁скрыт	-10.728
▁весел	-10.7282
name	-10.7282
▁подобные	-10.7288
▁отдыха	-10.7292
град	-10.7293
инд	-10.7294
▁фи	-10.7295
▁огня	-10.7295
ОС	-10.7295
▁Южной	-10.7296
▁low	-10.7298
nt	-10.73
▁принадлежа	-10.7301
▁Мария	-10.7301
!)	-10.7301
▁зап	-10.7303
▁####	-10.7306
▁popular	-10.7309
▁Тар	-10.731
▁учреждения	-10.731
веден	-10.7311
вый	-10.7311
▁video	-10.7314
▁rest	-10.7315
▁приведен	-10.7319
▁файл	-10.7319
▁смотреть	-10.732
▁американский	-10.7321
▁большинства	-10.7323
▁исчез	-10.7324
▁sh	-10.7329
▁атак	-10.7329
▁спец	-10.7332
▁Сал	-10.7335
▁страшно	-10.7336
▁Bu	-10.7338
▁хотели	-10.7339
▁дым	-10.7339
▁машину	-10.7339
▁вечно	-10.734
▁страну	-10.7341
▁mid	-10.7342
бал	-10.7344
эконом	-10.7344
изирован	-10.7345
льский	-10.7346
▁автобус	-10.735
▁композитор	-10.7352
▁average	-10.7353
▁vi	-10.7354
▁расстоянии	-10.7355
ителем	-10.7359
нская	-10.736
▁Сил	-10.7362
▁Am	-10.7366
▁лекарств	-10.7368
Во	-10.7371
rel	-10.7372
▁ближе	-10.7372
чай	-10.7372
силь	-10.7374
▁мечта	-10.7374
▁смерт	-10.7378
▁бел	-10.7378
кл	-10.738
▁материалы	-10.738
▁international	-10.7381
part	-10.7382
▁жизнью	-10.7383
▁developed	-10.7383
▁Павел	-10.7387
▁голод	-10.7388
▁подписан	-10.7389
лево	-10.7392
▁room	-10.7393
▁Сол	-10.7394
брал	-10.7397
беж	-10.7398
▁целях	-10.7399
учить	-10.7399
▁горд	-10.7399
▁Ху	-10.74
▁пределах	-10.74
▁Владимира	-10.7405
▁хотят	-10.7408
▁признал	-10.7409
▁пик	-10.7413
serv	-10.7415
▁душе	-10.7415
▁историк	-10.7417
▁напротив	-10.7418
НИ	-10.742
▁огне	-10.742
страда	-10.7421
▁appeared	-10.7422
сол	-10.7423
▁остались	-10.7424
ates	-10.7425
▁value	-10.7427
без	-10.7427
▁Гитлер	-10.7428
▁издания	-10.7429
чал	-10.7429
ara	-10.743
▁Берлин	-10.7431
▁Гос	-10.7432
▁изменений	-10.7433
▁Ай	-10.7433
нис	-10.7434
▁followed	-10.7439
▁призван	-10.7439
▁убежден	-10.7441
▁офицеров	-10.7441
▁кризис	-10.7442
▁Север	-10.7442
мель	-10.7443
▁гроз	-10.7449
▁максимально	-10.745
▁человеческого	-10.7452
sp	-10.7452
▁еврей	-10.7455
▁ими	-10.7456
▁развитии	-10.7458
▁Ши	-10.7462
▁гигант	-10.7462
▁обвиня	-10.7465
хорош	-10.7466
▁мусульман	-10.7467
so	-10.7468
лек	-10.7469
▁Сначала	-10.7469
▁известных	-10.7469
ious	-10.7469
Re	-10.747
▁одни	-10.7472
▁социальных	-10.7476
гур	-10.7479
▁отдельно	-10.748
▁Сен	-10.7481
▁играет	-10.7481
dic	-10.7482
fin	-10.7483
▁поэта	-10.7483
▁посмотреть	-10.7486
работан	-10.7487
щем	-10.7488
▁картина	-10.7488
▁Благодаря	-10.7493
▁случилось	-10.7493
▁правом	-10.75
▁предан	-10.75
ывать	-10.7502
▁каком	-10.7504
▁Лондон	-10.7505
пс	-10.7507
▁fall	-10.7511
▁коллег	-10.7514
▁ru	-10.7516
глядыва	-10.7517
▁талант	-10.7517
чан	-10.7517
▁мяч	-10.7521
шне	-10.7521
▁современного	-10.7523
▁процентов	-10.7525
▁палат	-10.7526
▁дед	-10.7528
▁living	-10.7529
лива	-10.753
▁водо	-10.753
▁средней	-10.7531
▁счёт	-10.7532
▁произведений	-10.7532
▁command	-10.7535
▁решений	-10.7538
▁определения	-10.7539
▁Такие	-10.754
▁вице	-10.7541
▁Само	-10.7547
IN	-10.7547
реч	-10.7549
▁крупные	-10.755
▁Много	-10.7551
▁степень	-10.7553
ешься	-10.7554
сс	-10.7558
пира	-10.7561
▁хим	-10.7563
итар	-10.7565
▁точка	-10.7565
▁защитник	-10.7566
▁мо	-10.7568
министр	-10.7568
mit	-10.757
lt	-10.757
▁уезда	-10.7572
Он	-10.7572
▁осад	-10.7573
▁тон	-10.7573
▁жили	-10.7574
шла	-10.7575
▁пытается	-10.7575
мощ	-10.7575
▁действовать	-10.7577
▁Тай	-10.7581
водится	-10.7581
▁горизонт	-10.7583
▁кровь	-10.7588
рот	-10.7588
▁танк	-10.7589
елл	-10.7591
▁Китай	-10.7593
▁полном	-10.7594
▁причины	-10.7595
▁поражение	-10.7597
▁дорогу	-10.7597
ЕТ	-10.7597
▁Ван	-10.7597
▁deal	-10.7601
▁дворян	-10.7602
▁выполнять	-10.7603
iv	-10.7605
ull	-10.7606
▁Фи	-10.7606
▁университете	-10.7607
▁результатов	-10.7608
▁объектив	-10.7608
▁тверд	-10.7609
▁дали	-10.7609
ницей	-10.7614
▁data	-10.7614
▁соответствует	-10.7614
▁пространстве	-10.7615
▁Robert	-10.7616
▁способом	-10.7617
▁растения	-10.7618
▁вашего	-10.7618
ith	-10.7622
▁far	-10.7623
▁корон	-10.7624
▁bi	-10.7626
▁царь	-10.7626
▁приказал	-10.7628
char	-10.763
▁подо	-10.763
▁связанные	-10.7631
▁Ад	-10.7631
марк	-10.7631
▁утверждал	-10.7632
давал	-10.7634
▁дур	-10.7634
▁вертолет	-10.7634
ping	-10.7635
lay	-10.7635
▁Кубка	-10.7636
▁встретил	-10.7639
▁заключа	-10.7641
▁Pri	-10.7643
▁эпи	-10.7645
тем	-10.7646
▁потерял	-10.7648
▁удел	-10.7648
▁астроном	-10.7649
берт	-10.765
load	-10.7651
▁неоднократно	-10.7652
▁хотите	-10.7652
стран	-10.7653
▁линия	-10.7653
брон	-10.7654
ани	-10.7654
▁протокол	-10.7654
ийский	-10.7654
▁высоте	-10.7656
тические	-10.7658
▁худ	-10.766
▁строй	-10.766
▁диалог	-10.7661
инь	-10.7661
▁среднем	-10.7662
▁свыше	-10.7663
▁Google	-10.7663
▁направля	-10.7667
ошел	-10.7669
▁испытания	-10.7669
▁Фе	-10.767
▁бесконечно	-10.767
tt	-10.7671
my	-10.7673
▁fight	-10.7676
▁студент	-10.7677
▁Black	-10.7678
▁love	-10.768
▁дуб	-10.768
АЗ	-10.7681
▁Нам	-10.7682
цит	-10.7684
мит	-10.7686
очек	-10.7686
bb	-10.7687
спор	-10.7691
▁размера	-10.7691
▁Wi	-10.7692
вари	-10.7692
чар	-10.7692
▁человечества	-10.7693
▁break	-10.7694
инской	-10.7694
▁мужа	-10.7698
▁реке	-10.7701
▁act	-10.7701
▁черно	-10.7702
▁Николая	-10.7705
врат	-10.7705
нным	-10.7706
▁привет	-10.7711
▁страна	-10.7713
▁аль	-10.7714
▁Олег	-10.7715
▁стоимость	-10.7717
▁Росс	-10.772
▁sc	-10.7721
▁версия	-10.7722
▁ученик	-10.7723
▁остальных	-10.7724
▁Although	-10.7724
ющем	-10.7725
▁space	-10.7727
ae	-10.7731
двига	-10.7733
az	-10.7735
ets	-10.7736
▁целый	-10.7736
▁операций	-10.7738
тического	-10.7739
▁возврат	-10.7741
▁remained	-10.7742
▁Du	-10.7745
▁судов	-10.7748
▁леса	-10.775
▁int	-10.7751
британ	-10.7751
они	-10.7754
исто	-10.7754
МА	-10.7756
▁пле	-10.7758
ице	-10.7762
▁сей	-10.7764
▁решить	-10.7766
меньш	-10.7766
народ	-10.7767
▁партнер	-10.7771
▁реальности	-10.7772
ене	-10.7773
▁поколения	-10.7773
▁наблюдения	-10.7774
▁уничтожен	-10.7776
▁дат	-10.7776
АК	-10.7782
uck	-10.7782
▁спрос	-10.7783
водить	-10.7784
▁гос	-10.7787
руг	-10.7787
ral	-10.7788
▁банков	-10.7788
▁медаль	-10.7791
aw	-10.7792
аков	-10.7792
▁посредством	-10.7795
▁приехал	-10.7796
gan	-10.7796
▁приход	-10.7796
▁принес	-10.7797
▁обман	-10.7803
▁сумел	-10.7805
▁рекорд	-10.7805
сыла	-10.7811
▁дорог	-10.7812
ff	-10.7813
▁обязанности	-10.7814
▁слух	-10.7814
благоприят	-10.7814
вшимся	-10.7816
▁признать	-10.7816
ino	-10.7816
тряс	-10.7817
▁общин	-10.7824
тый	-10.7824
▁Пи	-10.7828
▁теория	-10.783
▁лечения	-10.7831
▁подчинен	-10.7835
▁upon	-10.7836
▁мелко	-10.7837
тельная	-10.7837
▁финансов	-10.7837
▁двое	-10.7837
▁ac	-10.7838
▁ошибки	-10.7842
▁исполня	-10.7843
▁живут	-10.7844
▁противник	-10.7846
▁местного	-10.7847
Па	-10.7848
▁Company	-10.7849
лова	-10.7849
▁мертв	-10.7855
des	-10.7855
▁сохранить	-10.7856
имся	-10.7856
bu	-10.7857
▁ответственности	-10.7858
▁ощущение	-10.7862
жела	-10.7867
▁функция	-10.7867
▁provide	-10.7867
▁орден	-10.7869
▁влияния	-10.7869
▁график	-10.787
▁говорю	-10.787
сед	-10.7875
▁горе	-10.7875
▁помогает	-10.7876
▁следующее	-10.7877
анов	-10.7878
▁кандидат	-10.7878
него	-10.788
▁отправ	-10.7881
▁Филипп	-10.7883
▁полезно	-10.7885
▁Маг	-10.7887
lib	-10.7888
▁специалистов	-10.7891
▁сидел	-10.7892
▁фаз	-10.7894
▁предприятий	-10.7896
▁син	-10.7897
▁станция	-10.7898
▁задачу	-10.7899
▁превраща	-10.7902
▁понимать	-10.7908
▁подвод	-10.7909
тека	-10.7909
▁дер	-10.7912
▁ранен	-10.7916
▁избежать	-10.7919
тельной	-10.7919
▁заключен	-10.792
▁чемпионат	-10.792
ота	-10.7921
▁find	-10.7922
▁Олимпийских	-10.7924
нец	-10.7925
игра	-10.7925
▁свод	-10.7927
вые	-10.7927
▁эффективно	-10.7929
grad	-10.7931
ville	-10.7931
▁наверное	-10.7931
▁оценки	-10.7932
▁mi	-10.7933
▁Михайлович	-10.7933
▁director	-10.7936
били	-10.7936
▁лежал	-10.7938
▁кладбище	-10.7939
тали	-10.7939
▁берег	-10.794
▁возвраща	-10.794
ыш	-10.7941
▁определяется	-10.7942
щение	-10.7949
ивать	-10.795
▁След	-10.795
▁Si	-10.7951
▁внутренней	-10.7952
▁факультет	-10.7953
▁написать	-10.7955
чным	-10.7955
зван	-10.7956
иг	-10.7958
▁помимо	-10.796
▁изо	-10.7961
▁своём	-10.7961
▁formed	-10.7968
▁спин	-10.7969
▁поставил	-10.7971
▁Хи	-10.7972
дес	-10.7972
▁cost	-10.7972
▁Лук	-10.7973
hr	-10.7974
SS	-10.7974
▁снят	-10.7975
▁карьеру	-10.7978
Дж	-10.7978
льд	-10.798
▁daughter	-10.7982
▁нужен	-10.7984
▁Council	-10.7986
▁напряжен	-10.7987
сказ	-10.799
▁центром	-10.799
▁посад	-10.7991
▁Позже	-10.7993
▁нашим	-10.7994
ящий	-10.7995
▁обшир	-10.7996
▁суть	-10.7996
▁играх	-10.7997
рим	-10.7999
лот	-10.7999
▁Вопрос	-10.8
▁масса	-10.8002
▁программу	-10.8002
▁связанных	-10.8002
нен	-10.8003
▁осуществляется	-10.8004
▁report	-10.8006
▁пришла	-10.8012
▁вышли	-10.8012
обща	-10.8014
▁дивизия	-10.8015
▁police	-10.8016
lor	-10.8017
▁Обычно	-10.8017
▁Два	-10.8018
▁служить	-10.8028
аты	-10.8029
▁style	-10.8029
▁нарушение	-10.8031
▁соединя	-10.8031
▁кое	-10.8032
▁Юрий	-10.8034
летел	-10.8036
▁провёл	-10.8036
тка	-10.8037
▁пройти	-10.8041
▁Большинство	-10.8046
▁India	-10.8046
put	-10.8046
▁климат	-10.8047
▁океан	-10.8048
▁био	-10.805
▁Уильям	-10.805
▁давал	-10.8051
як	-10.8052
▁Аль	-10.8053
▁троп	-10.8053
▁player	-10.8054
летнего	-10.8056
▁указывает	-10.8056
▁hard	-10.8058
▁course	-10.8058
▁battle	-10.8059
▁команде	-10.8059
▁круж	-10.8062
▁кап	-10.8064
грамм	-10.8064
свет	-10.8065
▁ею	-10.8067
▁change	-10.8068
oo	-10.8069
▁able	-10.8072
▁скал	-10.8072
▁Джордж	-10.8075
мол	-10.8079
кт	-10.8079
▁Court	-10.8079
▁сумму	-10.8084
▁Island	-10.8084
▁российской	-10.8085
▁городской	-10.8086
жига	-10.8087
▁двери	-10.8088
▁отношениях	-10.8089
▁week	-10.809
▁strong	-10.8091
сор	-10.8093
▁Col	-10.8094
▁клин	-10.8099
▁рынок	-10.8101
▁татар	-10.8101
▁единиц	-10.8101
ries	-10.8103
▁Инди	-10.8103
▁size	-10.8105
вил	-10.8105
ему	-10.811
роч	-10.8111
дь	-10.8112
бес	-10.8114
дели	-10.8115
этаж	-10.8115
ans	-10.8117
▁художника	-10.8119
▁available	-10.812
▁автоматически	-10.8121
▁всяком	-10.8124
▁получается	-10.813
ОН	-10.8131
нную	-10.8131
▁read	-10.8131
раст	-10.8133
▁следовательно	-10.8133
оре	-10.8135
▁утверждает	-10.8135
▁information	-10.8138
▁заряд	-10.8138
▁здоровья	-10.814
▁бывшего	-10.8143
du	-10.8144
тических	-10.8145
▁тесно	-10.8146
▁внешней	-10.8149
▁банка	-10.8151
▁продолжает	-10.8151
▁нужна	-10.8151
▁Com	-10.8154
▁рассматривать	-10.8154
▁Дер	-10.8154
▁словом	-10.8155
совет	-10.8156
▁written	-10.8157
фиц	-10.8159
нские	-10.8163
▁демон	-10.8165
фар	-10.8168
▁x	-10.8168
▁tour	-10.817
▁Tra	-10.8172
▁моим	-10.8173
▁Paul	-10.8175
▁stated	-10.8176
▁бог	-10.818
▁Однажды	-10.8186
ительных	-10.8187
▁протест	-10.8187
well	-10.8188
▁друзья	-10.8192
▁музыки	-10.8194
▁администрации	-10.8197
▁movement	-10.8198
cul	-10.8199
▁статей	-10.8202
▁повод	-10.8203
▁вошли	-10.8203
▁связ	-10.8203
▁упал	-10.8204
ведом	-10.8204
▁крут	-10.8205
ывает	-10.8205
▁военный	-10.8206
▁собственности	-10.8206
▁работников	-10.8208
ability	-10.8209
▁старший	-10.8209
анта	-10.8209
▁четко	-10.8211
▁Московского	-10.8211
▁отвечал	-10.8211
▁человеческой	-10.8211
▁идут	-10.8213
▁единственный	-10.8213
▁отбор	-10.8213
▁white	-10.8213
▁trade	-10.8215
▁пользователей	-10.8215
ковский	-10.8216
▁Бол	-10.8217
дела	-10.8218
▁Америке	-10.8221
▁фирм	-10.8224
▁костюм	-10.8224
это	-10.8225
▁товарищ	-10.8226
▁проч	-10.823
▁судьба	-10.8232
ини	-10.8233
ju	-10.8234
квартир	-10.8235
▁конструктор	-10.8235
шн	-10.8235
▁особ	-10.8235
▁занятия	-10.8238
оли	-10.824
▁свин	-10.8242
▁соединения	-10.8244
▁реакции	-10.8245
ствие	-10.8245
▁завтра	-10.8246
брошен	-10.8247
▁Мед	-10.8247
▁Одна	-10.8248
▁голосов	-10.8249
рай	-10.8249
▁Ph	-10.825
gue	-10.8251
ds	-10.8253
▁sold	-10.8253
▁терп	-10.8257
▁сотрудник	-10.8258
▁отказался	-10.8258
▁режима	-10.8261
▁killed	-10.8262
▁валют	-10.8263
cho	-10.8264
▁ученые	-10.8265
лай	-10.8265
IT	-10.8265
нтер	-10.8273
НО	-10.8274
▁снял	-10.8274
▁Шар	-10.8275
▁американских	-10.8279
рач	-10.828
вшее	-10.8283
содержа	-10.8285
▁произведен	-10.8286
▁понимает	-10.8286
▁race	-10.8286
▁советского	-10.8289
▁каб	-10.8292
▁выступает	-10.8296
▁If	-10.8297
▁личность	-10.8299
▁региона	-10.83
▁structure	-10.83
▁городах	-10.8301
cha	-10.8302
вей	-10.8302
▁base	-10.8304
▁душа	-10.8304
▁территорию	-10.8304
▁Кстати	-10.8304
▁Просто	-10.8305
▁сквозь	-10.8306
дева	-10.8309
▁собственного	-10.831
▁выделя	-10.8314
▁имена	-10.8314
опыт	-10.8315
▁review	-10.8317
▁подумал	-10.8322
бул	-10.8325
▁Union	-10.8325
▁дважды	-10.8326
сия	-10.8327
▁секунд	-10.8327
▁Cup	-10.8327
▁свойств	-10.8328
нар	-10.8328
▁восьми	-10.8329
fer	-10.833
влек	-10.833
▁type	-10.8331
информ	-10.8331
королев	-10.8331
▁Меня	-10.8331
▁отправля	-10.8334
▁ущерб	-10.8334
▁signed	-10.8335
▁Джа	-10.8335
▁вопроса	-10.8336
▁просил	-10.834
▁советник	-10.8341
▁юг	-10.8341
▁eventually	-10.8341
глас	-10.8342
▁открытия	-10.8342
▁access	-10.8342
over	-10.8343
▁imp	-10.8343
▁поли	-10.8344
▁всякого	-10.8345
▁источников	-10.8347
▁АН	-10.8348
ef	-10.8348
▁self	-10.835
▁range	-10.8351
▁Александрович	-10.8351
nn	-10.8351
ПК	-10.8352
▁прибыли	-10.8354
▁верно	-10.8356
▁местности	-10.8358
▁Mal	-10.8358
▁move	-10.8361
▁участок	-10.8363
script	-10.8363
rum	-10.8363
AR	-10.8364
▁XVII	-10.8366
▁Mor	-10.8367
▁construction	-10.8367
▁международных	-10.8367
▁Hall	-10.8368
▁travel	-10.8368
чуж	-10.8368
▁российского	-10.837
▁обнаружен	-10.837
▁эпоху	-10.837
▁practice	-10.837
▁Сын	-10.837
РО	-10.8372
▁points	-10.8372
мм	-10.8372
носить	-10.8372
▁трудом	-10.8372
▁законы	-10.8373
ави	-10.8375
▁собственных	-10.8376
▁Гра	-10.8376
med	-10.8377
уда	-10.8377
▁здоровье	-10.8379
уется	-10.8381
▁проник	-10.8382
▁угодно	-10.8384
атов	-10.8386
▁создавать	-10.8388
▁использует	-10.8389
▁содержания	-10.839
▁обла	-10.839
▁каждая	-10.8391
священ	-10.8393
▁отправлен	-10.8393
▁колес	-10.8394
гла	-10.8396
▁черты	-10.84
▁великого	-10.8402
▁череп	-10.8403
▁бою	-10.8403
▁Group	-10.8403
▁Star	-10.8403
ори	-10.8404
als	-10.8404
▁выбран	-10.8409
▁крик	-10.8411
▁"...	-10.8412
▁общественного	-10.8412
▁окно	-10.8413
▁противоположно	-10.8415
нат	-10.8416
кри	-10.8418
▁воздухе	-10.842
▁знаний	-10.8421
▁language	-10.8422
spect	-10.8423
▁минуту	-10.8423
▁недель	-10.8426
▁Герой	-10.8427
вшаяся	-10.8428
▁пулемет	-10.8428
▁подверг	-10.8428
▁either	-10.843
▁еже	-10.843
▁четырёх	-10.843
ительным	-10.8431
▁назначения	-10.8431
▁временно	-10.8432
▁going	-10.8432
ok	-10.8433
▁education	-10.8435
ert	-10.8436
АЛ	-10.8437
▁Руси	-10.8439
▁температура	-10.844
ива	-10.844
▁Royal	-10.844
▁am	-10.844
акт	-10.8442
▁общее	-10.8443
low	-10.8443
▁выделен	-10.8444
ob	-10.8446
▁personal	-10.8448
▁персонаж	-10.8449
▁стадии	-10.845
▁мотор	-10.845
light	-10.8451
див	-10.8454
▁КПСС	-10.8454
▁режиссер	-10.8455
▁Christian	-10.8458
▁brought	-10.8462
▁кожи	-10.8467
▁ba	-10.8467
▁оставить	-10.8469
▁ООН	-10.8472
вшееся	-10.8474
▁См	-10.8475
▁понимаю	-10.8477
▁need	-10.8479
▁district	-10.848
▁Работа	-10.8485
рова	-10.8485
чики	-10.8487
ийской	-10.8487
▁тихо	-10.8488
▁прошли	-10.8491
анн	-10.8491
og	-10.8493
▁применение	-10.8494
овича	-10.8496
▁friend	-10.8496
▁половины	-10.85
▁ресурсов	-10.8501
НК	-10.8501
▁свободу	-10.8505
▁сцен	-10.8505
▁началом	-10.8506
▁выборах	-10.8507
▁принц	-10.8508
▁встрече	-10.851
▁разрушен	-10.8511
▁sw	-10.8511
▁past	-10.8512
раста	-10.8512
unt	-10.8515
▁провел	-10.8518
ющему	-10.8521
▁развитию	-10.8521
▁сомнения	-10.8522
тре	-10.8522
▁California	-10.8523
▁офис	-10.8524
air	-10.8524
▁знаете	-10.8527
закон	-10.8529
▁немецких	-10.8529
▁прост	-10.8531
щиков	-10.8532
▁продолжа	-10.8534
▁использованием	-10.8535
▁бол	-10.8535
▁подготовлен	-10.8535
нских	-10.8535
▁Над	-10.8537
▁decided	-10.8538
▁Несколько	-10.8538
▁попытка	-10.8538
▁замуж	-10.854
бель	-10.854
▁eight	-10.8543
▁ката	-10.8543
«	-10.8545
▁got	-10.8545
ram	-10.8546
ned	-10.8548
▁издан	-10.8552
▁отвечает	-10.8553
▁date	-10.8556
▁национального	-10.8557
ступление	-10.8559
вых	-10.8561
тона	-10.8562
▁training	-10.8568
▁throughout	-10.857
▁behind	-10.8571
▁карты	-10.8572
▁сцене	-10.8573
▁rather	-10.8578
hen	-10.8579
▁минуты	-10.858
▁собрания	-10.8583
жан	-10.8583
▁типов	-10.8585
▁фактор	-10.8586
▁бригады	-10.8586
▁легче	-10.8586
▁want	-10.8588
▁Пусть	-10.8588
▁Первые	-10.859
▁творчества	-10.8592
▁Первой	-10.8592
▁изображен	-10.8592
анд	-10.8593
▁вижу	-10.8594
ban	-10.8595
▁включен	-10.8596
▁режиссёр	-10.8599
▁количестве	-10.8599
cur	-10.86
▁cover	-10.8603
работать	-10.8603
стями	-10.8603
▁Europe	-10.8605
▁старик	-10.8606
ised	-10.8607
▁газа	-10.8608
▁стремление	-10.861
▁родители	-10.8611
▁author	-10.8612
▁Ver	-10.8612
Что	-10.8612
▁слышал	-10.8613
Де	-10.8613
боев	-10.8613
▁покор	-10.8614
▁David	-10.8618
▁интерфейс	-10.8618
▁итальян	-10.8618
▁Un	-10.8618
▁Китае	-10.8621
▁начинал	-10.8621
шем	-10.8621
▁законодательств	-10.8622
▁называли	-10.8624
ov	-10.8624
запад	-10.8626
Со	-10.8635
РЕ	-10.8638
▁host	-10.8639
▁лог	-10.864
пределен	-10.8641
псих	-10.8642
▁основу	-10.8645
▁поручен	-10.8645
▁мясо	-10.8646
▁зал	-10.8646
▁подверга	-10.8647
▁событие	-10.8649
тической	-10.8652
▁храма	-10.8654
▁сильнее	-10.8656
▁species	-10.8656
▁плана	-10.866
▁Division	-10.8661
▁фонд	-10.8662
носят	-10.8663
оны	-10.8665
▁тайны	-10.8665
yl	-10.8665
▁гриб	-10.8665
соглас	-10.8665
▁свободно	-10.8666
МО	-10.8666
▁училище	-10.8667
▁des	-10.867
▁визит	-10.8671
▁психо	-10.8671
шко	-10.8673
роб	-10.8674
▁Гри	-10.8675
▁депутат	-10.8678
▁проблему	-10.8679
▁possible	-10.8686
▁привело	-10.8687
кос	-10.8691
▁China	-10.8691
▁заявление	-10.8692
ленд	-10.8692
▁красно	-10.8694
▁almost	-10.8695
▁смысла	-10.8696
▁процедур	-10.8697
▁выступления	-10.8697
▁многом	-10.8698
▁Васильевич	-10.8698
▁душу	-10.8699
чел	-10.8703
▁Земле	-10.8704
▁позицию	-10.8705
тянут	-10.8707
енными	-10.8709
▁фрагмент	-10.8709
ставлен	-10.8709
▁Такое	-10.8711
read	-10.8713
рут	-10.8713
водит	-10.8713
▁Кос	-10.8713
▁pi	-10.8714
▁Shi	-10.8714
▁функций	-10.8717
▁низко	-10.8718
mal	-10.872
▁среде	-10.872
ёв	-10.8721
ax	-10.8723
nce	-10.8723
▁поверхность	-10.8723
▁сказано	-10.8724
яд	-10.8724
▁руководитель	-10.8727
стру	-10.8727
▁процессы	-10.873
энд	-10.873
▁least	-10.873
▁встречается	-10.8731
▁Ответ	-10.8732
▁изучения	-10.8733
▁являлся	-10.8737
▁super	-10.8737
шли	-10.8738
ико	-10.8738
▁health	-10.8741
▁полный	-10.8741
КО	-10.8741
▁встречаются	-10.8743
▁прямой	-10.8746
резать	-10.8747
▁involved	-10.8747
Если	-10.8747
ER	-10.8747
▁рейтинг	-10.875
оде	-10.875
ua	-10.8752
▁внешне	-10.8752
пев	-10.8753
▁призёр	-10.8753
▁комп	-10.8756
▁Рай	-10.8756
▁soon	-10.8758
▁важным	-10.8758
▁столб	-10.876
▁Святого	-10.8762
▁don	-10.8764
▁действует	-10.8764
▁subject	-10.8766
▁понимал	-10.8767
▁пункта	-10.8768
eep	-10.877
▁катастроф	-10.8771
▁Ti	-10.8772
▁Президент	-10.8773
▁Party	-10.8775
▁provided	-10.8778
▁желания	-10.8779
▁services	-10.878
▁двигателя	-10.878
▁располага	-10.878
изу	-10.8782
▁понимание	-10.8783
▁базы	-10.8784
▁золото	-10.8784
ust	-10.8785
▁устав	-10.8785
%)	-10.8786
▁ворота	-10.8786
гов	-10.8787
нском	-10.8787
рва	-10.8787
▁рус	-10.8788
▁debut	-10.8789
гли	-10.8789
▁помню	-10.8789
art	-10.8789
▁функционал	-10.8792
▁сверху	-10.8792
▁попада	-10.8796
актив	-10.8797
▁model	-10.8798
▁отказыва	-10.8802
ji	-10.8803
▁выбрать	-10.8804
pos	-10.8804
▁директора	-10.8805
▁свеж	-10.8808
▁влиянием	-10.8809
▁требовал	-10.8812
▁подтвердил	-10.8813
▁железной	-10.8816
▁наград	-10.8819
становлен	-10.8822
бот	-10.8823
оса	-10.8825
▁сохраня	-10.8825
▁опасно	-10.8826
tur	-10.8827
▁recorded	-10.8828
ski	-10.883
▁face	-10.883
▁events	-10.8832
кси	-10.8832
▁заметно	-10.8834
▁Ed	-10.8836
▁мат	-10.8837
кисл	-10.8837
▁Порт	-10.8838
ект	-10.884
▁center	-10.884
мешать	-10.8842
ult	-10.8844
▁рок	-10.8844
▁республик	-10.8848
▁поста	-10.8849
вз	-10.8852
▁обусловлен	-10.8852
▁помог	-10.8852
▁сельскохозяйств	-10.8855
береж	-10.8856
правлен	-10.8857
▁Вин	-10.8857
▁Военно	-10.8858
▁гнев	-10.8859
▁sur	-10.886
vent	-10.8861
▁среднего	-10.8863
ace	-10.8865
есь	-10.8867
▁поражения	-10.8867
▁отделение	-10.887
▁конструкции	-10.887
ивания	-10.8872
▁народного	-10.8873
▁переговоры	-10.8875
техник	-10.8876
▁плод	-10.8876
rid	-10.8877
раб	-10.8878
▁древних	-10.888
ером	-10.8881
▁Крым	-10.8883
▁ресторан	-10.8884
оваться	-10.8885
щими	-10.8889
▁принадлежал	-10.8889
стал	-10.8896
ющегося	-10.8898
▁смотрит	-10.8898
▁борьбу	-10.8899
восточн	-10.8899
▁Бес	-10.89
ворот	-10.89
▁классов	-10.8904
▁политика	-10.8906
▁Лю	-10.8907
vol	-10.8907
▁объём	-10.8907
▁торговли	-10.8908
▁novel	-10.8909
▁"«	-10.891
▁ритм	-10.891
Ра	-10.8912
▁фирмы	-10.8912
▁Такой	-10.8912
▁частиц	-10.8915
▁оказа	-10.8915
▁performance	-10.8915
▁рабочего	-10.8916
▁track	-10.8916
кого	-10.8917
лежа	-10.8917
▁обид	-10.8917
▁Вели	-10.892
▁might	-10.8921
▁force	-10.8922
▁луч	-10.8922
▁разряд	-10.8922
▁странно	-10.8923
▁мнения	-10.8925
▁забил	-10.8926
▁борьба	-10.8928
дат	-10.8929
▁высшей	-10.893
▁Путин	-10.8934
▁Peter	-10.8935
▁вторая	-10.8935
ep	-10.8936
▁прогресс	-10.8937
▁Bra	-10.8943
▁делам	-10.8944
▁Бат	-10.8944
▁вел	-10.8945
▁Рей	-10.8946
▁специалист	-10.8946
▁ученых	-10.8946
▁Ярослав	-10.8949
▁писателей	-10.8949
тв	-10.895
▁объединен	-10.8952
▁восстановлен	-10.8953
▁ошиб	-10.8954
▁знаменит	-10.8961
▁председателя	-10.8961
▁холм	-10.8961
полз	-10.8962
▁нравится	-10.8963
▁Fe	-10.8965
▁потребовал	-10.8967
▁оркестр	-10.8968
дей	-10.8968
▁мета	-10.897
▁продолжил	-10.897
▁пос	-10.8971
нял	-10.8972
▁альбом	-10.8972
ЕР	-10.8973
▁Min	-10.8973
▁standard	-10.8974
▁печати	-10.8974
▁способен	-10.8974
евского	-10.8975
▁проводил	-10.8976
▁Ол	-10.8976
▁привычн	-10.8977
▁ап	-10.8979
гро	-10.8979
are	-10.898
dge	-10.898
▁острове	-10.8983
▁составляют	-10.8984
▁keep	-10.8985
▁цены	-10.8987
▁фундамент	-10.8988
▁посыл	-10.8991
▁рано	-10.8991
шат	-10.8991
▁слегка	-10.8993
ере	-10.8994
▁русском	-10.8995
▁Вар	-10.8997
▁пошли	-10.8998
чку	-10.8998
▁покупа	-10.9
▁сорт	-10.9001
▁лидер	-10.9002
▁кат	-10.9006
мож	-10.9006
len	-10.9008
▁сохрани	-10.901
ящие	-10.901
▁алгоритм	-10.901
▁моно	-10.9011
яли	-10.9013
tes	-10.9013
▁переехал	-10.9014
▁Китая	-10.9014
▁Австр	-10.9014
▁передан	-10.9018
▁воздействия	-10.9019
Ma	-10.9019
cus	-10.902
▁оборудования	-10.9027
яют	-10.9027
ken	-10.9028
▁противоречи	-10.9029
mes	-10.9031
▁эксперимент	-10.9033
▁герцог	-10.9033
▁Ki	-10.9033
▁сопротивление	-10.9035
▁обед	-10.9035
▁берега	-10.904
▁собственные	-10.9041
▁орудия	-10.9042
▁опасности	-10.9043
НА	-10.9043
▁держав	-10.9044
▁музея	-10.9046
▁взаимо	-10.9046
▁Фил	-10.9046
▁двига	-10.9048
▁предел	-10.9049
▁отрыв	-10.905
▁определение	-10.9051
▁изображение	-10.9052
брасыва	-10.9053
строитель	-10.9054
ular	-10.9054
▁Australia	-10.9054
▁МОСКВА	-10.9059
нной	-10.906
лёт	-10.906
bra	-10.9064
▁Great	-10.9065
▁переписи	-10.9068
▁торжеств	-10.9068
▁немцев	-10.9068
▁часы	-10.9069
способ	-10.9071
гент	-10.9073
▁итогам	-10.9073
кр	-10.9075
▁получают	-10.9075
▁Bas	-10.9076
▁эфир	-10.908
▁представил	-10.9083
▁намного	-10.9083
▁пьян	-10.9083
uff	-10.9084
шло	-10.9084
▁духа	-10.9085
▁инициатив	-10.9086
▁штраф	-10.9087
▁методов	-10.9088
▁режиме	-10.9088
▁составил	-10.9091
▁Христа	-10.9092
альном	-10.9093
лении	-10.9093
атели	-10.9094
▁планеты	-10.9095
▁Харьков	-10.9095
▁возможностей	-10.9096
▁train	-10.9096
▁самих	-10.9098
▁работой	-10.9099
▁каждому	-10.91
Ко	-10.91
work	-10.9101
▁question	-10.9105
rit	-10.9105
▁дворе	-10.9105
рог	-10.9106
▁передал	-10.9107
▁Лен	-10.9107
АС	-10.9108
▁проектов	-10.9109
▁VI	-10.9109
▁Прежде	-10.911
ea	-10.9111
jo	-10.9112
▁необыч	-10.9117
▁пря	-10.9119
▁руководства	-10.912
отвор	-10.9123
▁формирования	-10.9125
падает	-10.9126
▁полное	-10.9127
▁Ур	-10.9127
▁Академии	-10.9128
▁Сар	-10.9129
▁writing	-10.9129
брет	-10.913
тельным	-10.9131
▁Куб	-10.9131
тана	-10.9133
cy	-10.9134
▁section	-10.9134
▁масла	-10.9136
читыва	-10.9136
▁умел	-10.9138
▁Paris	-10.9138
▁Che	-10.9139
▁Кер	-10.9139
▁изменил	-10.9139
▁groups	-10.9139
▁Germany	-10.9142
▁многое	-10.9143
▁последовательно	-10.9146
▁геолог	-10.9157
▁районах	-10.9162
▁network	-10.9162
учил	-10.9162
▁туман	-10.9163
▁картину	-10.9163
▁предварительно	-10.9166
▁известен	-10.9168
емая	-10.9169
▁реально	-10.9169
юль	-10.9171
фашист	-10.9173
MS	-10.9174
▁французский	-10.9176
ающего	-10.9177
▁фронте	-10.9178
▁спутник	-10.9179
▁карман	-10.9181
▁секс	-10.9183
ez	-10.9185
▁plan	-10.9185
▁appointed	-10.9185
▁коммунист	-10.919
▁God	-10.919
▁cause	-10.9192
▁морской	-10.9194
▁отлично	-10.9196
зл	-10.9198
▁зале	-10.9198
▁автомобиля	-10.9199
еш	-10.92
▁всякий	-10.9203
▁Западной	-10.9203
деля	-10.9205
ийского	-10.9206
▁Моск	-10.921
▁интересы	-10.9212
▁ответствен	-10.9212
ехал	-10.9212
хрон	-10.9213
▁Алекс	-10.9214
▁входят	-10.9216
▁имеются	-10.9217
анс	-10.9218
je	-10.9218
▁performed	-10.9219
▁никого	-10.922
▁сущности	-10.922
▁депутатов	-10.922
▁голова	-10.9221
▁rock	-10.9221
▁Анна	-10.9224
▁исследование	-10.9227
логи	-10.9228
▁leading	-10.9228
Все	-10.9231
app	-10.9234
▁делом	-10.9235
▁задержан	-10.9236
▁звезды	-10.9238
▁идею	-10.9239
хром	-10.9239
▁приобрел	-10.9241
ственные	-10.9242
▁Гран	-10.9244
гиб	-10.9245
▁вызвал	-10.9246
тир	-10.9247
иды	-10.925
хов	-10.925
▁благород	-10.9253
▁Ци	-10.9257
кот	-10.9257
нок	-10.926
бег	-10.9261
▁Америка	-10.9262
▁помещения	-10.9262
▁оттуда	-10.9263
чё	-10.9264
▁собор	-10.9264
▁разумеется	-10.9266
▁программе	-10.9266
col	-10.9268
.[	-10.9269
fl	-10.9271
анти	-10.9274
▁Mr	-10.9275
ped	-10.9275
tri	-10.9276
org	-10.9276
▁передать	-10.9277
▁Charles	-10.9277
▁обеспечивает	-10.928
кут	-10.9285
сопровожда	-10.9285
разум	-10.9288
▁Аб	-10.9289
▁ждать	-10.9291
испан	-10.9293
▁Ник	-10.9293
▁единственным	-10.9295
оген	-10.9296
майор	-10.9297
▁Эль	-10.9298
сып	-10.93
▁град	-10.93
▁completed	-10.93
▁законом	-10.9301
бург	-10.9301
▁рыцар	-10.9303
▁английский	-10.9303
lk	-10.9306
▁беспоко	-10.9306
нице	-10.9311
▁Др	-10.9312
▁обучение	-10.9312
▁сказали	-10.9312
▁money	-10.9313
ЕЛ	-10.9314
▁Лес	-10.9316
chan	-10.9317
▁лучшим	-10.9318
▁нормально	-10.9319
▁темы	-10.9319
▁ho	-10.9321
▁захват	-10.9322
▁открыва	-10.9327
▁считали	-10.9328
▁продолжать	-10.9332
там	-10.9332
гель	-10.9335
house	-10.9335
▁Port	-10.9336
▁тема	-10.9338
Велико	-10.9338
Ба	-10.9339
▁прогноз	-10.9339
▁Пример	-10.9339
▁неизбежно	-10.934
жида	-10.934
основ	-10.9341
▁обраща	-10.9343
оро	-10.9344
культур	-10.9344
▁никому	-10.9344
▁decision	-10.9344
▁террорист	-10.9344
▁Одно	-10.9347
▁частот	-10.9348
▁основа	-10.935
▁очередной	-10.9351
▁ислам	-10.9352
▁упор	-10.9353
att	-10.9354
▁континент	-10.9354
▁конференции	-10.9355
▁ветер	-10.9356
ЛА	-10.9357
иев	-10.9358
▁состоянию	-10.9358
▁Hol	-10.9359
No	-10.9359
▁изначально	-10.9359
▁используя	-10.936
▁Сав	-10.9362
▁outside	-10.9363
▁XVI	-10.9363
▁гибели	-10.9364
▁продолжительн	-10.9365
▁account	-10.9366
▁фотограф	-10.9366
▁усилива	-10.9367
▁научной	-10.9372
▁длиной	-10.9374
ign	-10.9374
ОВ	-10.9375
▁столице	-10.9376
▁медали	-10.9377
рк	-10.9377
▁комнате	-10.9378
uch	-10.9379
▁технологий	-10.938
▁находилась	-10.938
ьем	-10.9381
уме	-10.9383
▁опасность	-10.9385
▁ведут	-10.9385
ita	-10.9385
▁кара	-10.9387
▁полного	-10.9387
овна	-10.9388
▁Интернет	-10.9393
▁location	-10.9393
▁семейства	-10.9393
▁боях	-10.9393
▁election	-10.9394
▁ворот	-10.9395
▁многочисленные	-10.9395
▁героев	-10.9397
гун	-10.9397
▁взаимодействия	-10.94
▁великолеп	-10.94
▁уме	-10.9401
оза	-10.9401
пуск	-10.9403
рах	-10.9406
don	-10.9407
юн	-10.9409
▁вчера	-10.941
▁орденом	-10.9411
▁require	-10.9412
ys	-10.9412
▁перешёл	-10.9412
▁высокого	-10.9414
строй	-10.9415
▁днем	-10.9416
▁Причем	-10.9417
▁исполнитель	-10.9418
▁Эм	-10.9419
ole	-10.942
▁television	-10.9423
измом	-10.9424
▁Тан	-10.9425
▁Center	-10.9426
▁instead	-10.9426
▁бре	-10.9428
носит	-10.9429
her	-10.9429
▁другому	-10.9429
▁зоны	-10.943
▁дерево	-10.943
▁религии	-10.943
▁Новый	-10.9431
▁патрон	-10.9433
▁ограничива	-10.9435
ичные	-10.9437
оля	-10.9437
▁Green	-10.9442
плеч	-10.9443
чество	-10.9444
▁Леон	-10.9449
проща	-10.9451
альд	-10.9452
икой	-10.9455
▁альтернатив	-10.9456
проб	-10.9458
ющаяся	-10.9459
вёл	-10.946
rate	-10.9461
▁мама	-10.9462
ero	-10.9463
▁квартал	-10.9464
▁Северо	-10.9465
▁ресурс	-10.9467
▁Вместо	-10.9468
▁удобно	-10.9468
пыта	-10.947
ani	-10.9472
▁математик	-10.9473
▁жесток	-10.9473
мас	-10.9473
▁Gi	-10.9473
▁темно	-10.9475
▁получать	-10.9478
▁подразделения	-10.948
▁квадрат	-10.9481
▁собаки	-10.9482
▁current	-10.9484
▁обход	-10.9487
▁brother	-10.9487
▁внимательно	-10.9487
троф	-10.9489
▁Цар	-10.9489
▁поздно	-10.949
ire	-10.949
▁Вз	-10.9492
▁Sal	-10.9494
▁одинаково	-10.9494
▁профессионально	-10.9495
ox	-10.9496
▁ваше	-10.9496
▁космос	-10.9497
▁выполнение	-10.95
сут	-10.9501
меч	-10.9501
▁конечном	-10.9504
пак	-10.9504
▁большом	-10.9505
zi	-10.9507
▁комплекса	-10.951
▁пользоваться	-10.9512
sc	-10.9512
▁key	-10.9512
▁общий	-10.9513
нике	-10.9514
▁рожда	-10.9514
▁детали	-10.9514
▁Баб	-10.9514
ome	-10.9514
▁покой	-10.9515
ировки	-10.9517
▁старше	-10.9517
▁finished	-10.9517
▁Other	-10.9518
кса	-10.9521
давая	-10.9524
ивается	-10.9524
▁гипер	-10.9526
▁That	-10.9526
▁средство	-10.9528
▁законов	-10.9529
существ	-10.953
▁плох	-10.9532
▁Отец	-10.9535
▁распространение	-10.954
▁added	-10.954
af	-10.954
ево	-10.9541
▁турнира	-10.9543
▁известны	-10.9544
чная	-10.9544
орд	-10.9546
верс	-10.9548
▁повышен	-10.9548
▁навсегда	-10.9548
▁Пал	-10.9549
▁объекты	-10.9551
вещ	-10.9551
▁верхов	-10.9559
▁Em	-10.9559
▁Часть	-10.956
▁im	-10.956
▁Мало	-10.9562
▁meeting	-10.9563
▁бросил	-10.9565
ительная	-10.9566
ьное	-10.9568
▁проще	-10.9569
▁already	-10.957
▁образу	-10.9571
вшую	-10.9571
vel	-10.9572
ительной	-10.9572
▁route	-10.9572
лых	-10.9576
▁пунктов	-10.9577
▁перевоз	-10.9579
гло	-10.9579
лас	-10.9579
▁страхов	-10.958
OS	-10.9582
▁ever	-10.9582
▁песен	-10.9583
▁немцы	-10.9585
▁Ростов	-10.9585
▁пить	-10.9587
▁корабли	-10.9587
▁чу	-10.9589
▁list	-10.959
▁аспект	-10.9591
ble	-10.9592
dia	-10.9594
▁послан	-10.9594
▁порой	-10.9595
▁west	-10.9597
▁action	-10.9599
изо	-10.9601
▁волны	-10.9602
▁провал	-10.9603
▁сочета	-10.9605
▁спектр	-10.9605
над	-10.9607
ification	-10.9609
press	-10.961
▁продаж	-10.9611
▁Бл	-10.9613
▁certain	-10.9613
▁общим	-10.9614
▁Bur	-10.9616
▁осужден	-10.962
->	-10.9621
слу	-10.9621
▁социал	-10.9622
▁east	-10.9624
▁проходил	-10.9629
▁states	-10.9629
▁масло	-10.963
▁издание	-10.9631
▁цари	-10.9632
▁достав	-10.9638
▁po	-10.964
ree	-10.9641
▁предусмотрен	-10.9641
▁бит	-10.9642
▁Петрович	-10.9644
▁высоты	-10.9644
▁asked	-10.9644
▁непрерывно	-10.9645
▁адвокат	-10.9645
▁направил	-10.9649
▁причина	-10.9649
▁бумаг	-10.9649
ТР	-10.9651
▁добра	-10.9651
скоп	-10.9652
▁вещь	-10.9652
йский	-10.9652
▁слеп	-10.9653
▁полет	-10.9655
▁миллиона	-10.9657
▁имея	-10.9657
▁Значит	-10.9659
▁поднял	-10.9659
▁враг	-10.9663
▁cut	-10.9663
▁прошел	-10.9664
▁experience	-10.9665
▁драма	-10.9665
сар	-10.9665
RE	-10.9666
фан	-10.9666
▁интер	-10.9667
▁твердо	-10.9667
нг	-10.9668
▁мораль	-10.9669
▁топ	-10.9671
инф	-10.9672
▁армян	-10.9673
▁вооружен	-10.9674
▁Washington	-10.9675
▁штата	-10.9677
▁продукты	-10.9678
roll	-10.9678
▁появления	-10.9679
вок	-10.968
dis	-10.968
del	-10.9682
▁Кас	-10.9682
йдет	-10.9683
▁поэзии	-10.9683
ква	-10.9684
▁Fi	-10.9685
▁вряд	-10.9686
▁спортсмен	-10.9689
▁американской	-10.9689
▁второе	-10.969
▁approach	-10.969
▁гроб	-10.9693
▁знание	-10.9694
▁общественных	-10.9695
▁Association	-10.9695
▁вечера	-10.9696
▁Вит	-10.9698
лип	-10.9698
▁мн	-10.9699
тая	-10.9699
▁театре	-10.9702
ological	-10.9702
▁расстояние	-10.9703
▁told	-10.9703
ируются	-10.9703
▁общения	-10.9706
▁снаряд	-10.9708
▁Canada	-10.9709
▁выбрал	-10.971
▁встреч	-10.971
лой	-10.971
▁работали	-10.971
▁выступ	-10.971
▁предлагает	-10.9711
▁Art	-10.9714
iti	-10.9714
▁Генрих	-10.9714
▁клетки	-10.9717
▁экономической	-10.9717
▁сравнительно	-10.9718
▁care	-10.9719
▁Фу	-10.9719
если	-10.9721
▁новом	-10.9722
▁board	-10.9723
бро	-10.9724
енция	-10.9724
▁высоким	-10.9724
▁create	-10.9724
▁монет	-10.9724
▁показан	-10.9725
▁господин	-10.9725
▁купить	-10.9725
teen	-10.9727
▁счастье	-10.9727
wo	-10.9728
▁манер	-10.9728
▁allowed	-10.9729
atch	-10.9729
▁Japanese	-10.9729
служ	-10.9729
оборон	-10.9729
▁White	-10.9732
▁itself	-10.9733
▁sea	-10.9735
▁кода	-10.9737
▁уровнем	-10.974
йти	-10.974
▁Тол	-10.9743
»;	-10.9745
▁rights	-10.9745
ировании	-10.9746
▁экспорт	-10.9746
▁вирус	-10.9747
▁Ивана	-10.9747
сло	-10.9747
▁суток	-10.9748
▁наклон	-10.9749
́т	-10.9751
▁Кро	-10.9752
лис	-10.9753
ST	-10.9754
▁Ген	-10.9755
▁собрать	-10.9755
ГУ	-10.9756
▁состоялась	-10.9756
▁ob	-10.9758
▁мышц	-10.976
▁изучение	-10.9761
▁божеств	-10.9762
▁лагеря	-10.9763
очная	-10.9764
▁Super	-10.9765
▁лежа	-10.9766
▁призыв	-10.9768
▁балл	-10.9769
▁причинам	-10.9769
▁Force	-10.977
ково	-10.9771
истом	-10.9771
▁playing	-10.9772
▁План	-10.9774
▁авторов	-10.9774
▁Ab	-10.9777
▁Inter	-10.9779
мерз	-10.9779
стройка	-10.9779
Ро	-10.9779
зан	-10.978
сок	-10.978
жать	-10.978
▁goal	-10.9781
▁признак	-10.9781
▁необходимые	-10.9782
NA	-10.9784
▁подчиня	-10.9787
▁опубликовал	-10.9789
▁появляются	-10.9789
друг	-10.9789
"?	-10.9791
▁relationship	-10.9792
▁мероприятия	-10.9792
крест	-10.9794
▁coach	-10.9795
▁radio	-10.9797
▁Chinese	-10.9801
▁импульс	-10.9802
rie	-10.9803
▁нежели	-10.9804
▁Стр	-10.9805
бре	-10.9805
▁метода	-10.9805
▁Hill	-10.9807
▁increase	-10.981
▁хозяин	-10.9811
▁Han	-10.9811
▁Tri	-10.9812
▁media	-10.9813
▁Вашингтон	-10.9814
▁позволял	-10.9817
тина	-10.9818
▁создавал	-10.9818
▁designed	-10.9822
▁дебютировал	-10.9825
▁text	-10.9827
ID	-10.9829
пот	-10.983
ыск	-10.9833
▁приятно	-10.9833
▁First	-10.9834
▁Юр	-10.9837
енность	-10.9837
▁вопросу	-10.9839
пеш	-10.9839
berg	-10.984
стон	-10.984
▁мини	-10.9842
▁студентов	-10.9843
▁позволяют	-10.9844
чков	-10.9847
брать	-10.9848
▁Всё	-10.9859
Те	-10.9861
▁стек	-10.9862
▁child	-10.9862
▁получа	-10.9862
▁посёлок	-10.9864
▁miles	-10.9866
▁евро	-10.9867
▁рак	-10.9867
▁добавлен	-10.9867
▁дополнительно	-10.9867
yn	-10.9869
вля	-10.9869
работал	-10.987
але	-10.9872
▁управля	-10.9874
▁воли	-10.9876
▁Mad	-10.9876
win	-10.9878
▁далек	-10.9878
эс	-10.9878
▁точку	-10.9878
▁отказаться	-10.9879
▁живых	-10.988
De	-10.9881
ующие	-10.9884
▁выбора	-10.9884
▁наука	-10.9885
пуска	-10.9888
▁сложности	-10.9888
▁degree	-10.9889
▁газет	-10.989
▁сторона	-10.989
▁разведки	-10.9891
▁билет	-10.9892
▁руководителя	-10.9895
▁поиска	-10.9897
▁pay	-10.9901
▁интеллект	-10.9902
▁планы	-10.9904
▁решительно	-10.9906
▁убийства	-10.9906
▁usually	-10.9908
**	-10.9909
ern	-10.9909
▁Russian	-10.991
▁Леонид	-10.9911
▁веру	-10.9913
ящей	-10.9915
▁economic	-10.9918
сфер	-10.9919
▁болот	-10.9919
▁средствами	-10.992
▁Championship	-10.992
▁показали	-10.9921
▁ритуал	-10.9922
▁пласт	-10.9923
▁reached	-10.9923
▁Тра	-10.9924
▁встал	-10.9925
▁выборов	-10.9926
чок	-10.9927
▁женой	-10.9927
▁основным	-10.9927
е́	-10.9929
▁МВД	-10.993
▁академик	-10.993
йдя	-10.993
▁командованием	-10.9931
▁орудий	-10.9931
нуться	-10.9932
▁кристалл	-10.9938
ированных	-10.9938
tive	-10.9939
▁оборудование	-10.994
▁us	-10.9941
лаж	-10.9942
стать	-10.9943
▁результатам	-10.9943
MA	-10.9946
▁official	-10.9949
▁хватает	-10.995
длин	-10.9953
▁голоса	-10.9954
ld	-10.9956
▁Али	-10.9956
▁стиль	-10.9958
▁бумаги	-10.9958
▁гражданской	-10.9959
▁countries	-10.9959
реб	-10.996
▁произведение	-10.996
▁атаки	-10.996
гам	-10.996
ku	-10.9968
▁канала	-10.9968
▁Ир	-10.9969
▁юге	-10.997
▁предметы	-10.9974
▁полета	-10.9975
▁Впервые	-10.9975
▁store	-10.9975
▁плюс	-10.9975
нить	-10.9976
▁утвержден	-10.9976
▁проверки	-10.9977
▁бизнеса	-10.9977
▁give	-10.9985
▁несомненно	-10.999
▁почита	-10.9991
ash	-10.9993
▁Мен	-10.9993
▁Пушкина	-10.9993
▁муч	-10.9994
▁better	-10.9994
▁пластин	-10.9996
зн	-10.9996
▁Жен	-10.9997
поз	-10.9999
▁cross	-10.9999
AC	-11.0001
▁Ам	-11.0002
▁газета	-11.0002
▁супер	-11.0004
▁rate	-11.0005
▁стрем	-11.0006
▁смотрел	-11.0006
▁феномен	-11.0007
san	-11.0007
▁везде	-11.0008
▁плит	-11.0009
мобиль	-11.0009
▁Service	-11.001
▁немецкий	-11.0011
▁лап	-11.0013
зв	-11.0013
евых	-11.0014
лый	-11.0015
▁Поли	-11.0017
▁зла	-11.0017
ym	-11.0018
▁image	-11.0019
бах	-11.0019
финанс	-11.0024
альными	-11.0025
гул	-11.0025
ады	-11.0028
▁Дю	-11.0029
▁будете	-11.0029
щин	-11.0031
▁монастыря	-11.0035
пед	-11.0035
лекс	-11.0035
▁тревог	-11.0035
duc	-11.0036
▁расположены	-11.0037
▁Одним	-11.0037
▁president	-11.0038
рук	-11.0038
lie	-11.004
торы	-11.0045
ient	-11.0047
▁системой	-11.0054
ллер	-11.006
фикс	-11.0061
▁обстоятельства	-11.0063
▁песня	-11.0064
▁связана	-11.0064
gs	-11.0065
▁останавлива	-11.0067
▁послал	-11.0068
▁собака	-11.0068
▁Ранее	-11.0071
par	-11.0074
вязыва	-11.0077
▁Bre	-11.0079
технолог	-11.0081
▁Джеймс	-11.0083
доволь	-11.0086
▁синтез	-11.0086
тера	-11.0086
▁Дар	-11.0086
▁воспоминания	-11.0089
форд	-11.0091
▁операция	-11.0091
▁таинств	-11.0091
ret	-11.0091
бож	-11.0094
▁Sea	-11.0095
▁шанс	-11.0096
▁конфликта	-11.0097
▁ул	-11.0097
▁Road	-11.0098
▁Зе	-11.0098
нки	-11.01
▁запись	-11.01
▁сутки	-11.0101
▁приз	-11.0101
▁cap	-11.0102
▁турнир	-11.0102
▁aircraft	-11.0103
густ	-11.0103
▁огромное	-11.0104
▁международного	-11.0105
▁Бра	-11.0106
▁отмечал	-11.0107
▁группой	-11.0109
arch	-11.011
▁цветов	-11.0112
генер	-11.0115
▁пытались	-11.0115
▁груди	-11.0115
▁обряд	-11.0118
▁Dan	-11.012
▁river	-11.012
▁увеличение	-11.0121
▁Первым	-11.0122
▁погибли	-11.0123
▁общественной	-11.0124
арк	-11.0125
▁учитель	-11.0125
ийская	-11.0125
▁Сид	-11.0128
▁произнес	-11.0128
▁рассказа	-11.0128
ЛИ	-11.0132
ивает	-11.0133
▁сборную	-11.0133
▁завоевал	-11.0134
▁честно	-11.0135
▁here	-11.0135
graph	-11.0136
▁великий	-11.0137
▁Начал	-11.0137
▁выплат	-11.0138
Лу	-11.014
▁НА	-11.0141
рап	-11.0142
▁farm	-11.0142
▁давление	-11.0142
▁army	-11.0144
▁sign	-11.0144
нож	-11.0146
▁союза	-11.0147
зар	-11.0148
▁Цвет	-11.0149
▁engine	-11.0149
RA	-11.015
▁лав	-11.0152
▁открытие	-11.0152
▁заключения	-11.0153
▁su	-11.0153
▁ци	-11.0154
▁Пис	-11.0155
▁Is	-11.0158
▁Кап	-11.0158
▁ran	-11.0158
war	-11.0159
▁Гал	-11.0161
▁настоящий	-11.0161
▁десант	-11.0163
▁пожалуй	-11.0164
▁преоблада	-11.0167
acy	-11.0167
горел	-11.017
бон	-11.0174
▁think	-11.0177
ированные	-11.0178
▁прошла	-11.018
▁состоялся	-11.018
▁создает	-11.0181
▁прошло	-11.0181
▁always	-11.0183
▁удивительно	-11.0183
ИС	-11.0185
▁Петербург	-11.0189
рождение	-11.0189
▁предметов	-11.019
▁previous	-11.019
▁Thomas	-11.0192
▁читателя	-11.0192
▁услуги	-11.0192
▁bank	-11.0195
▁Au	-11.0197
Хо	-11.0199
▁visit	-11.02
Рус	-11.02
аев	-11.0201
иб	-11.0202
▁лук	-11.0202
▁источника	-11.0204
▁губернатор	-11.0205
▁впрочем	-11.0206
uk	-11.0209
▁повел	-11.021
▁позволит	-11.0211
▁Основные	-11.0216
тил	-11.0216
AS	-11.0219
▁schools	-11.0222
▁щит	-11.0223
▁разрешения	-11.0223
▁рассказать	-11.0225
Един	-11.0225
▁job	-11.0226
▁отряда	-11.0227
▁Ста	-11.0229
▁Кост	-11.0233
▁зоне	-11.0235
▁поможет	-11.0237
▁восток	-11.0237
ute	-11.0238
гром	-11.024
▁СС	-11.024
▁required	-11.0241
▁агент	-11.0241
ствовал	-11.0241
▁имущества	-11.0242
▁скоростью	-11.0243
рё	-11.0243
▁находит	-11.0245
nch	-11.0245
ene	-11.0245
▁Жуков	-11.0246
▁PS	-11.0248
▁Times	-11.0248
▁травм	-11.0249
▁replaced	-11.0249
▁утро	-11.0252
cker	-11.0253
▁метро	-11.0255
кажите	-11.0255
▁пищи	-11.0257
уру	-11.0259
▁защиту	-11.0259
▁future	-11.026
▁Прав	-11.0261
вшуюся	-11.0264
▁атаку	-11.0267
▁коллеги	-11.0267
▁носит	-11.0268
нцы	-11.0268
▁рев	-11.0269
▁подходит	-11.027
▁Пас	-11.0271
▁секретарь	-11.0273
▁пище	-11.0274
▁Ав	-11.0275
▁обработки	-11.0276
рван	-11.0276
▁ежегодно	-11.0278
▁Большой	-11.0278
бай	-11.0278
▁обоснован	-11.0279
лент	-11.028
▁финал	-11.0281
("	-11.0282
▁уехал	-11.0283
▁Кре	-11.0284
▁благ	-11.0286
▁уступ	-11.0289
▁traditional	-11.0292
▁владе	-11.0293
для	-11.0294
▁веб	-11.0295
раг	-11.0295
▁leg	-11.0297
▁мягко	-11.0298
▁прибор	-11.0298
▁Мел	-11.0299
ale	-11.0302
▁mission	-11.0303
▁жанр	-11.0303
риф	-11.0304
▁Игорь	-11.0304
▁Пара	-11.0306
ister	-11.0307
▁lower	-11.031
▁соперник	-11.0312
▁Ск	-11.0315
▁крейсер	-11.0315
ступает	-11.0316
▁делали	-11.0318
ano	-11.0318
▁оставался	-11.0319
▁скот	-11.0319
ric	-11.0319
▁пещер	-11.0321
тора	-11.0321
▁Код	-11.0323
Ст	-11.0324
▁цивилизации	-11.0327
▁баланс	-11.0327
▁tax	-11.0328
ныне	-11.033
▁температуры	-11.033
▁двигатель	-11.0332
▁принципе	-11.0332
istic	-11.0332
▁каш	-11.0334
bs	-11.0335
▁взрыва	-11.0335
▁founded	-11.0335
▁скажем	-11.0337
▁старых	-11.0338
▁теми	-11.034
▁пен	-11.034
пен	-11.0348
▁дисциплин	-11.0349
▁above	-11.0349
▁Tu	-11.0351
Из	-11.0353
ип	-11.0354
▁экспедиции	-11.0354
нять	-11.0356
глад	-11.0356
▁difficult	-11.0357
▁sound	-11.0358
▁крепости	-11.0362
▁island	-11.0362
▁отказа	-11.0363
шер	-11.0364
▁кислот	-11.0365
▁зарплат	-11.0369
▁featured	-11.037
head	-11.037
▁столетия	-11.0373
▁ценности	-11.0373
ните	-11.0376
▁чувствует	-11.0377
▁привык	-11.0378
▁мышления	-11.0378
итов	-11.0378
оид	-11.0383
▁taking	-11.0383
функцион	-11.0385
▁стрелков	-11.0386
▁food	-11.0387
▁определяет	-11.0387
▁позиция	-11.0387
▁call	-11.0389
Си	-11.0392
▁UK	-11.0393
▁границу	-11.0395
▁детьми	-11.0398
▁жилищ	-11.0399
оциалистического	-11.04
right	-11.0403
ject	-11.0404
▁объявлен	-11.0405
▁пас	-11.0406
чина	-11.0407
▁американского	-11.0408
времен	-11.0409
▁стояли	-11.0409
вшими	-11.0411
шив	-11.0415
▁среду	-11.0415
sky	-11.0415
ced	-11.0416
▁пистолет	-11.0417
eng	-11.042
rent	-11.042
▁привод	-11.042
▁отпуск	-11.0421
▁прекратил	-11.0424
▁выразил	-11.0424
▁ракеты	-11.0425
▁центральной	-11.0425
▁возникают	-11.0426
▁майор	-11.0427
плю	-11.0428
▁учителя	-11.0428
▁качеств	-11.0429
▁усили	-11.0429
▁негатив	-11.0431
иде	-11.0431
ходят	-11.0433
иком	-11.0434
uc	-11.0435
скольз	-11.0437
▁серий	-11.0437
фри	-11.0438
▁Ум	-11.0438
▁наследник	-11.0439
▁whose	-11.044
▁последним	-11.0441
▁Pan	-11.0441
▁электриче	-11.0442
▁подобного	-11.0443
▁Day	-11.0444
ware	-11.0446
▁приступ	-11.0447
РУ	-11.0447
▁Bay	-11.0448
▁print	-11.0449
плыв	-11.045
пир	-11.0451
cer	-11.0452
▁хирург	-11.0452
▁ответа	-11.0453
чко	-11.0454
чную	-11.0454
▁follow	-11.0455
▁introduced	-11.0456
▁Греции	-11.0458
▁Je	-11.0459
▁выражения	-11.0461
Основ	-11.0462
▁охраны	-11.0463
▁третьего	-11.0465
▁спорт	-11.0465
▁применять	-11.0468
▁обратился	-11.0469
▁стоят	-11.047
▁подвиг	-11.047
▁культура	-11.0471
рии	-11.0473
▁процент	-11.0477
нка	-11.0477
hal	-11.0478
▁давать	-11.0478
ett	-11.0481
▁диалект	-11.0482
▁Рос	-11.0485
части	-11.0487
ery	-11.049
▁Since	-11.0493
▁курса	-11.0494
▁ab	-11.0494
▁стоимости	-11.0496
▁коррект	-11.0497
ency	-11.0497
▁настроен	-11.0497
▁Советской	-11.0499
▁закончил	-11.0499
▁судьбы	-11.0499
белорус	-11.0502
tle	-11.0503
▁достойн	-11.0504
▁стадион	-11.0506
eb	-11.0507
шку	-11.0508
рын	-11.0508
▁традиционно	-11.0512
▁стат	-11.0512
▁эксперт	-11.0514
▁передает	-11.0515
ТА	-11.0515
ящего	-11.0515
rich	-11.0516
евым	-11.0518
▁ball	-11.0518
▁Мой	-11.052
двойн	-11.052
▁Первое	-11.0521
▁хороший	-11.0522
▁кадров	-11.0523
украин	-11.0525
▁наличии	-11.0526
▁Разве	-11.0527
tar	-11.053
хожу	-11.0531
▁TV	-11.0531
▁Fo	-11.0532
▁уйти	-11.0532
▁пусто	-11.0533
▁севере	-11.0534
языч	-11.0536
правил	-11.0536
левой	-11.0537
▁образа	-11.0538
▁evidence	-11.0539
!!!	-11.054
сущ	-11.054
мина	-11.0541
▁удален	-11.0543
▁размере	-11.0543
▁фотографии	-11.0543
▁пыта	-11.0545
▁столицы	-11.0546
систем	-11.0546
▁подчеркнул	-11.0546
▁Department	-11.0547
▁вызвать	-11.0548
▁beginning	-11.0549
user	-11.055
ственный	-11.0553
чества	-11.0557
ify	-11.0557
завис	-11.0561
тяг	-11.0565
▁Гр	-11.0566
▁правой	-11.0567
▁молча	-11.0567
▁especially	-11.0568
▁комнату	-11.0568
▁республика	-11.0571
▁ходу	-11.0571
▁берегов	-11.0572
▁largest	-11.0572
ama	-11.0574
▁natural	-11.058
▁выполнить	-11.0581
reg	-11.0581
бира	-11.0584
▁услышал	-11.0585
▁towards	-11.0586
▁Император	-11.0587
▁подъем	-11.059
▁уважа	-11.059
▁Зим	-11.059
▁каждым	-11.0592
▁языком	-11.0592
▁патриарх	-11.0592
▁социального	-11.0593
▁каждое	-11.0594
▁настоящего	-11.0594
▁деревья	-11.0595
?..	-11.0596
еро	-11.06
▁парк	-11.06
▁глубин	-11.06
▁наряду	-11.0601
▁матча	-11.0601
▁транспорта	-11.0603
вания	-11.0604
▁отверг	-11.0605
рвать	-11.0606
ийских	-11.0609
▁стакан	-11.0609
▁Лет	-11.061
▁въ	-11.0611
люк	-11.0612
▁менеджер	-11.0614
▁Иосиф	-11.0616
▁статью	-11.0617
▁successful	-11.0618
▁clear	-11.0619
▁block	-11.0619
▁творчески	-11.062
▁enough	-11.0621
▁flow	-11.0621
Авто	-11.0622
▁носил	-11.0627
зрел	-11.0628
▁обер	-11.0628
▁производстве	-11.0629
ставлять	-11.0631
▁случаи	-11.0631
изацию	-11.0631
lat	-11.0633
▁украшен	-11.0633
▁следующих	-11.0636
▁Лондоне	-11.0636
lies	-11.0636
Data	-11.0637
erry	-11.0638
▁Красного	-11.0638
ценз	-11.0638
лаг	-11.064
▁напоминает	-11.064
▁культ	-11.0642
▁Music	-11.0643
▁камень	-11.0643
▁держал	-11.065
▁attempt	-11.0651
▁колен	-11.0653
rated	-11.0653
емое	-11.0653
▁акций	-11.0657
▁Ричард	-11.0657
мешан	-11.0657
▁берет	-11.0658
▁pass	-11.066
▁Ke	-11.066
▁англичан	-11.0661
▁обеих	-11.0662
▁соглашение	-11.0662
▁active	-11.0663
▁приложение	-11.0663
▁индекс	-11.0664
▁hold	-11.0666
жный	-11.0667
▁лета	-11.0669
левых	-11.0669
▁вершин	-11.067
▁placed	-11.0672
▁кампании	-11.0674
▁var	-11.0675
рост	-11.0677
▁look	-11.0678
▁ежедневно	-11.0679
▁цирк	-11.0681
atory	-11.0682
SA	-11.0682
ческого	-11.0682
док	-11.0683
ians	-11.0683
фра	-11.0684
▁сцены	-11.0684
ляция	-11.0687
ивая	-11.0687
сни	-11.0691
▁Такая	-11.0691
▁океана	-11.0692
▁значительной	-11.0692
▁уст	-11.0692
▁входил	-11.0694
ращива	-11.0695
▁Нужно	-11.07
▁яйца	-11.0702
атора	-11.0702
▁специальных	-11.0702
▁сон	-11.0703
▁службе	-11.0706
▁players	-11.0706
▁бассейн	-11.0707
ye	-11.0708
таль	-11.0709
▁душ	-11.0709
▁оказаться	-11.0709
▁осторожно	-11.071
▁открыть	-11.0713
▁shows	-11.0713
atic	-11.0713
▁дерева	-11.0715
ола	-11.0716
▁миром	-11.0717
▁компонент	-11.0718
▁искал	-11.0721
▁прогул	-11.0722
ged	-11.0723
Ку	-11.0727
▁мак	-11.0728
▁клиента	-11.073
▁Michael	-11.0732
жев	-11.0733
▁Sta	-11.0734
▁кстати	-11.0734
▁высоких	-11.0735
▁African	-11.0736
жения	-11.0739
vin	-11.074
▁Польши	-11.074
▁продукта	-11.0741
▁приём	-11.0742
▁via	-11.0742
avi	-11.0745
▁прочих	-11.0745
слушива	-11.0746
▁отмечает	-11.0747
▁done	-11.0747
▁описания	-11.0748
▁переименован	-11.0748
▁выпустил	-11.0749
▁заметить	-11.0749
▁сельсовета	-11.075
▁греб	-11.0751
▁Адам	-11.0751
душев	-11.0752
▁изготовлен	-11.0755
▁герб	-11.0755
иска	-11.0756
фил	-11.0758
▁требу	-11.0761
даются	-11.0765
лиц	-11.0766
▁square	-11.0766
▁wide	-11.0768
штейн	-11.077
cat	-11.077
ющееся	-11.077
фир	-11.0771
льской	-11.0771
дам	-11.0771
▁ящик	-11.0772
кция	-11.0772
▁Другие	-11.0772
▁пес	-11.0773
▁Бело	-11.0774
▁Bro	-11.0774
▁истребитель	-11.0774
▁отправил	-11.0775
▁тобой	-11.0776
▁ничем	-11.0776
▁взлет	-11.0776
ena	-11.0777
▁проявля	-11.0781
▁понимания	-11.0783
▁вино	-11.0784
▁скульптур	-11.0785
▁учения	-11.0785
▁высокий	-11.0791
екции	-11.0795
▁Es	-11.08
▁заговор	-11.0802
еты	-11.0802
▁исторических	-11.0805
▁каждую	-11.0805
pin	-11.0806
▁Dis	-11.0806
щет	-11.0807
▁любое	-11.0807
тический	-11.0808
▁акции	-11.0808
против	-11.0809
▁поддерживал	-11.081
начал	-11.0812
▁использовали	-11.0812
▁собрание	-11.0812
▁отнюдь	-11.0813
▁колонн	-11.0817
▁супруг	-11.0818
▁собеседник	-11.082
кад	-11.082
губ	-11.0821
ава	-11.0822
▁учился	-11.0822
яж	-11.0824
ala	-11.0824
▁Часто	-11.0824
яться	-11.0825
▁развед	-11.0827
▁сумма	-11.0828
▁хол	-11.0829
▁Марии	-11.0829
▁газов	-11.0829
▁Кла	-11.0829
▁командование	-11.083
▁para	-11.0831
▁Award	-11.0831
▁аппарата	-11.0832
ометр	-11.0832
▁Richard	-11.0834
держал	-11.0834
▁ограничения	-11.0838
истин	-11.0838
▁давления	-11.0839
троп	-11.0841
▁обстоятельств	-11.0841
▁Богу	-11.0842
▁листья	-11.0842
лейтенант	-11.0842
динами	-11.0843
▁впереди	-11.0843
▁приняты	-11.0845
любов	-11.0846
вез	-11.0847
▁woman	-11.0847
▁qua	-11.0848
ицу	-11.0849
▁приток	-11.0849
▁упомина	-11.085
▁бывают	-11.0853
▁темп	-11.0853
▁ед	-11.0853
▁shot	-11.0854
тира	-11.0854
▁бронз	-11.0855
▁Одновременно	-11.0855
▁важных	-11.0856
▁Маркс	-11.0857
пускать	-11.0858
▁предлагал	-11.0858
▁последовал	-11.086
▁мною	-11.086
▁ожидал	-11.0861
bor	-11.0862
▁вооружение	-11.0862
▁глав	-11.0862
▁температур	-11.0862
▁предоставля	-11.0863
здрав	-11.0864
▁оставаться	-11.0864
провод	-11.0864
board	-11.0866
оты	-11.0867
▁победил	-11.0868
pur	-11.0868
уются	-11.0869
хин	-11.0874
ослов	-11.0875
▁объединения	-11.0875
▁крив	-11.0875
▁Свят	-11.0877
биты	-11.0881
ini	-11.0884
▁физик	-11.0886
▁оставалось	-11.0886
нное	-11.0887
bal	-11.0887
▁дневник	-11.0888
▁проспект	-11.0888
▁league	-11.089
top	-11.089
▁сестра	-11.0891
фен	-11.0893
▁Пен	-11.0894
кре	-11.0895
дри	-11.0896
▁Ещё	-11.0897
▁Japan	-11.0898
▁кофе	-11.0901
▁устроил	-11.0902
▁различными	-11.0903
▁Белоруссии	-11.0905
▁Нас	-11.0905
▁шоссе	-11.0906
cu	-11.0907
PA	-11.0911
▁начались	-11.0913
ura	-11.0914
ОЛ	-11.0914
▁plant	-11.0916
▁золота	-11.0918
▁предо	-11.092
ase	-11.0921
▁элит	-11.0922
▁взяли	-11.0923
▁serve	-11.0924
имость	-11.0925
памят	-11.0925
▁Население	-11.0925
key	-11.0926
люд	-11.0931
▁Cal	-11.0932
▁соглашения	-11.0939
дикт	-11.094
▁сильным	-11.0941
▁Ben	-11.0941
▁лучший	-11.0942
▁female	-11.0943
▁заключение	-11.0943
▁девушки	-11.0944
▁cur	-11.0944
▁нравственно	-11.0946
CA	-11.0947
рский	-11.0949
▁Хорошо	-11.0949
▁озеро	-11.0951
▁seat	-11.0951
ставляют	-11.0956
▁Western	-11.0957
▁Питер	-11.0957
▁Эл	-11.0958
▁Club	-11.0958
▁купил	-11.0958
драгоценн	-11.0958
gin	-11.0959
▁сосредоточен	-11.0959
▁монарх	-11.0961
ОТ	-11.0963
аса	-11.0963
rm	-11.0963
ston	-11.0965
▁остаются	-11.0966
ивают	-11.0966
▁themselves	-11.0968
▁свидетельствует	-11.097
▁районов	-11.097
ответ	-11.0972
▁wanted	-11.0973
ugh	-11.0974
ающая	-11.0975
шему	-11.0977
▁Лишь	-11.0978
▁пра	-11.0979
▁Время	-11.098
левого	-11.0981
▁структура	-11.0981
▁division	-11.0982
▁разреша	-11.0983
AD	-11.0984
▁Министерства	-11.0987
жир	-11.099
▁enter	-11.0992
▁музыку	-11.0994
oke	-11.0994
ОК	-11.0995
▁окончании	-11.0996
▁предоставлен	-11.0997
▁фильмов	-11.0998
▁учетом	-11.0999
▁комплект	-11.1
▁отход	-11.1
▁формат	-11.1005
▁адмирал	-11.1006
▁юноше	-11.1007
▁Мартин	-11.1007
nic	-11.1008
ches	-11.101
struct	-11.1012
▁старый	-11.1012
▁одинаковы	-11.1014
ind	-11.1014
▁клиентов	-11.1017
▁join	-11.1018
▁Henry	-11.1023
помни	-11.1024
морф	-11.1025
▁пределы	-11.1025
▁экзамен	-11.1025
▁используем	-11.1026
▁друж	-11.1028
▁диапазон	-11.103
▁звёзд	-11.1031
▁больных	-11.1031
▁Евгений	-11.1032
ВА	-11.1032
▁обстрел	-11.1032
▁урок	-11.1032
▁матчей	-11.1033
now	-11.1033
▁цена	-11.1033
▁зачастую	-11.1033
чего	-11.1034
▁детям	-11.1035
▁Красно	-11.1038
rem	-11.1038
цом	-11.1039
слаб	-11.1042
zo	-11.1042
летней	-11.1043
▁culture	-11.1044
▁броса	-11.1046
stream	-11.1046
▁археолог	-11.1047
ированный	-11.1047
▁нужда	-11.1048
▁связей	-11.1048
▁появление	-11.105
▁Australian	-11.105
▁Йо	-11.1051
▁лак	-11.1052
▁болезнь	-11.1052
▁Президиума	-11.1052
▁Chi	-11.1052
ктор	-11.1054
нья	-11.1055
▁Вен	-11.1055
ати	-11.1056
ющимся	-11.1057
▁whom	-11.1058
▁хлоп	-11.1059
▁светло	-11.106
ump	-11.1063
pha	-11.1065
▁charge	-11.1065
▁influence	-11.1066
▁европейских	-11.1067
▁сотрудники	-11.1067
▁обратил	-11.1067
▁расти	-11.1069
▁принимают	-11.1069
▁legal	-11.107
▁касс	-11.1071
▁окружающей	-11.1072
ВО	-11.1074
▁любые	-11.1076
▁политике	-11.1076
▁increased	-11.1079
чий	-11.108
ГА	-11.1081
вир	-11.1083
▁Los	-11.1083
▁факты	-11.1084
▁характеристик	-11.1084
▁обращения	-11.1086
▁changed	-11.1088
▁кирпич	-11.1091
жей	-11.1091
▁Soviet	-11.1093
▁целиком	-11.1094
▁central	-11.1095
▁детства	-11.1095
▁видом	-11.1096
▁арт	-11.1098
▁Оба	-11.1098
▁допуска	-11.1098
ging	-11.1099
▁бригад	-11.1099
▁физики	-11.1101
бирать	-11.1101
▁significant	-11.1102
▁Больше	-11.1105
ировка	-11.1107
▁регионе	-11.1108
КИ	-11.1109
▁результатом	-11.1109
las	-11.1111
овском	-11.1112
▁ствол	-11.1113
▁личного	-11.1114
ичность	-11.1115
рет	-11.1116
▁приспособлен	-11.1118
усь	-11.1118
▁Society	-11.112
▁эксплуатации	-11.1121
ича	-11.1121
КС	-11.1126
▁культуре	-11.1126
▁соч	-11.1127
▁ушел	-11.1128
▁создана	-11.113
▁особого	-11.1132
▁Михаила	-11.1134
Кон	-11.1134
▁скандал	-11.1135
изировать	-11.1135
ese	-11.1136
▁individual	-11.1137
▁известным	-11.1138
▁Many	-11.114
▁десятки	-11.1141
▁чудо	-11.1143
око	-11.1143
нович	-11.1144
ЛЕ	-11.1145
▁red	-11.1145
▁проверить	-11.1146
▁принятия	-11.1146
▁живой	-11.1147
▁занимается	-11.1147
Петербург	-11.1149
▁обеспечение	-11.1152
▁auto	-11.1152
шифр	-11.1153
▁features	-11.1153
▁представляю	-11.1154
▁Длина	-11.1155
▁Кот	-11.1156
▁Two	-11.1157
▁попасть	-11.1159
▁prevent	-11.1161
▁физической	-11.1162
▁Герман	-11.1162
▁инвестици	-11.1166
▁сделано	-11.1168
▁латин	-11.1169
рий	-11.1169
fully	-11.1169
▁заканчива	-11.117
▁внутреннего	-11.1172
▁политику	-11.1173
сман	-11.1173
ОД	-11.1173
▁Роз	-11.1174
▁люблю	-11.1175
▁двадцати	-11.1175
▁залив	-11.1177
▁Science	-11.1177
▁Львов	-11.1178
▁unit	-11.1178
▁брать	-11.1178
▁professional	-11.1178
▁молитв	-11.1179
бега	-11.1179
TA	-11.118
▁самую	-11.1181
▁feet	-11.1183
▁размеща	-11.1184
▁выглядел	-11.1184
емым	-11.1186
▁Федер	-11.1187
▁имеющих	-11.1187
▁пользователя	-11.119
Корр	-11.1191
▁безопасн	-11.1192
▁помогал	-11.1193
ender	-11.1193
▁Глав	-11.1194
▁напряжение	-11.1195
▁stop	-11.1196
паль	-11.1197
▁факторов	-11.1199
▁созданию	-11.1199
▁возможным	-11.12
▁требуют	-11.1201
lit	-11.1202
▁поддерживает	-11.1206
ux	-11.1208
ui	-11.1209
▁президентом	-11.1209
▁мужик	-11.121
www	-11.121
▁возглавил	-11.1212
лета	-11.1212
тическая	-11.1212
ook	-11.1213
верт	-11.1214
▁Павлов	-11.1214
lea	-11.1215
wait	-11.1216
▁бежал	-11.1216
▁борту	-11.1217
▁ткани	-11.1217
▁response	-11.1218
▁самолёт	-11.1218
▁поселение	-11.1221
La	-11.1221
▁вернуть	-11.1221
▁Церковь	-11.1222
▁summer	-11.1222
▁пойти	-11.1223
ola	-11.1223
▁предполагает	-11.1223
▁почувствовал	-11.1224
▁усилен	-11.1226
sha	-11.1226
▁дыр	-11.1227
▁икон	-11.1227
вала	-11.1229
▁отличаются	-11.123
▁использовании	-11.1231
▁Grand	-11.1232
▁узко	-11.1233
▁смогут	-11.1233
▁упомянут	-11.1234
▁ответить	-11.1236
lip	-11.1238
▁грубо	-11.1238
ald	-11.1239
ища	-11.1239
▁винтов	-11.1239
▁лоб	-11.1243
▁thus	-11.1245
▁услов	-11.1245
▁Зо	-11.1245
▁Николаев	-11.1246
▁turned	-11.1251
▁сухо	-11.1252
▁оси	-11.1254
▁нормы	-11.1256
▁спирт	-11.1256
▁французского	-11.1261
▁собою	-11.1261
▁написано	-11.1261
▁иду	-11.1262
▁облик	-11.1262
▁сидя	-11.1263
▁прокурор	-11.1264
▁Петербурге	-11.1266
▁перейти	-11.1266
▁волости	-11.1267
▁месту	-11.1268
▁collection	-11.1268
▁capital	-11.1269
▁Вообще	-11.127
рн	-11.1271
▁Васильев	-11.1271
антов	-11.1273
▁заводе	-11.1274
▁Россией	-11.1275
▁островов	-11.1275
▁Mary	-11.1275
ственно	-11.1276
fu	-11.1276
▁Minister	-11.1279
▁робот	-11.128
очную	-11.128
▁батальона	-11.1284
▁talk	-11.1285
Co	-11.1286
▁проявления	-11.1286
тельное	-11.1288
чное	-11.1289
▁приблизительно	-11.1291
▁ошибок	-11.1291
▁восста	-11.1291
карт	-11.1291
BA	-11.1292
▁исполнения	-11.1292
▁Иоанн	-11.1292
орет	-11.1294
▁Окончил	-11.1296
▁прекращ	-11.1297
▁порог	-11.1297
▁Пес	-11.1298
ческий	-11.1298
▁недалеко	-11.1299
point	-11.13
прашива	-11.13
смея	-11.1301
▁расширя	-11.1301
льц	-11.1303
ved	-11.1304
▁Smith	-11.1306
еда	-11.1306
▁привлек	-11.1307
▁покрыт	-11.1312
▁левой	-11.1313
▁армией	-11.1313
енг	-11.1313
ost	-11.1314
▁Никто	-11.1315
▁музыкант	-11.1317
Ла	-11.1318
▁поддерживать	-11.1319
▁пределами	-11.132
стов	-11.1323
▁публично	-11.1324
ленный	-11.1324
▁стих	-11.1324
оци	-11.1326
▁наступления	-11.1327
▁жид	-11.1327
mail	-11.133
▁bomb	-11.1332
▁переговоров	-11.1332
▁боевые	-11.1333
ированы	-11.1334
▁съезд	-11.1336
▁верхней	-11.1337
▁ваших	-11.1337
▁повышение	-11.1338
дис	-11.1338
▁строки	-11.134
луж	-11.1341
▁держать	-11.1342
▁Institute	-11.1342
▁согласился	-11.1342
▁lack	-11.1343
ставка	-11.1344
уголь	-11.1346
▁различия	-11.1346
▁Список	-11.1348
механ	-11.1351
нула	-11.1351
▁Сибири	-11.1352
офф	-11.1353
▁народу	-11.1354
▁применя	-11.1354
▁сорок	-11.1355
▁songs	-11.1358
▁true	-11.1359
пали	-11.1359
▁бытия	-11.136
▁декор	-11.1361
▁вероятность	-11.1361
▁экономического	-11.1362
▁наказания	-11.1362
▁меньшей	-11.1362
▁higher	-11.1364
ительное	-11.1365
▁Были	-11.1365
▁дизайн	-11.1365
▁май	-11.1365
▁английского	-11.1367
▁осталась	-11.1367
▁ставит	-11.1368
колон	-11.1369
▁библиотека	-11.1369
▁происходило	-11.1371
▁ламп	-11.1372
equ	-11.1373
▁линию	-11.1374
▁уходит	-11.1374
▁Станислав	-11.1374
▁разрешение	-11.1375
▁слез	-11.1376
одно	-11.1378
сла	-11.1378
▁карте	-11.1379
▁профессора	-11.1379
▁телеканал	-11.138
▁Год	-11.1381
▁Ваш	-11.1382
▁абсолют	-11.1382
▁Жив	-11.1383
CO	-11.1383
▁получилось	-11.1383
▁местные	-11.1383
устойчив	-11.1384
▁Матери	-11.1384
▁means	-11.1389
▁взаимно	-11.1389
illa	-11.139
мех	-11.1391
▁cast	-11.1391
▁Rock	-11.1392
vision	-11.1392
▁психологии	-11.1394
matic	-11.1394
брод	-11.1399
ехали	-11.14
Пер	-11.1401
▁Восточной	-11.1402
▁общих	-11.1402
worth	-11.1404
ичным	-11.1407
ерс	-11.1408
▁подготовке	-11.1409
австри	-11.1409
mate	-11.1409
ending	-11.1412
пуга	-11.1415
кали	-11.1416
▁снять	-11.1417
льского	-11.1419
▁следовало	-11.142
▁Гей	-11.1421
▁park	-11.1421
лё	-11.1422
▁немецкой	-11.1423
hor	-11.1425
звал	-11.1425
▁девять	-11.1426
sort	-11.1426
▁имущество	-11.1426
▁запуска	-11.1427
▁boy	-11.1427
▁Турции	-11.1427
блок	-11.1428
();	-11.1428
▁parts	-11.1429
▁обзор	-11.143
▁возвышен	-11.143
▁некоторым	-11.1432
▁веры	-11.1433
дина	-11.1434
▁казни	-11.1434
▁запрещен	-11.1434
▁разработке	-11.1434
дова	-11.1434
▁Игра	-11.1435
▁начальником	-11.1436
▁ряде	-11.1436
▁Сад	-11.1442
▁обслужива	-11.1443
▁football	-11.1445
▁mis	-11.1446
▁Following	-11.1446
AT	-11.1446
▁маленький	-11.1447
мобил	-11.1447
▁принципы	-11.1448
race	-11.145
ага	-11.145
▁высота	-11.1451
▁аэро	-11.1452
нор	-11.1452
ировав	-11.1452
▁Михайлов	-11.1453
сам	-11.1454
▁середины	-11.1455
▁эпох	-11.1456
▁Gar	-11.1457
▁заинтересован	-11.1457
атур	-11.1457
mat	-11.1459
лению	-11.146
BC	-11.146
▁elected	-11.1461
▁штук	-11.1461
▁эволюции	-11.1462
▁обнаружили	-11.1464
останов	-11.1466
▁сыном	-11.1466
казал	-11.1468
▁платформ	-11.147
▁красиво	-11.1471
▁Слово	-11.1471
▁earlier	-11.1472
ula	-11.1472
▁вал	-11.1473
▁комиссар	-11.1476
▁безусловно	-11.1476
лые	-11.1479
▁толк	-11.1481
▁college	-11.1483
▁врагов	-11.1483
▁исполнение	-11.1485
▁известного	-11.1486
ьном	-11.1486
▁вылет	-11.1487
▁форум	-11.1489
▁движении	-11.1489
вержен	-11.149
▁Вселенной	-11.1492
католич	-11.1492
▁работала	-11.1492
▁хозяйство	-11.1493
▁расширен	-11.1493
▁достичь	-11.1494
TV	-11.1494
▁according	-11.1497
▁существа	-11.1499
▁властей	-11.1501
▁Mu	-11.1503
▁пир	-11.1503
▁Дан	-11.1505
▁участка	-11.1505
▁одежды	-11.1506
▁units	-11.1506
▁fr	-11.1509
▁passed	-11.151
▁установил	-11.1512
▁сохранил	-11.1512
желт	-11.1512
исс	-11.1512
спа	-11.1515
▁высшего	-11.1515
▁работник	-11.1516
▁перехода	-11.1516
▁Юго	-11.1516
▁соблюден	-11.1516
▁Wa	-11.1517
▁фильтр	-11.1517
▁участники	-11.1519
▁советские	-11.1519
▁Созда	-11.152
▁step	-11.1521
▁industry	-11.1522
▁ван	-11.1522
плачива	-11.1529
▁журнале	-11.1529
▁Catholic	-11.1531
оров	-11.1531
пост	-11.1531
▁захвачен	-11.1532
▁западной	-11.1533
ноги	-11.1533
нским	-11.1537
▁родов	-11.1538
▁многочисленных	-11.1538
▁Позднее	-11.1538
▁paper	-11.1539
▁страха	-11.1539
кажет	-11.1539
шке	-11.154
▁Ил	-11.154
▁достал	-11.1541
▁канон	-11.1541
lf	-11.1543
▁искусстве	-11.1544
ковского	-11.1545
▁Форм	-11.1547
▁подобное	-11.1547
нье	-11.1549
▁Томас	-11.1549
▁Университет	-11.1549
▁Don	-11.1549
▁дум	-11.155
▁Дев	-11.1551
▁двора	-11.1551
▁document	-11.1551
▁кабинет	-11.1553
▁пригласил	-11.1553
▁судеб	-11.1555
▁реку	-11.1558
дз	-11.156
▁письменно	-11.156
▁пациент	-11.1561
шение	-11.1562
▁неправильно	-11.1563
▁Марс	-11.1564
▁Of	-11.1564
▁психологически	-11.1565
▁пушки	-11.1566
▁forced	-11.1568
▁похорон	-11.157
▁Андре	-11.1571
бив	-11.1571
ОП	-11.1572
▁зенит	-11.1574
ствует	-11.1576
▁награжден	-11.1577
▁фланг	-11.1577
▁кип	-11.1577
▁положительно	-11.1578
Кар	-11.1578
▁эмоционально	-11.1579
▁Впоследствии	-11.1583
▁ended	-11.1583
▁Сирии	-11.1584
▁тормоз	-11.1585
▁полёт	-11.1586
▁коридор	-11.1588
▁характеристики	-11.159
ЕВ	-11.159
▁документа	-11.159
нера	-11.1591
not	-11.1593
▁удара	-11.1595
▁восстания	-11.1595
▁troops	-11.1597
дре	-11.1598
▁обращение	-11.1599
▁прочим	-11.1599
▁драматург	-11.1599
▁списка	-11.1601
▁газете	-11.1603
▁танка	-11.1604
чук	-11.1604
▁художников	-11.1606
▁Мур	-11.1606
крывать	-11.1607
▁схема	-11.1607
ственных	-11.1607
▁Cla	-11.1607
▁специальные	-11.1608
▁предприятие	-11.1608
▁шахт	-11.1609
verse	-11.1612
▁нефти	-11.1614
▁представляется	-11.1614
идов	-11.1615
▁последнем	-11.1616
▁говорилось	-11.1617
чке	-11.1617
ib	-11.162
▁Давид	-11.1622
▁волосы	-11.1623
▁тремя	-11.1624
олом	-11.1626
cc	-11.1628
▁звуков	-11.1628
▁солдаты	-11.1629
▁Tom	-11.1629
черк	-11.163
▁элемента	-11.163
spi	-11.1631
bel	-11.1631
▁systems	-11.1633
▁воевод	-11.1634
▁звания	-11.1634
▁определил	-11.1635
▁независимы	-11.1635
сматрива	-11.1636
▁принципа	-11.1637
▁срока	-11.164
▁границе	-11.1641
▁Шт	-11.1643
▁выполня	-11.1643
▁Пра	-11.1645
rating	-11.1645
▁Участник	-11.1646
▁моем	-11.1646
ироваться	-11.1646
▁завершил	-11.1646
▁поражен	-11.1651
▁kind	-11.1652
▁молодого	-11.1654
▁Sun	-11.1655
▁Валентин	-11.1656
▁полит	-11.1657
▁доступа	-11.1657
pot	-11.1659
▁звер	-11.166
▁measure	-11.166
▁политические	-11.1662
▁color	-11.1662
▁Вил	-11.1663
▁глубине	-11.1663
овала	-11.1666
▁ошибка	-11.1667
елли	-11.1668
▁реал	-11.1668
▁сериал	-11.1669
кто	-11.167
▁ведомств	-11.1671
▁убийц	-11.1671
▁враща	-11.1672
▁массу	-11.1673
bar	-11.1674
▁клеток	-11.1675
tz	-11.1675
▁stand	-11.1676
▁Нор	-11.1676
▁машине	-11.1677
▁пора	-11.1677
▁племен	-11.1678
▁Двор	-11.1678
▁источники	-11.1679
▁положить	-11.1679
▁слоя	-11.168
▁broadcast	-11.1681
▁клад	-11.1683
ступив	-11.1683
▁вызыва	-11.1688
▁награждён	-11.1688
▁признаки	-11.1688
ink	-11.169
ably	-11.1693
▁Существует	-11.1694
▁освобождения	-11.1694
rap	-11.1695
▁старые	-11.1695
▁Хор	-11.1695
известны	-11.1696
▁укреплен	-11.1696
AP	-11.1697
СТ	-11.1698
вато	-11.1698
луг	-11.1699
▁умира	-11.17
▁Смоленск	-11.1701
▁получал	-11.1702
▁лесу	-11.1702
щика	-11.1704
▁say	-11.1705
▁требованиям	-11.1706
атом	-11.171
веков	-11.171
▁требований	-11.171
человеч	-11.171
▁высокие	-11.171
жин	-11.1712
▁правительственн	-11.1716
цк	-11.1717
имые	-11.1719
▁управлять	-11.172
▁something	-11.172
▁запреща	-11.172
▁русским	-11.1721
▁ощущения	-11.1722
▁originally	-11.1723
кул	-11.1723
▁Fin	-11.1728
▁построить	-11.1729
▁hours	-11.173
ette	-11.1731
cas	-11.1733
▁couple	-11.1733
▁отсюда	-11.1734
▁defeat	-11.1734
ПА	-11.1735
ident	-11.1738
bat	-11.1739
сков	-11.1741
▁важное	-11.1742
▁деятельностью	-11.1742
▁грунт	-11.1742
▁прибыль	-11.1743
▁writer	-11.1745
▁поддержке	-11.1745
пря	-11.1746
▁грузов	-11.1748
▁весной	-11.1749
▁гл	-11.1749
▁заставил	-11.1751
▁Летом	-11.1751
▁убийство	-11.1751
сей	-11.1754
▁Анд	-11.1754
▁относи	-11.1754
▁month	-11.1756
▁активности	-11.1756
▁осуществлен	-11.1757
▁тонко	-11.1758
▁переворот	-11.1761
▁operation	-11.1761
▁interview	-11.1762
▁осенью	-11.1763
▁Разумеется	-11.1764
▁промышленно	-11.1765
эль	-11.1768
▁воле	-11.1769
▁Иерусалим	-11.1769
▁рука	-11.1772
error	-11.1773
▁coast	-11.1774
еса	-11.1775
▁удивительн	-11.1775
▁entire	-11.1775
танков	-11.1776
▁музыка	-11.1777
▁традиция	-11.1778
Но	-11.1779
топлен	-11.1782
▁случая	-11.1782
▁держа	-11.1782
ществ	-11.1783
▁делается	-11.1784
ДА	-11.1785
▁начался	-11.1786
▁политический	-11.1786
▁caused	-11.1787
▁похож	-11.1787
имый	-11.1788
▁размеров	-11.1788
демократ	-11.1789
тельную	-11.1791
▁артиллерии	-11.1792
▁suggest	-11.1792
кас	-11.1792
▁продолжение	-11.1794
▁графа	-11.1795
yo	-11.1795
чёр	-11.1797
▁французской	-11.1798
▁whole	-11.1799
▁семинар	-11.18
▁подряд	-11.1801
▁толп	-11.1801
Та	-11.1803
▁проведение	-11.1803
▁мятеж	-11.1804
▁Расположен	-11.1807
крут	-11.1807
▁успехом	-11.1809
▁границ	-11.1811
Ис	-11.1812
▁meet	-11.1814
▁Умер	-11.1815
▁творчество	-11.1815
▁street	-11.1816
▁Central	-11.1817
▁расположена	-11.1818
▁квартире	-11.1819
хал	-11.182
▁солнца	-11.182
▁Ku	-11.1821
▁живу	-11.1824
▁competition	-11.1824
▁имеющие	-11.1824
▁необходимым	-11.1826
▁остаться	-11.1827
▁технических	-11.1829
▁расходы	-11.183
▁organization	-11.1831
▁Ры	-11.1831
▁заслуги	-11.1832
▁Bill	-11.1832
▁теоретически	-11.1833
Молод	-11.1835
tern	-11.1835
▁ЕС	-11.1836
остей	-11.1837
гора	-11.1839
Украин	-11.184
мисс	-11.1841
▁сосуд	-11.1842
▁считаю	-11.1843
▁Церкви	-11.1844
▁реестр	-11.1846
▁строить	-11.1846
▁Оп	-11.1847
weight	-11.1849
ics	-11.1849
чих	-11.1849
▁рейс	-11.1849
▁target	-11.185
ительную	-11.185
▁тридцать	-11.1851
▁приближен	-11.1852
▁Sha	-11.1853
▁участием	-11.1856
▁описывает	-11.1858
служеб	-11.1858
▁третьей	-11.1859
▁обез	-11.1859
▁крае	-11.1861
Так	-11.1864
веду	-11.1864
▁вокзал	-11.1865
ализм	-11.1865
rey	-11.1865
вернуть	-11.1867
вого	-11.1868
▁Уч	-11.1868
власт	-11.1869
▁устроен	-11.1871
▁Most	-11.1872
▁Флор	-11.1873
▁вспоминал	-11.1874
▁Буд	-11.1874
▁старого	-11.1875
pet	-11.1875
ведении	-11.1875
▁высказыва	-11.1877
▁следующего	-11.1877
ste	-11.1877
rect	-11.1882
▁концепции	-11.1883
▁пользователь	-11.1884
▁экипажа	-11.1884
▁учебно	-11.1885
тим	-11.1885
▁Отсюда	-11.1885
▁хан	-11.1886
▁District	-11.1889
lam	-11.189
▁prior	-11.189
▁реакция	-11.1891
▁хранения	-11.1893
▁органа	-11.1894
▁участке	-11.1894
ES	-11.1896
▁замечательн	-11.1896
▁члена	-11.1897
AN	-11.1898
▁координат	-11.1899
▁Ус	-11.19
▁имело	-11.19
▁страницы	-11.19
▁митрополит	-11.1901
▁плач	-11.1901
▁мэр	-11.1902
▁корреспондент	-11.1903
▁Круп	-11.1903
▁методик	-11.1904
▁Солнца	-11.1908
▁кости	-11.1908
▁напряжения	-11.1908
▁конкурс	-11.1908
▁Черн	-11.1909
▁хлеба	-11.1909
▁обвинения	-11.1909
▁Del	-11.1911
групп	-11.1915
▁путём	-11.1916
тт	-11.1916
▁музее	-11.1917
▁произвел	-11.1917
крыв	-11.1919
▁подлинно	-11.1919
ордин	-11.1919
▁scored	-11.1921
based	-11.1923
▁уход	-11.1924
▁приготовления	-11.1925
▁источником	-11.1925
▁opening	-11.1926
▁нападения	-11.1928
крит	-11.1928
▁вспомнить	-11.1929
▁обещал	-11.1932
los	-11.1933
▁посту	-11.1933
влечь	-11.1934
▁штурм	-11.1934
▁Comp	-11.1934
▁формально	-11.1935
▁Знамени	-11.1935
▁норматив	-11.1946
косм	-11.1947
▁amount	-11.1948
▁преобразован	-11.1951
▁independent	-11.1951
▁монастырь	-11.1952
▁оружием	-11.1952
рал	-11.1953
▁operations	-11.1955
▁effect	-11.1956
настоящему	-11.1957
▁основы	-11.1958
▁требование	-11.1959
еги	-11.1959
▁сна	-11.196
профессионал	-11.196
add	-11.196
Ал	-11.1961
▁функцию	-11.1961
▁велико	-11.1961
▁посмотрел	-11.1963
дай	-11.1963
▁несколькими	-11.1963
шах	-11.1964
▁зная	-11.1965
nal	-11.1966
▁папа	-11.1967
▁врача	-11.1967
▁использован	-11.1968
ившего	-11.1969
▁позиций	-11.1969
▁архитектуры	-11.1972
mod	-11.1972
late	-11.1972
▁побережье	-11.1973
▁Средне	-11.1975
мешал	-11.1976
▁называем	-11.1977
▁летчик	-11.1978
держав	-11.1979
▁семью	-11.1979
▁останется	-11.1979
▁спать	-11.198
▁commercial	-11.1982
▁вынуждены	-11.1984
▁обладают	-11.1984
▁рабочие	-11.1988
▁Martin	-11.1989
▁бумаж	-11.199
▁командиров	-11.199
▁немецкого	-11.1991
кновен	-11.1992
▁небольшие	-11.1992
пул	-11.1995
▁дополнительные	-11.1995
ane	-11.1997
▁Open	-11.1999
▁article	-11.1999
▁Институт	-11.2
▁обл	-11.2
курс	-11.2002
▁просмотр	-11.2002
▁разными	-11.2003
▁равнин	-11.2004
▁воздействие	-11.2005
▁чьи	-11.2005
▁старой	-11.2005
▁полагал	-11.2005
▁перво	-11.2006
▁приглашен	-11.2007
ывал	-11.2007
▁вызывал	-11.2009
▁Бал	-11.2009
▁обладал	-11.2011
▁явлений	-11.2012
Гр	-11.2012
MP	-11.2013
▁ходить	-11.2013
▁определенные	-11.2013
▁Джона	-11.2013
носили	-11.2013
▁привели	-11.2014
ОБ	-11.2014
▁измерения	-11.2014
▁стул	-11.2015
ческие	-11.2015
pre	-11.2019
аторов	-11.2019
▁Голов	-11.202
▁жизне	-11.2023
▁Лин	-11.2025
▁News	-11.2025
▁компанией	-11.2025
▁южн	-11.2026
▁тел	-11.2027
bit	-11.2027
▁лучшие	-11.2028
▁ваша	-11.2029
▁Австралии	-11.2032
▁рыбы	-11.2033
▁Apple	-11.2034
▁лагере	-11.2036
▁Press	-11.2036
лод	-11.2037
izing	-11.2037
▁Никит	-11.2038
▁специалисты	-11.2039
▁выводу	-11.204
▁Lake	-11.2041
обы	-11.2041
▁Август	-11.2042
шан	-11.2042
▁Образ	-11.2042
▁представлены	-11.2043
стен	-11.2044
▁пребывания	-11.2046
▁политического	-11.2046
гнут	-11.2047
▁Рыб	-11.2049
▁энергию	-11.2049
▁пола	-11.205
▁news	-11.205
нёс	-11.2051
шель	-11.2051
▁груд	-11.2052
▁обеспечив	-11.2053
▁сформирован	-11.2054
▁Орлов	-11.2055
▁spent	-11.2058
▁вблизи	-11.2058
▁Пир	-11.2059
▁Казан	-11.206
▁emb	-11.2061
▁мелких	-11.2062
▁пил	-11.2063
▁loss	-11.2064
▁командой	-11.2065
▁болезнен	-11.2067
ria	-11.2069
under	-11.2071
▁Рам	-11.2072
▁огромный	-11.2073
▁народных	-11.2074
▁назнача	-11.2076
▁material	-11.2076
шал	-11.2076
▁Сир	-11.2076
▁Афин	-11.2076
▁Од	-11.2077
▁Ya	-11.2078
истые	-11.2078
о́	-11.2078
▁глух	-11.2078
▁claimed	-11.2079
▁осмотр	-11.2079
▁громко	-11.2082
▁называет	-11.2083
гай	-11.2083
▁Востока	-11.2083
нина	-11.2084
▁гипотез	-11.2085
▁let	-11.2085
▁Государственной	-11.2086
казать	-11.2088
▁появилось	-11.2089
▁leave	-11.209
уэ	-11.209
▁мощно	-11.2091
ng	-11.2093
▁действовал	-11.2096
неприят	-11.2096
mor	-11.2097
▁Microsoft	-11.2098
▁Ирак	-11.2098
▁номера	-11.2099
▁какими	-11.21
евые	-11.2104
▁обращен	-11.2104
▁структуру	-11.2107
здоров	-11.2107
анты	-11.2109
▁владения	-11.211
sur	-11.211
▁Степан	-11.2111
▁Платон	-11.2111
▁зимой	-11.2111
strict	-11.2113
▁longer	-11.2114
говарива	-11.2115
▁игроков	-11.2116
АМ	-11.2119
ставки	-11.2121
▁idea	-11.2121
леж	-11.2121
▁сайта	-11.2121
▁братьев	-11.2122
▁Елизавет	-11.2122
▁port	-11.2122
▁спаса	-11.2122
сторож	-11.2123
▁Великого	-11.2127
▁Men	-11.2129
ектор	-11.2129
▁пришло	-11.2131
▁определенной	-11.2131
OR	-11.2133
▁восторг	-11.2136
▁particular	-11.2137
IS	-11.2138
▁зон	-11.214
▁жестоко	-11.2141
ведён	-11.2143
▁возможных	-11.2144
▁древней	-11.2147
▁моему	-11.2148
▁доказательств	-11.2149
▁word	-11.2149
▁путей	-11.2151
▁удивля	-11.2151
▁территория	-11.2153
▁оправдан	-11.2154
▁известные	-11.2154
ord	-11.2154
телями	-11.2155
Name	-11.2155
▁includes	-11.2157
▁Бре	-11.2157
▁believed	-11.2157
▁следующей	-11.2164
▁Почти	-11.2164
гри	-11.2165
lon	-11.217
▁System	-11.2171
черед	-11.2172
▁ср	-11.2173
▁властью	-11.2174
▁Камен	-11.2174
room	-11.2174
▁пролив	-11.2174
▁bus	-11.2174
ставить	-11.2175
▁Аз	-11.2176
▁<...>	-11.2176
▁issue	-11.2177
▁score	-11.2177
play	-11.218
сси	-11.218
нного	-11.2181
▁сознательно	-11.2183
асси	-11.2184
▁идёт	-11.2185
хождения	-11.2186
вос	-11.2186
▁реальность	-11.2186
опа	-11.2186
ечный	-11.2187
▁request	-11.2187
▁exc	-11.2188
▁Hi	-11.2189
▁множеств	-11.219
▁Люд	-11.2192
мог	-11.2194
▁annual	-11.2195
▁проявил	-11.2195
▁накоплен	-11.2196
▁решать	-11.2196
▁appear	-11.2197
▁трое	-11.22
▁морских	-11.2202
▁Государств	-11.2203
standing	-11.2203
▁дворов	-11.2204
▁задачей	-11.2204
▁Став	-11.2204
▁пары	-11.2206
овское	-11.2206
ТИ	-11.2207
CE	-11.2209
▁достигает	-11.221
зия	-11.2211
йдем	-11.2211
▁представителя	-11.2213
▁россиян	-11.2213
cher	-11.2213
дю	-11.2215
▁неожидан	-11.2215
▁magazine	-11.2215
▁деревьев	-11.2216
▁demand	-11.2218
▁выяснилось	-11.2219
▁дивизион	-11.222
▁Web	-11.222
▁лат	-11.222
▁der	-11.222
▁разрешен	-11.2222
▁buildings	-11.2222
Раз	-11.2224
ивших	-11.2224
▁occur	-11.2225
сыл	-11.2226
▁согласован	-11.2226
▁науке	-11.2228
▁долю	-11.2229
▁смех	-11.2229
▁позволил	-11.223
▁положил	-11.2231
▁персонажей	-11.2231
▁определенных	-11.2232
▁property	-11.2233
mic	-11.2234
▁приоритет	-11.2234
▁текстов	-11.2234
▁consider	-11.2235
rank	-11.2235
▁эконом	-11.2236
▁наруша	-11.2236
▁concept	-11.2237
map	-11.2237
▁очереди	-11.2238
быстр	-11.224
ийские	-11.2241
оры	-11.2242
▁производил	-11.2243
▁voice	-11.2243
▁собственный	-11.2244
▁отмечен	-11.2244
льник	-11.2245
▁глуп	-11.2245
шить	-11.2248
▁штурмов	-11.2249
▁Героя	-11.2249
▁окрас	-11.225
SE	-11.2251
ls	-11.2251
Су	-11.2252
▁наблюдать	-11.2253
▁трон	-11.2255
▁верить	-11.2256
инском	-11.2258
ella	-11.2259
▁решением	-11.2259
▁многим	-11.2259
▁шахмат	-11.2259
▁exist	-11.2259
▁source	-11.226
инки	-11.226
▁saying	-11.2261
рица	-11.2262
▁читатель	-11.2262
▁вина	-11.2262
▁получит	-11.2262
стоящие	-11.2263
▁ценность	-11.2264
▁gold	-11.2264
овки	-11.2264
▁началу	-11.2266
▁share	-11.2266
▁братья	-11.2266
дур	-11.2267
▁критик	-11.2269
▁Spanish	-11.2271
▁books	-11.2273
▁defeated	-11.2273
▁сложных	-11.2273
гармон	-11.2275
бирал	-11.2277
▁предмета	-11.228
▁camp	-11.228
▁строи	-11.2282
кач	-11.2283
blockquote	-11.2284
лаз	-11.2285
▁квартиру	-11.2286
▁mar	-11.2286
рд	-11.2287
улов	-11.2287
▁авторы	-11.2287
ИЗ	-11.2288
▁усилий	-11.2288
▁энергия	-11.2288
▁build	-11.2289
РИ	-11.229
▁сидит	-11.2291
▁экспериментальн	-11.2291
Побед	-11.2292
▁промышленность	-11.2292
Ch	-11.2293
▁активность	-11.2295
▁полную	-11.2295
UN	-11.2295
вшему	-11.2296
обр	-11.2297
МИ	-11.2298
gate	-11.23
▁практики	-11.23
ключения	-11.2301
▁организовал	-11.2302
He	-11.2302
ступают	-11.2302
▁истины	-11.2303
▁детстве	-11.2304
▁называть	-11.2304
II	-11.2304
▁отцом	-11.2304
normal	-11.2305
▁sister	-11.2306
▁Бах	-11.2307
▁Sir	-11.2307
▁руководил	-11.2307
▁ровно	-11.2308
▁повышения	-11.2308
▁Лив	-11.2309
▁назначил	-11.231
▁заставить	-11.2311
▁опира	-11.2311
▁объяснил	-11.2311
▁атмосфер	-11.2311
▁изгнан	-11.2311
▁бесплатно	-11.2311
▁сильный	-11.2312
▁Сколько	-11.2312
верен	-11.2312
▁возвращается	-11.2312
▁испытаний	-11.2313
сур	-11.2313
енье	-11.2314
▁Польше	-11.2316
▁способы	-11.2316
▁Вед	-11.2318
LA	-11.2319
▁охотник	-11.2319
пала	-11.232
▁удостоен	-11.2321
ступлен	-11.2322
▁индивид	-11.2322
▁Фридрих	-11.2323
▁purpose	-11.2325
▁проходят	-11.2325
смотреть	-11.2326
▁повести	-11.2326
▁sometimes	-11.2328
nu	-11.2328
▁прозрачн	-11.2329
▁generally	-11.2331
фл	-11.2332
лиги	-11.2333
никова	-11.2336
▁Under	-11.2338
▁приближа	-11.2341
▁областях	-11.2342
▁богов	-11.2343
▁высказал	-11.2344
▁стиля	-11.2344
▁staff	-11.2344
▁крепость	-11.2344
шими	-11.2345
▁Sh	-11.2346
знание	-11.2346
"...	-11.2346
▁кафедр	-11.2347
енци	-11.2348
▁молодые	-11.2349
cess	-11.2349
▁записан	-11.235
▁минус	-11.2352
▁Africa	-11.2353
▁ждал	-11.2353
▁древне	-11.2353
▁companies	-11.2353
▁зритель	-11.2354
▁Боб	-11.2355
▁origin	-11.2355
востоку	-11.2355
цкий	-11.2357
▁machine	-11.2359
▁мастера	-11.2359
▁учение	-11.236
▁пирамид	-11.236
говорил	-11.236
нули	-11.2361
▁армий	-11.2363
▁будь	-11.2365
селя	-11.2367
влечение	-11.2368
йся	-11.2371
▁городом	-11.2371
▁успе	-11.2372
▁автором	-11.2373
андр	-11.2373
▁Её	-11.2374
town	-11.2376
Кор	-11.2376
▁кризиса	-11.2377
St	-11.2377
несения	-11.2378
▁простым	-11.2381
кое	-11.2384
▁Спас	-11.2385
type	-11.2385
▁разрыв	-11.2385
эстет	-11.2389
▁Philip	-11.2389
▁воспользоваться	-11.2391
▁Ничего	-11.2391
▁focus	-11.2392
▁religious	-11.2393
▁предпринима	-11.2393
▁Фин	-11.2394
ждён	-11.2394
▁парламента	-11.2394
▁талантлив	-11.2395
▁VII	-11.2399
ированной	-11.24
▁Остров	-11.24
каль	-11.2401
▁библиотеки	-11.2401
сса	-11.2405
▁одних	-11.2406
▁attend	-11.2406
▁народной	-11.2406
▁северной	-11.2407
▁слуг	-11.2408
AL	-11.2409
We	-11.2409
ueen	-11.2409
▁молоко	-11.2411
▁находиться	-11.2411
▁issues	-11.2411
доль	-11.2412
жар	-11.2414
▁reason	-11.2414
▁additional	-11.2414
▁национальных	-11.2416
▁завершен	-11.2418
▁расходов	-11.2419
▁улицу	-11.2419
академ	-11.242
куш	-11.242
ici	-11.2422
ata	-11.2424
▁ребята	-11.2424
▁murder	-11.2425
▁потребности	-11.2425
gram	-11.2426
▁участвовать	-11.2426
une	-11.2426
айл	-11.2427
лять	-11.2429
▁direct	-11.243
▁Italian	-11.243
▁личной	-11.2432
▁оказал	-11.2432
рест	-11.2433
▁снижа	-11.2434
▁Фар	-11.2434
▁attended	-11.2436
▁национально	-11.2436
▁субъект	-11.2437
▁чудовищ	-11.2438
▁шаблон	-11.2438
▁радость	-11.2438
▁комнаты	-11.2442
▁просит	-11.2442
▁цех	-11.2444
▁Дэвид	-11.2445
▁рабочий	-11.2447
англ	-11.2447
▁самолеты	-11.2449
▁Кле	-11.245
▁зданий	-11.2451
▁чет	-11.2451
unk	-11.2452
ущий	-11.2452
▁установка	-11.2453
▁Sam	-11.2453
кончил	-11.2453
▁перечислен	-11.2454
▁руководителей	-11.2454
▁литература	-11.2455
▁drive	-11.2455
▁matter	-11.2455
▁живописи	-11.2456
оград	-11.2457
▁энерго	-11.2457
стил	-11.2457
▁множества	-11.2459
▁display	-11.246
▁узнав	-11.246
ien	-11.246
▁почет	-11.2461
евая	-11.2462
ичных	-11.2463
▁точек	-11.2463
▁накануне	-11.2463
▁переправ	-11.2464
ственное	-11.2464
▁собственную	-11.2465
▁complex	-11.2465
▁институте	-11.2466
▁убить	-11.2466
▁movie	-11.2467
▁количеством	-11.2467
▁things	-11.2468
▁обознача	-11.2468
▁следствие	-11.247
▁полным	-11.2471
rc	-11.2472
▁крупнейших	-11.2473
pon	-11.2473
▁Фер	-11.2474
▁кадр	-11.2474
▁double	-11.2476
енном	-11.2476
▁известной	-11.2477
ировала	-11.2477
евого	-11.2477
▁гарнизон	-11.2478
▁Федор	-11.2478
▁возникновения	-11.248
▁чуд	-11.248
ьё	-11.2481
▁разруша	-11.2481
▁ядер	-11.2482
▁выборы	-11.2482
▁Наш	-11.2482
▁Вене	-11.2483
▁Официальный	-11.2484
its	-11.2489
Ну	-11.2489
▁трудности	-11.249
▁левом	-11.2494
гоня	-11.2496
▁Добро	-11.2496
▁познания	-11.2497
▁высших	-11.2498
▁индийск	-11.2499
▁arrived	-11.25
слыша	-11.2501
▁француз	-11.2502
ринг	-11.2502
▁complete	-11.2505
▁особой	-11.2505
унг	-11.2505
▁разгром	-11.2507
▁провели	-11.2507
лера	-11.2507
▁victory	-11.2508
БА	-11.2509
ира	-11.251
▁исторической	-11.251
▁нашему	-11.251
▁сектор	-11.2511
▁вырос	-11.2512
▁Vo	-11.2512
▁доктора	-11.2514
▁возникла	-11.2515
▁walk	-11.2515
▁student	-11.2518
▁соответствующие	-11.252
▁Зачем	-11.252
▁справедливо	-11.252
▁спасти	-11.2521
▁отчасти	-11.2522
▁всяких	-11.2523
▁Lord	-11.2524
▁отставку	-11.2524
▁введен	-11.2525
▁defend	-11.2527
▁заседании	-11.2528
ark	-11.2528
▁manager	-11.2528
oph	-11.2529
▁слой	-11.253
▁surface	-11.253
▁Кирилл	-11.2531
ующих	-11.2531
cept	-11.2531
ros	-11.2533
▁происхождение	-11.2533
ившихся	-11.2534
eth	-11.2537
ington	-11.2538
gal	-11.2539
▁Commission	-11.2541
▁Зато	-11.2541
▁руке	-11.2541
▁птицы	-11.2542
▁receive	-11.2542
уди	-11.2543
▁Крест	-11.2544
действие	-11.2544
▁centre	-11.2545
▁формирование	-11.2546
▁Около	-11.2547
писал	-11.2547
▁римлян	-11.2548
архи	-11.2549
▁believe	-11.2551
водил	-11.2552
▁лето	-11.2552
▁particularly	-11.2552
рель	-11.2552
ческих	-11.2553
▁allow	-11.2553
▁рай	-11.2554
▁Хай	-11.2555
▁председателем	-11.2556
▁Иль	-11.2556
▁посетил	-11.2558
ded	-11.2558
▁грудь	-11.256
▁фонда	-11.2561
зыв	-11.2561
▁Ste	-11.2561
To	-11.2564
▁называл	-11.2565
стям	-11.2565
▁существо	-11.2566
▁надежды	-11.2567
телен	-11.2567
▁суммы	-11.2569
▁топлива	-11.2569
long	-11.257
▁XV	-11.2571
гиба	-11.2572
▁премия	-11.2575
▁географ	-11.2576
▁Museum	-11.2577
▁монах	-11.2578
▁кодекс	-11.2578
▁турнире	-11.2579
▁черн	-11.2579
▁конгресс	-11.2579
▁освобожден	-11.2579
▁regular	-11.258
нику	-11.258
▁лодки	-11.2582
ail	-11.2582
щина	-11.2582
▁автомобилей	-11.2583
▁законодатель	-11.2584
▁leader	-11.2584
▁length	-11.2584
▁Saint	-11.2585
▁перестал	-11.2587
▁running	-11.2587
▁fourth	-11.2588
дне	-11.2589
▁Ac	-11.2589
▁хотим	-11.2593
▁finally	-11.2594
▁тыл	-11.2595
aging	-11.2595
▁whether	-11.2596
▁рубеж	-11.2598
▁Ган	-11.2598
▁отсутствия	-11.2598
iff	-11.2602
▁смертью	-11.2603
▁коров	-11.2603
▁хозяев	-11.2603
▁тревож	-11.2603
▁Er	-11.2605
▁перерыв	-11.2606
▁Fu	-11.2608
▁языках	-11.261
ворачива	-11.2612
▁обеспечен	-11.2612
▁наблюдал	-11.2613
▁лиги	-11.2614
ковой	-11.2615
▁deep	-11.2617
ношения	-11.2618
истый	-11.2618
нимает	-11.2622
▁показывают	-11.2622
▁primary	-11.2623
▁poor	-11.2624
▁changes	-11.2624
ense	-11.2625
▁ангел	-11.2628
поряд	-11.2628
стин	-11.2628
образован	-11.2629
▁Необходимо	-11.2632
▁fish	-11.2633
▁Действительно	-11.2634
▁financial	-11.2634
▁потребность	-11.2637
▁заключил	-11.2638
ame	-11.2641
▁позволило	-11.2641
▁собственность	-11.2642
▁продажи	-11.2642
▁Александров	-11.2644
cycl	-11.2644
▁крова	-11.2647
▁процессор	-11.2647
▁Ер	-11.2648
▁Later	-11.2649
mann	-11.2651
▁Следует	-11.2651
▁думает	-11.2654
xi	-11.2654
▁отдать	-11.2656
▁получение	-11.2657
▁lived	-11.2658
▁длина	-11.2659
▁Коп	-11.266
tis	-11.266
▁Battle	-11.2661
▁studies	-11.2661
ставлял	-11.2661
▁трудов	-11.2665
var	-11.2665
▁weeks	-11.2667
▁мл	-11.2667
non	-11.2668
▁следы	-11.2668
▁Louis	-11.2668
▁Бир	-11.2669
hill	-11.267
▁войн	-11.267
▁изд	-11.2671
ТС	-11.2672
▁сражения	-11.2672
мил	-11.2672
изме	-11.2673
ённые	-11.2674
читаем	-11.2676
щики	-11.2677
▁принципиально	-11.2677
▁Вторая	-11.2678
▁социолог	-11.268
Le	-11.268
▁const	-11.2681
серьез	-11.2681
▁older	-11.2681
▁Бул	-11.2683
ография	-11.2683
▁любят	-11.2683
▁вторым	-11.2684
▁Земля	-11.2685
shi	-11.2687
▁сельсовет	-11.2687
▁horse	-11.2687
виг	-11.2687
▁policy	-11.2688
▁квартиры	-11.2689
▁Влад	-11.2691
То	-11.2691
▁наверняка	-11.2693
ming	-11.2694
▁составляла	-11.2695
own	-11.2698
▁nation	-11.2698
▁Нижне	-11.2698
▁применяется	-11.2699
▁Кей	-11.2699
▁organ	-11.2699
▁маневр	-11.27
меж	-11.27
▁сообщила	-11.2701
▁белых	-11.2702
чил	-11.2702
▁экономических	-11.2706
ML	-11.2709
президент	-11.2709
▁барон	-11.2711
▁громад	-11.2712
▁Германия	-11.2712
▁ветра	-11.2712
российско	-11.2712
▁Чемпионат	-11.2713
▁вспомнил	-11.2713
▁Bank	-11.2715
нтон	-11.2717
бросил	-11.2718
▁биограф	-11.272
▁огромные	-11.2722
▁develop	-11.2722
▁духовной	-11.2722
глуш	-11.2723
▁terms	-11.2725
▁затрат	-11.2725
▁указал	-11.2726
Евро	-11.2726
▁Law	-11.2731
скром	-11.2731
duct	-11.2732
▁Шо	-11.2734
▁бороться	-11.2734
▁идеально	-11.2735
cle	-11.2736
▁признание	-11.2736
▁учет	-11.2738
▁япон	-11.2738
▁важные	-11.2739
лиг	-11.274
▁независимости	-11.274
▁Хэ	-11.274
▁Цель	-11.2741
▁нижней	-11.2744
сир	-11.2744
обществ	-11.2745
▁offered	-11.2745
▁Африки	-11.2745
▁шоу	-11.2747
риан	-11.2747
▁Congress	-11.2748
▁Гали	-11.2748
▁преступник	-11.2748
▁carried	-11.2748
▁Яр	-11.275
▁восстановить	-11.2751
▁fun	-11.2751
▁виртуал	-11.2753
▁заявления	-11.2753
хозяй	-11.2754
▁заказчик	-11.2756
вист	-11.2757
oon	-11.2758
риз	-11.276
работа	-11.2761
хоз	-11.2762
▁десятков	-11.2762
▁упоминается	-11.2764
▁сущность	-11.2766
▁Какие	-11.2767
▁пассажиров	-11.2767
▁вариантов	-11.2768
▁нечего	-11.2768
ляется	-11.2774
шина	-11.2776
▁гражданин	-11.2778
льщик	-11.2778
▁honor	-11.278
▁XIV	-11.2781
▁особое	-11.2781
▁числу	-11.2782
▁вторую	-11.2782
▁Экс	-11.2783
▁международной	-11.2783
▁dead	-11.2784
▁Источник	-11.2784
Ха	-11.2786
йду	-11.2786
▁noted	-11.2787
ческая	-11.2787
влечен	-11.2789
▁сферы	-11.279
Po	-11.2792
сал	-11.2794
зис	-11.2794
▁represent	-11.2795
▁организатор	-11.2796
очкой	-11.2796
соверш	-11.2797
нку	-11.2798
▁Всем	-11.2798
lum	-11.2799
▁действиях	-11.2799
▁расстрел	-11.2801
строить	-11.2803
везли	-11.2804
wr	-11.2804
▁failed	-11.2804
▁поклон	-11.2806
▁огнем	-11.2806
▁тайно	-11.2807
▁проявляется	-11.2808
▁капитала	-11.2809
▁мах	-11.2809
местить	-11.281
чной	-11.2812
▁изучал	-11.2812
▁южной	-11.2813
▁скажет	-11.2813
▁Минск	-11.2814
фицирован	-11.2814
▁supported	-11.2815
бук	-11.2815
▁produce	-11.2815
анный	-11.2815
▁сопротивления	-11.2816
▁гвардии	-11.2816
ati	-11.2818
греб	-11.2819
▁бюджета	-11.282
▁счита	-11.282
▁Название	-11.282
▁технология	-11.282
дук	-11.282
▁природа	-11.2822
eo	-11.2823
sol	-11.2824
Cl	-11.2826
▁хорошие	-11.2827
▁коротко	-11.2829
main	-11.2832
▁studio	-11.2833
▁separate	-11.2835
▁золотой	-11.2838
код	-11.2838
▁поврежден	-11.284
▁разу	-11.284
▁осуществлял	-11.284
poli	-11.2841
плот	-11.2842
▁ассоциации	-11.2842
▁скончался	-11.2843
▁мут	-11.2843
▁осуществлять	-11.2843
▁окраин	-11.2846
▁хран	-11.2848
▁доказать	-11.285
▁игрока	-11.285
ителю	-11.2852
▁удовольствие	-11.2852
▁дорогой	-11.2854
истых	-11.2858
дак	-11.2859
ele	-11.2859
▁достигнут	-11.286
▁Главное	-11.2861
▁диаметр	-11.2861
▁воскрес	-11.2862
PC	-11.2862
▁хорошим	-11.2862
▁Сергея	-11.2863
▁Востоке	-11.2865
▁Анти	-11.2866
▁утверждение	-11.2868
▁gene	-11.2869
▁большими	-11.2872
lands	-11.2874
▁пункты	-11.2874
енбург	-11.2876
▁бак	-11.2877
▁показатель	-11.288
нист	-11.288
▁Ран	-11.2881
mond	-11.2881
кевич	-11.2882
быть	-11.2882
эш	-11.2883
▁невы	-11.2883
▁намек	-11.2883
▁избав	-11.2884
▁fo	-11.2885
хватил	-11.2886
▁поисках	-11.2886
ami	-11.2886
руп	-11.2888
▁забыл	-11.2889
▁пострадал	-11.289
▁правилам	-11.289
анской	-11.289
▁Par	-11.2891
▁Пят	-11.2891
▁Афганистан	-11.2892
▁refer	-11.2894
▁Гитлера	-11.2895
aries	-11.2896
само	-11.2896
▁твои	-11.2896
▁яблок	-11.2897
▁небольших	-11.2897
▁предположить	-11.2897
▁календар	-11.2898
▁Bal	-11.2899
▁возвращения	-11.29
▁преступно	-11.29
nel	-11.29
▁write	-11.2901
ници	-11.2902
водят	-11.2902
boat	-11.2904
▁str	-11.2907
▁остатки	-11.2908
▁мудр	-11.2909
▁стремится	-11.2909
▁долгое	-11.2909
▁показания	-11.2909
▁Грузии	-11.291
▁старо	-11.291
тинг	-11.2911
▁обмена	-11.2912
ичная	-11.2912
lig	-11.2915
▁claim	-11.2915
▁пьесы	-11.2918
▁приглаша	-11.2918
ext	-11.292
ставив	-11.2921
▁получаем	-11.2922
▁произошла	-11.2922
страст	-11.2922
▁духе	-11.2923
▁округе	-11.2924
▁физических	-11.2926
▁awarded	-11.2926
▁имеем	-11.2927
хай	-11.2929
▁снижение	-11.2929
▁выходил	-11.2931
вад	-11.2933
▁leaving	-11.2935
▁Большая	-11.2936
▁parents	-11.2937
▁чиновник	-11.2939
▁УК	-11.2939
▁соли	-11.2939
▁волк	-11.2944
▁border	-11.2946
▁families	-11.2947
▁hospital	-11.2948
гут	-11.2948
scale	-11.2949
▁публикации	-11.295
▁товара	-11.295
Ли	-11.2953
▁решению	-11.2955
▁заболеваний	-11.2955
▁отступ	-11.2956
ГИ	-11.2956
▁критики	-11.2957
▁Майкл	-11.2961
▁оценить	-11.2962
▁радости	-11.2962
▁Cas	-11.2964
пенс	-11.2964
▁решила	-11.2965
жды	-11.2967
▁шест	-11.2968
▁king	-11.2968
бок	-11.2968
▁today	-11.2969
елем	-11.297
иты	-11.2972
▁опрос	-11.2973
▁жестко	-11.2973
▁characters	-11.2973
▁реформы	-11.2974
кост	-11.2974
▁падения	-11.2974
▁Киеве	-11.2975
▁взвод	-11.2976
ствовать	-11.2977
▁Despite	-11.2977
▁mass	-11.2978
рг	-11.2979
▁Риме	-11.298
▁пребыва	-11.298
серд	-11.2981
▁Vol	-11.2982
▁юмор	-11.2984
▁романе	-11.2984
▁союзников	-11.2986
▁учиться	-11.2986
▁Chicago	-11.2989
▁felt	-11.2991
нными	-11.2992
▁Mark	-11.2992
▁жалоб	-11.2993
▁придержива	-11.2993
▁дабы	-11.2994
▁detail	-11.2996
▁суп	-11.2996
Ar	-11.2997
▁ha	-11.2997
▁возглавлял	-11.2997
▁твой	-11.2998
▁Киров	-11.2998
▁окружен	-11.2999
ges	-11.2999
спект	-11.3003
▁лагерь	-11.3003
▁метра	-11.3005
▁основного	-11.3006
FC	-11.3006
▁паспорт	-11.3007
▁Pla	-11.3007
ima	-11.301
▁Committee	-11.301
▁entered	-11.301
▁Медаль	-11.3013
▁инструментов	-11.3014
▁углу	-11.3014
▁заменить	-11.3015
▁городу	-11.3017
range	-11.3018
▁увеличива	-11.3018
▁упражнения	-11.3019
▁проводится	-11.3019
▁мрачн	-11.3019
гнать	-11.3023
фы	-11.3024
▁гуля	-11.3024
Христ	-11.3024
▁займ	-11.3026
▁учрежд	-11.3026
анский	-11.3026
▁husband	-11.3028
▁служба	-11.3028
▁забыв	-11.3029
▁teams	-11.3029
▁экземпляр	-11.303
▁обратиться	-11.3031
Господ	-11.3032
▁прошлое	-11.3034
▁разделен	-11.3035
SD	-11.3036
▁теорию	-11.3036
▁существовать	-11.3037
▁дворец	-11.3037
▁пищу	-11.3037
▁гостей	-11.3039
▁любых	-11.304
▁closed	-11.304
▁регистрации	-11.304
▁Спустя	-11.304
▁сроки	-11.3042
phi	-11.3043
фабрик	-11.3044
▁четвёрт	-11.3046
очке	-11.3046
крывает	-11.3046
▁банд	-11.3048
▁основатель	-11.3048
архитектур	-11.3048
▁крепко	-11.3048
ающее	-11.3049
▁Ради	-11.3052
DA	-11.3053
нрав	-11.3054
▁Этим	-11.3054
▁партию	-11.3055
▁door	-11.3056
▁foreign	-11.3057
ways	-11.3058
▁цикла	-11.3059
▁голода	-11.3059
▁современном	-11.3059
▁address	-11.3059
снеж	-11.306
тельство	-11.306
чины	-11.3061
чения	-11.3062
няв	-11.3062
ливый	-11.3062
▁судить	-11.3063
▁брю	-11.3065
▁знаешь	-11.3065
▁восприятия	-11.3067
▁сообщества	-11.3067
cast	-11.3068
валь	-11.3068
▁оставлен	-11.3069
▁Кул	-11.3069
▁таблиц	-11.3069
▁gun	-11.307
ties	-11.3071
▁хочешь	-11.3071
▁гибк	-11.3072
молодёж	-11.3073
IC	-11.3073
▁счастью	-11.3074
▁импорт	-11.3074
пустили	-11.3074
ушку	-11.3074
▁Ред	-11.3074
физ	-11.3076
проект	-11.3077
▁пах	-11.3078
▁жену	-11.3079
▁внутрь	-11.308
▁реже	-11.3081
▁Ас	-11.3081
▁примере	-11.3082
▁Открыт	-11.3083
▁recording	-11.3084
▁исходя	-11.3085
▁запуск	-11.3086
bot	-11.3086
▁Куп	-11.3087
сид	-11.3089
▁Главный	-11.309
плет	-11.309
волок	-11.309
▁tell	-11.3091
▁точнее	-11.3092
▁Нев	-11.3093
▁previously	-11.3094
▁выража	-11.3095
mas	-11.3096
▁Генерал	-11.3099
▁вулкан	-11.3099
▁arch	-11.31
шков	-11.31
▁рабочей	-11.3103
▁соответствующих	-11.3103
▁marriage	-11.3104
▁Другой	-11.3105
▁западных	-11.3106
▁сотрудничества	-11.3106
▁переводчик	-11.3107
▁развивается	-11.3107
dd	-11.3108
▁Крыма	-11.3108
▁военную	-11.3109
▁династии	-11.3109
▁замок	-11.3109
ora	-11.311
gent	-11.3111
▁сержант	-11.3112
▁helped	-11.3113
▁Out	-11.3113
▁устанавлива	-11.3113
▁ядра	-11.3114
US	-11.3115
▁Mil	-11.3115
ившийся	-11.3116
ON	-11.3117
▁проекты	-11.3117
держать	-11.3117
▁par	-11.3119
▁Wal	-11.3119
▁верил	-11.3122
▁всякой	-11.3122
▁командовал	-11.3123
▁распространения	-11.3123
▁настроение	-11.3124
▁учреждений	-11.3124
трога	-11.3125
DC	-11.3126
▁местом	-11.3126
▁lines	-11.3129
ature	-11.3129
▁варианты	-11.313
▁чём	-11.313
▁убедил	-11.313
▁установлены	-11.3132
▁периодически	-11.3132
▁рассматривал	-11.3133
▁фу	-11.3135
▁ослаб	-11.3135
kh	-11.3136
▁Вероятно	-11.3136
▁побережья	-11.3136
сообщ	-11.3137
▁улыба	-11.3139
▁половину	-11.3139
▁окажется	-11.314
▁ягод	-11.314
льф	-11.3141
▁телевизор	-11.3141
▁Британск	-11.3141
▁limited	-11.3142
тис	-11.3143
ящая	-11.3143
▁Макс	-11.3143
▁защите	-11.3145
▁виноват	-11.3145
▁лечение	-11.3145
палуб	-11.3145
▁независимость	-11.3145
▁Карла	-11.3146
▁толщ	-11.3147
▁парень	-11.3148
▁списке	-11.3149
утся	-11.3149
rack	-11.3151
▁реальной	-11.3151
ённый	-11.3151
очным	-11.3152
▁внешних	-11.3152
▁разработал	-11.3154
▁yet	-11.3155
▁вошел	-11.3158
LE	-11.3158
▁award	-11.3158
▁фантаст	-11.3159
▁имею	-11.316
▁переведен	-11.3162
чно	-11.3163
изатор	-11.3164
law	-11.3165
лар	-11.3166
▁cases	-11.3167
▁die	-11.3169
▁Боль	-11.3169
▁созданы	-11.3169
▁революция	-11.317
▁Хал	-11.3171
▁организацию	-11.3171
▁наблюдается	-11.3171
▁оптим	-11.3173
▁общая	-11.3173
▁наказание	-11.3173
EC	-11.3173
era	-11.3175
▁specific	-11.3177
▁любую	-11.3177
▁didn	-11.3177
▁science	-11.3178
ked	-11.3178
▁мероприятий	-11.318
▁доля	-11.318
▁понедельник	-11.3181
▁колокол	-11.3181
гнал	-11.3181
ОМ	-11.3183
▁пытаются	-11.3184
▁условно	-11.3185
▁изменя	-11.3186
▁удаля	-11.3187
▁potential	-11.3187
▁вопросом	-11.3188
▁ждет	-11.3188
▁черв	-11.3189
орган	-11.319
мак	-11.319
▁психиатр	-11.3192
▁Воронеж	-11.3193
▁развиты	-11.3196
▁учебник	-11.3197
phone	-11.3197
▁проезд	-11.3198
temp	-11.3198
ьными	-11.3201
flu	-11.3202
▁Луи	-11.3202
▁civil	-11.3203
▁отражает	-11.3203
▁Пла	-11.3203
▁minutes	-11.3204
▁пароход	-11.3204
▁войско	-11.3205
▁параллельно	-11.3206
▁XII	-11.3206
▁проходили	-11.3206
▁заявлен	-11.3206
▁увидели	-11.321
▁табл	-11.3211
▁Year	-11.3211
ецкий	-11.3214
никам	-11.3214
▁уничтожить	-11.3218
▁Sho	-11.322
Урал	-11.3221
▁Second	-11.3221
▁ток	-11.3222
▁симптом	-11.3222
▁попытался	-11.3226
SP	-11.3227
sign	-11.3229
▁friends	-11.3229
SC	-11.3231
▁energy	-11.3231
бесед	-11.3232
метки	-11.3232
▁магазина	-11.3233
▁Film	-11.3233
▁мелкие	-11.3236
ement	-11.3237
стратег	-11.3237
истами	-11.3237
pr	-11.3238
▁смут	-11.3238
гг	-11.3238
рио	-11.3238
казывать	-11.324
▁допустим	-11.324
▁судно	-11.324
▁problems	-11.3241
▁Солнце	-11.3242
▁молот	-11.3243
▁назначение	-11.3243
fit	-11.3246
▁Израиля	-11.3246
▁размеры	-11.3247
▁screen	-11.3247
▁сменил	-11.3249
круг	-11.3249
▁доказательства	-11.325
▁activities	-11.325
▁решает	-11.325
▁найдет	-11.3251
rat	-11.3251
пра	-11.3253
звезд	-11.3254
▁сустав	-11.3254
new	-11.3255
ОЙ	-11.3256
▁ценностей	-11.3257
▁launched	-11.3257
пом	-11.326
▁attract	-11.3262
▁контекст	-11.3263
▁критически	-11.3264
▁вошла	-11.3265
▁удастся	-11.3266
тянуть	-11.3266
▁миллион	-11.327
▁дворца	-11.327
▁majority	-11.3271
▁Черно	-11.3273
bul	-11.3273
▁каталог	-11.3274
▁английском	-11.3274
mun	-11.3276
▁инцидент	-11.3278
▁очков	-11.328
▁предприниматель	-11.3281
▁общие	-11.3281
▁исполнен	-11.3282
зм	-11.3282
▁единого	-11.3282
Ни	-11.3285
▁Эс	-11.3285
ically	-11.3285
▁глас	-11.3287
stone	-11.3289
▁пророк	-11.3289
▁вслед	-11.3291
▁sha	-11.3292
rk	-11.3292
▁архиепископ	-11.3292
shire	-11.3293
ационные	-11.3293
овских	-11.3295
▁человеческих	-11.3295
▁words	-11.3298
▁Диа	-11.3298
▁файлов	-11.3299
▁watch	-11.3299
▁играют	-11.3299
▁newspaper	-11.33
русски	-11.3301
▁внук	-11.3301
connect	-11.3301
енности	-11.3301
чными	-11.3301
Пу	-11.3305
▁Over	-11.3306
▁непременно	-11.3308
ПС	-11.331
▁прийти	-11.3311
▁Петроград	-11.3313
▁Brown	-11.3313
▁капитана	-11.3314
ТЕ	-11.3314
▁Tre	-11.3315
тти	-11.3316
▁op	-11.3316
▁Бак	-11.3316
▁способов	-11.3317
▁увеличить	-11.3317
▁желаю	-11.3318
cip	-11.3318
▁Фр	-11.3318
▁звезда	-11.3319
▁признаков	-11.3319
спир	-11.332
▁платеж	-11.332
▁concern	-11.332
делать	-11.3323
▁разведчик	-11.3323
▁европе	-11.3324
▁зрителей	-11.3324
▁вооружения	-11.3325
где	-11.3326
▁заставляет	-11.3326
▁некогда	-11.3327
шедших	-11.3327
▁gas	-11.3328
▁Способ	-11.3328
▁Government	-11.3329
тическое	-11.333
НИИ	-11.333
▁прицел	-11.3332
▁Ber	-11.3333
▁волю	-11.3334
▁белый	-11.3335
▁federal	-11.3337
▁star	-11.3339
▁скажу	-11.3339
▁понимают	-11.3339
▁Известно	-11.334
Атлант	-11.334
▁multi	-11.3341
dom	-11.3342
▁высоту	-11.3342
▁Fort	-11.3342
▁пуш	-11.3343
▁Лос	-11.3344
▁Cre	-11.3344
▁размещен	-11.3345
дана	-11.3345
▁продолжают	-11.3346
ique	-11.3346
▁присвоено	-11.3347
▁салон	-11.3347
▁помеща	-11.3348
фюрер	-11.3349
▁полтора	-11.3349
байт	-11.335
▁третьем	-11.335
rin	-11.3352
▁удается	-11.3353
визион	-11.3353
бет	-11.3354
ality	-11.3356
▁Брат	-11.3357
▁примитив	-11.3357
Петербурге	-11.3358
▁Эдуард	-11.3359
хотя	-11.336
▁minor	-11.336
▁appearance	-11.3362
▁приема	-11.3362
орг	-11.3365
▁Бай	-11.3365
▁привязан	-11.3365
▁миг	-11.3367
▁semi	-11.3368
ras	-11.3369
▁бюро	-11.3369
▁современные	-11.337
▁прибыв	-11.3371
▁годом	-11.3371
нью	-11.3372
▁bridge	-11.3372
шись	-11.3373
▁Ken	-11.3373
▁динамик	-11.3373
очник	-11.3374
▁larger	-11.3375
▁крепостн	-11.3376
▁Work	-11.3376
▁Характер	-11.3377
▁жизненно	-11.3377
есси	-11.3378
▁Социал	-11.3378
▁winning	-11.3378
очно	-11.3379
▁стояла	-11.3381
ификация	-11.3382
тянул	-11.3382
▁День	-11.3382
скорб	-11.3383
▁участков	-11.3385
горь	-11.3386
▁Миш	-11.3387
▁открытым	-11.3388
▁ученый	-11.3388
▁Джек	-11.3389
place	-11.3389
▁областей	-11.3389
▁mine	-11.3392
степ	-11.3392
дача	-11.3393
▁Мет	-11.3393
▁Another	-11.3393
писывать	-11.3394
▁лаборатории	-11.3394
ственным	-11.3395
▁individuals	-11.3395
ходящих	-11.3396
▁исследователь	-11.3397
▁мороз	-11.3397
жить	-11.34
▁силах	-11.34
▁Cu	-11.34
▁научного	-11.3401
благо	-11.3402
▁Андрея	-11.3403
▁приблиз	-11.3403
ёз	-11.3404
▁достоинства	-11.3405
▁царств	-11.3405
ИЛ	-11.3406
ходя	-11.3407
▁агентства	-11.3407
́ть	-11.3407
окс	-11.3408
израильск	-11.3409
▁увеличен	-11.341
▁лошадей	-11.341
▁родилась	-11.341
▁производится	-11.3412
▁заместителем	-11.3414
▁забав	-11.3414
▁heart	-11.3414
▁святого	-11.3415
казания	-11.3415
▁производить	-11.3415
▁акту	-11.3417
▁Post	-11.3417
▁associated	-11.3417
dra	-11.3417
▁камня	-11.3417
▁сведений	-11.3418
▁quickly	-11.3418
крет	-11.3419
▁pen	-11.342
▁Жизнь	-11.342
даётся	-11.342
▁живопис	-11.3421
▁shown	-11.3422
▁изделия	-11.3422
плод	-11.3423
▁kill	-11.3425
▁свеже	-11.3425
▁ногами	-11.3426
АП	-11.3426
▁постановление	-11.3427
mouth	-11.3427
▁грузин	-11.3428
rad	-11.3428
▁удержива	-11.3429
▁справа	-11.3429
анье	-11.343
▁взгляды	-11.343
▁Швеции	-11.343
▁мусор	-11.3432
▁remains	-11.3432
айд	-11.3433
лями	-11.3433
▁численность	-11.3434
▁взрослых	-11.3434
▁trial	-11.3435
▁счастья	-11.3438
▁сохранения	-11.3441
▁chief	-11.3441
▁угла	-11.3443
▁учеников	-11.3444
▁практика	-11.3445
▁Kingdom	-11.3445
Под	-11.3446
▁likely	-11.3446
▁заложен	-11.3446
▁Фёдор	-11.3447
▁продолжали	-11.3447
▁поехал	-11.3449
▁отрасли	-11.3449
pic	-11.3451
▁Ham	-11.3451
▁молодым	-11.3452
▁составляло	-11.3453
▁составляли	-11.3453
красив	-11.3454
▁society	-11.3454
▁произошел	-11.3456
▁Va	-11.3456
▁механик	-11.3459
▁куст	-11.3459
gor	-11.3459
▁новыми	-11.346
крыть	-11.346
▁Генри	-11.3462
ниг	-11.3462
▁чтения	-11.3464
▁credit	-11.3465
PS	-11.3465
поли	-11.3465
▁неприятно	-11.3467
▁Pu	-11.3467
▁одержал	-11.347
▁печаль	-11.347
▁успев	-11.3471
like	-11.3472
вот	-11.3473
▁application	-11.3473
чие	-11.3475
▁Пр	-11.3477
establish	-11.3478
▁raised	-11.3478
▁товары	-11.3479
▁мирового	-11.3479
щему	-11.348
▁pain	-11.348
▁создали	-11.348
▁floor	-11.348
▁развод	-11.3481
ольф	-11.3482
bur	-11.3483
▁Арт	-11.3483
перед	-11.3484
▁самоубийств	-11.3484
▁платить	-11.3484
▁Ve	-11.3484
▁НАТО	-11.3485
▁смесь	-11.3487
луп	-11.3488
свят	-11.3488
▁задания	-11.3489
▁Давайте	-11.3492
▁Bel	-11.3492
▁ver	-11.3493
▁командиром	-11.3496
▁масл	-11.3496
св	-11.3496
▁присоединен	-11.3496
▁выявлен	-11.3497
▁близких	-11.3497
qua	-11.3497
▁вдвое	-11.3498
тику	-11.3499
дите	-11.3499
ившие	-11.35
▁status	-11.35
▁брака	-11.3503
▁Pat	-11.3503
▁половина	-11.3503
▁поддержал	-11.3503
тельными	-11.3503
▁сомнева	-11.3504
▁Богом	-11.3504
dev	-11.3506
▁послужил	-11.3508
▁одобрен	-11.3509
▁situation	-11.3511
▁предстоит	-11.3512
▁командования	-11.3512
▁Academy	-11.3514
ичного	-11.3515
ализации	-11.3515
sia	-11.3515
▁завершения	-11.3518
▁Бас	-11.352
ср	-11.352
ческое	-11.3521
▁пересек	-11.3522
▁пройдет	-11.3524
▁рассчитан	-11.3524
▁Последний	-11.3526
▁директором	-11.3526
▁Франция	-11.3527
▁nine	-11.3529
▁мощности	-11.3529
греш	-11.353
жива	-11.3531
▁меша	-11.3532
▁выделить	-11.3534
▁собора	-11.3535
ющимися	-11.3537
▁ногу	-11.3538
▁трат	-11.354
▁Фильм	-11.3541
зова	-11.3541
ализован	-11.3542
▁numerous	-11.3543
▁силе	-11.3545
▁организовать	-11.3545
това	-11.3545
быв	-11.3546
▁соверша	-11.3547
▁runs	-11.355
Инд	-11.3551
дзи	-11.3551
▁присутствовал	-11.3552
▁срочно	-11.3553
западу	-11.3553
двор	-11.3557
▁родной	-11.3557
▁гео	-11.3557
▁becoming	-11.3557
bus	-11.3559
маш	-11.3559
▁Canadian	-11.3559
ott	-11.3561
меняет	-11.3562
▁стоп	-11.3563
▁дыхание	-11.3563
▁nature	-11.3564
▁scene	-11.3564
цкого	-11.3564
▁включал	-11.3565
▁честн	-11.3567
▁heavy	-11.3567
ili	-11.3567
▁волну	-11.3567
▁Центральной	-11.3567
▁physical	-11.3567
▁Следовательно	-11.3568
иваются	-11.3569
ленные	-11.3569
▁window	-11.3569
▁торжественно	-11.3571
брав	-11.3571
▁деталей	-11.3572
arr	-11.3572
етт	-11.3573
▁военным	-11.3574
▁блест	-11.3576
тс	-11.3577
▁press	-11.3579
▁ускорен	-11.3579
▁употребля	-11.358
▁сочинения	-11.358
▁northern	-11.358
▁soldiers	-11.3581
▁простых	-11.3582
ori	-11.3582
▁востоке	-11.3583
▁Pra	-11.3585
▁initially	-11.3585
▁суде	-11.3585
▁глагол	-11.3586
▁здании	-11.3586
▁примет	-11.3587
рского	-11.3587
▁удивлен	-11.3589
▁Речь	-11.359
двинул	-11.359
mill	-11.3591
▁балет	-11.3593
▁битвы	-11.3593
исповед	-11.3594
▁escape	-11.3594
▁битве	-11.3596
▁reach	-11.3596
▁разобраться	-11.3596
oth	-11.3596
rot	-11.3597
ковых	-11.3598
▁занять	-11.36
▁reg	-11.36
ившегося	-11.36
промежуточ	-11.36
▁агентство	-11.3602
▁необходимых	-11.3602
▁расположение	-11.3603
▁speed	-11.3605
▁улиц	-11.3606
▁painting	-11.3606
▁животные	-11.3608
цент	-11.3609
▁учитывать	-11.361
▁распространя	-11.3614
ношение	-11.3614
▁экологи	-11.3615
▁собирается	-11.3616
▁Лей	-11.3616
▁проиграл	-11.3618
▁частных	-11.3619
▁Дет	-11.3619
▁политическим	-11.3619
▁Os	-11.3622
мышля	-11.3624
▁Texas	-11.3626
▁Тип	-11.3626
▁входили	-11.3627
▁Русской	-11.3627
озер	-11.3627
▁планов	-11.3627
▁небе	-11.3628
▁Премьер	-11.3629
▁Pen	-11.363
боле	-11.363
▁конкурент	-11.3631
▁Естественно	-11.3631
ulation	-11.3633
▁Лун	-11.3633
▁профсоюз	-11.3634
▁друзьями	-11.3634
ографии	-11.3635
инская	-11.3637
юк	-11.3637
▁Днепр	-11.3637
▁Каб	-11.3638
▁станут	-11.3638
Тр	-11.3639
▁карьеры	-11.3639
cing	-11.3639
дже	-11.364
▁southern	-11.364
приемлем	-11.3641
stock	-11.3642
▁некий	-11.3642
ивание	-11.3644
▁старшего	-11.3644
тет	-11.3644
ложили	-11.3646
▁ресурсы	-11.3646
__	-11.365
▁доллар	-11.365
▁отсутствует	-11.365
▁crew	-11.365
фр	-11.3651
▁пойдет	-11.3651
живание	-11.3651
СП	-11.3652
▁ходил	-11.3653
▁Пле	-11.3653
east	-11.3654
▁кинематограф	-11.3654
▁готовности	-11.3655
▁дата	-11.3655
нское	-11.3656
▁эффективность	-11.3656
бытие	-11.3657
▁gl	-11.3657
▁допрос	-11.3659
электрон	-11.3661
▁отсутствии	-11.3662
class	-11.3663
уров	-11.3664
▁Иран	-11.3664
сёл	-11.3664
▁студен	-11.3666
CC	-11.3666
нез	-11.3667
▁серьёз	-11.3667
кош	-11.3667
▁Arab	-11.3667
дешев	-11.3668
▁воинов	-11.3669
▁установлено	-11.367
kes	-11.3672
▁обязательств	-11.3672
▁расстояния	-11.3673
▁выступать	-11.3673
▁происходят	-11.3675
▁годами	-11.3675
эп	-11.3675
▁Статья	-11.3675
▁Val	-11.3676
▁смогла	-11.3678
технической	-11.3679
Mo	-11.3681
▁мук	-11.3683
учение	-11.3685
▁Алексеев	-11.3688
груб	-11.3689
▁Господь	-11.369
▁Масс	-11.3693
▁Казахстан	-11.3693
▁подготовку	-11.3693
▁ведущих	-11.3695
▁Angeles	-11.3696
резал	-11.3697
▁Вильгельм	-11.3701
▁буржуа	-11.3702
▁заняла	-11.3702
ei	-11.3703
▁Проект	-11.3704
▁фигуры	-11.3704
кнул	-11.3706
raw	-11.3706
▁считая	-11.3707
▁лошади	-11.3708
смеш	-11.3709
▁Пет	-11.371
yard	-11.3711
ольд	-11.3711
▁путешествия	-11.3712
▁туре	-11.3713
лыб	-11.3713
лена	-11.3714
▁многими	-11.3714
▁Рязан	-11.3714
Варшав	-11.3715
СУ	-11.3715
слы	-11.3716
▁крупный	-11.3716
▁оставив	-11.3717
▁грязн	-11.3718
▁обезьян	-11.3719
▁юрист	-11.3719
▁problem	-11.3721
▁белые	-11.3721
▁природу	-11.3722
die	-11.3724
гадыва	-11.3725
▁Дуб	-11.3728
Бел	-11.3729
▁Гай	-11.3729
▁пору	-11.373
▁und	-11.3732
▁ничто	-11.3733
core	-11.3733
▁соединен	-11.3734
шит	-11.3734
craft	-11.3734
▁НЕ	-11.3735
ёк	-11.3736
▁биолог	-11.3736
▁Новой	-11.3736
▁dance	-11.3736
▁страниц	-11.3737
▁коэффициент	-11.3738
▁инвестор	-11.3738
бух	-11.3738
▁Хол	-11.3739
spec	-11.374
▁делах	-11.3741
▁оценка	-11.3742
('	-11.3743
▁nearly	-11.3744
▁percent	-11.3744
лятор	-11.3744
поним	-11.3744
▁гибель	-11.3745
▁Павла	-11.3745
▁практику	-11.3745
▁пошла	-11.3746
▁despite	-11.3746
древ	-11.3748
Белорус	-11.3749
летия	-11.3749
▁компанию	-11.3753
▁Елена	-11.3754
таж	-11.3754
▁needed	-11.3754
май	-11.3754
▁малыш	-11.3754
речь	-11.3757
▁восстановления	-11.3757
бас	-11.3758
▁судьбу	-11.3759
Ин	-11.376
▁мыслей	-11.376
▁прочие	-11.376
▁Кен	-11.3761
Type	-11.3762
▁выполнил	-11.3762
▁Нико	-11.3763
wer	-11.3765
ога	-11.3767
абель	-11.3767
▁тени	-11.3767
▁вышло	-11.3768
▁посвящён	-11.3768
▁правду	-11.3769
▁переходит	-11.377
▁лимон	-11.3771
▁консерв	-11.3772
звон	-11.3772
стор	-11.3772
ированию	-11.3773
▁Сел	-11.3774
▁одинок	-11.3775
ущих	-11.3775
▁присутствие	-11.3776
два	-11.3776
▁восстание	-11.3776
ственная	-11.3776
▁стола	-11.3776
▁мышцы	-11.3777
▁Book	-11.3778
▁субъекта	-11.3779
▁комфорт	-11.3782
▁оператив	-11.3782
▁ложки	-11.3783
▁takes	-11.3783
▁акцент	-11.3784
▁Сим	-11.3785
▁велик	-11.3785
▁хотела	-11.3785
чение	-11.3786
▁покинуть	-11.3787
▁уклон	-11.3787
▁коммент	-11.3788
точно	-11.3791
▁обсуждал	-11.3795
▁комиссия	-11.3795
▁задание	-11.3796
▁бывших	-11.3797
шедший	-11.3797
▁Ter	-11.3798
▁торпед	-11.3799
▁programs	-11.38
▁подавлен	-11.38
плыл	-11.3801
▁ЗА	-11.3802
ложив	-11.3802
▁Новая	-11.3804
▁слева	-11.3804
▁животного	-11.3806
ящим	-11.3806
▁male	-11.3807
прост	-11.3807
стает	-11.3808
▁раскрыт	-11.3808
▁сознании	-11.3809
ляет	-11.3809
bre	-11.381
▁филиал	-11.381
▁proposed	-11.3811
▁называ	-11.3812
▁вдох	-11.3814
▁частях	-11.3817
Ro	-11.3817
дерев	-11.3818
aff	-11.382
▁пыль	-11.382
куда	-11.382
▁способствует	-11.382
▁кожа	-11.3822
▁создав	-11.3822
▁двум	-11.3823
▁случаю	-11.3824
▁привез	-11.3824
▁закончен	-11.3825
▁рыба	-11.3826
▁Жил	-11.3827
онных	-11.3827
РК	-11.3829
▁Nor	-11.3829
́л	-11.3832
▁Иисус	-11.3835
стол	-11.3836
▁medical	-11.3837
▁Гур	-11.3838
▁label	-11.384
гуман	-11.3841
▁quarter	-11.3841
▁фанат	-11.3842
шиб	-11.3845
▁уничтожил	-11.3845
▁откровенно	-11.3845
▁результата	-11.3846
гни	-11.3848
овались	-11.3848
завод	-11.3848
▁принимали	-11.3849
▁моменты	-11.3849
ators	-11.385
▁получится	-11.3851
▁prison	-11.3851
▁больного	-11.3851
зра	-11.3852
▁убежда	-11.3854
▁Old	-11.3855
▁Наполеон	-11.3855
▁ехать	-11.3855
▁главная	-11.3858
▁тотчас	-11.3858
▁указания	-11.3858
▁path	-11.3859
▁рассе	-11.3859
▁blood	-11.3861
pri	-11.3861
list	-11.3863
интегр	-11.3863
▁исторического	-11.3864
банк	-11.3864
▁испытывал	-11.3864
▁залива	-11.3865
▁обнаружить	-11.3866
▁card	-11.3866
▁perform	-11.3867
▁Павлович	-11.3867
▁Prince	-11.3868
bound	-11.3868
▁Войн	-11.3871
▁базу	-11.3871
▁образы	-11.3871
rom	-11.3873
▁Ольга	-11.3874
арий	-11.3874
▁легенд	-11.3874
оход	-11.3875
▁Андреев	-11.3876
▁персонал	-11.3878
▁pick	-11.3879
реза	-11.3879
▁мелоч	-11.3881
▁вере	-11.3882
▁меню	-11.3883
ЕЙ	-11.3884
лева	-11.3885
▁общины	-11.3885
мос	-11.3886
▁лидеров	-11.3887
▁Павл	-11.3888
▁образца	-11.3889
▁подхода	-11.389
▁Not	-11.3892
–	-11.3893
▁Первоначально	-11.3894
ood	-11.3896
ационных	-11.3896
tical	-11.3897
bert	-11.3898
▁новому	-11.39
торг	-11.3902
▁двигаться	-11.3903
меня	-11.3904
▁Land	-11.3904
Ор	-11.3904
▁кожу	-11.3905
▁related	-11.3906
din	-11.3907
▁дополнительных	-11.3908
▁firm	-11.3908
▁массовой	-11.3908
щит	-11.3912
▁бело	-11.3913
▁правительством	-11.3914
тащил	-11.3914
счет	-11.3914
▁Австрии	-11.3914
▁приняла	-11.3915
живать	-11.3916
oy	-11.3919
лёв	-11.3921
СС	-11.3922
▁круга	-11.3922
▁движений	-11.3922
▁общую	-11.3923
вард	-11.3924
och	-11.3925
яков	-11.3926
▁приступил	-11.3926
совместим	-11.3928
▁крупно	-11.393
▁языки	-11.393
▁theory	-11.3931
▁fast	-11.3931
▁continue	-11.3936
Ты	-11.3937
▁file	-11.3937
▁оснащен	-11.3938
▁просьбой	-11.394
▁проводит	-11.3941
строил	-11.3941
▁национал	-11.3941
▁обстоятельствах	-11.3942
▁соединение	-11.3943
▁bring	-11.3944
▁content	-11.3945
аторы	-11.3946
инка	-11.3948
▁Trans	-11.395
▁девочка	-11.395
▁counter	-11.3951
▁выполнял	-11.3952
публик	-11.3953
сыпа	-11.3953
▁бирж	-11.3954
▁big	-11.3956
▁стекло	-11.3958
▁онлайн	-11.3958
нулась	-11.3959
▁попадает	-11.3961
▁особый	-11.3963
▁Britain	-11.3963
▁голосом	-11.3965
vid	-11.3965
▁ordered	-11.3965
▁XIII	-11.3966
▁Russia	-11.3967
▁Edward	-11.3968
брат	-11.397
▁исследователи	-11.3972
▁Board	-11.3972
▁русская	-11.3973
▁физически	-11.3974
пати	-11.3974
ean	-11.3975
▁смел	-11.3975
▁неизменно	-11.3976
▁судна	-11.3976
▁Ант	-11.3977
▁государством	-11.3978
▁форт	-11.3978
бород	-11.3979
burn	-11.3979
▁корабле	-11.3982
▁хорошего	-11.3982
▁построена	-11.3982
▁внешнего	-11.3982
▁Оль	-11.3983
член	-11.3983
▁доступны	-11.3983
▁болгар	-11.3983
▁карту	-11.3984
▁Новосибирск	-11.3984
▁сообщал	-11.3985
▁plans	-11.3985
▁Jewish	-11.3986
команд	-11.3987
манов	-11.3988
▁умеет	-11.399
▁парус	-11.399
ведя	-11.3992
table	-11.3992
кину	-11.3993
▁поднят	-11.3993
▁закрыл	-11.3994
ённых	-11.3994
▁Мать	-11.3995
▁Анатолий	-11.3995
!»	-11.3995
трав	-11.3995
▁седьм	-11.3995
▁Шер	-11.3996
▁поняли	-11.3996
Me	-11.3996
езжает	-11.3996
▁разным	-11.3997
▁поисков	-11.3997
▁полов	-11.3998
▁Очевидно	-11.3998
▁безопасность	-11.4001
▁похвал	-11.4001
▁Ваше	-11.4003
бесконеч	-11.4003
▁универсал	-11.4003
▁Greek	-11.4003
▁Нельзя	-11.4006
▁Це	-11.4008
ref	-11.4008
▁respect	-11.4008
▁угод	-11.4009
▁else	-11.401
▁пишут	-11.4013
▁формиру	-11.4014
▁убор	-11.4015
▁mind	-11.4016
▁аристократ	-11.4016
▁Гон	-11.4016
▁основал	-11.4017
▁американские	-11.4017
крытие	-11.4017
елей	-11.4018
▁важную	-11.4018
▁Van	-11.4018
шедшие	-11.4019
▁патриот	-11.402
▁эффективности	-11.4021
ising	-11.4022
▁Шах	-11.4022
пасть	-11.4024
nie	-11.4026
тун	-11.4026
▁income	-11.4027
вилл	-11.4031
андер	-11.4032
▁схемы	-11.4032
▁способствовал	-11.4033
▁русско	-11.4035
▁famous	-11.4035
▁звуки	-11.4039
мунд	-11.4041
овому	-11.4041
▁кратко	-11.4041
▁цилиндр	-11.4042
▁познакоми	-11.4043
▁членами	-11.4043
▁box	-11.4045
▁Входит	-11.4045
date	-11.4046
▁Доктор	-11.4046
▁ships	-11.4047
министра	-11.4047
олл	-11.4047
▁социальные	-11.4048
▁настоящим	-11.4049
▁lot	-11.405
cular	-11.4051
акс	-11.4052
bon	-11.4053
▁conditions	-11.4053
▁одежду	-11.4056
▁великих	-11.4056
els	-11.4056
▁виноград	-11.4057
▁воспитания	-11.4057
▁device	-11.4057
▁Шир	-11.4057
▁градусов	-11.4061
разработчик	-11.4061
▁Чита	-11.4061
▁below	-11.4062
It	-11.4062
имости	-11.4062
▁даст	-11.4063
ечной	-11.4063
▁VIII	-11.4065
String	-11.4065
▁попали	-11.4066
▁немецкие	-11.4067
▁загадоч	-11.4068
▁сине	-11.4068
хол	-11.4069
ставок	-11.4069
▁налог	-11.407
▁переводе	-11.4072
▁Лучше	-11.4072
́й	-11.4075
▁действием	-11.4076
▁пуга	-11.4076
▁feature	-11.4077
▁искренне	-11.4077
▁makes	-11.4078
▁государственном	-11.4078
овался	-11.4078
рожа	-11.4082
▁уменьша	-11.4085
ыч	-11.4085
▁неплохо	-11.4085
▁женился	-11.4087
▁Благо	-11.4087
▁ожидать	-11.4088
▁teacher	-11.4089
▁сед	-11.4089
▁поднять	-11.4089
праздн	-11.409
▁основой	-11.409
терпе	-11.4093
▁окон	-11.4093
кай	-11.4094
▁лени	-11.4094
поминаю	-11.4095
▁middle	-11.4096
mus	-11.4096
▁использовались	-11.4096
▁меняется	-11.4096
учеб	-11.4097
vert	-11.4097
▁management	-11.4099
▁содержат	-11.4099
▁Рез	-11.41
ицей	-11.4102
▁says	-11.4102
▁учебных	-11.4104
▁inside	-11.4106
".[	-11.4107
▁энергичн	-11.4107
▁highest	-11.411
вик	-11.4111
▁навстречу	-11.4113
▁моделей	-11.4114
▁восточной	-11.4114
▁велел	-11.4114
▁земной	-11.4116
Пол	-11.4117
▁работах	-11.4117
▁диплом	-11.4118
ories	-11.4118
хер	-11.4118
▁бояр	-11.4118
▁дала	-11.4118
▁знала	-11.4118
▁барабан	-11.4119
▁победа	-11.4123
pu	-11.4123
туш	-11.4123
петербург	-11.4125
движен	-11.4125
тельность	-11.4125
естествен	-11.4128
AM	-11.4129
hang	-11.4129
▁звучит	-11.4132
▁писем	-11.4133
у́	-11.4133
▁officers	-11.4134
▁Георгий	-11.4134
▁советским	-11.4135
▁Запада	-11.4135
▁ана	-11.4137
кладывать	-11.414
шние	-11.4142
▁башни	-11.4145
▁убил	-11.4146
▁Великий	-11.4147
оди	-11.4147
▁версию	-11.4147
▁Азербайджан	-11.4147
яна	-11.4148
▁Института	-11.4148
▁линий	-11.4149
▁МИД	-11.4149
▁женщину	-11.415
▁достижение	-11.4151
▁составила	-11.4151
▁candidate	-11.4153
▁оставались	-11.4154
▁большее	-11.4156
▁Фото	-11.4156
еньки	-11.4156
▁оккуп	-11.4157
▁предметом	-11.4159
▁краю	-11.4159
gy	-11.4162
▁Хр	-11.4162
▁приложений	-11.4167
▁sexual	-11.4168
индустри	-11.4169
▁пейзаж	-11.417
▁десятилетия	-11.4171
▁Сергеевич	-11.4171
▁Африке	-11.4172
▁Ельцин	-11.4172
▁presented	-11.4173
ковым	-11.4173
очное	-11.4176
▁пожалуйста	-11.4176
▁послуш	-11.4177
▁branch	-11.418
▁очерк	-11.4181
ичной	-11.4181
erial	-11.4182
▁пытаясь	-11.4182
▁Republic	-11.4182
▁фокус	-11.4183
▁инстинкт	-11.4183
▁погибших	-11.4186
▁CD	-11.4187
▁Была	-11.4187
▁сложные	-11.4189
ступал	-11.4191
▁Стро	-11.4191
▁актриса	-11.4192
▁тюрем	-11.4192
▁Артур	-11.4193
▁Гус	-11.4193
▁разговора	-11.4194
▁монастыре	-11.4195
откровен	-11.4196
▁Силь	-11.4198
▁давали	-11.4198
▁развитием	-11.4199
▁Финляндии	-11.42
▁attention	-11.42
ложении	-11.42
▁Берлине	-11.4201
тивно	-11.4201
▁техника	-11.4203
овец	-11.4205
▁крылья	-11.4205
▁Гро	-11.4205
▁ft	-11.4205
рика	-11.4207
▁accept	-11.4207
▁скрыва	-11.4207
▁НКВД	-11.4208
piece	-11.4209
▁обстановке	-11.421
▁Коль	-11.4211
▁Георг	-11.4212
ПУ	-11.4212
▁films	-11.4214
▁сыновей	-11.4214
специфически	-11.4215
▁Стол	-11.4215
▁занятий	-11.4215
▁показывал	-11.4216
tail	-11.4218
▁Ireland	-11.4218
wan	-11.4219
▁наступил	-11.4219
▁computer	-11.422
енский	-11.422
друж	-11.4222
▁малых	-11.4222
▁точке	-11.4223
ode	-11.4225
▁More	-11.4226
мира	-11.4227
▁Life	-11.4227
вшем	-11.4229
▁foot	-11.4231
цо	-11.4231
опер	-11.4231
ёж	-11.4232
pose	-11.4232
▁Мих	-11.4233
▁сопровождал	-11.4233
▁кольцо	-11.4233
▁исключа	-11.4234
чиво	-11.4234
▁богослов	-11.4234
▁hundred	-11.4235
▁серия	-11.4235
▁Цел	-11.4236
енько	-11.4236
▁закону	-11.4236
▁пл	-11.4236
▁училища	-11.4236
Отечеств	-11.4237
▁factor	-11.4237
лед	-11.4238
▁Latin	-11.4238
▁channel	-11.4239
▁agreed	-11.4239
▁гранат	-11.424
бров	-11.4241
▁министерства	-11.4241
▁горах	-11.4242
▁полномочия	-11.4242
▁Tur	-11.4243
▁даёт	-11.4243
▁приходил	-11.4244
▁Труда	-11.4244
ried	-11.4245
▁search	-11.4247
КР	-11.4247
motion	-11.4248
хождение	-11.4248
▁обыкновенно	-11.4249
▁Festival	-11.4249
стоять	-11.4249
▁человечество	-11.4251
▁контейнер	-11.4251
▁фамилии	-11.4251
▁остановить	-11.4251
▁нефте	-11.4252
▁теряет	-11.4252
▁import	-11.4252
очном	-11.4252
itz	-11.4254
▁оценку	-11.4254
▁Григорий	-11.4255
dan	-11.4255
корен	-11.4256
▁Plan	-11.4257
▁Public	-11.4259
▁препарат	-11.426
энерг	-11.4262
тыр	-11.4262
▁ожидания	-11.4263
▁Дела	-11.4263
▁Ze	-11.4265
лимпий	-11.4266
▁Christ	-11.4267
▁роты	-11.4268
nov	-11.4269
▁сахара	-11.4271
▁остановил	-11.4271
▁лауреат	-11.4272
▁отражение	-11.4272
pop	-11.4273
▁собственным	-11.4273
бло	-11.4273
▁бригада	-11.4274
▁районы	-11.4277
▁заверша	-11.4277
▁апостол	-11.4279
▁обычных	-11.428
шний	-11.428
test	-11.4281
▁Кавказ	-11.4282
▁Анны	-11.4283
▁основная	-11.4284
▁сегмент	-11.4285
▁маршал	-11.4285
▁злоб	-11.4285
▁боков	-11.4286
▁выводы	-11.4287
yer	-11.4288
oe	-11.4289
▁Труд	-11.4289
кидыва	-11.4289
▁Blue	-11.429
▁состоялось	-11.4291
▁partner	-11.4292
▁густо	-11.4292
▁Старо	-11.4292
View	-11.4293
▁науч	-11.4294
▁освобожда	-11.4295
▁Святой	-11.4295
▁белого	-11.4295
▁мяса	-11.4298
▁модерн	-11.4298
▁goals	-11.43
▁неба	-11.4301
▁стихов	-11.4301
чим	-11.4304
ography	-11.4304
▁пехоты	-11.4305
▁Nu	-11.4307
▁рецепт	-11.4308
▁действуют	-11.4309
дыш	-11.4309
▁псевдо	-11.431
▁сильное	-11.431
▁участки	-11.4314
▁полков	-11.4315
ЛО	-11.4315
лажен	-11.4315
▁method	-11.4316
▁норма	-11.4316
хитр	-11.4316
▁treatment	-11.4316
▁любовью	-11.4317
▁художественно	-11.4318
отдел	-11.432
▁Иоанна	-11.4321
▁Банк	-11.4322
▁внутренние	-11.4323
▁Кана	-11.4323
раги	-11.4323
следователь	-11.4324
велич	-11.4324
▁посол	-11.433
lus	-11.433
▁позволяю	-11.4333
▁Егор	-11.4333
▁белым	-11.4333
гир	-11.4334
▁выброс	-11.4335
▁experiment	-11.4335
▁подавля	-11.4336
▁зерно	-11.4337
несла	-11.4337
▁распада	-11.4337
вязан	-11.4337
▁stone	-11.4338
shed	-11.4338
▁ранних	-11.4338
▁protect	-11.4339
▁letter	-11.4339
▁results	-11.434
▁важный	-11.4341
▁проекту	-11.4343
▁Шан	-11.4343
▁дико	-11.4346
▁объедини	-11.4346
▁direction	-11.4348
глуб	-11.4349
▁защищать	-11.4349
ME	-11.4351
▁лидера	-11.4352
▁flight	-11.4352
IA	-11.4354
▁особенностей	-11.4355
ваш	-11.4355
▁премию	-11.4355
▁pressure	-11.4356
Con	-11.436
Крас	-11.4363
носим	-11.4365
▁photograph	-11.4365
изму	-11.4365
▁Маль	-11.4366
▁historical	-11.4367
▁бежать	-11.4368
мыш	-11.4369
социалист	-11.437
гружа	-11.437
▁маркетинг	-11.4371
час	-11.4371
▁agreement	-11.4371
▁пояснил	-11.4373
▁дому	-11.4373
▁сделала	-11.4373
▁Блок	-11.4378
▁казак	-11.4379
▁Саратов	-11.4379
loc	-11.4383
▁опытом	-11.4384
round	-11.4385
кажи	-11.4386
▁Mexico	-11.4387
▁railway	-11.4388
▁студии	-11.4388
▁мгновенно	-11.4388
▁зелено	-11.4388
▁парашют	-11.4389
▁вызывают	-11.4389
▁Фор	-11.4389
больше	-11.439
▁километрах	-11.439
▁министров	-11.4393
▁съём	-11.4393
▁политик	-11.4393
▁последующие	-11.4393
сердеч	-11.4396
нейшие	-11.4398
Пар	-11.44
▁распоряжение	-11.44
емости	-11.4401
консульт	-11.4402
SI	-11.4402
▁Their	-11.4405
▁крем	-11.4405
енского	-11.4405
ицкий	-11.4405
▁причём	-11.4406
ликвид	-11.4407
▁довод	-11.4408
▁beat	-11.4408
▁фольклор	-11.4409
́ль	-11.4409
▁особых	-11.441
▁Весь	-11.441
▁конкретно	-11.4411
▁immediately	-11.4413
овав	-11.4414
▁великим	-11.4415
▁Hy	-11.4415
▁растет	-11.4416
иностран	-11.4416
итал	-11.4416
▁обсуждения	-11.4417
▁превыша	-11.4418
▁свойство	-11.4418
▁песню	-11.4418
▁каст	-11.4419
четверт	-11.4419
▁Слав	-11.4419
вязал	-11.442
▁твое	-11.4421
▁служат	-11.4424
▁фактов	-11.4426
▁подошел	-11.4427
▁Альберт	-11.4427
▁столом	-11.4428
▁Дух	-11.4428
ивали	-11.4428
▁стабильн	-11.443
▁Серг	-11.4431
▁операцию	-11.4432
туп	-11.4433
жизне	-11.4433
▁vote	-11.4434
▁руд	-11.4434
кать	-11.4435
ose	-11.4435
коло	-11.4436
▁путешествие	-11.4438
box	-11.4438
▁свободе	-11.4438
▁преступление	-11.4438
венгерск	-11.444
▁открыты	-11.4441
▁содержится	-11.4441
смысл	-11.4441
пур	-11.4441
щён	-11.4443
▁Южно	-11.4444
ОЗ	-11.4445
▁вначале	-11.4447
▁высотой	-11.4449
▁Билл	-11.4449
анского	-11.4449
▁сельское	-11.4449
▁стресс	-11.445
▁гостя	-11.4451
▁разума	-11.4451
▁hope	-11.4453
▁пьес	-11.4454
▁читателей	-11.4454
▁восьм	-11.4454
Ри	-11.4455
▁Екатерина	-11.4458
▁ввести	-11.4458
▁Ибо	-11.446
▁challenge	-11.446
▁совершить	-11.4461
▁Аллах	-11.4462
uring	-11.4462
List	-11.4462
цз	-11.4463
электр	-11.4463
ализация	-11.4463
IV	-11.4464
▁Бон	-11.4465
соль	-11.4465
▁directly	-11.4466
▁можешь	-11.4469
▁невероятно	-11.447
▁парад	-11.447
▁облач	-11.4471
▁известна	-11.4472
▁мяс	-11.4472
▁проблемой	-11.4473
▁объяснения	-11.4474
▁зарегистрирован	-11.4475
▁атрибут	-11.4476
▁матчах	-11.4476
писка	-11.4477
▁добровольно	-11.4477
▁latter	-11.4477
▁моста	-11.4477
▁принадлежат	-11.4478
▁Дра	-11.4478
▁ветеран	-11.4478
▁Псков	-11.4479
▁оказывал	-11.448
▁subsequently	-11.448
▁ворон	-11.4481
▁пассив	-11.4482
▁печата	-11.4484
▁следствия	-11.4484
▁Lee	-11.4485
▁рацион	-11.4486
▁Mer	-11.4488
▁осуществления	-11.4488
▁cell	-11.4489
▁отрицательно	-11.4489
▁лишил	-11.4489
▁remaining	-11.449
́д	-11.449
▁инициативе	-11.449
грыз	-11.449
▁Mag	-11.4492
▁примеры	-11.4492
Йорке	-11.4494
▁государственные	-11.4495
▁еды	-11.4495
▁Указом	-11.4496
▁помнить	-11.4497
гина	-11.4497
Граждан	-11.4497
скочил	-11.4498
▁Важно	-11.4498
▁весом	-11.4499
▁Тру	-11.45
▁отдельный	-11.45
ведению	-11.4501
оборот	-11.4501
▁граб	-11.4501
▁решено	-11.4502
▁Спасибо	-11.4502
▁secret	-11.4503
▁покров	-11.4504
▁удовлетворя	-11.4504
▁contact	-11.4505
службе	-11.4505
▁Arm	-11.4505
▁местной	-11.4505
рил	-11.4506
▁avoid	-11.4506
▁кафе	-11.4506
▁Точно	-11.4507
бери	-11.4507
▁ООО	-11.4507
▁заседания	-11.451
▁доходов	-11.451
cit	-11.451
▁итог	-11.4511
▁простор	-11.4511
▁главные	-11.4511
▁Italy	-11.4512
▁защища	-11.4512
▁ранга	-11.4513
▁хватало	-11.4513
▁расширение	-11.4515
▁искрен	-11.4517
▁перемеща	-11.4517
▁самыми	-11.4518
▁Самар	-11.4518
▁Рима	-11.4519
▁осознан	-11.4521
▁Попов	-11.4522
▁соединений	-11.4522
CH	-11.4522
▁грани	-11.4524
▁камеры	-11.4524
▁конкретных	-11.4526
▁Pol	-11.4526
ссе	-11.4527
▁Западе	-11.4527
▁Вод	-11.4533
▁утверждают	-11.4534
▁Система	-11.4534
▁длины	-11.4535
▁Смит	-11.4535
▁Мус	-11.4536
[...]
